<unk>	0
<s>	0
</s>	0
<sep>	0
<cls>	0
�	-3.35083
,	-3.53452
s	-3.58875
▁	-3.59613
▁de	-3.59832
.	-3.79966
'	-3.94759
e	-4.25551
▁et	-4.29437
▁gratuit	-4.31806
▁d	-4.4824
▁�	-4.48404
▁rencontre	-4.62208
▁la	-4.67004
▁les	-4.69608
t	-4.70447
▁chat	-4.72764
▁un	-4.73029
r	-4.78677
▁to	-4.80294
▁pour	-4.85262
c	-4.95094
er	-4.98791
▁le	-4.99046
▁site	-4.99417
▁en	-5.04093
re	-5.12036
▁l	-5.14492
▁a	-5.16354
▁s	-5.2331
ment	-5.25711
▁Rencontre	-5.26808
▁des	-5.40333
▁rencontres	-5.40665
▁est	-5.43744
a	-5.4743
▁vous	-5.49906
▁pas	-5.52981
▁que	-5.57028
▁sur	-5.57241
▁:	-5.57422
▁vo	-5.60026
▁c	-5.6281
▁ave	-5.63901
y	-5.64331
▁je	-5.66911
tre	-5.67807
ement	-5.73142
▁r	-5.74221
tale	-5.75428
ans	-5.7657
▁du	-5.77341
▁m	-5.77421
on	-5.78206
ta	-5.8148
▁ne	-5.81814
ai	-5.82098
lement	-5.82312
z	-5.82876
un	-5.83272
▁S	-5.85338
▁P	-5.87555
ez	-5.91053
n	-5.91213
i	-5.91219
o	-5.92758
▁n	-5.93978
l	-5.94188
en	-5.95168
▁ce	-5.96691
-	-5.96711
▁j	-5.96787
is	-5.96977
p	-5.98024
u	-5.98963
▁re	-5.99382
▁ou	-6.0226
▁qui	-6.02567
▁qu	-6.02769
oir	-6.04239
▁sa	-6.05458
x	-6.07407
m	-6.11765
▁p	-6.14017
il	-6.1529
▁!	-6.17932
pisodes	-6.20574
es	-6.2147
▁av	-6.22122
te	-6.2304
tal	-6.2347
▁g	-6.24884
▁au	-6.2727
une	-6.29397
▁par	-6.2978
elle	-6.31264
▁no	-6.33452
our	-6.34314
▁bien	-6.36746
▁M	-6.39305
▁il	-6.39623
ant	-6.44909
▁1	-6.45273
nt	-6.45596
ra	-6.45666
▁201	-6.45691
ont	-6.4753
▁b	-6.49678
▁peu	-6.51462
▁se	-6.52181
est	-6.53885
ais	-6.55433
▁(	-6.55691
▁webcam	-6.55694
▁newsletter	-6.55708
Chat	-6.5617
▁E	-6.56239
h	-6.57141
▁t	-6.58254
▁5	-6.58882
le	-6.60869
▁tchat	-6.61039
▁ch	-6.61145
▁Je	-6.61371
▁fai	-6.61411
and	-6.62518
▁ac	-6.63086
▁C	-6.63662
ce	-6.66001
▁sites	-6.66766
)	-6.66802
▁100	-6.67161
▁trouve	-6.6832
▁plus	-6.68868
ux	-6.69911
▁Si	-6.71599
in	-6.7162
▁pr	-6.71638
de	-6.71685
it	-6.72575
me	-6.74006
"	-6.75384
5	-6.75402
▁A	-6.76424
%	-6.79302
▁drama	-6.79302
▁rapide	-6.7933
▁beau	-6.79351
▁suite	-6.79496
▁Tchat	-6.79738
▁si	-6.81644
ite	-6.82163
aire	-6.82912
▁"	-6.83378
▁me	-6.85273
ait	-6.85736
▁J	-6.85832
▁Da	-6.87091
ter	-6.87115
qu	-6.87954
▁L	-6.88594
us	-6.88705
tu	-6.88918
eur	-6.90377
v	-6.91584
ir	-6.9217
▁o	-6.92516
▁temps	-6.93587
▁message	-6.93677
libataires	-6.93815
▁f	-6.94484
▁En	-6.95005
▁2	-6.95201
▁La	-6.97215
ci	-6.99125
!	-6.9941
ussi	-6.99867
▁gratuites	-7.01305
erci	-7.02446
▁sui	-7.0248
▁D	-7.02596
▁Comme	-7.02932
▁N	-7.04448
el	-7.04595
▁Le	-7.06531
▁son	-7.07464
j	-7.07567
▁plu	-7.0793
6	-7.08416
ation	-7.08978
;	-7.10254
W	-7.10254
▁petit	-7.10255
▁canard	-7.10261
▁simple	-7.1039
▁ligne	-7.10547
▁liens	-7.10593
▁?	-7.10731
rieuse	-7.10742
▁4	-7.1077
d	-7.12142
mes	-7.1228
▁gr	-7.12354
▁I	-7.12578
T	-7.13019
ette	-7.14475
...	-7.15002
▁fait	-7.15043
▁jour	-7.1505
ibi	-7.16097
b	-7.16314
eux	-7.16706
▁ba	-7.17877
ion	-7.18397
▁fa	-7.18534
cou	-7.19836
les	-7.22864
ons	-7.23351
▁T	-7.24163
ur	-7.24769
▁gratuits	-7.25085
▁mai	-7.26115
▁v	-7.265
qui	-7.27478
▁De	-7.28065
▁on	-7.28868
g	-7.2905
▁con	-7.29406
7	-7.30254
▁connexion	-7.30254
▁homme	-7.30254
▁dating	-7.30334
▁gants	-7.30346
lus	-7.30495
▁discu	-7.30537
▁cela	-7.3064
▁F	-7.3089
▁gay	-7.30971
▁pay	-7.31125
▁ados	-7.31126
ois	-7.31475
▁ca	-7.31694
ol	-7.31808
ut	-7.32442
▁inscription	-7.32755
▁tou	-7.33
ult	-7.33546
esp	-7.34178
lors	-7.34913
▁Bon	-7.36688
ance	-7.37897
mbre	-7.38215
▁va	-7.38556
um	-7.38759
aine	-7.38916
ors	-7.39245
▁Quel	-7.39263
▁so	-7.39444
li	-7.40698
▁gratuite	-7.41639
▁i	-7.41788
jour	-7.42401
▁ses	-7.4245
co	-7.42768
lle	-7.43241
▁!!!	-7.45723
▁pri	-7.46269
pa	-7.46505
ine	-7.46548
ri	-7.46829
ue	-7.46934
ire	-7.47161
la	-7.48642
E	-7.48788
▁pa	-7.49115
P	-7.49547
nd	-7.5005
vez	-7.50309
vais	-7.51147
C	-7.51271
mi	-7.51303
▁bon	-7.52598
▁femme	-7.52743
ien	-7.52858
al	-7.53226
!!	-7.53283
age	-7.53315
fe	-7.53407
riv	-7.54118
uis	-7.54253
go	-7.54266
2343	-7.55254
8	-7.55254
▁G	-7.55254
▁maintenant	-7.55254
▁multiplie	-7.55254
▁^^	-7.55256
ssembl	-7.55269
▁meilleur	-7.55304
▁perd	-7.55307
▁profil	-7.5553
▁seule	-7.55663
▁premier	-7.55872
▁nous	-7.5592
▁Un	-7.5612
proch	-7.5631
▁comment	-7.56406
▁Ha	-7.56421
▁autres	-7.56533
rie	-7.56938
gue	-7.57158
avanc	-7.57208
▁vi	-7.5732
▁app	-7.57342
▁3	-7.57367
▁sait	-7.57446
ct	-7.57702
▁peut	-7.57796
▁femmes	-7.5783
▁mec	-7.58126
an	-7.58861
rieux	-7.59884
eau	-7.60051
▁entre	-7.60366
▁com	-7.61071
▁Li	-7.61989
▁moi	-7.621
▁rat	-7.62666
▁Vo	-7.62675
ro	-7.62739
fin	-7.62789
osse	-7.62833
ve	-7.64712
ers	-7.65159
▁li	-7.65278
▁vid	-7.6589
gr	-7.66384
▁ph	-7.67203
▁e	-7.67402
▁cha	-7.68151
▁B	-7.68187
able	-7.68306
▁mes	-7.69186
▁bo	-7.70244
ing	-7.70382
▁pouv	-7.70492
O	-7.70845
▁sorti	-7.71294
aut	-7.72088
ort	-7.72541
mp	-7.72694
ns	-7.74438
▁Pa	-7.75582
res	-7.75961
'�	-7.76041
at	-7.76177
ique	-7.76195
ent	-7.78951
▁vie	-7.80436
A	-7.81003
che	-7.81049
▁mett	-7.81264
que	-7.81351
▁V	-7.81381
tes	-7.81433
ieux	-7.82871
lui	-7.8373
U	-7.83861
cherch	-7.83918
▁Ce	-7.84213
I	-7.8425
inscription	-7.84274
▁mi	-7.84283
:	-7.84346
S	-7.84419
2	-7.84521
onne	-7.84903
▁ma	-7.85195
ec	-7.85617
▁forum	-7.86039
▁for	-7.86386
pu	-7.86617
▁R	-7.87062
▁jou	-7.87283
igne	-7.88018
9	-7.884
▁habi	-7.88587
/	-7.88587
_	-7.88587
▁GRATUIT	-7.88587
▁Gratuit	-7.88587
▁NL	-7.88587
▁Y	-7.88587
▁besoin	-7.88587
▁Tinder	-7.88587
▁fonction	-7.88587
▁ensuite	-7.88588
▁mauvais	-7.88588
▁Inscri	-7.88589
▁diffic	-7.8859
▁Seong	-7.88591
▁web	-7.88595
norm	-7.88598
▁remercie	-7.886
▁dispos	-7.88606
▁derni	-7.88612
pond	-7.88616
▁point	-7.88627
▁tr	-7.8863
options	-7.88653
lub	-7.88666
▁19	-7.88775
▁amoureuse	-7.88795
▁profite	-7.88841
log	-7.88854
▁milli	-7.88887
urs	-7.89108
▁envoy	-7.89179
▁conten	-7.89241
▁demand	-7.89265
▁vrai	-7.89419
alis	-7.8942
▁Av	-7.89789
▁Par	-7.89813
▁mal	-7.89831
▁DE	-7.89898
▁fi	-7.90123
locut	-7.90177
▁commun	-7.90297
aimer	-7.90501
▁toutes	-7.9056
▁mail	-7.90965
▁lire	-7.91059
▁sou	-7.91118
▁forums	-7.91282
os	-7.91446
ses	-7.91798
▁relati	-7.92235
change	-7.92261
▁cour	-7.92428
▁trav	-7.92475
end	-7.92487
poss	-7.92569
ble	-7.92632
tant	-7.93181
essionn	-7.93383
nci	-7.93415
ente	-7.93456
▁cons	-7.93974
pier	-7.9407
tic	-7.94774
di	-7.94862
san	-7.95015
ting	-7.95252
▁chats	-7.95474
f	-7.95757
▁Tou	-7.96099
▁vu	-7.96695
ocial	-7.96823
pe	-7.98838
arte	-7.98872
pt	-7.99256
illi	-8.00113
▁Au	-8.01167
couvr	-8.01407
sse	-8.01539
ie	-8.02004
▁pro	-8.0232
▁pat	-8.02979
▁soi	-8.03126
ON	-8.03414
▁am	-8.04102
▁aure	-8.04498
▁ja	-8.06579
ne	-8.06683
▁Com	-8.09295
▁leur	-8.10352
ours	-8.12027
ica	-8.12433
ade	-8.1249
▁Ma	-8.12614
om	-8.12795
ible	-8.12813
▁sen	-8.12915
w	-8.13181
▁sortie	-8.14112
ys	-8.14533
rien	-8.14667
prend	-8.14747
▁Co	-8.1486
▁ab	-8.15092
oto	-8.15798
▁Qu	-8.16128
tte	-8.16334
jo	-8.17335
▁comme	-8.17437
bal	-8.17506
▁-	-8.17651
▁co	-8.17746
..	-8.19362
oi	-8.20729
ail	-8.20915
ssion	-8.21363
▁Bo	-8.22633
up	-8.24332
ide	-8.24349
▁Sma	-8.24629
fini	-8.2513
0	-8.25398
embre	-8.25491
teur	-8.26459
▁socia	-8.26632
av	-8.27288
ous	-8.27552
chat	-8.27906
▁pourr	-8.27932
form	-8.30125
▁ad	-8.30231
pr	-8.30309
N	-8.31455
part	-8.32048
▁fra	-8.321
▁veu	-8.32145
▁eff	-8.32336
attend	-8.33654
vous	-8.338
▁po	-8.33907
3	-8.33943
1	-8.3416
B	-8.34344
op	-8.34517
tive	-8.34553
V	-8.34606
R	-8.34775
bre	-8.34823
ver	-8.35414
▁inter	-8.35442
▁af	-8.35843
ants	-8.35876
com	-8.35894
RE	-8.36194
tchat	-8.36554
▁premi	-8.37295
▁prof	-8.37669
charge	-8.37716
▁disc	-8.37945
inscri	-8.38103
▁publi	-8.3813
ga	-8.38518
▁Daehan	-8.38587
▁Dialogue	-8.38587
▁Excusez	-8.38587
▁Fatayat	-8.38587
▁MERCI	-8.38587
▁Maghreb	-8.38587
▁Nostalgie	-8.38587
▁connaissance	-8.38587
▁dialogue	-8.38587
▁disponible	-8.38587
▁loulous	-8.38587
▁revanche	-8.38587
▁supprim	-8.38587
▁service	-8.38587
▁badoo	-8.38588
▁sportifs	-8.38588
▁Discu	-8.38588
▁Bisous	-8.38588
▁team	-8.38588
▁contact	-8.38589
utilis	-8.3859
▁Kowalai	-8.38591
irtuelle	-8.38592
annonce	-8.38593
▁loisirs	-8.38593
▁livres	-8.38595
▁terrain	-8.38595
▁tomb	-8.38596
▁Nord	-8.38597
▁Internet	-8.38598
▁regard	-8.38599
▁infos	-8.386
▁Bonsoir	-8.386
load	-8.38602
▁ronde	-8.38607
▁monde	-8.38608
▁pack	-8.38632
▁200	-8.38635
▁gauche	-8.38635
▁plait	-8.38655
▁avantage	-8.38661
▁certain	-8.38663
abor	-8.38667
▁Reum	-8.38667
imper	-8.38673
▁essay	-8.38676
tudiant	-8.3869
lirt	-8.38695
▁foui	-8.38702
▁compr	-8.38705
▁salon	-8.3871
▁nuit	-8.38728
▁Ko	-8.38756
▁abonnement	-8.38757
ujourd	-8.38762
▁tip	-8.3878
▁bonjour	-8.38825
▁amor	-8.38832
▁Milli	-8.3884
▁toute	-8.38858
ayant	-8.38873
▁Membre	-8.38894
▁free	-8.38954
▁ici	-8.38997
▁aucun	-8.39007
▁publique	-8.39048
▁caus	-8.3906
▁autant	-8.39111
▁inscrit	-8.39131
▁visi	-8.39133
hui	-8.39161
▁just	-8.39228
▁gens	-8.39239
▁souri	-8.39286
▁entier	-8.39295
▁payant	-8.39375
riental	-8.39404
▁probl	-8.3943
▁pren	-8.39472
shi	-8.39495
▁situ	-8.39581
toire	-8.39621
tudes	-8.39631
▁projets	-8.39682
▁Ra	-8.3977
illeur	-8.39891
▁offre	-8.39899
▁salle	-8.39923
▁belle	-8.39944
▁sex	-8.40354
▁enti	-8.40498
▁voulu	-8.40521
▁poster	-8.40572
▁maxi	-8.40682
app	-8.40725
▁Sal	-8.40866
rique	-8.41041
EN	-8.41094
▁ral	-8.4111
▁Re	-8.41553
tera	-8.41691
▁car	-8.42105
▁fin	-8.42206
▁auto	-8.4238
bel	-8.42622
ran	-8.42677
▁Mee	-8.43072
▁code	-8.43151
▁tout	-8.43187
▁all	-8.43472
▁changer	-8.43676
▁attend	-8.43782
▁ass	-8.43853
LE	-8.43955
obo	-8.44135
▁connait	-8.44816
urope	-8.44825
▁plan	-8.44937
uk	-8.44984
▁effe	-8.45333
16	-8.45405
nternational	-8.45455
aide	-8.45507
▁Me	-8.45692
meet	-8.4579
▁gra	-8.45847
tions	-8.46111
▁cherch	-8.46829
▁che	-8.46911
tter	-8.46945
▁eu	-8.47483
▁tant	-8.48093
,.	-8.48231
ctive	-8.48352
▁const	-8.48393
▁diversi	-8.48704
▁cent	-8.48762
▁personne	-8.48868
▁tro	-8.49915
▁O	-8.5044
ui	-8.50742
▁op	-8.51356
fran	-8.51561
epla	-8.51668
▁cara	-8.52101
▁col	-8.5239
oc	-8.52408
▁permett	-8.52721
chargement	-8.52779
ti	-8.53076
▁0	-8.53099
he	-8.54189
ge	-8.54741
nard	-8.55454
▁voi	-8.55779
aires	-8.55885
sants	-8.56479
ose	-8.57088
teurs	-8.5736
bonne	-8.5748
et	-8.57589
tar	-8.58448
ider	-8.58838
ession	-8.59094
▁conn	-8.59119
tionn	-8.6
▁toi	-8.60142
imple	-8.60353
ert	-8.61082
▁fau	-8.62048
▁k	-8.6238
der	-8.62437
pose	-8.62662
ques	-8.62682
gar	-8.62856
▁vien	-8.63432
▁tra	-8.6354
onn	-8.63807
▁tel	-8.6396
ependant	-8.63963
▁commen	-8.64506
udra	-8.64748
se	-8.6523
▁pi	-8.65612
▁Tu	-8.65621
fans	-8.6636
▁met	-8.66572
▁ven	-8.67998
▁No	-8.68412
ay	-8.72195
dice	-8.72221
couv	-8.72732
▁intern	-8.72734
tabl	-8.7567
era	-8.75887
ho	-8.76286
▁mo	-8.7657
eurs	-8.78114
tion	-8.79803
tail	-8.80345
▁in	-8.82597
voy	-8.83839
oy	-8.84183
▁tchatte	-8.84998
nis	-8.85854
▁appr	-8.85863
▁ar	-8.86375
ices	-8.86987
oucou	-8.87093
▁al	-8.8723
gine	-8.8745
lla	-8.89665
bli	-8.91026
onc	-8.91434
avai	-8.91518
pendant	-8.92402
NT	-8.92757
nos	-8.92851
dre	-8.93166
▁ai	-8.93319
ser	-8.94497
▁prop	-8.96359
▁u	-8.9716
sage	-8.97659
pi	-8.99373
rge	-8.99652
trap	-9.00405
vite	-9.00501
nc	-9.00877
uve	-9.01266
vo	-9.02166
pita	-9.02376
ect	-9.03292
▁conne	-9.03292
int	-9.03807
nce	-9.04101
ke	-9.04284
as	-9.06256
cam	-9.06547
enco	-9.07462
ll	-9.07688
couvre	-9.07703
dit	-9.07828
▁doi	-9.08356
▁part	-9.08915
ib	-9.09153
▁permet	-9.09162
k	-9.09384
▁ap	-9.09612
ld	-9.098
lecharge	-9.10799
ou	-9.1247
mag	-9.13895
ia	-9.14819
Cont	-9.15078
esse	-9.15103
fa	-9.15674
ard	-9.15852
▁personn	-9.16085
va	-9.1614
▁divers	-9.17103
isse	-9.17346
▁colo	-9.17355
▁su	-9.17911
oris	-9.19071
▁sag	-9.20166
rs	-9.20289
▁ju	-9.21463
nde	-9.217
vent	-9.21714
be	-9.22505
oom	-9.23258
evra	-9.23578
▁rencontr	-9.24139
▁euro	-9.24464
voi	-9.24918
pl	-9.25179
▁To	-9.26125
▁nu	-9.26665
▁id	-9.27196
▁sort	-9.27743
quel	-9.27997
cart	-9.28075
▁trou	-9.29441
▁ami	-9.29535
▁sage	-9.30788
emb	-9.31102
rib	-9.32357
^	-9.32406
ka	-9.32557
ot	-9.3274
M	-9.33083
olo	-9.33204
maxi	-9.33454
poster	-9.33732
▁aim	-9.33806
H	-9.33835
100	-9.33881
F	-9.33975
4	-9.34015
ados	-9.3414
DE	-9.34184
rencontres	-9.34255
?	-9.34354
Tchat	-9.34387
crit	-9.34442
pas	-9.34493
tout	-9.34646
autres	-9.34667
tos	-9.3479
D	-9.3491
amour	-9.35159
gay	-9.35165
▁off	-9.35322
appr	-9.35505
▁voul	-9.35556
▁pl	-9.35788
▁projet	-9.35846
moi	-9.35926
mande	-9.35957
▁new	-9.35967
libataire	-9.36173
sages	-9.36358
angera	-9.36481
rase	-9.36608
▁sav	-9.36638
▁H	-9.36734
▁choi	-9.36881
▁Do	-9.3745
ouvre	-9.3774
▁K	-9.38148
nte	-9.38156
scri	-9.38189
▁abonn	-9.38221
iversi	-9.38237
q	-9.3828
enti	-9.38287
ewsletter	-9.38328
ffect	-9.38451
00	-9.38454
▁diff	-9.38575
owalai	-9.38577
ffr	-9.3858
▁perso	-9.38582
livr	-9.38586
▁sporti	-9.38589
orum	-9.38619
supp	-9.38638
mati	-9.38677
II	-9.38742
ER	-9.3886
ria	-9.38927
ME	-9.38973
▁ann	-9.38983
gle	-9.39014
main	-9.39266
tudie	-9.39421
▁rap	-9.39464
▁10	-9.39531
apide	-9.39642
▁gi	-9.39682
▁chang	-9.39737
▁simp	-9.39853
ong	-9.40054
envoye	-9.40071
▁conna	-9.40137
tude	-9.40254
ainte	-9.4051
muni	-9.41142
acte	-9.41152
gh	-9.4116
letter	-9.41213
atche	-9.4156
ouve	-9.41671
nali	-9.41744
oute	-9.41762
Al	-9.41777
▁amoureu	-9.41782
put	-9.41785
ime	-9.41909
mo	-9.42056
▁essa	-9.42274
▁news	-9.42321
do	-9.42371
ch	-9.4247
aura	-9.42568
ub	-9.42774
lais	-9.4293
auche	-9.43045
du	-9.43234
oisir	-9.4335
rci	-9.43391
▁reg	-9.43405
▁we	-9.43514
pass	-9.43516
vol	-9.43875
▁lien	-9.44065
remi	-9.44276
▁avant	-9.44395
cess	-9.44545
mera	-9.44576
scrit	-9.44801
eva	-9.4488
trouve	-9.44899
▁^	-9.45108
tra	-9.46246
site	-9.46291
vrai	-9.46797
▁disp	-9.46854
Po	-9.4696
da	-9.47157
roc	-9.47413
sor	-9.48198
ck	-9.48684
uelle	-9.48736
▁Sa	-9.48764
hate	-9.48962
nant	-9.49239
▁autre	-9.49417
▁ins	-9.49443
▁att	-9.49537
▁rec	-9.49693
tudi	-9.49786
ieu	-9.49899
uest	-9.50121
resse	-9.50316
▁int	-9.50608
RA	-9.5069
aud	-9.50694
ume	-9.50891
▁rep	-9.50988
mpl	-9.51712
non	-9.52146
ats	-9.52651
▁terr	-9.52685
mment	-9.52759
tro	-9.52773
ac	-9.52801
io	-9.53026
fi	-9.53277
uria	-9.53529
rn	-9.54023
▁U	-9.54856
ions	-9.55096
th	-9.55819
nter	-9.57021
▁grat	-9.57141
vers	-9.57942
mic	-9.57996
nonc	-9.59021
ages	-9.59176
hu	-9.60315
ager	-9.60675
tain	-9.60949
lette	-9.61616
iens	-9.61706
per	-9.61712
ya	-9.62643
rt	-9.62675
ts	-9.64366
olle	-9.64487
ang	-9.65712
ven	-9.67499
rive	-9.67705
ara	-9.69067
contr	-9.70215
col	-9.70285
ances	-9.70506
ago	-9.70658
vant	-9.7124
▁aut	-9.73063
rd	-9.73346
ante	-9.73835
nu	-9.74874
cie	-9.76017
loc	-9.76671
▁mu	-9.76854
ul	-9.79217
mail	-9.79533
nar	-9.80033
ils	-9.8024
▁as	-9.82138
���	-9.82654
▁ado	-9.853
▁dra	-9.85859
eme	-9.87176
nv	-9.87778
ha	-9.88771
ex	-9.91418
air	-9.92255
▁fu	-9.99207
erc	-10.0035
enda	-10.0045
tir	-10.0145
▁el	-10.0259
si	-10.0708
taine	-10.0734
fo	-10.0771
fort	-10.0841
cin	-10.0899
lier	-10.091
aise	-10.093
au	-10.1029
nl	-10.1341
unique	-10.1662
fau	-10.184
ni	-10.1963
iv	-10.2147
oit	-10.2191
uver	-10.2202
uc	-10.2276
arge	-10.23
onjour	-10.2675
api	-10.3042
▁im	-10.3058
ujour	-10.3114
▁do	-10.3246
!!!	-10.3373
aper	-10.3534
we	-10.3897
ontr	-10.3907
rej	-10.4527
▁nom	-10.4775
ssi	-10.5032
ps	-10.5414
tis	-10.5501
ucou	-10.6036
ag	-10.6175
or	-10.6245
lci	-10.6269
ar	-10.7182
▁pou	-10.7309
rat	-10.7521
ris	-10.7532
Y	-10.7608
K	-10.7609
Q	-10.761
G	-10.7611
(	-10.7612
J	-10.7613
L	-10.7614
merci	-10.7614
