<unk>	0
<s>	0
</s>	0
<mask>	0
▁de	-3.2948
,	-3.29885
.	-3.59993
s	-3.89833
'	-3.9889
▁et	-4.10208
▁la	-4.12764
’	-4.19978
▁à	-4.35656
▁le	-4.40767
▁l	-4.45833
▁d	-4.50259
▁les	-4.53616
▁	-4.58284
▁des	-4.62012
▁en	-4.72432
-	-4.92426
▁du	-4.92726
▁pour	-4.97413
▁un	-5.01034
▁que	-5.21529
▁une	-5.26301
▁sur	-5.29681
▁dans	-5.30373
▁est	-5.3295
▁vous	-5.4131
e	-5.4436
▁qui	-5.47989
▁par	-5.53195
▁au	-5.55422
▁:	-5.55711
▁pas	-5.56326
▁(	-5.57563
▁a	-5.58987
▁ou	-5.75172
▁plus	-5.75973
▁avec	-5.7902
▁ce	-5.82248
est	-5.85117
▁ne	-5.94512
)	-5.96678
▁n	-6.00059
...	-6.0166
▁Le	-6.08002
▁votre	-6.1115
▁sont	-6.11164
▁qu	-6.12223
▁se	-6.1319
▁s	-6.16931
▁-	-6.17233
▁je	-6.17963
▁il	-6.2231
un	-6.25006
▁La	-6.26674
a	-6.26773
▁nous	-6.32715
▁son	-6.34527
▁aux	-6.35378
▁c	-6.37333
r	-6.37663
▁Les	-6.40618
▁«	-6.45589
▁L	-6.47672
il	-6.50043
▁tout	-6.54057
▁mais	-6.55696
:	-6.59174
es	-6.59423
une	-6.60155
▁site	-6.61999
▁!	-6.63095
▁cette	-6.6573
▁Il	-6.70563
▁bien	-6.70674
ai	-6.71538
▁|	-6.73289
▁C	-6.7391
▁j	-6.76113
▁En	-6.76369
▁sa	-6.78742
▁comme	-6.79289
▁être	-6.79497
▁"	-6.80583
▁fait	-6.80992
▁faire	-6.82633
er	-6.84027
▁si	-6.8532
on	-6.86801
▁A	-6.88748
▁ses	-6.89952
▁»	-6.93264
en	-6.93717
▁vos	-6.94778
y	-6.95306
▁notre	-6.9659
▁on	-6.97402
▁peut	-6.9807
▁?	-6.98614
▁Je	-6.99066
nt	-6.99322
▁y	-6.99677
▁leur	-7.01078
/	-7.01433
▁aussi	-7.04073
▁ont	-7.05601
▁même	-7.06532
▁très	-7.06573
▁été	-7.06812
ant	-7.08461
t	-7.08827
▁sans	-7.09023
▁Pour	-7.09751
▁tous	-7.11068
é	-7.11407
h	-7.1322
▁me	-7.13648
ment	-7.15234
▁1	-7.15653
▁m	-7.17851
▁2	-7.1788
"	-7.19295
▁Vous	-7.20453
▁ces	-7.20734
o	-7.22576
z	-7.22779
▁J	-7.22931
).	-7.23109
▁3	-7.24829
▁|--	-7.24985
▁deux	-7.2768
▁nos	-7.27887
▁elle	-7.32052
▁entre	-7.36549
▁ans	-7.36824
▁Ce	-7.38482
|	-7.40004
▁Nous	-7.40238
▁Si	-7.40521
▁2018	-7.40709
▁temps	-7.40742
▁mon	-7.40825
▁lui	-7.41345
▁S	-7.41957
▁France	-7.47811
▁peu	-7.48725
!	-7.49886
S	-7.51062
▁vie	-7.51498
▁Un	-7.5218
▁De	-7.53416
▁;	-7.54691
▁D	-7.54856
▁...	-7.55063
▁tu	-7.55454
▁cookies	-7.55594
),	-7.55744
▁encore	-7.57415
▁ça	-7.57596
▁non	-7.57888
▁ainsi	-7.58299
▁sous	-7.58709
▁M	-7.58816
▁Et	-7.59169
▁depuis	-7.60763
▁suis	-7.60969
▁monde	-7.61088
▁où	-7.61316
p	-7.61457
ons	-7.61499
d	-7.61644
▁Une	-7.64036
▁ma	-7.6415
▁4	-7.64568
▁donc	-7.65123
▁fois	-7.65369
▁dont	-7.65395
elle	-7.65882
;	-7.66008
▁toute	-7.66476
à	-7.66519
▁jour	-7.66597
▁cas	-7.66856
le	-7.67319
▁toutes	-7.67649
▁–	-7.69675
▁/	-7.69837
▁5	-7.70271
▁•	-7.70661
▁moins	-7.71785
c	-7.72335
▁soit	-7.72494
l	-7.72536
▁également	-7.72587
▁6	-7.72707
être	-7.72739
1	-7.72766
utilisation	-7.73716
m	-7.73723
C	-7.75521
A	-7.75567
▁mois	-7.75679
▁après	-7.75874
▁novembre	-7.76044
▁avant	-7.76381
▁pouvez	-7.76523
ait	-7.76658
ez	-7.77161
▁2017	-7.77675
▁rencontre	-7.77705
▁contre	-7.78007
▁données	-7.78413
2	-7.78961
▁autres	-7.79089
▁Paris	-7.79099
▁leurs	-7.79171
▁2015	-7.79295
▁Mais	-7.79928
▁toujours	-7.80013
?	-7.80908
▁2016	-7.81379
▁Dans	-7.82192
▁savoir	-7.83448
▁quelques	-7.8363
▁avoir	-7.83909
▁ligne	-7.84001
▁sera	-7.84451
▁était	-7.85444
▁10	-7.85461
▁bon	-7.85678
▁alors	-7.86591
▁On	-7.87033
▁N	-7.88105
n	-7.88778
▁[	-7.89716
▁2014	-7.90306
▁vers	-7.90489
▁car	-7.90546
in	-7.90627
ci	-7.91084
com	-7.91117
▁jours	-7.92203
▁va	-7.92249
▁Cette	-7.92812
i	-7.92869
de	-7.94331
▁premier	-7.95024
▁grand	-7.95134
vous	-7.95324
▁B	-7.95415
▁moi	-7.9568
▁personnes	-7.95866
B	-7.95938
et	-7.96239
▁compte	-7.96714
▁voir	-7.96759
▁cela	-7.96766
▁prix	-7.96771
▁chaque	-7.9712
▁ici	-7.98629
autres	-7.98747
ou	-7.988
▁Elle	-7.98843
▁faut	-7.99635
▁P	-8.00605
▁travail	-8.00991
▁pays	-8.01394
x	-8.01461
▁place	-8.01531
▁beaucoup	-8.01609
▁afin	-8.01761
▁octobre	-8.02297
▁autre	-8.02378
▁&	-8.02711
▁quand	-8.037
▁chez	-8.03747
▁peuvent	-8.0383
▁avait	-8.05163
▁mes	-8.05494
▁produits	-8.05559
eau	-8.05885
▁plusieurs	-8.06187
▁janvier	-8.06248
▁mai	-8.06395
▁2013	-8.06521
E	-8.06656
]	-8.06713
▁septembre	-8.07203
▁informations	-8.0763
▁services	-8.07928
▁18	-8.08157
▁moment	-8.0827
▁petit	-8.09137
▁dit	-8.09319
▁T	-8.09541
ur	-8.10328
▁droit	-8.10595
▁partie	-8.1067
M	-8.10779
▁nouvelle	-8.10947
▁doit	-8.11127
▁déjà	-8.11501
▁jusqu	-8.1154
▁juin	-8.11635
▁forum	-8.11731
▁avez	-8.11734
▁permet	-8.12225
L	-8.12378
▁recherche	-8.12467
an	-8.13899
▁2012	-8.14046
▁cours	-8.14112
▁décembre	-8.14366
ra	-8.14465
▁mars	-8.14639
▁ils	-8.14657
D	-8.15022
▁là	-8.15455
▁fin	-8.15837
▁nouveau	-8.16144
hui	-8.16337
▁maison	-8.16355
▁20	-8.16414
ont	-8.16522
▁service	-8.16693
▁suite	-8.16739
P	-8.16754
▁puis	-8.17742
▁F	-8.17963
▁Au	-8.18052
▁8	-8.18673
ent	-8.18936
la	-8.19205
b	-8.19615
▁7	-8.20009
▁·	-8.20141
▁t	-8.20355
▁juillet	-8.2071
▁ville	-8.20759
fr	-8.20782
au	-8.21106
▁part	-8.2144
▁qualité	-8.21569
ils	-8.21686
g	-8.21804
▁première	-8.21843
▁dire	-8.22017
▁grande	-8.22143
re	-8.22322
▁12	-8.22403
▁trop	-8.22408
▁E	-8.22524
▁projet	-8.22815
▁avril	-8.23201
▁cet	-8.23321
▁R	-8.23328
▁rien	-8.23405
▁personne	-8.23848
▁lors	-8.24195
3	-8.24703
▁G	-8.26237
▁15	-8.26656
▁février	-8.26846
▁gratuit	-8.27089
al	-8.27251
▁avons	-8.27297
▁jamais	-8.27791
ce	-8.28752
▁demande	-8.29256
©	-8.29528
▁bonne	-8.31853
(	-8.31867
T	-8.32078
f	-8.3246
F	-8.32543
▁lien	-8.32626
▁e	-8.33243
ne	-8.33667
▁enfants	-8.33677
▁années	-8.34423
▁prendre	-8.34625
▁point	-8.34639
▁in	-8.35104
était	-8.35114
▁mettre	-8.35273
▁conditions	-8.35393
▁trois	-8.35406
▁Des	-8.35414
▁mieux	-8.35526
▁dernier	-8.35705
▁lieu	-8.35832
▁ton	-8.36287
▁politique	-8.3654
▁femme	-8.36697
▁mise	-8.37449
▁partir	-8.37914
▁août	-8.38114
▁groupe	-8.38212
▁nom	-8.38322
▁etc	-8.38874
ing	-8.39336
▁Saint	-8.39617
R	-8.40211
▁pendant	-8.40251
G	-8.40752
▁page	-8.4089
▁ceux	-8.41245
▁te	-8.41522
▁pouvoir	-8.41604
▁2011	-8.41981
▁mal	-8.41983
age	-8.42474
ée	-8.42763
▁selon	-8.42842
▁re	-8.43138
▁possible	-8.43407
▁celui	-8.43592
▁ni	-8.4389
▁souvent	-8.43998
▁»,	-8.4434
▁eu	-8.44531
▁p	-8.44549
▁nombre	-8.45694
▁vraiment	-8.45807
▁façon	-8.45867
▁comment	-8.46005
▁niveau	-8.47122
▁propose	-8.47157
▁jeu	-8.47201
▁trouver	-8.47764
▁Par	-8.48355
▁9	-8.48528
6	-8.4859
7	-8.48737
▁17	-8.48977
▁Tous	-8.4939
it	-8.49651
▁porte	-8.50069
▁choix	-8.50262
▁effet	-8.50939
▁êtes	-8.51376
▁reste	-8.51379
▁société	-8.51721
ch	-8.51829
▁13	-8.5188
▁V	-8.52016
▁chose	-8.52249
▁notamment	-8.52293
que	-8.52314
▁acceptez	-8.52666
▁certains	-8.5302
▁photos	-8.53306
▁question	-8.53533
▁français	-8.53596
▁produit	-8.53744
▁année	-8.5392
H	-8.53972
▁Avec	-8.54179
▁loi	-8.54243
▁besoin	-8.5442
▁30	-8.54515
▁système	-8.54787
▁Merci	-8.55195
▁tant	-8.55331
▁droits	-8.55624
▁utiliser	-8.55838
▁sommes	-8.56244
▁celle	-8.56395
or	-8.56606
O	-8.56808
▁vente	-8.56824
▁exemple	-8.57214
­	-8.57389
les	-8.57513
▁dé	-8.57566
ation	-8.57753
▁ci	-8.57858
▁petite	-8.58053
▁cadre	-8.58064
▁Après	-8.58239
▁16	-8.58289
▁14	-8.5833
▁seront	-8.58438
▁+	-8.58467
▁trouve	-8.58478
▁navigation	-8.58742
▁aujourd	-8.5877
▁I	-8.59222
ème	-8.59286
te	-8.59352
▁K	-8.59718
▁surtout	-8.59803
▁sécurité	-8.59929
▁famille	-8.60015
aient	-8.60042
▁développement	-8.60728
autre	-8.60953
▁semaine	-8.61198
▁internet	-8.61275
▁public	-8.61467
v	-8.61564
▁base	-8.61604
▁formation	-8.61617
u	-8.61837
▁coup	-8.61843
és	-8.62053
▁simple	-8.6228
▁santé	-8.62379
▁heures	-8.63087
▁forme	-8.63156
▁11	-8.63233
▁2010	-8.63538
▁À	-8.64011
▁Ils	-8.64036
▁Jean	-8.64337
▁».	-8.64383
▁membres	-8.64462
▁nombreux	-8.64663
art	-8.64961
k	-8.65244
▁H	-8.65626
▁Ces	-8.65803
▁découvrir	-8.65972
▁nouvelles	-8.65992
▁femmes	-8.66056
▁parce	-8.66152
▁plan	-8.66261
▁(1)	-8.66439
V	-8.66477
▁DE	-8.66958
▁W	-8.67298
▁Page	-8.67436
▁rapport	-8.67664
°	-8.67734
▁belle	-8.68064
Le	-8.68179
▁passe	-8.68605
▁seulement	-8.68823
4	-8.69032
▁Tout	-8.69049
▁grâce	-8.6909
▁sens	-8.69091
▁juste	-8.69211
▁sites	-8.69409
▁expérience	-8.69647
avoir	-8.69817
ie	-8.70051
▁photo	-8.70174
▁ta	-8.70526
▁centre	-8.70561
▁passer	-8.70612
▁mis	-8.70655
is	-8.70761
▁rencontres	-8.70767
▁2009	-8.70946
▁devant	-8.71233
▁adresse	-8.7142
▁ré	-8.71728
▁an	-8.71882
I	-8.71925
▁fonction	-8.72015
▁24	-8.72082
▁seul	-8.72132
N	-8.72628
▁manière	-8.72803
▁“	-8.72867
▁haut	-8.73222
▁vu	-8.73287
▁19	-8.73522
année	-8.73583
▁sujet	-8.73745
at	-8.73969
▁blog	-8.74345
▁offre	-8.74417
▁livre	-8.7474
▁frais	-8.75126
▁dès	-8.75782
▁Du	-8.76158
ais	-8.76344
▁début	-8.76426
▁raison	-8.7643
▁vue	-8.76597
aux	-8.76863
▁près	-8.76962
▁font	-8.77015
»	-8.77125
▁quoi	-8.77258
▁homme	-8.77284
▁#	-8.77299
▁vidéo	-8.77985
eur	-8.78256
▁gestion	-8.78397
▁titre	-8.78707
▁assez	-8.79115
▁Sa	-8.79255
▁travers	-8.7943
▁région	-8.79579
▁25	-8.7975
▁gens	-8.79784
▁côté	-8.79889
",	-8.79906
▁web	-8.80169
▁face	-8.80203
▁pu	-8.80258
▁mesure	-8.80409
▁différents	-8.80504
me	-8.80533
▁main	-8.80957
us	-8.80986
▁peux	-8.81059
▁meilleur	-8.82166
▁programme	-8.82204
&	-8.82235
▁parfois	-8.82407
▁retour	-8.82408
▁propos	-8.82462
▁général	-8.82579
▁type	-8.82624
▁Notre	-8.82718
▁aucun	-8.82832
▁salle	-8.82843
▁carte	-8.82952
▁Re	-8.83169
▁choses	-8.83178
▁quelque	-8.84049
▁donner	-8.84057
▁jeune	-8.84149
▁long	-8.84151
▁000	-8.84488
▁mode	-8.84601
▁serait	-8.84724
j	-8.85001
▁musique	-8.85292
même	-8.85321
▁maintenant	-8.85641
▁pris	-8.85713
▁création	-8.85863
▁tour	-8.8602
▁tête	-8.86066
▁marque	-8.86332
▁donne	-8.86592
▁%	-8.86737
▁Alors	-8.87135
▁corps	-8.87602
▁jeunes	-8.87619
ensemble	-8.87661
▁commande	-8.87801
▁contenu	-8.87818
▁situation	-8.87842
▁pense	-8.87898
▁eux	-8.88324
able	-8.88376
▁articles	-8.88727
▁date	-8.88775
Les	-8.88813
ter	-8.89049
▁Sur	-8.89079
histoire	-8.8918
▁autour	-8.89295
co	-8.89412
▁but	-8.89504
▁travaux	-8.89532
▁problème	-8.89568
://	-8.89797
▁générales	-8.89836
Ã	-8.89849
w	-8.90583
La	-8.90712
▁cher	-8.90775
▁dernière	-8.90807
▁concernant	-8.90941
30	-8.90988
▁hommes	-8.91209
_	-8.91226
▁film	-8.91422
▁plaisir	-8.91478
ine	-8.91569
▁€	-8.91589
▁pratique	-8.91715
agit	-8.91892
▁merci	-8.92127
▁>	-8.92213
▁nature	-8.92473
▁]	-8.92748
▁meilleure	-8.93055
▁nouveaux	-8.93173
▁passé	-8.93224
▁O	-8.93308
▁marché	-8.93351
▁21	-8.9358
▁texte	-8.93635
▁compris	-8.9365
▁plutôt	-8.93653
avais	-8.93679
▁traitement	-8.93889
▁protection	-8.94082
▁jeux	-8.94263
▁journée	-8.94326
▁lorsque	-8.94473
▁article	-8.94475
▁minutes	-8.94532
▁avis	-8.94542
▁questions	-8.94779
J	-8.94839
ar	-8.94867
▁différentes	-8.95162
▁the	-8.95464
as	-8.95811
▁h	-8.95853
article	-8.95854
occasion	-8.95855
▁semble	-8.95976
▁messages	-8.95986
▁bois	-8.96249
▁entreprises	-8.96507
▁sais	-8.96628
▁Web	-8.96738
▁créer	-8.96856
▁utilise	-8.96904
▁présente	-8.96937
▁bas	-8.97134
5	-8.97156
▁liste	-8.97178
▁toi	-8.9747
▁navigateur	-8.97971
▁Internet	-8.98293
▁matière	-8.98327
▁of	-8.98332
ed	-8.98536
information	-8.98709
▁Comme	-8.98854
K	-8.98924
".	-8.99092
▁Votre	-8.99179
▁points	-8.99316
▁ayant	-8.99354
auteur	-8.99386
▁pourrait	-8.99696
el	-8.99815
▁loin	-8.99898
ées	-9.00309
▁[...]	-9.00396
▁message	-9.00544
▁mot	-9.00697
▁réseau	-9.00836
▁gouvernement	-9.00842
ier	-9.00904
▁vient	-9.00917
ma	-9.00998
▁couleur	-9.01023
▁elles	-9.01146
▁petits	-9.01655
▁cuisine	-9.01973
▁plein	-9.02357
▁fille	-9.02448
▁française	-9.02532
im	-9.02538
▁proposer	-9.02731
▁étaient	-9.02773
▁seule	-9.02922
▁aucune	-9.02974
>	-9.03108
▁pourquoi	-9.03141
▁Site	-9.03167
▁présent	-9.03235
▁millions	-9.03561
▁Plus	-9.03706
▁visite	-9.03773
té	-9.03848
▁vrai	-9.03888
▁Pas	-9.0399
▁r	-9.04065
ge	-9.04076
▁simplement	-9.04226
▁période	-9.04251
▁clients	-9.04261
▁St	-9.04299
accès	-9.04327
um	-9.04422
▁2008	-9.04517
‚	-9.04798
▁amis	-9.04832
aide	-9.04861
▁soir	-9.04918
▁Tu	-9.04965
je	-9.05186
W	-9.05305
▁100	-9.05711
▁Car	-9.06377
▁certaines	-9.06391
▁Mon	-9.06416
▁propre	-9.0661
▁veut	-9.06824
▁activités	-9.06851
▁50	-9.07103
▁série	-9.07238
▁grands	-9.07247
▁personnel	-9.07285
▁siècle	-9.076
U	-9.0766
▁gros	-9.07864
▁livraison	-9.08039
▁doute	-9.0804
▁version	-9.08687
▁fort	-9.08719
▁*	-9.08749
ul	-9.08847
▁rendre	-9.089
ré	-9.09386
urs	-9.0939
▁rue	-9.09611
▁Depuis	-9.09895
▁auprès	-9.09954
▁partenaires	-9.09979
▁domaine	-9.10024
ir	-9.10093
▁saison	-9.10176
▁client	-9.10215
▁quatre	-9.10221
▁Conseil	-9.10252
▁f	-9.10265
air	-9.10271
▁cause	-9.104
▁président	-9.10454
▁moyen	-9.10515
▁parler	-9.10523
▁contact	-9.10807
▁22	-9.10967
▁ensemble	-9.11042
▁fut	-9.11147
▁souhaitez	-9.11223
▁étant	-9.11227
▁entreprise	-9.11247
▁(2)	-9.1129
▁fil	-9.1131
id	-9.11435
▁voyage	-9.11511
▁particulier	-9.11622
▁nombreuses	-9.11867
▁chambre	-9.11879
▁vivre	-9.12023
▁contacter	-9.12032
8	-9.12153
▁unique	-9.12186
▁x	-9.12242
▁sein	-9.1238
ailleurs	-9.12389
ta	-9.12532
▁devez	-9.12575
▁b	-9.12696
▁Son	-9.1282
▁In	-9.12827
elles	-9.12836
▁professionnels	-9.13008
▁aller	-9.13217
▁ensuite	-9.13251
▁résultats	-9.13267
▁prise	-9.13288
▁autant	-9.13424
▁samedi	-9.13489
▁fond	-9.13498
▁Z	-9.13655
ca	-9.13695
▁réaliser	-9.13771
na	-9.13827
▁terre	-9.139
▁charge	-9.14058
▁doivent	-9.14079
origine	-9.14093
▁prend	-9.14101
▁code	-9.14264
▁mots	-9.14373
▁nuit	-9.14408
aime	-9.14458
▁responsable	-9.14472
▁directement	-9.1453
▁quelqu	-9.14639
ux	-9.1473
▁U	-9.14781
▁contrôle	-9.149
▁important	-9.14911
entreprise	-9.15264
▁vais	-9.15369
▁Ma	-9.15473
▁relation	-9.15536
▁Comment	-9.15697
li	-9.15732
▁lire	-9.15836
▁poursuivant	-9.15871
▁utilisation	-9.15909
▁disponible	-9.15916
▁via	-9.15981
▁projets	-9.16237
▁Forum	-9.16468
▁and	-9.16493
▁sûr	-9.16719
▁Politique	-9.16735
▁tard	-9.16882
▁mort	-9.16921
▁taille	-9.16973
ement	-9.17003
man	-9.17291
▁vont	-9.17297
▁nationale	-9.17309
▁dis	-9.17394
▁recevoir	-9.17433
▁facile	-9.17455
▁offres	-9.17467
ad	-9.17562
▁rapidement	-9.1777
▁sélection	-9.17771
▁aura	-9.17826
ex	-9.17911
00	-9.18139
▁Grand	-9.18144
▁valeur	-9.18154
▁©	-9.182
▁techniques	-9.18217
équipe	-9.18366
▁co	-9.18492
tte	-9.18555
▁quel	-9.18781
▁cœur	-9.18783
X	-9.18795
iste	-9.18863
▁personnelles	-9.18901
▁yeux	-9.18912
▁écrit	-9.18981
▁Ne	-9.19038
▁Marie	-9.19128
▁Bien	-9.19217
▁Cela	-9.19247
▁technique	-9.19374
▁genre	-9.19451
ère	-9.19481
▁histoire	-9.19488
▁thème	-9.19493
end	-9.1977
to	-9.19777
ro	-9.19779
▁Se	-9.20186
▁permettre	-9.20208
ri	-9.20375
▁The	-9.20428
th	-9.20441
▁permettent	-9.20551
▁Sac	-9.20637
▁force	-9.20867
▁vacances	-9.20902
▁beau	-9.20959
rie	-9.21128
▁durée	-9.21142
▁Plan	-9.21297
▁23	-9.21394
▁images	-9.21502
▁conseils	-9.21555
▁to	-9.21651
▁fonctionnement	-9.21761
di	-9.22112
▁rapide	-9.22278
▁production	-9.22361
▁professionnel	-9.22434
ia	-9.2247
▁équipe	-9.22505
▁libre	-9.22614
tu	-9.22707
ique	-9.22814
▁semaines	-9.22833
▁sociaux	-9.23123
▁secteur	-9.23143
▁choisir	-9.23184
mail	-9.2326
▁départ	-9.23282
▁sexe	-9.23285
▁Conditions	-9.23293
▁nécessaire	-9.23295
▁40	-9.23306
▁numéro	-9.23824
▁éléments	-9.23932
▁risque	-9.23952
▁blanc	-9.23984
▁pièces	-9.24195
du	-9.24369
▁utilisateurs	-9.24411
▁disponibles	-9.24468
▁chacun	-9.24528
▁Bon	-9.24653
▁terme	-9.24712
▁confiance	-9.2478
▁noir	-9.24809
adresse	-9.24813
▁confidentialité	-9.24874
▁paiement	-9.24957
isme	-9.25013
eurs	-9.25228
▁laquelle	-9.25347
▁Que	-9.2555
▁classe	-9.25595
▁presse	-9.25631
▁besoins	-9.25709
▁X	-9.25731
▁répondre	-9.25834
ard	-9.25944
▁Sélectionner	-9.26021
▁met	-9.2609
action	-9.26131
dessous	-9.26149
▁comprendre	-9.26261
▁g	-9.2643
homme	-9.26453
▁suivi	-9.2647
ti	-9.26588
▁parmi	-9.26736
▁vendredi	-9.26997
▁dimanche	-9.27161
ner	-9.27323
▁pied	-9.27417
▁générale	-9.27455
▁national	-9.27518
▁uniquement	-9.27736
▁demander	-9.2776
▁communication	-9.27773
▁parents	-9.27865
▁É	-9.27969
▁milieu	-9.27999
▁population	-9.28148
▁modèle	-9.28351
▁ai	-9.28477
▁Dieu	-9.2848
après	-9.28499
▁présence	-9.28618
▁social	-9.28716
▁tel	-9.28839
▁aurait	-9.28931
▁ministre	-9.29182
Y	-9.2929
▁guerre	-9.29331
▁venir	-9.29418
▁parle	-9.29476
▁textes	-9.29633
▁chef	-9.29641
▁vite	-9.29709
▁réseaux	-9.29842
▁fais	-9.29942
”	-9.29989
▁style	-9.30019
▁Québec	-9.3004
▁pro	-9.30063
▁téléphone	-9.30268
▁route	-9.30315
lo	-9.30346
▁enfant	-9.30412
▁couleurs	-9.30426
▁km	-9.30609
▁table	-9.30677
▁donné	-9.3071
if	-9.30777
▁w	-9.30867
▁aider	-9.30994
▁27	-9.31206
É	-9.31445
▁matin	-9.31494
▁suivre	-9.31526
▁Nos	-9.31586
ité	-9.31624
▁accès	-9.31711
▁possibilité	-9.31786
▁sortie	-9.3181
▁profiter	-9.31858
énergie	-9.31897
os	-9.31988
▁vidéos	-9.32036
▁mer	-9.32132
emploi	-9.32145
▁voiture	-9.32314
▁26	-9.32408
▁2007	-9.32663
▁réponse	-9.32698
▁coeur	-9.32793
▁conseil	-9.32847
▁petites	-9.32894
▁super	-9.33099
amour	-9.33316
▁laisser	-9.33468
▁collection	-9.33566
tre	-9.33632
▁commune	-9.33709
▁construction	-9.33736
▁disposition	-9.3374
nous	-9.33749
▁deuxième	-9.33849
▁grandes	-9.33944
▁partager	-9.33989
▁Pro	-9.34285
▁28	-9.34399
▁enfin	-9.34449
▁professionnelle	-9.34453
▁Découvrez	-9.34574
par	-9.34917
▁pièce	-9.34928
▁connaissance	-9.34928
▁envie	-9.3497
ry	-9.35445
Unis	-9.35699
▁culture	-9.35732
▁consulter	-9.35934
▁zone	-9.36068
ante	-9.36113
▁rôle	-9.36154
abord	-9.36331
▁état	-9.36363
▁club	-9.36367
▁Maison	-9.36378
▁Main	-9.36552
aire	-9.36565
▁Quand	-9.36722
▁pourrez	-9.37051
▁ca	-9.37093
▁obtenir	-9.37165
▁jardin	-9.37173
ve	-9.37365
▁Y	-9.37427
▁économique	-9.37508
▁gamme	-9.3751
▁permettant	-9.37633
▁scène	-9.37839
▁longtemps	-9.37858
▁Noël	-9.37876
▁celles	-9.37908
be	-9.3802
▁presque	-9.38095
am	-9.38098
▁cm	-9.38123
ly	-9.38124
▁créé	-9.38324
▁taux	-9.38333
▁situé	-9.38484
▁salon	-9.38682
▁sortir	-9.38727
▁euros	-9.38778
▁Bonjour	-9.38941
@	-9.38985
▁Toutes	-9.39007
▁Ã	-9.39167
▁pré	-9.39242
né	-9.39268
▁bout	-9.39407
▁con	-9.39452
+	-9.3957
▁quotidien	-9.39594
▁transport	-9.39671
▁changer	-9.39699
▁communauté	-9.39701
▁)	-9.39715
qui	-9.39944
▁édition	-9.40016
▁pages	-9.40053
▁espace	-9.40278
▁meilleurs	-9.40294
▁véritable	-9.40358
use	-9.40384
▁double	-9.40501
▁Sud	-9.40518
▁publique	-9.40551
▁lequel	-9.40609
▁chat	-9.40726
▁lundi	-9.40774
▁matériel	-9.40883
▁(3)	-9.41003
▁existe	-9.41047
ion	-9.41135
informations	-9.41266
▁père	-9.41284
▁oui	-9.41409
▁légales	-9.41409
▁difficile	-9.41427
▁0	-9.41653
▁trouverez	-9.41659
▁ex	-9.41683
▁séjour	-9.41716
▁commentaires	-9.41774
▁Centre	-9.41863
▁jouer	-9.42078
▁source	-9.4208
▁dernières	-9.42113
ga	-9.42135
▁regard	-9.42212
▁sait	-9.42398
▁contrat	-9.4243
▁plupart	-9.42552
▁large	-9.42649
▁réserve	-9.42763
▁bord	-9.42831
▁trouvé	-9.42949
▁Voici	-9.43024
école	-9.43106
▁design	-9.43136
po	-9.43149
▁suivant	-9.43224
ol	-9.43254
▁Président	-9.43285
▁annonces	-9.4342
argent	-9.43524
▁bons	-9.43619
lu	-9.43751
▁hors	-9.43801
www	-9.43812
▁Nord	-9.43835
▁Lire	-9.43896
▁solution	-9.4395
ac	-9.43963
Etat	-9.4405
▁soient	-9.44058
▁anti	-9.44174
▁sol	-9.44192
▁Qu	-9.44258
▁pourra	-9.44279
▁durant	-9.4457
▁souhaite	-9.44625
▁marques	-9.44641
Europe	-9.45086
▁tiers	-9.45127
▁réalité	-9.45262
▁soutien	-9.45302
▁retrouver	-9.45308
▁certain	-9.45428
▁connaître	-9.45539
▁livres	-9.45652
▁partage	-9.45739
▁peau	-9.45938
association	-9.46019
▁peur	-9.46028
▁29	-9.46053
▁marche	-9.46362
▁propriété	-9.46416
▁image	-9.46504
▁facilement	-9.46553
▁problèmes	-9.4662
▁faites	-9.46663
▁LA	-9.4668
ton	-9.46728
▁physique	-9.46889
▁annonce	-9.4691
▁permis	-9.46918
objet	-9.46943
▁soirée	-9.47013
▁peine	-9.47162
▁voie	-9.47326
ot	-9.47395
▁activité	-9.47682
è	-9.47705
dé	-9.47907
▁utilisé	-9.47914
▁Google	-9.48014
▁direction	-9.48296
▁Co	-9.48396
▁idées	-9.48453
▁désormais	-9.48456
▁Veuillez	-9.4849
▁mariage	-9.48594
état	-9.48597
▁chance	-9.48677
▁gauche	-9.48696
espace	-9.48785
▁lecture	-9.48789
Z	-9.48811
eux	-9.4886
▁Dé	-9.48868
heure	-9.4906
▁i	-9.49066
▁manque	-9.49072
▁terrain	-9.49087
▁sociale	-9.49093
▁derniers	-9.49212
▁description	-9.49228
▁bar	-9.49247
entre	-9.49299
▁rendez	-9.49333
▁droite	-9.4971
▁Est	-9.49789
▁email	-9.4982
▁pourtant	-9.49971
▁montant	-9.49983
▁République	-9.50057
▁formulaire	-9.50141
▁centres	-9.50217
particulièrement	-9.50235
go	-9.50239
avait	-9.50259
▁(4)	-9.50324
▁veux	-9.50343
ni	-9.5036
▁améliorer	-9.50566
▁proche	-9.50637
avez	-9.50718
▁feu	-9.50756
▁mission	-9.50812
▁règles	-9.50903
▁Blog	-9.51068
▁train	-9.51124
▁ailleurs	-9.51138
▁haute	-9.51151
étais	-9.51222
ut	-9.5123
▁complet	-9.51278
9	-9.51324
utilisateur	-9.51755
ront	-9.5178
▁—	-9.51899
▁bureau	-9.51921
▁http	-9.51961
10	-9.52006
▁liberté	-9.5203
▁inter	-9.52043
▁cul	-9.52074
des	-9.52182
▁environ	-9.5221
▁devrait	-9.52233
▁é	-9.52315
▁fonctionnalités	-9.52353
ure	-9.52407
▁tes	-9.52415
▁quartier	-9.52423
▁commerce	-9.52444
▁rouge	-9.52453
ig	-9.52461
▁Prix	-9.52505
ER	-9.52658
▁Service	-9.5276
▁ressources	-9.52792
▁européenne	-9.52918
image	-9.52947
▁langue	-9.53024
▁album	-9.53029
▁es	-9.53054
▁voit	-9.53093
ordre	-9.53161
▁pratiques	-9.532
no	-9.53226
▁lieux	-9.53369
▁voix	-9.53374
[	-9.53472
▁31	-9.5357
pe	-9.53633
▁ouvert	-9.53753
▁gratuite	-9.53777
▁mouvement	-9.53806
si	-9.53824
▁Cet	-9.53929
▁numérique	-9.53941
▁lit	-9.54004
▁ancien	-9.54041
mé	-9.5412
▁Rencontre	-9.5413
▁Or	-9.54176
été	-9.54385
▁signe	-9.54536
▁recette	-9.54557
achat	-9.54659
▁documents	-9.54667
ville	-9.54701
▁passage	-9.54819
▁proximité	-9.54858
▁papier	-9.54878
▁délai	-9.54953
▁60	-9.55056
▁parcours	-9.553
▁caractère	-9.55347
apos	-9.55369
▁lorsqu	-9.55509
▁Ainsi	-9.5552
▁port	-9.55631
▁vol	-9.55671
▁nouvel	-9.55767
▁Non	-9.55847
▁campagne	-9.56008
▁succès	-9.56009
esprit	-9.56157
ic	-9.56233
▁soleil	-9.56397
lé	-9.56431
▁garantie	-9.56433
dessus	-9.56553
▁actions	-9.56672
▁responsabilité	-9.56849
▁œuvre	-9.56893
▁aide	-9.56968
▁!!!	-9.57008
▁mère	-9.57161
▁commun	-9.57172
▁Chaque	-9.57184
▁référence	-9.57234
mo	-9.57327
0	-9.57344
▁boutique	-9.57378
▁cinq	-9.57465
▁Ca	-9.57524
▁fête	-9.57534
▁offrir	-9.57603
ici	-9.57611
▁moteur	-9.57971
che	-9.58022
...)	-9.58064
▁nécessaires	-9.58095
▁reçu	-9.58119
▁moderne	-9.58143
▁Oui	-9.58184
▁études	-9.58345
▁solutions	-9.58371
▁Pierre	-9.58468
▁Facebook	-9.58647
▁joueurs	-9.58662
up	-9.58929
▁mesures	-9.59062
▁logiciel	-9.59147
▁fins	-9.59164
▁devenir	-9.59168
da	-9.59204
▁fichier	-9.59206
▁véhicule	-9.59206
▁Europe	-9.5938
▁identifié	-9.59659
▁garde	-9.5983
isation	-9.59853
▁appel	-9.59988
▁groupes	-9.60228
ler	-9.60311
▁processus	-9.60482
▁tels	-9.60497
▁poste	-9.60693
▁Al	-9.60978
En	-9.61141
▁gratuitement	-9.61145
▁actuellement	-9.61192
▁Qui	-9.61214
▁rend	-9.61266
▁soins	-9.61272
▁Cours	-9.61386
▁compagnie	-9.61403
50	-9.6147
▁modifier	-9.61736
▁cherche	-9.61738
▁résultat	-9.61788
▁dossier	-9.61796
▁décision	-9.61802
▁direct	-9.6189
▁membre	-9.61981
qu	-9.62042
▁crois	-9.62099
▁An	-9.62126
▁connu	-9.62535
der	-9.62575
▁soi	-9.62684
▁divers	-9.62772
tique	-9.62883
▁bain	-9.62928
ateur	-9.62952
€	-9.62989
▁heure	-9.63047
▁montre	-9.63104
▁sorte	-9.63263
▁politiques	-9.63349
▁moyenne	-9.63352
▁machine	-9.63356
▁idée	-9.63459
ha	-9.6349
▁Elles	-9.6355
per	-9.63563
▁moyens	-9.63609
▁continue	-9.63611
▁parti	-9.63627
▁Français	-9.63652
▁totalement	-9.63681
▁contraire	-9.6369
▁territoire	-9.63764
▁travailler	-9.63985
impression	-9.64002
fi	-9.64281
rait	-9.64327
▁élèves	-9.64337
▁présenter	-9.64417
▁Bar	-9.64441
là	-9.64495
▁village	-9.64602
▁commentaire	-9.64635
expérience	-9.64638
▁suffit	-9.64745
car	-9.6489
intérêt	-9.64894
q	-9.64944
activité	-9.65005
▁confort	-9.65042
▁sud	-9.65125
hésitez	-9.65182
▁sport	-9.65328
▁rencontrer	-9.65366
▁www	-9.65424
ance	-9.65496
▁consommation	-9.65616
▁concours	-9.65638
intérieur	-9.65706
voir	-9.6585
▁premiers	-9.65876
▁Ville	-9.65982
▁statistiques	-9.66069
pa	-9.66222
▁lettre	-9.66342
ence	-9.66346
▁tellement	-9.66375
▁catégorie	-9.66391
▁maximum	-9.66438
▁utilisons	-9.66443
▁voulez	-9.66446
do	-9.6653
▁respect	-9.66535
istes	-9.66557
▁outils	-9.666
▁chemin	-9.667
accord	-9.66729
▁lumière	-9.6679
▁Voir	-9.66842
▁couple	-9.66851
ive	-9.66852
▁informatique	-9.66936
▁privée	-9.66958
▁fils	-9.67032
▁Société	-9.67048
ins	-9.67084
ille	-9.67097
▁décidé	-9.67186
▁Histoire	-9.67202
▁ordinateur	-9.67231
▁format	-9.67315
▁importante	-9.67489
con	-9.67573
▁v	-9.67617
▁chambres	-9.67671
▁rester	-9.67746
▁!!	-9.67881
▁médias	-9.67967
▁contenus	-9.68157
mm	-9.68188
▁longue	-9.68238
▁quelle	-9.68349
ver	-9.68418
ka	-9.6842
▁cliquez	-9.68519
▁participer	-9.68866
▁développer	-9.6888
▁air	-9.68902
idée	-9.6895
▁ET	-9.69017
*	-9.69022
▁beauté	-9.69361
▁magnifique	-9.696
▁acheter	-9.69707
▁Mois	-9.69733
▁mail	-9.69836
▁malgré	-9.6993
▁dos	-9.69969
▁guide	-9.70145
importe	-9.70291
ions	-9.7035
▁changement	-9.70408
▁puisque	-9.70411
▁électronique	-9.70417
▁forte	-9.70464
▁commence	-9.70473
▁jeudi	-9.70475
▁propres	-9.70495
▁Paul	-9.7051
▁magasin	-9.70531
▁réalisé	-9.70546
▁Con	-9.70599
▁Même	-9.70666
▁Aujourd	-9.70691
net	-9.70724
▁naissance	-9.70815
▁laisse	-9.70842
▁électrique	-9.70846
actualité	-9.70848
▁@	-9.70858
▁plainte	-9.70865
▁choisi	-9.70921
▁modèles	-9.70967
▁dés	-9.7097
▁prêt	-9.71056
administration	-9.71149
▁animaux	-9.71198
â	-9.71233
▁compter	-9.71409
▁assurer	-9.71423
ise	-9.71437
▁pose	-9.71635
▁telle	-9.71644
▁belles	-9.71664
▁Santé	-9.71722
ade	-9.71855
▁domicile	-9.71865
▁volonté	-9.71865
▁cartes	-9.71973
tes	-9.72008
▁derrière	-9.72016
▁bonheur	-9.72016
▁portes	-9.72102
ouverture	-9.72206
▁réception	-9.7232
▁représente	-9.72337
▁garantir	-9.72359
▁réservés	-9.72397
20	-9.72451
▁location	-9.72615
▁Lorsque	-9.72628
▁puissance	-9.72649
▁course	-9.7265
▁goût	-9.72685
application	-9.72828
▁complète	-9.72898
▁faisant	-9.72904
▁mercredi	-9.72925
▁devient	-9.72928
accueil	-9.72986
▁agréable	-9.73034
▁mains	-9.73125
▁Nouvelle	-9.73211
▁Ré	-9.7323
▁post	-9.73372
▁partout	-9.73388
▁fonds	-9.73645
▁département	-9.73688
ba	-9.73849
min	-9.73929
op	-9.73995
▁filles	-9.74017
▁New	-9.74241
▁festival	-9.74325
vi	-9.74424
▁mémoire	-9.74437
▁auteurs	-9.74716
▁habitants	-9.74738
▁liens	-9.74751
▁avaient	-9.74789
▁Ta	-9.74823
▁parties	-9.74891
▁mètres	-9.74956
▁bonnes	-9.74987
▁k	-9.75018
▁accord	-9.7507
▁information	-9.7509
▁spectacle	-9.75188
▁propriétaire	-9.75191
▁publics	-9.75219
▁utilisant	-9.75245
▁Pays	-9.75369
▁arrive	-9.75372
▁calme	-9.75425
▁seconde	-9.75435
▁Etats	-9.75439
âge	-9.75491
▁télécharger	-9.75563
▁utilisateur	-9.7563
▁document	-9.75696
▁cinéma	-9.75745
▁planète	-9.75799
▁comprend	-9.75887
analyse	-9.75942
▁vis	-9.75995
▁éviter	-9.76036
▁70	-9.76078
sur	-9.76096
▁note	-9.76121
mer	-9.76169
▁sort	-9.76267
▁télé	-9.76346
▁prochain	-9.76355
▁o	-9.76392
▁porter	-9.76404
▁Go	-9.76408
▁défaut	-9.76451
▁États	-9.76541
entrée	-9.7655
▁touche	-9.76624
▁surface	-9.76659
▁régulièrement	-9.76665
▁dix	-9.76699
▁plans	-9.76827
▁regarder	-9.76916
▁classique	-9.76972
▁durable	-9.7708
▁réalisation	-9.77103
ron	-9.7729
▁Chine	-9.77346
▁200	-9.77372
ois	-9.77392
ph	-9.77445
▁Enfin	-9.77482
▁mobile	-9.77632
▁Canada	-9.77705
▁dessus	-9.77848
▁crise	-9.77853
▁plage	-9.77917
▁for	-9.77969
▁allez	-9.78312
utiliser	-9.78382
▁lutte	-9.78419
environnement	-9.78507
▁police	-9.78571
▁penser	-9.78604
▁efficace	-9.78641
▁lu	-9.78706
▁Accueil	-9.78709
▁aime	-9.78737
▁=	-9.78871
▁réduire	-9.78891
▁prochaine	-9.78903
▁gagner	-9.79052
▁établissements	-9.79135
▁Ou	-9.7914
▁100%	-9.79228
▁(5)	-9.79436
ger	-9.79464
▁films	-9.7951
▁concerne	-9.79577
▁application	-9.79617
▁raisons	-9.79778
▁logement	-9.79877
▁Mont	-9.79877
15	-9.79907
▁bio	-9.79956
▁2006	-9.80006
▁parc	-9.80028
▁LE	-9.8004
▁Mar	-9.80131
▁Mentions	-9.80194
▁perdu	-9.8022
▁Louis	-9.80315
▁généralement	-9.80383
▁pieds	-9.80387
▁Mo	-9.80542
▁auto	-9.80542
▁sujets	-9.80586
▁action	-9.80628
40	-9.8067
▁parfaitement	-9.8074
▁internationale	-9.80899
▁mini	-9.80931
▁patrimoine	-9.81012
▁systèmes	-9.81099
▁caractéristique	-9.81188
▁poids	-9.81222
▁fera	-9.81257
▁milliers	-9.81276
▁dispose	-9.81309
▁Très	-9.81394
▁relations	-9.8146
▁Toute	-9.81486
▁présentation	-9.81486
▁capacité	-9.81578
▁<	-9.81582
▁profil	-9.81605
▁week	-9.81666
▁position	-9.81687
▁musée	-9.81899
▁Groupe	-9.821
▁détails	-9.82159
▁ami	-9.82233
▁objets	-9.82298
▁locaux	-9.82342
▁accessoires	-9.824
▁Signaler	-9.82549
▁match	-9.82629
▁gratuits	-9.82768
▁rêve	-9.82773
nes	-9.82833
></	-9.82861
▁ouverte	-9.82889
▁sauf	-9.82998
▁risques	-9.83003
ck	-9.83046
▁Suisse	-9.83078
▁publié	-9.83079
▁Sans	-9.83227
▁réel	-9.83238
éri	-9.83259
▁attention	-9.8328
AL	-9.83283
▁DU	-9.83301
▁continuer	-9.8332
avec	-9.834
org	-9.83473
land	-9.83541
▁gaz	-9.83565
▁Art	-9.83662
▁chaleur	-9.83664
▁plantes	-9.83698
▁faible	-9.83782
enfant	-9.83984
▁fournir	-9.84042
▁tenu	-9.84045
▁support	-9.84064
Q	-9.84178
ap	-9.84265
▁or	-9.8437
ière	-9.84377
▁cependant	-9.84384
▁commencer	-9.84515
▁retrouve	-9.84531
▁hauteur	-9.84536
▁pleine	-9.84566
▁(...)	-9.84599
▁El	-9.84697
ologie	-9.84708
▁80	-9.84727
époque	-9.84731
▁Selon	-9.84738
▁finalement	-9.84784
▁2018,	-9.8496
▁premières	-9.84967
▁types	-9.84976
appel	-9.84985
▁--	-9.85107
▁mi	-9.85115
▁entièrement	-9.85137
Je	-9.85137
▁voilà	-9.85229
▁veuillez	-9.85235
▁troisième	-9.85236
▁manger	-9.8527
▁paramètres	-9.85392
▁célibataires	-9.85437
▁Avant	-9.8558
pour	-9.85665
▁quant	-9.85667
▁TV	-9.85678
▁utilisées	-9.85748
▁structure	-9.85837
▁envoyer	-9.85841
▁su	-9.85845
▁repas	-9.85905
▁naturel	-9.8592
▁radio	-9.85985
▁nord	-9.86022
aï	-9.86022
▁al	-9.86174
▁35	-9.86374
®	-9.86442
ables	-9.86448
▁mondiale	-9.86451
▁options	-9.86476
iez	-9.86632
organisation	-9.86655
▁tendance	-9.8677
▁cheveux	-9.86785
▁cliquant	-9.86791
▁visage	-9.86844
▁international	-9.86877
▁bénéficier	-9.87055
▁Lyon	-9.87199
▁Afrique	-9.87204
▁peinture	-9.87312
▁revient	-9.8732
ang	-9.87324
bo	-9.87389
▁be	-9.87447
=	-9.87489
▁Deux	-9.87501
▁mardi	-9.8751
▁connexion	-9.87581
▁familles	-9.87741
▁bande	-9.87753
▁amour	-9.87809
▁preuve	-9.87906
▁roman	-9.87923
▁garder	-9.87957
▁Mat	-9.88045
▁réservation	-9.88066
▁Monde	-9.8809
▁adaptés	-9.88204
oublie	-9.88226
▁décoration	-9.88229
▁siège	-9.88252
économie	-9.88257
▁utilisés	-9.88284
▁Donc	-9.88328
▁technologie	-9.8838
▁classement	-9.88384
ite	-9.88415
inscription	-9.88428
▁fr	-9.88482
▁fer	-9.88579
▁vois	-9.88608
▁directeur	-9.88666
ag	-9.88696
▁Cependant	-9.88737
▁règlement	-9.88758
▁Jeux	-9.88859
EN	-9.88916
mi	-9.89081
▁découverte	-9.89193
▁poser	-9.89243
▁protéger	-9.89289
▁permettra	-9.8929
▁applications	-9.89477
▁Recherche	-9.89486
▁newsletter	-9.89546
▁Autres	-9.89632
▁bébé	-9.89675
▁Commission	-9.89691
▁restaurant	-9.89887
▁véhicules	-9.89939
▁crème	-9.9018
▁court	-9.9018
▁soin	-9.90198
▁payer	-9.90247
▁personnages	-9.90273
▁publication	-9.90287
ien	-9.903
pi	-9.90311
▁https	-9.90325
▁participation	-9.90357
▁limite	-9.90464
ay	-9.90467
▁puisse	-9.90537
▁demandé	-9.90562
ale	-9.90593
▁joue	-9.90602
▁Per	-9.90687
▁six	-9.90786
▁artistes	-9.90787
▁courant	-9.90855
▁bleu	-9.90876
▁célèbre	-9.90965
▁piscine	-9.90974
▁vitesse	-9.90985
▁objectif	-9.91175
▁pouvons	-9.91264
▁communes	-9.91275
▁immobilier	-9.91296
▁conception	-9.913
▁vent	-9.91338
▁peuple	-9.9135
oc	-9.91395
▁vision	-9.91482
▁Pourquoi	-9.91491
▁gérer	-9.91634
▁villes	-9.91669
▁viens	-9.91678
opposition	-9.91726
▁François	-9.91826
▁combat	-9.91874
▁liés	-9.91934
▁entendu	-9.91946
▁concept	-9.92088
ttes	-9.92109
vis	-9.92129
▁clair	-9.92242
▁différence	-9.92271
▁termes	-9.92318
▁Cuisine	-9.92331
▁01	-9.92463
▁méthode	-9.9247
ô	-9.92551
▁bientôt	-9.92571
▁II	-9.92576
▁historique	-9.92626
▁ferme	-9.92627
ire	-9.92646
ES	-9.92792
▁chercher	-9.92822
▁résidence	-9.92871
▁Me	-9.92991
▁second	-9.92999
▁partenaire	-9.93016
mar	-9.93079
▁voici	-9.93116
▁compétences	-9.93138
▁multiples	-9.9315
▁destination	-9.93238
▁dispositions	-9.93287
▁tenue	-9.93305
▁total	-9.9332
▁entier	-9.93392
▁bouton	-9.93528
Union	-9.93659
▁possède	-9.93767
▁correspond	-9.93803
ll	-9.93823
▁effets	-9.93885
▁acteurs	-9.93925
▁publicité	-9.9401
ants	-9.9416
Afrique	-9.9417
euse	-9.94226
▁is	-9.94336
▁2019	-9.9435
▁parfait	-9.94369
▁Commenter	-9.94474
gi	-9.94492
▁interdits	-9.94504
▁local	-9.94526
▁justice	-9.94632
ette	-9.9466
▁recettes	-9.9469
▁racistes	-9.94702
▁Belgique	-9.94709
ho	-9.94709
▁eau	-9.94728
▁500	-9.94769
▁vendre	-9.94802
▁bras	-9.94833
État	-9.94931
▁capitale	-9.95003
▁noter	-9.95013
▁passant	-9.95016
▁sac	-9.95139
▁tableau	-9.95202
eu	-9.95243
▁faite	-9.95256
▁partenariat	-9.95373
▁privé	-9.95386
▁DES	-9.9542
▁mêmes	-9.95477
▁vin	-9.9554
▁Grâce	-9.95581
ts	-9.95691
▁affaires	-9.95779
▁Be	-9.95833
▁1.	-9.95931
▁anglais	-9.95971
▁davantage	-9.96173
▁régime	-9.96227
▁événements	-9.96229
▁Club	-9.96267
tant	-9.96271
em	-9.96302
évolution	-9.96302
▁chimie	-9.96311
▁croissance	-9.9636
▁complètement	-9.9643
▁coin	-9.96432
▁vit	-9.96464
▁change	-9.9647
aller	-9.96523
▁commencé	-9.96524
sse	-9.96533
▁Po	-9.96643
installation	-9.96675
Il	-9.96676
▁réussite	-9.96687
▁quantité	-9.96715
▁voire	-9.96725
offre	-9.96789
▁verre	-9.96852
▁située	-9.96876
▁porno	-9.96929
▁immédiatement	-9.96936
▁vote	-9.96938
▁maladie	-9.96947
▁européen	-9.96951
exposition	-9.97064
ab	-9.97097
autant	-9.97138
▁Femme	-9.97196
▁répond	-9.97229
enseignement	-9.97257
nel	-9.97284
▁Index	-9.97309
▁scientifique	-9.97316
arrivée	-9.9746
▁Skyrock	-9.97493
▁Afin	-9.97534
▁écoles	-9.97649
!!	-9.97658
▁déco	-9.97704
▁meilleures	-9.97823
aise	-9.97825
19	-9.97838
▁hier	-9.97861
▁café	-9.97885
▁Quel	-9.97985
èrent	-9.98065
▁dois	-9.98066
US	-9.98077
▁Entre	-9.98115
▁Ar	-9.98216
ا	-9.98275
vé	-9.98288
▁correctement	-9.98292
▁tente	-9.98396
▁heureux	-9.98543
▁ajouter	-9.98561
▁Grande	-9.98585
▁Pi	-9.98587
▁90	-9.98609
ans	-9.98634
▁vert	-9.98636
hôtel	-9.98667
▁neuf	-9.9871
▁exposition	-9.98714
▁présents	-9.98785
▁sociétés	-9.98809
LE	-9.98822
▁fonctionne	-9.98832
▁présentes	-9.98894
▁endroit	-9.98956
ty	-9.98959
tin	-9.9896
▁passion	-9.98968
▁demi	-9.99009
▁Musique	-9.99037
▁Michel	-9.99058
▁bibliothèque	-9.99108
▁continuant	-9.99124
▁dû	-9.99204
▁pouvait	-9.99261
▁froid	-9.99289
▁technologies	-9.99301
▁inscrit	-9.99413
▁oeuvre	-9.9943
▁conscience	-9.99461
chi	-9.99527
▁fruits	-9.99656
▁majorité	-9.9966
IN	-9.99691
nant	-9.99695
▁panier	-9.99874
▁valeurs	-9.99883
▁vérifier	-9.99895
▁riche	-9.99906
espère	-9.99916
ques	-9.9993
▁relative	-10.0002
gue	-10.0005
▁formes	-10.0013
▁carrière	-10.0013
▁équipes	-10.0014
▁outre	-10.0015
▁Puis	-10.0016
▁vide	-10.0017
ana	-10.0019
▁Windows	-10.0031
▁tenir	-10.0032
▁fenêtre	-10.0036
▁Article	-10.0052
▁JavaScript	-10.0066
▁Mes	-10.007
▁pourront	-10.0077
▁ait	-10.0084
▁oublier	-10.0091
▁étudiants	-10.0104
▁victoire	-10.0106
▁forums	-10.0113
▁injurieux	-10.0126
pé	-10.0127
24	-10.0149
▁intérieur	-10.0154
▁comportement	-10.0159
▁So	-10.0162
rou	-10.0167
▁fleurs	-10.0168
▁critères	-10.0168
▁micro	-10.0169
▁arriver	-10.0171
▁suivants	-10.0171
ienne	-10.0177
▁Dernière	-10.0188
▁chocolat	-10.019
ist	-10.0198
▁coût	-10.0211
▁réussi	-10.0213
▁Vi	-10.0218
étude	-10.022
▁Code	-10.0228
issant	-10.0231
▁cadeau	-10.0232
▁préparation	-10.0249
12	-10.0254
▁Val	-10.0258
▁principe	-10.0258
▁prises	-10.0258
▁Juifs	-10.0263
▁usage	-10.0264
▁performances	-10.0265
14	-10.027
▁Man	-10.0271
▁dehors	-10.0276
▁Carte	-10.0284
▁minimum	-10.0289
▁Terre	-10.0293
son	-10.0295
▁chaud	-10.03
▁collaboration	-10.031
▁abus	-10.0313
18	-10.0323
▁rendu	-10.0323
▁diverses	-10.0332
▁beaux	-10.0341
▁pression	-10.0344
▁lettres	-10.0351
▁occasion	-10.0351
▁associations	-10.0356
▁invite	-10.0357
▁attendre	-10.0361
▁section	-10.0368
▁supérieur	-10.0369
iv	-10.0372
▁appareil	-10.0375
lin	-10.0375
▁supprimer	-10.0378
▁particuliers	-10.0384
éducation	-10.0394
▁mélange	-10.0397
▁gay	-10.0399
▁(6)	-10.0401
▁Haute	-10.0402
▁budget	-10.0407
▁environnement	-10.042
▁conseiller	-10.042
▁bâtiment	-10.0431
&#39;	-10.0434
line	-10.0438
▁annoncé	-10.044
▁montrer	-10.0455
▁fonctions	-10.0474
▁crédit	-10.0481
▁visites	-10.0489
▁chauffage	-10.0497
▁moindre	-10.0498
euros	-10.05
ign	-10.0501
dire	-10.0503
▁appelle	-10.0505
▁signifie	-10.0506
▁cour	-10.0509
▁trans	-10.0511
▁réduction	-10.0514
▁terrasse	-10.0514
▁Ha	-10.0519
▁fichiers	-10.0533
▁personnalité	-10.0534
▁champ	-10.0536
▁TripAdvisor	-10.0539
▁veulent	-10.0539
out	-10.0545
▁connecté	-10.0546
▁vérité	-10.056
▁Vos	-10.0568
▁2004	-10.0576
▁scolaire	-10.0577
ue	-10.0578
▁proches	-10.0582
▁idéal	-10.0601
▁accessible	-10.0602
▁Archives	-10.0607
▁pot	-10.0609
▁portant	-10.0622
and	-10.0625
▁by	-10.0626
▁lignes	-10.0627
▁connecter	-10.0629
▁vaut	-10.0631
▁Mme	-10.0633
ah	-10.0635
va	-10.0645
▁Soleil	-10.0645
▁revenir	-10.0667
▁explique	-10.0672
assurance	-10.0673
▁condition	-10.0679
Madeleine	-10.0688
▁test	-10.069
▁diffusion	-10.0697
▁suivante	-10.0699
▁voyageurs	-10.0704
▁outil	-10.0707
▁Retrouvez	-10.0709
▁certaine	-10.071
▁PC	-10.0714
br	-10.0715
île	-10.0718
▁Trier	-10.0729
▁Thiès	-10.0731
▁Cookies	-10.0731
▁mises	-10.0746
▁vieux	-10.075
▁appartement	-10.0754
▁Da	-10.0754
antes	-10.0756
▁$	-10.0756
tr	-10.0759
▁organisé	-10.0767
ers	-10.0772
iers	-10.0773
▁45	-10.0773
▁tient	-10.0777
▁2000	-10.0781
aires	-10.0785
▁Ri	-10.079
▁futur	-10.079
▁étude	-10.0791
▁perdre	-10.0798
▁top	-10.0802
▁Tri	-10.0804
▁prévu	-10.0805
res	-10.0806
▁juge	-10.0814
hi	-10.0817
▁distance	-10.0819
▁concert	-10.0822
exploitation	-10.0825
▁zones	-10.0828
▁proposons	-10.0835
▁sérieux	-10.0841
lie	-10.0843
▁bénéficie	-10.0845
▁critique	-10.0853
▁consentement	-10.0861
▁Tour	-10.0874
▁visiteurs	-10.0874
▁po	-10.0877
tra	-10.088
»,	-10.0886
ak	-10.0891
▁multi	-10.0898
▁notes	-10.0899
▁remise	-10.0901
non	-10.0916
▁milliards	-10.0919
60	-10.0921
▁vraie	-10.0922
▁devenu	-10.0923
▁pensée	-10.0929
▁Dr	-10.0933
▁séance	-10.0936
▁totale	-10.0936
ke	-10.0938
▁clé	-10.0938
▁accéder	-10.0945
▁né	-10.0952
établissement	-10.0955
▁principal	-10.0957
▁populaire	-10.0973
▁financement	-10.0973
▁fi	-10.0978
▁débat	-10.0981
▁fabrication	-10.0992
▁2018.	-10.0994
▁démarche	-10.0996
000	-10.1003
▁candidats	-10.1003
▁programmes	-10.1004
▁rejoindre	-10.1014
▁rédaction	-10.1014
tal	-10.102
ns	-10.1025
▁visiter	-10.1035
▁intéressant	-10.1038
▁anciens	-10.1042
▁perte	-10.1042
▁fini	-10.1046
▁apprendre	-10.1049
▁voulu	-10.105
ru	-10.1051
▁Moi	-10.1051
▁inscription	-10.1054
iens	-10.1054
▁mari	-10.1054
▁Bou	-10.1056
▁paix	-10.1058
lant	-10.106
▁ordre	-10.1062
▁connaissances	-10.1074
▁auteur	-10.1079
▁vigueur	-10.108
▁emploi	-10.1083
▁Japonais	-10.1084
▁utilisée	-10.1096
▁époque	-10.11
▁courrier	-10.1103
▁stratégie	-10.1109
▁réparation	-10.1109
▁achat	-10.1116
mon	-10.1116
▁pierre	-10.1119
▁récemment	-10.1125
	-10.1125
▁parole	-10.1129
▁Vie	-10.1132
▁Cour	-10.1142
21	-10.1148
IS	-10.1153
cé	-10.1156
▁2005	-10.1167
▁Sauter	-10.1171
od	-10.1171
gu	-10.1172
▁Monsieur	-10.1174
▁Fa	-10.1176
▁faisait	-10.1179
▁pi	-10.1187
isse	-10.1188
▁humaine	-10.1191
▁(7)	-10.1192
▁savez	-10.1194
▁Mars	-10.1198
▁mondial	-10.1202
▁marketing	-10.1205
tÃ	-10.1209
▁Di	-10.1211
▁apporter	-10.1213
▁convient	-10.1216
Assemblée	-10.1227
existence	-10.1227
▁dynamique	-10.123
▁logiciels	-10.1231
▁Ça	-10.1237
▁Lors	-10.1244
▁maisons	-10.1247
ateurs	-10.1258
	-10.126
▁cabinet	-10.1263
▁proposé	-10.1265
AC	-10.1265
om	-10.1266
▁théâtre	-10.1266
▁procédure	-10.1269
pro	-10.1269
▁principalement	-10.1271
honneur	-10.1272
▁Présentation	-10.1275
▁sorties	-10.1276
qué	-10.1288
▁Certains	-10.1306
EL	-10.1321
▁évidemment	-10.1328
▁finale	-10.1333
▁San	-10.134
▁lance	-10.1341
▁aurez	-10.1341
▁fortement	-10.1343
▁viennent	-10.1352
▁certainement	-10.1361
▁professeur	-10.1364
où	-10.1366
▁joie	-10.1378
▁serez	-10.1386
▁voyages	-10.1388
11	-10.1393
gé	-10.1394
▁objet	-10.1394
▁croire	-10.1397
▁Na	-10.1397
▁forcément	-10.1399
▁financière	-10.1407
écran	-10.1411
▁recherches	-10.1415
▁Aide	-10.1424
aurais	-10.1425
univers	-10.1426
Vous	-10.1435
▁disque	-10.1447
avenir	-10.1452
st	-10.1457
▁promotion	-10.1459
ber	-10.1463
▁ch	-10.1465
▁impossible	-10.1474
▁métier	-10.1479
▁Com	-10.1482
▁Petit	-10.1485
35	-10.1485
▁licence	-10.1489
▁opérations	-10.1497
▁journal	-10.1504
▁Bo	-10.1509
ug	-10.1511
▁min	-10.1511
▁pouvant	-10.1512
▁Couture	-10.1512
delà	-10.1513
▁travaille	-10.1515
▁05	-10.1515
▁tarif	-10.1519
▁vêtements	-10.1523
▁mille	-10.1526
extérieur	-10.1527
▁profit	-10.1546
▁capable	-10.1552
▁chaude	-10.1564
dit	-10.1569
».	-10.1573
vent	-10.1587
25	-10.1588
▁devis	-10.1591
▁relatives	-10.1601
01	-10.1603
▁moments	-10.1614
iques	-10.1623
▁objectifs	-10.1624
▁->	-10.1626
▁arrivée	-10.1633
usage	-10.1633
ix	-10.1635
▁effectuer	-10.1635
▁secondes	-10.1636
▁Salle	-10.1636
Art	-10.1639
▁pr	-10.1644
▁06	-10.1644
ose	-10.1646
▁vélo	-10.1648
cm	-10.1649
▁grave	-10.1649
onformément	-10.1665
objectif	-10.1669
▁42	-10.1673
▁Ch	-10.1673
▁gratuites	-10.1689
▁joueur	-10.1698
▁domaines	-10.1699
io	-10.1717
améliorer	-10.1719
▁bi	-10.1723
90	-10.1728
▁approche	-10.173
▁régions	-10.1734
▁donnent	-10.1734
cu	-10.1737
▁courage	-10.1738
▁final	-10.174
▁(€	-10.1741
▁atteint	-10.1743
▁plat	-10.1745
men	-10.1746
▁ministère	-10.1747
▁distribution	-10.1747
▁délais	-10.1749
▁inclus	-10.1754
▁Parce	-10.1756
▁mauvaise	-10.1756
OS	-10.1759
▁agence	-10.176
▁naturelle	-10.1766
▁remboursement	-10.1771
▁contexte	-10.1771
▁art	-10.1782
▁appareils	-10.1783
mont	-10.1786
▁réunion	-10.1791
▁enregistrer	-10.1792
▁installation	-10.1794
▁Japon	-10.1795
entretien	-10.1808
▁entrée	-10.1809
▁principaux	-10.1819
▁tri	-10.1819
▁Mode	-10.1831
tel	-10.1833
▁2002	-10.1837
▁réflexion	-10.184
▁contrôler	-10.1853
▁médecin	-10.186
▁Gu	-10.1864
▁Macron	-10.1868
ina	-10.1873
▁Philippe	-10.1881
!!!	-10.1885
▁représentant	-10.189
▁hébergé	-10.1891
▁plateforme	-10.1895
▁résistance	-10.1895
AN	-10.1896
▁sciences	-10.1904
ser	-10.191
▁maître	-10.1915
▁précise	-10.1915
|--	-10.1915
▁Style	-10.1915
avis	-10.1924
▁Cha	-10.1925
▁Air	-10.1926
▁dépend	-10.1929
▁moitié	-10.1939
▁allons	-10.1942
▁automatiquement	-10.1945
▁réponses	-10.1946
▁présenté	-10.1957
▁logique	-10.1959
▁espaces	-10.1962
ane	-10.1962
assurer	-10.1963
▁scientifiques	-10.1965
▁di	-10.1968
mais	-10.1968
▁supplémentaires	-10.1969
avant	-10.197
pas	-10.1975
▁association	-10.1975
▁jeunesse	-10.1978
France	-10.1989
▁rappelle	-10.1998
▁sert	-10.1998
TE	-10.2004
▁commandes	-10.201
▁ventes	-10.202
huile	-10.2021
▁Coupe	-10.2028
iser	-10.2033
▁coupe	-10.2034
▁(8)	-10.2034
▁reproduction	-10.2037
▁fiche	-10.2043
▁composé	-10.2045
▁No	-10.2045
nd	-10.2051
▁organisation	-10.2052
▁banque	-10.2053
▁élevé	-10.2056
▁préparer	-10.206
▁collège	-10.2061
▁300	-10.2062
▁sept	-10.2069
ments	-10.2071
Université	-10.2084
▁suppression	-10.2086
▁arts	-10.2086
▁secret	-10.2091
▁déc	-10.2096
▁sinon	-10.2098
▁respecter	-10.211
▁fa	-10.211
▁sucre	-10.2111
▁modification	-10.2113
▁cuir	-10.2118
lement	-10.212
ule	-10.2121
cher	-10.2127
▁indiqué	-10.2132
▁énergie	-10.2133
▁Jardin	-10.214
▁vaste	-10.2141
▁sources	-10.2146
▁essayer	-10.2147
▁telles	-10.215
▁with	-10.2154
moi	-10.2156
▁Ses	-10.2166
▁humain	-10.2167
▁Bonne	-10.2168
▁participants	-10.2172
ole	-10.2175
."	-10.2183
ki	-10.2183
▁dépôt	-10.2185
▁tandis	-10.2185
▁Bruxelles	-10.2192
▁officiel	-10.2192
▁Ex	-10.2195
▁basse	-10.2196
adore	-10.2197
▁conséquences	-10.22
naire	-10.2206
tuks	-10.2212
▁préalable	-10.2227
▁niveaux	-10.2229
▁col	-10.2229
ate	-10.2244
▁tarifs	-10.2245
▁consiste	-10.2251
▁soumis	-10.2254
▁statut	-10.2256
-1	-10.2257
industrie	-10.2257
▁conduite	-10.2257
▁Transporteur	-10.2261
▁::	-10.2261
vo	-10.2262
avons	-10.2264
▁couverture	-10.2264
▁accepter	-10.2268
▁2003	-10.2269
▁chiffres	-10.227
tri	-10.2277
ow	-10.2281
▁mm	-10.2283
▁construire	-10.2289
▁performance	-10.2293
▁Marc	-10.2301
▁défi	-10.2301
▁largement	-10.2302
▁Voilà	-10.231
▁supérieure	-10.232
▁ciel	-10.2326
45	-10.2327
▁faudra	-10.2333
▁Contact	-10.2335
▁Marseille	-10.2344
ages	-10.2345
▁puisqu	-10.2349
▁constitue	-10.2353
▁Ni	-10.2355
mes	-10.2356
▁centrale	-10.2357
▁EN	-10.2357
▁st	-10.2358
▁déclaré	-10.236
▁rose	-10.236
13	-10.2368
▁pêche	-10.2389
▁lancer	-10.2389
Lire	-10.2391
▁économiques	-10.2392
▁défense	-10.2393
▁̈s	-10.2393
▁intérêt	-10.2394
▁Dépêches	-10.2395
▁leader	-10.2395
▁température	-10.2397
▁désir	-10.2403
▁mur	-10.2406
▁faciliter	-10.2407
▁retard	-10.2412
cul	-10.2413
▁Attention	-10.2417
isé	-10.2417
▁z	-10.2418
▁normal	-10.2422
ze	-10.2423
▁méthodes	-10.2425
▁américain	-10.2431
erie	-10.2435
▁absolument	-10.2438
-19	-10.2439
▁Peut	-10.2441
▁Montréal	-10.2442
▁matériaux	-10.2442
▁servir	-10.2446
▁120	-10.2447
▁stock	-10.2453
▁toutefois	-10.2462
œuvre	-10.2463
absence	-10.2463
UE	-10.2468
ng	-10.247
ies	-10.2473
onne	-10.2475
Ma	-10.2476
▁ouvrir	-10.2477
▁sociales	-10.248
▁cité	-10.248
▁capital	-10.2484
▁(1	-10.2485
▁lesquels	-10.2488
▁pire	-10.2497
▁analyse	-10.25
07	-10.2501
▁ancienne	-10.2503
▁36	-10.2504
▁Publié	-10.2506
▁charme	-10.2508
▁nécessite	-10.2513
▁Cap	-10.2518
▁citoyens	-10.2521
▁Bienvenue	-10.2522
▁utilisez	-10.2524
▁four	-10.2543
▁surprise	-10.2554
▁sent	-10.2557
avance	-10.2559
▁conférence	-10.2562
▁régional	-10.2565
atif	-10.2565
▁Provence	-10.2567
▁considérer	-10.2569
▁autorités	-10.2574
▁bus	-10.2587
cal	-10.259
▁Description	-10.2591
Alsace	-10.2593
▁incroyable	-10.2597
édition	-10.2599
▁école	-10.2599
▁équipements	-10.2602
▁Milieu	-10.2602
▁personnage	-10.2602
▁revue	-10.2609
▁écran	-10.2611
ations	-10.2612
70	-10.2615
▁pluie	-10.2618
▁probablement	-10.2619
▁assurance	-10.2619
▁enquête	-10.262
▁correspondant	-10.2622
info	-10.2624
▁Faire	-10.2624
▁monnaie	-10.2626
06	-10.2629
▁porté	-10.2633
▁événement	-10.2637
écriture	-10.2646
▁candidat	-10.2646
tion	-10.2656
arrive	-10.2657
▁climat	-10.266
▁excellent	-10.2662
▁difficultés	-10.2665
ris	-10.2666
▁masse	-10.2668
▁soyez	-10.2668
▁Pochette	-10.2669
▁victimes	-10.2669
▁rire	-10.2674
▁fou	-10.2676
▁Dè	-10.2679
▁per	-10.2684
▁civile	-10.2691
▁printemps	-10.2694
ori	-10.27
▁réalisée	-10.2702
igne	-10.2708
▁univers	-10.2708
▁Sciences	-10.271
▁Strasbourg	-10.272
▁maîtrise	-10.272
----------------	-10.2721
▁(19	-10.2721
▁devait	-10.2722
▁coton	-10.2724
▁Affiche	-10.2725
▁exercer	-10.273
ten	-10.2733
▁montagne	-10.2736
▁titres	-10.2738
▁contient	-10.2747
▁bilan	-10.2749
▁Fi	-10.2758
▁02	-10.2759
▁figure	-10.2759
▁rubrique	-10.2763
▁utile	-10.2772
▁vouloir	-10.2773
▁établissement	-10.2775
▁Ko	-10.2777
administrateur	-10.2777
▁arrière	-10.2777
faire	-10.2781
▁communiquer	-10.279
▁voulais	-10.28
agence	-10.2811
▁génération	-10.2814
▁National	-10.2815
▁apporte	-10.2819
▁changements	-10.283
▁esprit	-10.2835
cha	-10.2839
▁Jacques	-10.284
nom	-10.284
▁comité	-10.2845
▁ra	-10.2847
ancien	-10.2848
sion	-10.2849
▁personnelle	-10.2853
▁(2	-10.2855
eaux	-10.2858
▁My	-10.2859
▁quête	-10.2869
2)	-10.2869
▁vendeur	-10.2872
auto	-10.2872
▁décide	-10.2875
▁(9)	-10.2879
▁Gi	-10.2881
▁mauvais	-10.2886
midi	-10.2887
ong	-10.2888
▁central	-10.2891
▁foi	-10.2896
▁Ka	-10.2899
▁parfaite	-10.29
▁Sous	-10.2901
▁Culture	-10.2902
inter	-10.2903
ché	-10.2903
Est	-10.2904
▁chanson	-10.2908
▁́	-10.2913
▁boite	-10.2917
▁métiers	-10.2918
one	-10.2919
▁portée	-10.2919
▁noms	-10.2923
▁consultation	-10.2925
▁superbe	-10.2927
▁Ho	-10.2928
▁Cliquez	-10.2933
▁sang	-10.2933
obtenir	-10.2939
our	-10.294
tt	-10.294
De	-10.2941
▁japonais	-10.2943
▁pourraient	-10.2946
êtes	-10.2951
▁récent	-10.2952
▁évolution	-10.2956
▁douche	-10.296
▁150	-10.2966
▁venu	-10.2973
▁douleur	-10.2979
▁Photo	-10.298
▁vivant	-10.2981
▁violence	-10.2983
RE	-10.2989
▁spécifiques	-10.2992
▁marchés	-10.2993
▁forces	-10.3
▁continuez	-10.3005
▁Date	-10.3005
80	-10.301
▁fréquence	-10.3013
▁remettre	-10.3015
▁comptes	-10.3015
AS	-10.3016
▁32	-10.3018
▁découvre	-10.302
évaluation	-10.3021
▁Hu	-10.3023
▁avantages	-10.3024
bon	-10.3024
▁Banque	-10.3025
hiver	-10.3027
▁acheté	-10.3039
▁Ben	-10.304
▁Bref	-10.3042
▁bouche	-10.3049
▁principale	-10.305
▁original	-10.3052
▁spécifique	-10.3056
▁obligatoire	-10.3062
▁mandat	-10.3062
23	-10.3062
▁phase	-10.3063
▁spécialiste	-10.3063
▁arrivé	-10.3067
▁Presse	-10.307
▁grosse	-10.3075
▁neige	-10.3078
▁gr	-10.3078
▁catégories	-10.3086
▁46	-10.3093
▁continu	-10.3094
17	-10.3094
▁prestations	-10.3095
▁différent	-10.3097
▁âge	-10.31
▁Droit	-10.31
▁finir	-10.3103
▁signes	-10.3105
▁suivantes	-10.3105
▁Maroc	-10.3107
ub	-10.3113
▁enjeux	-10.3114
In	-10.3116
▁demeure	-10.3118
IE	-10.3119
▁connais	-10.3119
▁littérature	-10.3122
▁sourire	-10.3122
▁Accessoires	-10.3124
▁Cor	-10.3124
ja	-10.3128
▁Musée	-10.3128
ines	-10.3128
ven	-10.3133
he	-10.3135
▁Ceci	-10.3139
02	-10.3146
▁audio	-10.3152
let	-10.3152
ran	-10.3161
99	-10.3166
▁publiques	-10.3168
▁Mac	-10.3168
CE	-10.317
▁traiter	-10.3172
▁envoyé	-10.3182
TM	-10.3182
▁Nouveau	-10.3186
▁dialogue	-10.3187
▁quotidienne	-10.3188
▁cycle	-10.3194
▁Comité	-10.3195
▁lait	-10.3196
▁phrase	-10.3201
▁bancaire	-10.3202
▁fan	-10.3202
▁CO	-10.3203
▁élément	-10.3218
▁côte	-10.3222
▁étape	-10.3233
▁ateliers	-10.324
▁baisse	-10.3243
▁reconnu	-10.3246
▁Services	-10.325
▁mairie	-10.3251
gr	-10.3253
▁hasard	-10.3259
▁préférences	-10.3266
▁vise	-10.3267
▁Eric	-10.3269
▁no	-10.3269
▁commercial	-10.3272
▁menu	-10.3276
▁écrire	-10.328
05	-10.3282
▁dommage	-10.3286
▁attend	-10.329
▁œuvres	-10.329
éro	-10.3297
▁salles	-10.33
▁Annuaire	-10.3302
▁douce	-10.3302
▁doux	-10.3313
Re	-10.3317
▁joué	-10.332
ff	-10.3322
étranger	-10.3328
forme	-10.333
ON	-10.3331
sol	-10.3332
▁limites	-10.3336
▁feuilles	-10.3336
▁station	-10.3336
▁tôt	-10.3337
▁noire	-10.3341
▁ceci	-10.3344
▁lecteurs	-10.3345
03	-10.3348
▁suit	-10.3356
uc	-10.3358
app	-10.3361
▁murs	-10.3363
▁élections	-10.3364
eme	-10.337
▁taxe	-10.3373
ec	-10.3376
▁catalogue	-10.3378
▁coups	-10.3382
▁situations	-10.3392
▁locale	-10.3397
▁Nationale	-10.3397
▁sympa	-10.3398
▁Festival	-10.3398
▁somme	-10.3403
▁session	-10.3412
▁Table	-10.3414
▁appelé	-10.3417
artiste	-10.3419
ik	-10.342
▁aimé	-10.3422
▁rectification	-10.3427
▁anniversaire	-10.3428
▁→	-10.3428
▁engagement	-10.3429
▁rythme	-10.3429
▁dédié	-10.344
han	-10.3442
bou	-10.3444
▁entrer	-10.3446
▁tr	-10.3459
▁sentiment	-10.3464
▁Conformément	-10.3469
▁demain	-10.347
▁tourisme	-10.3471
mp	-10.3473
▁immense	-10.3474
▁graphique	-10.348
▁confortable	-10.3481
rin	-10.3481
▁attentes	-10.3482
▁discours	-10.3483
▁cadeaux	-10.3488
IR	-10.3488
▁label	-10.3489
▁tomber	-10.3492
▁Q	-10.3505
amp	-10.3509
▁Inc	-10.3511
vie	-10.3513
▁laissé	-10.3514
▁Confidentialité	-10.3514
▁Quelle	-10.3514
▁Nicolas	-10.3514
▁détail	-10.3519
lage	-10.3519
▁erreur	-10.3519
aventure	-10.352
environ	-10.3523
▁bel	-10.3529
lot	-10.3534
▁extérieur	-10.3536
▁33	-10.3538
gre	-10.3538
▁Nom	-10.3539
▁lancé	-10.3541
▁ambiance	-10.3543
▁difficulté	-10.3544
▁Vidéo	-10.3546
▁Salon	-10.355
iel	-10.3555
▁locales	-10.3561
▁situe	-10.3568
née	-10.3568
▁serveur	-10.3573
▁Guide	-10.3574
▁utiles	-10.358
▁Règlement	-10.3585
lan	-10.3588
▁veille	-10.3588
▁Leur	-10.3592
▁nouveautés	-10.3596
▁nommé	-10.3596
▁lendemain	-10.3597
▁Pendant	-10.3597
▁Suite	-10.3597
bas	-10.3599
rons	-10.3599
▁hausse	-10.36
▁ha	-10.3603
▁roi	-10.3604
▁Contacter	-10.3609
the	-10.3613
▁‘	-10.3614
vin	-10.3616
▁connaît	-10.362
entraide	-10.3627
ey	-10.3628
▁chien	-10.3629
▁Premier	-10.3629
▁déclaration	-10.3639
▁Wi	-10.3642
ster	-10.3643
▁Am	-10.3652
\	-10.3654
▁patron	-10.3656
▁rare	-10.3657
ko	-10.3657
SE	-10.3659
▁vécu	-10.3663
lle	-10.3664
▁Charles	-10.3667
apprentissage	-10.3667
▁propriétaires	-10.3669
▁Jour	-10.3669
lier	-10.367
▁activer	-10.3678
▁responsables	-10.368
dis	-10.3684
▁artistique	-10.369
▁rapports	-10.3691
▁commission	-10.3691
▁conçu	-10.3693
exception	-10.3697
▁chaussures	-10.3698
▁1000	-10.3698
ric	-10.37
▁75	-10.3704
▁entretien	-10.3705
▁vi	-10.3708
▁fallait	-10.3712
16	-10.3713
nie	-10.3718
eacute	-10.3723
▁Pen	-10.3723
▁pleinement	-10.3729
▁400	-10.373
▁seuls	-10.3735
▁demandes	-10.3742
▁recrutement	-10.3744
▁Top	-10.3746
▁cliquer	-10.3749
▁Bureau	-10.3749
▁complexe	-10.3749
dy	-10.375
▁découvert	-10.3751
▁Bois	-10.3753
▁planètes	-10.3754
▁meubles	-10.3758
AD	-10.376
▁Noir	-10.3763
ures	-10.3767
▁Sainte	-10.3769
▁revanche	-10.377
▁Directeur	-10.3771
▁hôtel	-10.378
▁Gray	-10.378
Un	-10.3785
▁jolie	-10.3786
▁cap	-10.3787
▁crée	-10.3797
▁Mer	-10.3798
▁Épaule	-10.3799
▁télévision	-10.3799
▁SE	-10.38
▁you	-10.3801
▁définition	-10.3801
▁organisations	-10.3802
▁Client	-10.3809
▁volume	-10.3809
importance	-10.3815
jo	-10.382
ens	-10.3823
▁chaîne	-10.3828
▁devoir	-10.383
28	-10.3832
▁Loire	-10.3834
fa	-10.3837
▁prÃ	-10.3838
▁maman	-10.3845
▁ski	-10.3852
▁violation	-10.3859
▁Col	-10.3859
▁astuces	-10.3864
▁Inter	-10.3867
▁04	-10.3867
ouvre	-10.3869
▁Livraison	-10.3869
▁disposez	-10.387
Or	-10.3877
val	-10.388
▁proposés	-10.3885
▁interne	-10.3886
▁com	-10.3889
▁biais	-10.3889
▁familiale	-10.3891
écoute	-10.3896
▁simples	-10.3897
...).	-10.3897
▁activé	-10.39
▁places	-10.39
▁blanche	-10.39
▁tres	-10.3901
▁indique	-10.3907
▁commerciale	-10.3907
alité	-10.3919
2.	-10.392
▁adultes	-10.392
accepte	-10.392
▁bac	-10.3921
29	-10.3922
ach	-10.3923
▁Développement	-10.3927
▁David	-10.3928
Ar	-10.3931
▁particulière	-10.3945
annonce	-10.3945
▁Géométri	-10.3946
▁calendrier	-10.3946
▁souci	-10.3953
▁Porte	-10.3954
▁collectif	-10.3959
▁billet	-10.396
intervention	-10.3964
can	-10.3964
▁lac	-10.3964
AT	-10.3964
▁clés	-10.3966
▁LES	-10.3974
▁bateau	-10.3974
▁Espace	-10.3981
▁dollars	-10.3982
▁Niger	-10.3983
▁loisirs	-10.3987
▁tradition	-10.3988
▁Rencontres	-10.399
▁rentrée	-10.3991
▁militaire	-10.3994
▁amie	-10.3995
▁48	-10.4002
▁Londres	-10.4006
▁bains	-10.4011
ification	-10.4012
▁Ad	-10.4014
▁sentir	-10.4015
▁centaines	-10.402
vers	-10.4029
▁renseignements	-10.403
OU	-10.403
nier	-10.4032
ET	-10.4037
▁dessin	-10.404
▁sable	-10.4045
▁football	-10.4046
▁longueur	-10.4054
▁boîte	-10.4057
▁Réunion	-10.4066
▁conduit	-10.4069
▁Mal	-10.4069
▁science	-10.4076
▁Formation	-10.4079
▁spéciale	-10.4081
▁option	-10.4093
▁Ah	-10.4094
▁retraite	-10.4094
▁porc	-10.41
▁Robert	-10.4101
▁faux	-10.4103
▁Allemagne	-10.4104
▁Pourtant	-10.4108
fer	-10.4111
▁Ligue	-10.4113
nu	-10.4113
▁(10)	-10.4119
▁tester	-10.4119
▁Région	-10.4124
▁Gommage	-10.4125
OZA	-10.4125
rée	-10.4129
qU	-10.4129
aider	-10.4129
▁Pré	-10.4131
ip	-10.4136
ek	-10.4137
▁eaux	-10.4139
▁dispositif	-10.4142
▁langues	-10.4144
09	-10.4153
engage	-10.4154
▁Malgré	-10.4156
LFH	-10.4156
lon	-10.417
▁Martin	-10.4171
▁Ici	-10.4179
▁active	-10.4182
▁précis	-10.4184
▁numériques	-10.42
oir	-10.4201
▁Italie	-10.4203
▁dates	-10.4203
▁portable	-10.4207
armée	-10.4208
▁importants	-10.421
▁principales	-10.4213
▁médicaments	-10.4216
▁Ja	-10.4218
▁actuelle	-10.4219
▁Protection	-10.422
▁DVD	-10.4223
▁construit	-10.4231
▁allait	-10.4232
ssant	-10.4232
▁envers	-10.4236
▁portrait	-10.4236
Association	-10.4237
▁Haut	-10.424
▁chiffre	-10.424
31	-10.4241
▁actuel	-10.4243
▁Belle	-10.4247
AM	-10.4248
▁pointe	-10.4249
▁gra	-10.4258
so	-10.426
▁tombe	-10.4261
▁recommande	-10.4266
enregistrement	-10.4268
attention	-10.4269
▁achats	-10.427
▁International	-10.427
▁retourner	-10.4271
▁indispensable	-10.4271
▁inscrire	-10.4272
▁Épisode	-10.4277
envoi	-10.4285
ari	-10.4286
▁Création	-10.429
▁signé	-10.4291
▁plastique	-10.4297
lect	-10.43
émission	-10.4301
▁^^	-10.4303
▁charges	-10.4308
▁Jésus	-10.4308
port	-10.4309
▁calcul	-10.4313
▁meme	-10.4313
tic	-10.4321
Allemagne	-10.4328
2,	-10.4328
expression	-10.433
▁38	-10.4331
▁Ba	-10.4331
▁obtenu	-10.4335
▁Programme	-10.4339
▁restent	-10.4341
▁naviguer	-10.4344
▁légèrement	-10.4345
▁clairement	-10.4346
▁net	-10.4347
▁marqué	-10.4353
95	-10.4359
▁dessous	-10.4359
GE	-10.4364
▁Rome	-10.4366
âme	-10.4367
▁oublié	-10.4369
▁circulation	-10.437
ling	-10.4371
▁Do	-10.4371
▁magazine	-10.4375
▁effectivement	-10.4376
▁thé	-10.4377
bi	-10.4379
▁remplacer	-10.4385
▁devra	-10.4388
don	-10.4392
▁courriel	-10.4392
▁Super	-10.4394
▁précédent	-10.4398
On	-10.4398
▁accompagner	-10.4398
▁Twitter	-10.4401
▁Javascript	-10.4401
▁faveur	-10.4401
▁hommage	-10.4411
▁Ra	-10.4412
Ok	-10.4412
▁courses	-10.4415
▁recours	-10.4423
▁Apple	-10.4425
▁tenter	-10.4426
▁configuration	-10.4432
▁mention	-10.4438
▁Royaume	-10.4441
▁favoris	-10.4444
▁Sécurité	-10.4444
▁ouvrage	-10.4449
48	-10.4451
▁saisir	-10.4453
▁Première	-10.4455
▁revenu	-10.4465
▁luxe	-10.4466
▁Fédération	-10.4467
▁échange	-10.4471
▁chute	-10.4471
▁règle	-10.4482
▁fit	-10.4483
▁originale	-10.4484
▁signature	-10.4487
▁restaurants	-10.4489
▁tissu	-10.4491
▁fêtes	-10.4494
▁invités	-10.4501
▁PDF	-10.4505
▁atteindre	-10.4507
▁formations	-10.4512
tation	-10.4515
▁atelier	-10.4518
▁représentation	-10.4519
$	-10.4519
08	-10.452
▁experts	-10.4523
▁collecte	-10.4523
OR	-10.4529
▁pure	-10.4529
▁reprendre	-10.453
▁côtés	-10.4531
▁Aussi	-10.4532
ker	-10.4536
affaire	-10.4546
▁potentiel	-10.4547
appelle	-10.4551
ov	-10.4555
den	-10.4557
▁Croissant	-10.4557
▁Novembre	-10.4563
▁Loi	-10.4567
uff	-10.4568
ange	-10.4573
▁financier	-10.4582
▁liées	-10.4584
▁moto	-10.4586
ries	-10.4589
и	-10.4592
ud	-10.4601
▁expériences	-10.4601
intérêts	-10.4605
oise	-10.4614
exercice	-10.4614
pt	-10.4615
▁transfert	-10.4616
effet	-10.4616
▁truc	-10.4617
▁effectué	-10.4625
▁gris	-10.4627
▁appris	-10.4628
▁danger	-10.4632
▁longues	-10.4634
ction	-10.4636
▁juridique	-10.4639
▁légumes	-10.464
▁déchets	-10.4643
ati	-10.4646
▁histoires	-10.4654
▁Copyright	-10.4654
Fi	-10.4658
1)	-10.4659
▁villa	-10.4663
▁surveillance	-10.4664
▁°	-10.4676
observ	-10.4685
▁définir	-10.4687
▁discuter	-10.4688
az	-10.4688
lia	-10.4689
▁Gestion	-10.4693
ouvrir	-10.4693
▁vingt	-10.4694
▁Mini	-10.4696
▁automatique	-10.4705
gar	-10.471
▁conserver	-10.4712
CO	-10.4713
▁jaune	-10.4714
▁34	-10.4715
▁taxes	-10.4715
▁Toutefois	-10.4716
▁fixe	-10.4718
lic	-10.4719
▁normes	-10.472
▁enregistré	-10.4721
▁lois	-10.4728
ales	-10.4731
▁artiste	-10.4733
▁Design	-10.4741
TI	-10.4742
tor	-10.4744
▁supplémentaire	-10.4745
élection	-10.4745
▁compétition	-10.4746
▁Plusieurs	-10.4748
▁viande	-10.4748
▁Parc	-10.475
▁machines	-10.4753
22	-10.4753
▁spécial	-10.4757
▁poster	-10.4757
▁(89)	-10.4757
hé	-10.4759
▁entend	-10.4767
tour	-10.4771
identité	-10.4776
▁cesse	-10.4778
▁Russie	-10.478
affaires	-10.4781
yn	-10.4785
▁Pa	-10.4785
▁Home	-10.4787
▁écoute	-10.4796
▁logo	-10.4798
SA	-10.4798
.<	-10.4801
▁lycée	-10.4811
▁Guerre	-10.4812
▁actes	-10.4812
▁bref	-10.4813
▁Ensuite	-10.4817
IC	-10.482
▁réforme	-10.4826
nn	-10.4831
plus	-10.4831
▁Général	-10.4833
▁déjeuner	-10.4835
▁09	-10.4836
▁collections	-10.4842
▁disponibilité	-10.4843
▁CanalBlog	-10.4845
▁lecteur	-10.4845
▁téléchargement	-10.4846
▁intervention	-10.4855
▁rencontré	-10.4857
▁député	-10.4868
▁clientèle	-10.4878
▁éco	-10.488
▁Bordeaux	-10.4881
▁Parmi	-10.4881
▁adapté	-10.4887
▁York	-10.4894
▁faute	-10.4901
ces	-10.4903
oul	-10.4907
▁Quelques	-10.4908
atrice	-10.4909
▁commerciales	-10.4914
▁entendre	-10.4915
▁réellement	-10.4917
▁intellectuelle	-10.4918
▁To	-10.4919
▁créations	-10.4921
▁VO	-10.4925
▁destiné	-10.4927
▁impression	-10.4929
éra	-10.4936
tier	-10.4937
▁cache	-10.4939
▁directe	-10.494
album	-10.4943
▁souvenir	-10.4943
fil	-10.4944
ray	-10.4945
anne	-10.4945
▁étapes	-10.4946
39	-10.4952
▁coordonnées	-10.4957
uses	-10.4964
▁Ro	-10.4965
Institut	-10.4971
ères	-10.4971
▁handicap	-10.4973
Décroissant	-10.4975
▁Française	-10.4976
▁Université	-10.4979
▁solaire	-10.498
▁bal	-10.4981
ley	-10.4984
▁assure	-10.4985
▁Ajouter	-10.4986
▁joli	-10.4991
atelier	-10.4992
trÃ	-10.4995
mat	-10.4997
75	-10.4997
▁stage	-10.5
▁PS	-10.5009
▁traduction	-10.5011
ya	-10.5011
▁consacré	-10.5024
nique	-10.5029
▁sec	-10.503
▁publicitaires	-10.5038
architecture	-10.5039
▁prévention	-10.5041
▁Fondation	-10.5042
▁pâte	-10.5044
▁forêt	-10.5044
▁colis	-10.5045
▁secrétaire	-10.5047
▁affaire	-10.5049
▁All	-10.5055
▁Moyen	-10.5057
▁développé	-10.5062
ian	-10.5062
ast	-10.5062
▁venez	-10.5063
▁énorme	-10.5064
ès	-10.5065
▁lot	-10.5067
▁Auto	-10.5067
▁regarde	-10.5071
▁souvenirs	-10.5073
▁streaming	-10.5074
ét	-10.5075
▁amoureux	-10.5076
ial	-10.5083
▁mou	-10.5084
▁morts	-10.5085
▁américaine	-10.5088
▁indépendant	-10.509
▁extra	-10.5093
▁fourni	-10.5095
▁aventure	-10.5096
▁étoiles	-10.5099
▁logements	-10.5105
▁CA	-10.5107
▁accueille	-10.5107
▁langage	-10.5107
▁Passager	-10.5112
▁08	-10.5115
▁possibilités	-10.5116
ât	-10.5119
▁Parti	-10.5121
▁glace	-10.5123
▁conférences	-10.5127
CH	-10.5137
rac	-10.514
▁modalités	-10.5141
gie	-10.5141
%	-10.5146
▁frère	-10.5147
met	-10.5148
cent	-10.5148
▁(11)	-10.5151
▁médecine	-10.5157
ouille	-10.5163
ide	-10.5164
▁basé	-10.5166
▁degrés	-10.5168
▁(3	-10.5169
▁tir	-10.5172
▁météo	-10.5174
▁personnaliser	-10.5175
▁salariés	-10.5176
▁stade	-10.5176
bre	-10.5181
▁Chambre	-10.5183
part	-10.5185
ières	-10.5188
▁proposition	-10.5189
▁mouvements	-10.519
▁Alain	-10.5197
▁robe	-10.5201
ssent	-10.5202
▁traditionnelle	-10.5203
▁Ci	-10.5207
▁manifestations	-10.5207
▁fiches	-10.5207
▁Trouver	-10.5208
instant	-10.5213
▁revoir	-10.5215
▁circuit	-10.5219
ft	-10.5222
▁tirer	-10.5224
▁Trans	-10.5226
▁aspects	-10.5227
▁culturel	-10.523
IA	-10.5236
▁autrement	-10.5236
▁communiqué	-10.5236
▁reçoit	-10.5241
▁cerveau	-10.5241
▁stress	-10.5244
▁BD	-10.5245
MA	-10.5249
▁précision	-10.525
duc	-10.5254
▁amateurs	-10.5255
▁Sénégal	-10.5257
▁dépenses	-10.526
▁Laurent	-10.5265
▁Auteur	-10.5265
Hôtel	-10.5275
▁château	-10.5276
▁morceaux	-10.5277
||--	-10.5284
▁donnée	-10.5287
▁rappel	-10.5291
▁métro	-10.5294
▁visant	-10.5297
col	-10.53
▁matières	-10.5302
ouest	-10.5304
▁motifs	-10.5306
▁pâtes	-10.5306
▁Disponible	-10.5309
▁Su	-10.5311
ène	-10.5312
▁participe	-10.5315
▁Lo	-10.5316
▁Sport	-10.5316
ets	-10.5318
▁humaines	-10.5318
▁ultra	-10.5324
▁cherchez	-10.5328
▁cru	-10.5334
▁francs	-10.5343
▁prénom	-10.5344
▁adresses	-10.5345
▁Algérie	-10.5347
▁monter	-10.5351
ME	-10.5358
▁maire	-10.5365
▁philosophie	-10.5377
investissement	-10.5379
ado	-10.538
▁barre	-10.5383
▁Place	-10.5387
ave	-10.5394
▁échanges	-10.5395
ji	-10.54
▁43	-10.54
▁Daniel	-10.5406
▁accueil	-10.5407
▁produire	-10.5412
▁André	-10.5415
ï	-10.5416
▁Contactez	-10.5417
▁Black	-10.542
AR	-10.542
cre	-10.5426
▁italien	-10.5431
▁Mi	-10.5433
Al	-10.5435
ice	-10.5436
ient	-10.5438
▁importe	-10.5443
▁couche	-10.5443
▁chômage	-10.5446
audience	-10.5446
▁65	-10.5447
▁intérêts	-10.5447
exemple	-10.5448
▁france	-10.5448
Nous	-10.545
▁Côte	-10.5453
55	-10.5454
▁écouter	-10.5454
▁champs	-10.5456
▁HD	-10.5458
▁facture	-10.5458
▁pop	-10.5461
ê	-10.5464
▁ve	-10.5464
IL	-10.5468
xi	-10.5473
▁entière	-10.5477
▁théorie	-10.548
▁restauration	-10.5481
bé	-10.5482
habitude	-10.5483
32	-10.5484
▁(0)	-10.5499
comme	-10.55
▁compréhension	-10.5515
▁devraient	-10.5515
▁Direction	-10.5516
▁magasins	-10.5519
▁Nombre	-10.5519
▁refus	-10.552
▁institutions	-10.5524
▁stricte	-10.5525
▁bataille	-10.5527
fort	-10.5528
▁retrait	-10.5536
▁importantes	-10.5539
dia	-10.554
PS	-10.5543
LI	-10.5545
mie	-10.5547
▁Mé	-10.5547
▁argent	-10.5548
▁exactement	-10.5553
▁Bas	-10.5555
▁mec	-10.5558
▁découvrez	-10.5561
ind	-10.5562
▁voter	-10.5563
33	-10.5563
▁citation	-10.5565
▁studio	-10.5569
▁Quant	-10.5575
▁capacités	-10.5576
▁exceptionnelle	-10.5583
▁patients	-10.5583
cle	-10.5586
▁présidentielle	-10.5588
▁conséquence	-10.5598
▁réalise	-10.5599
▁énergétique	-10.5599
humanité	-10.5609
▁enfance	-10.5612
▁perd	-10.5616
▁fermeture	-10.562
▁allemand	-10.5621
▁prison	-10.5622
og	-10.5623
▁revenus	-10.5629
▁pur	-10.5629
▁espèces	-10.563
▁certificat	-10.5631
ani	-10.5631
▁(12)	-10.5632
▁massage	-10.5635
Ouest	-10.5636
▁missions	-10.5638
▁composée	-10.5646
▁cent	-10.565
▁humains	-10.5651
▁rénovation	-10.5654
▁chinois	-10.5656
▁meuble	-10.5656
UR	-10.5658
▁efforts	-10.566
▁gare	-10.566
anglais	-10.566
▁lié	-10.5662
km	-10.5663
all	-10.5665
▁décor	-10.5666
▁ouvre	-10.5675
ible	-10.5678
▁Th	-10.568
éd	-10.568
▁Inscrivez	-10.569
LA	-10.5692
▁Maintenant	-10.5693
ham	-10.5694
▁Littérature	-10.5697
▁dossiers	-10.57
▁auquel	-10.5705
▁notion	-10.5707
ps	-10.5708
▁Jo	-10.5709
▁canton	-10.5714
▁dimension	-10.5716
▁Euro	-10.5716
«	-10.5718
▁dur	-10.5718
▁prime	-10.5719
▁propositions	-10.5719
▁conséquent	-10.5725
▁changé	-10.5725
▁vallée	-10.5726
▁combien	-10.5726
▁sel	-10.5729
▁allant	-10.5735
▁Van	-10.5736
▁démocratie	-10.5737
▁Bleu	-10.5739
▁Ti	-10.5741
EC	-10.5747
▁spécialisée	-10.5748
▁électriques	-10.5763
her	-10.5763
▁actif	-10.5766
▁carnet	-10.5769
aimerais	-10.5769
▁attendant	-10.5771
ini	-10.5772
▁rangement	-10.5774
ture	-10.5775
▁cons	-10.5776
▁justement	-10.5777
▁CD	-10.578
▁informé	-10.5784
▁content	-10.5784
▁françaises	-10.5787
▁décrit	-10.579
▁camp	-10.5792
▁Bretagne	-10.5792
▁permanent	-10.5793
▁réservé	-10.5795
▁pommes	-10.5795
▁voulait	-10.5798
▁accompagné	-10.5798
▁voitures	-10.5802
▁offrent	-10.5805
▁sorti	-10.5808
▁allé	-10.5809
nais	-10.5809
▁standard	-10.5816
▁prenant	-10.5818
▁convention	-10.5819
▁fans	-10.5828
▁trouvent	-10.5829
▁venue	-10.5831
▁solidarité	-10.5832
▁Lunettes	-10.5832
▁flux	-10.5832
▁soutenir	-10.5834
▁programmation	-10.5842
▁Arts	-10.5843
▁structures	-10.5843
▁Anne	-10.5845
▁parlé	-10.5847
▁coté	-10.5848
▁prévues	-10.5851
▁alimentaire	-10.5851
▁pain	-10.5854
▁kilomètres	-10.5856
о	-10.5856
▁préfère	-10.5858
▁séances	-10.5864
ssement	-10.5867
▁maquillage	-10.5868
▁chargé	-10.5869
▁européens	-10.5871
tage	-10.5871
▁Bal	-10.5872
▁ver	-10.5874
inscrire	-10.5874
▁financiers	-10.5875
▁tome	-10.5884
▁personnels	-10.5887
▁proposent	-10.5888
▁interdite	-10.5888
my	-10.5893
▁pharmacie	-10.5893
▁photographie	-10.5897
▁récit	-10.59
arrêt	-10.59
▁look	-10.5901
rent	-10.5903
▁cancer	-10.5904
▁diversité	-10.5906
immobilier	-10.5911
▁2001	-10.5913
▁décisions	-10.5913
▁installé	-10.5916
oli	-10.5918
onnant	-10.5919
▁IP	-10.5923
teur	-10.5923
▁fournisseur	-10.5925
▁discussion	-10.5925
isée	-10.5926
▁sports	-10.5934
▁commissaire	-10.594
▁contemporain	-10.5942
▁rang	-10.5943
▁extrêmement	-10.5943
▁scolaires	-10.5948
▁dirigeants	-10.5953
▁interdit	-10.5953
ama	-10.5954
▁héros	-10.5959
▁connue	-10.5962
▁officielle	-10.5962
études	-10.5964
tive	-10.5973
gen	-10.5973
▁PRO	-10.5973
▁thèmes	-10.5973
▁dure	-10.5975
▁Produits	-10.5976
▁reconnaissance	-10.5976
▁Actualités	-10.598
Uni	-10.5983
ç	-10.5984
affichage	-10.5984
▁prennent	-10.5985
▁infos	-10.5994
uv	-10.5999
▁faits	-10.6002
▁CE	-10.6002
ssez	-10.6008
▁char	-10.6011
▁1978	-10.6014
▁représentants	-10.6016
▁spécialisé	-10.6017
ches	-10.6017
▁douceur	-10.6019
▁Faites	-10.602
▁peintre	-10.6023
▁Choisir	-10.6024
▁ème	-10.6031
lit	-10.6033
▁Vente	-10.6035
▁chacune	-10.6037
▁chercheurs	-10.604
bel	-10.6046
▁volet	-10.6046
▁vieille	-10.605
▁sexy	-10.6057
abri	-10.6068
▁branche	-10.6071
▁amoureuse	-10.6075
nés	-10.6079
▁Cre	-10.6082
▁offrant	-10.6085
lais	-10.6086
▁malheureusement	-10.6087
▁grossesse	-10.6087
nce	-10.6087
▁Celui	-10.6087
▁Gra	-10.6089
▁pensez	-10.609
▁toile	-10.6091
▁exclusivement	-10.6092
éviter	-10.6099
▁Aller	-10.6104
▁retirer	-10.6104
▁organismes	-10.6104
by	-10.6111
▁organise	-10.6111
▁ga	-10.6112
▁mérite	-10.6113
option	-10.6114
▁Port	-10.6116
▁Games	-10.6121
▁concurrence	-10.6122
ola	-10.6124
UL	-10.6124
▁remplacement	-10.6127
▁créée	-10.6132
▁ba	-10.6135
ria	-10.6137
gues	-10.6139
▁sommet	-10.6139
▁Catégories	-10.6139
▁formule	-10.6143
26	-10.6144
hy	-10.6146
▁agents	-10.6155
4)	-10.6155
▁erreurs	-10.6157
▁AuteurDate	-10.6159
▁renforcer	-10.616
▁maladies	-10.6162
animation	-10.6162
▁opération	-10.6169
▁disent	-10.6174
▁publicités	-10.6174
ino	-10.6175
ombre	-10.6181
▁Rien	-10.6185
▁Taille	-10.6186
AF	-10.6186
OL	-10.6194
▁souffle	-10.6195
▁Beaucoup	-10.6196
tag	-10.6196
ell	-10.6198
▁mé	-10.6203
▁reconnaître	-10.6203
▁messagerie	-10.6204
illon	-10.6205
oeuvre	-10.6206
IF	-10.6209
▁culturelle	-10.6209
▁copie	-10.621
mêmes	-10.6214
▁montée	-10.6216
lis	-10.6219
▁représentent	-10.6219
ami	-10.6221
▁acier	-10.6224
▁écologique	-10.6224
rique	-10.6224
▁We	-10.6227
iti	-10.6227
▁banques	-10.6232
▁Retour	-10.6233
▁adaptée	-10.6234
▁réduit	-10.6238
▁intérieure	-10.6239
aine	-10.6239
oubliez	-10.6244
ep	-10.6245
▁chauffe	-10.6247
▁similaires	-10.6248
▁métal	-10.6249
▁remplir	-10.6253
▁kg	-10.6256
▁Chat	-10.6257
▁03	-10.626
▁Seine	-10.6262
▁modifications	-10.6268
agir	-10.6268
▁transformer	-10.6268
▁Institut	-10.6269
▁terres	-10.6269
▁poudre	-10.6271
tro	-10.6276
▁..	-10.6277
wa	-10.6279
▁avions	-10.6281
opération	-10.6281
UT	-10.6288
▁classes	-10.6289
▁quitter	-10.6289
▁toit	-10.6289
▁dessins	-10.6297
▁Te	-10.6298
▁idéale	-10.6308
▁Mise	-10.6309
▁He	-10.631
▁Maurice	-10.6314
▁exigences	-10.6314
▁montage	-10.6316
▁publier	-10.6318
enquête	-10.6319
université	-10.6321
▁voies	-10.6329
▁Informatique	-10.6329
▁intégré	-10.6329
▁réelle	-10.6337
▁certes	-10.6346
▁Mai	-10.6349
▁prête	-10.6349
▁sensation	-10.6352
rc	-10.6356
▁conte	-10.6357
alcool	-10.6358
ration	-10.6358
▁associé	-10.6359
▁bases	-10.636
▁tourner	-10.6365
pl	-10.6366
▁collective	-10.637
▁chefs	-10.6371
activités	-10.6371
ENT	-10.6373
nc	-10.6375
▁conseille	-10.6376
hu	-10.638
▁populations	-10.6381
▁III	-10.6382
échange	-10.6385
▁révolution	-10.6386
▁avance	-10.6388
▁naturels	-10.6393
électricité	-10.6396
offrir	-10.6396
ographie	-10.6397
▁postes	-10.6397
Chez	-10.6402
▁armes	-10.6408
mor	-10.6411
▁Fin	-10.6413
▁garçon	-10.6415
▁coucher	-10.6418
▁nucléaire	-10.6422
▁lesquelles	-10.6422
▁consultez	-10.6423
ieux	-10.6434
Voir	-10.6436
gan	-10.6438
église	-10.6438
ali	-10.6438
ica	-10.6441
▁considéré	-10.6441
▁2019.	-10.6445
▁Char	-10.6447
▁Annonces	-10.6451
▁phénomène	-10.6454
▁SA	-10.6459
▁nécessité	-10.6459
▁maintenir	-10.646
▁USB	-10.6462
innovation	-10.6472
appareil	-10.6473
▁récente	-10.6475
▁informer	-10.6475
▁considère	-10.6478
▁laissez	-10.6478
▁Israël	-10.648
▁médicale	-10.6484
▁Billet	-10.6486
▁tourne	-10.6487
▁Li	-10.6487
▁employés	-10.6488
▁hiver	-10.6489
▁russe	-10.6494
▁Jours	-10.6495
▁br	-10.6495
▁invitons	-10.6497
▁essayé	-10.6497
▁poursuivre	-10.6505
▁animal	-10.6506
ore	-10.6507
▁globale	-10.6511
OP	-10.6515
▁cible	-10.6515
▁seraient	-10.6521
▁travailleurs	-10.6523
▁transports	-10.6524
CC	-10.6528
▁mener	-10.6534
▁Ministère	-10.6536
▁sauce	-10.6536
▁transmission	-10.6536
▁huit	-10.6536
▁Bel	-10.654
▁Tom	-10.6542
ara	-10.6543
▁folie	-10.6544
▁Bio	-10.6546
▁toucher	-10.6547
▁Photos	-10.6547
▁rappeler	-10.6549
▁(13)	-10.655
▁expliquer	-10.6557
▁chasse	-10.6563
▁Sports	-10.6565
acte	-10.657
af	-10.657
ano	-10.6573
▁Newsletter	-10.6574
▁raconte	-10.6574
▁55	-10.6575
ju	-10.6576
▁tournée	-10.6577
▁réalisés	-10.6577
▁offert	-10.6578
▁consommateurs	-10.6579
▁souhait	-10.6587
▁Rouge	-10.6591
▁croissant	-10.6605
▁rares	-10.6605
▁journalistes	-10.6606
▁expert	-10.6609
▁terminé	-10.6611
▁transformation	-10.6611
▁liquide	-10.6613
▁participé	-10.6615
▁Note	-10.6616
▁réaction	-10.6617
▁remarqué	-10.6618
▁Encore	-10.6618
ake	-10.6621
CA	-10.6622
▁Bibliothèque	-10.6623
▁pe	-10.6628
▁suisse	-10.663
▁profondeur	-10.663
▁musicale	-10.6632
ative	-10.6634
▁acquis	-10.6634
oui	-10.6636
▁auraient	-10.6639
▁Petite	-10.6642
tar	-10.6643
▁paysage	-10.6645
ight	-10.6652
▁division	-10.666
.....	-10.666
▁Ser	-10.6665
▁07	-10.6665
▁Cher	-10.6666
▁ménage	-10.6667
aujourd	-10.6667
▁remercie	-10.667
▁comporte	-10.6681
▁adopté	-10.6688
▁victime	-10.669
▁Toulouse	-10.669
▁mar	-10.6694
RA	-10.6695
dans	-10.6695
▁déterminer	-10.6698
▁Nice	-10.6698
Ch	-10.6699
zo	-10.67
▁froide	-10.67
▁Sch	-10.6709
▁vins	-10.6709
▁mesurer	-10.671
▁hyper	-10.6713
▁auront	-10.6713
▁Blanc	-10.6715
▁légère	-10.6721
fe	-10.6721
▁destin	-10.6722
▁inscrits	-10.6724
▁posé	-10.6728
An	-10.6729
▁paire	-10.6729
▁prestation	-10.673
▁défendre	-10.6731
▁réussir	-10.6732
▁bassin	-10.6732
▁médical	-10.6735
Italie	-10.6736
27	-10.6736
ct	-10.6736
▁limiter	-10.6739
▁arbres	-10.6746
▁séries	-10.6749
▁abonnement	-10.675
IT	-10.6751
▁stockage	-10.6757
▁parking	-10.6762
▁Ver	-10.6764
log	-10.6767
▁médicament	-10.6769
▁manifestation	-10.677
▁chantier	-10.6771
▁Venez	-10.6771
▁procéder	-10.6772
▁magie	-10.6775
38	-10.6776
▁Croix	-10.678
▁favoriser	-10.6781
▁99	-10.6783
▁lancement	-10.6784
▁patient	-10.6786
Sujet	-10.6786
▁sub	-10.6787
endroit	-10.6789
ète	-10.6792
yl	-10.6796
▁modes	-10.6797
▁Sal	-10.6797
▁riches	-10.6799
▁mo	-10.6799
▁ri	-10.68
▁Journal	-10.6802
▁sentiments	-10.6805
▁dangereux	-10.6809
bu	-10.6809
▁religion	-10.681
▁bruit	-10.6811
▁essentiellement	-10.6812
е	-10.6814
▁désirez	-10.6818
▁Sou	-10.6818
▁extraordinaire	-10.682
▁naturellement	-10.6822
ata	-10.6822
▁Bernard	-10.6823
▁arabe	-10.6827
▁défis	-10.6829
Ce	-10.6833
▁187	-10.6838
▁sympathique	-10.6848
▁Microsoft	-10.6848
bit	-10.6848
▁Panneau	-10.6849
▁bonjour	-10.6851
omb	-10.6852
▁gagné	-10.6859
▁tests	-10.6859
▁servi	-10.6862
▁contactez	-10.6868
▁sauver	-10.6871
▁acte	-10.6875
▁cheval	-10.6879
aud	-10.6881
envoyer	-10.6882
phone	-10.6885
▁Aucun	-10.6888
▁disponibilités	-10.6889
▁publicitaire	-10.689
▁quatrième	-10.6891
tée	-10.6894
▁mange	-10.6897
▁sensible	-10.69
VA	-10.69
▁saint	-10.691
▁can	-10.6919
▁puissant	-10.692
ida	-10.6921
acheter	-10.6922
▁recommandé	-10.6924
▁midi	-10.6926
▁contenant	-10.6928
▁rejoint	-10.6928
▁décès	-10.6928
▁proposées	-10.6928
▁alimentation	-10.693
▁plante	-10.6931
▁impact	-10.6931
▁candidature	-10.6933
▁léger	-10.6933
04	-10.6935
▁accessibles	-10.6935
én	-10.6936
▁privés	-10.6937
nelle	-10.6937
▁pre	-10.6941
tiques	-10.6945
▁installer	-10.6946
▁élus	-10.6946
nage	-10.6949
rit	-10.6949
lée	-10.695
▁RE	-10.6951
▁Christ	-10.6952
34	-10.6952
vel	-10.6954
▁front	-10.6959
tif	-10.6965
▁Birchbox	-10.6967
ita	-10.6971
▁valide	-10.6972
▁paragraphe	-10.6973
▁spécialistes	-10.6976
▁judiciaire	-10.6977
wi	-10.6982
Avallon	-10.6987
▁rêves	-10.6992
▁syndic	-10.6994
▁économie	-10.6995
▁imp	-10.6995
▁Tra	-10.6997
▁qualités	-10.6997
▁motif	-10.6997
▁référencement	-10.6998
▁Fil	-10.7004
▁exercices	-10.7004
▁voisins	-10.7005
▁CGU	-10.7007
▁plafond	-10.7008
▁prévue	-10.7009
▁Ber	-10.7009
DI	-10.7018
lar	-10.702
graph	-10.702
▁semi	-10.7021
éré	-10.7024
▁trouvez	-10.7028
cro	-10.7029
▁pensé	-10.7033
▁sou	-10.7034
▁possibles	-10.7041
66	-10.7045
▁nettoyage	-10.7048
▁trafic	-10.7048
▁Certaines	-10.7048
▁virtuelle	-10.705
▁Lune	-10.705
cer	-10.7055
▁déplacement	-10.7057
▁placé	-10.7058
off	-10.7064
▁rentrer	-10.7071
▁destinées	-10.7072
▁pouvoirs	-10.7074
doc	-10.7075
▁Big	-10.7078
Co	-10.7081
▁signal	-10.7082
▁vend	-10.7089
▁Emmanuel	-10.709
▁commander	-10.709
▁Européenne	-10.7091
utilise	-10.7097
▁actualités	-10.7102
bl	-10.7109
▁travaillé	-10.7112
▁Livre	-10.7113
▁internationales	-10.7114
▁VI	-10.7115
▁Radio	-10.7115
▁Point	-10.7116
▁Villa	-10.7121
Pour	-10.7121
▁Pe	-10.7121
▁personnalisé	-10.7123
▁journées	-10.7124
box	-10.7125
▁quart	-10.7126
▁références	-10.7126
nne	-10.7129
▁récupérer	-10.713
▁prêts	-10.713
▁Consultez	-10.713
▁Conférence	-10.7132
▁féminin	-10.7134
▁vice	-10.7137
▁valable	-10.7138
▁journaliste	-10.7139
▁producteurs	-10.7141
59	-10.7142
infos	-10.7143
illa	-10.7145
▁sélectionner	-10.7146
▁Comp	-10.715
essentiel	-10.715
Pierre	-10.715
exécution	-10.715
▁dimensions	-10.715
Saint	-10.7152
▁étrangers	-10.7169
ail	-10.717
);	-10.7173
▁compléter	-10.7173
▁épisode	-10.7174
▁automobile	-10.7178
▁positif	-10.7179
▁composition	-10.7179
era	-10.7184
▁arrêté	-10.7185
▁susceptibles	-10.7188
▁don	-10.7191
▁publiés	-10.7193
table	-10.7193
▁Ga	-10.7196
”,	-10.7204
▁Profitez	-10.7211
▁paroles	-10.7215
▁organisée	-10.7217
▁Lu	-10.7219
▁Jeu	-10.722
▁animations	-10.7222
▁Beau	-10.7225
existe	-10.7227
▁choc	-10.7236
unité	-10.7236
▁Luc	-10.724
CI	-10.7241
44	-10.7248
▁secteurs	-10.725
▁Commentaires	-10.725
▁Gratuit	-10.7252
▁confirmation	-10.7252
▁internautes	-10.7253
▁portail	-10.7253
▁ressort	-10.7253
▁mettent	-10.7255
▁faudrait	-10.7255
▁Christian	-10.7256
▁refuser	-10.7257
▁Chef	-10.7257
int	-10.726
▁magique	-10.7263
▁talent	-10.7263
▁fournisseurs	-10.7269
▁mat	-10.7269
lim	-10.7269
▁pont	-10.7269
▁Group	-10.7289
▁Palais	-10.7291
ny	-10.7291
Pro	-10.7291
▁Ministre	-10.7293
▁pompe	-10.7295
▁partis	-10.7295
▁associés	-10.7301
enne	-10.7302
▁instant	-10.7303
▁Édition	-10.7305
▁chansons	-10.7306
▁Gare	-10.7311
▁sommeil	-10.7315
intégration	-10.7316
▁billets	-10.7318
▁box	-10.7318
▁Ve	-10.7319
▁Commande	-10.7321
46	-10.7322
▁paris	-10.7324
▁ordinaire	-10.7324
▁Rock	-10.7326
▁régionale	-10.7334
▁publie	-10.7334
▁libres	-10.7337
▁optimale	-10.7337
▁nul	-10.7339
▁paysages	-10.7342
▁assurent	-10.7347
rez	-10.7349
▁déplacer	-10.7351
▁lutter	-10.7355
▁montré	-10.7357
▁trait	-10.7359
Au	-10.736
bert	-10.7361
▁épouse	-10.7361
▁colle	-10.7364
▁libertés	-10.7365
▁{	-10.737
▁minute	-10.7371
enfants	-10.7372
▁courte	-10.7374
▁apprécié	-10.7374
▁Bi	-10.7379
▁41	-10.738
▁plateau	-10.7381
▁Vénus	-10.7382
▁jardins	-10.7385
▁Décembre	-10.7386
▁augmente	-10.7387
43	-10.7387
100	-10.7388
▁classiques	-10.7388
▁contrats	-10.7389
▁richesse	-10.7392
agriculture	-10.7401
étaient	-10.7404
▁quartiers	-10.7405
▁Avis	-10.7405
▁pousse	-10.7409
iller	-10.7418
▁Grèce	-10.7418
▁escort	-10.7418
▁concerts	-10.7419
▁majeur	-10.7419
▁décret	-10.7419
42	-10.742
▁colère	-10.7421
▁recueillies	-10.7422
▁voile	-10.7423
alis	-10.7425
▁Sy	-10.7437
▁digne	-10.7438
37	-10.7441
▁nationales	-10.7445
▁ben	-10.7446
49	-10.7449
▁profils	-10.745
bar	-10.7453
ST	-10.7454
▁tra	-10.7456
/10	-10.7457
EUR	-10.7457
▁tube	-10.7459
▁degré	-10.746
▁championnat	-10.746
▁Avenue	-10.7466
▁capitaine	-10.7466
▁Sp	-10.747
▁RGPD	-10.7471
▁installations	-10.7472
▁Men	-10.7473
abilité	-10.7474
▁Logiciels	-10.7478
▁horaires	-10.748
▁plaît	-10.748
▁Modèle	-10.7482
▁profond	-10.7483
ém	-10.7486
▁Travail	-10.7492
▁populaires	-10.7497
▁Espagne	-10.75
euses	-10.75
hop	-10.7502
▁néanmoins	-10.7502
▁instructions	-10.7504
élève	-10.7504
▁furent	-10.7505
▁reprend	-10.7505
▁Alpes	-10.7509
▁menace	-10.751
utilisateurs	-10.7511
▁reprise	-10.7515
▁Informations	-10.7515
▁global	-10.7519
▁jugement	-10.7526
▁Livres	-10.7526
▁Compte	-10.7527
▁signaler	-10.7528
autorisation	-10.7528
▁essentiel	-10.753
▁adaptées	-10.7532
tis	-10.7535
▁mod	-10.7536
▁quasi	-10.7537
▁Test	-10.7542
▁pan	-10.7543
▁Film	-10.7544
▁Dictionnaire	-10.7545
▁guilde	-10.7545
▁Bravo	-10.7545
acheteur	-10.7545
din	-10.7553
▁agricole	-10.7562
▁province	-10.7562
▁pilote	-10.7563
▁Va	-10.7572
▁foot	-10.7573
▁blancs	-10.7578
▁établi	-10.7584
▁basée	-10.7586
▁nourriture	-10.7588
euil	-10.7588
événement	-10.7591
▁correspondent	-10.7593
mal	-10.7601
▁Corse	-10.7602
▁Georges	-10.7603
▁détente	-10.7612
▁commandé	-10.7615
▁go	-10.7616
ancienne	-10.7616
▁proven	-10.7619
▁fasse	-10.7623
▁chant	-10.7627
UPAC	-10.763
▁Trois	-10.7631
observation	-10.7632
▁mettant	-10.7632
▁Femmes	-10.7633
ayant	-10.7634
▁Luxembourg	-10.7635
▁précisément	-10.7635
▁annuel	-10.7635
mment	-10.7636
▁feront	-10.7638
iné	-10.764
ball	-10.764
▁girl	-10.764
▁(14)	-10.7643
▁dites	-10.7644
▁bâtiments	-10.7646
▁applicables	-10.7647
▁aimez	-10.765
za	-10.7654
▁îles	-10.7657
illé	-10.7662
▁video	-10.7664
installer	-10.7666
▁satisfaction	-10.7673
▁citron	-10.7674
▁comprenant	-10.7675
èle	-10.7676
▁dizaines	-10.7676
▁identité	-10.7679
▁Aucune	-10.7681
esse	-10.7683
Bas	-10.7687
▁tableaux	-10.7687
▁Chaussures	-10.7689
▁devenue	-10.7689
▁clubs	-10.769
ral	-10.7692
36	-10.7692
▁solide	-10.7694
▁fournies	-10.7695
tech	-10.7696
▁sex	-10.7697
▁37	-10.77
urgence	-10.7701
▁fromage	-10.7701
▁afficher	-10.7703
articles	-10.7704
▁recul	-10.7706
quet	-10.7711
▁étage	-10.7712
▁acc	-10.7719
▁Her	-10.7723
vant	-10.7723
▁Nantes	-10.7724
▁satisfait	-10.7728
taire	-10.7731
▁na	-10.7743
▁inc	-10.7744
extrême	-10.7744
Histoire	-10.7745
▁profite	-10.7745
pr	-10.7748
NA	-10.7751
▁ouverture	-10.7753
▁Journée	-10.7754
vit	-10.7755
vrez	-10.7758
▁fondateur	-10.7759
▁aspect	-10.7759
▁répondu	-10.7766
.»	-10.7767
▁mobilité	-10.7768
bus	-10.7775
ssé	-10.7775
ors	-10.7777
▁coque	-10.7781
▁photographe	-10.7781
▁principes	-10.7782
▁commerces	-10.7789
▁visible	-10.7795
▁piste	-10.7801
▁Marque	-10.7802
▁diplôme	-10.7803
▁garage	-10.7803
ppe	-10.7804
▁entraîne	-10.7806
▁mousse	-10.7808
▁constater	-10.7808
▁manquer	-10.7812
▁nu	-10.7815
▁spécialement	-10.7816
#	-10.7821
▁mécanique	-10.7826
▁militaires	-10.7828
▁ro	-10.7834
▁For	-10.7836
▁cou	-10.784
3)	-10.784
oi	-10.7841
▁Alsace	-10.7842
▁visiteur	-10.7843
tan	-10.7844
96	-10.7845
version	-10.7846
▁procès	-10.7847
▁coopération	-10.7848
toi	-10.7848
▁démocratique	-10.7854
▁res	-10.7857
▁élu	-10.7857
▁comprends	-10.7863
▁Autre	-10.7863
▁Cal	-10.7864
▁Cinéma	-10.7865
rais	-10.7865
▁Location	-10.7867
▁pauvre	-10.7869
▁th	-10.7871
▁augmentation	-10.7876
▁vertu	-10.7877
▁Cam	-10.7878
▁fusion	-10.7878
▁Em	-10.7879
zi	-10.7879
[1	-10.7887
▁physiques	-10.7887
site	-10.7887
▁civil	-10.7888
ui	-10.7888
▁...)	-10.789
▁cuisson	-10.789
▁mentale	-10.7891
▁religieux	-10.7896
▁cha	-10.7898
▁Sinon	-10.7903
▁crédits	-10.7904
▁naturelles	-10.7905
▁accepté	-10.7905
▁relativement	-10.7907
▁importance	-10.791
▁retrouvez	-10.791
▁enseignants	-10.7911
▁inspiré	-10.7914
mis	-10.7922
▁Rhône	-10.7922
!)	-10.7922
▁batterie	-10.7923
▁rock	-10.7925
▁etre	-10.7929
▁Ru	-10.793
▁diagnostic	-10.7938
▁plages	-10.7942
▁Gar	-10.7949
jour	-10.7951
▁Mor	-10.7957
▁majeure	-10.796
▁cérémonie	-10.796
▁contribution	-10.796
▁téléphonique	-10.796
▁bonus	-10.7963
▁municipal	-10.7964
▁Tr	-10.7965
▁contemporaine	-10.7967
gg	-10.797
▁comp	-10.7977
▁repos	-10.7978
▁Gouvernement	-10.7979
▁Jusqu	-10.7979
▁députés	-10.798
issent	-10.7981
approche	-10.7982
isant	-10.7985
54	-10.7985
ault	-10.7986
▁passée	-10.7988
▁constitué	-10.7988
▁équipement	-10.799
tout	-10.799
EM	-10.7992
Marie	-10.7992
▁estime	-10.7996
AND	-10.8
▁financières	-10.8001
▁drôle	-10.8004
▁mineurs	-10.8007
▁documentaire	-10.8008
del	-10.8013
▁250	-10.8013
ack	-10.8016
▁boutons	-10.8018
IM	-10.8021
▁rupture	-10.8023
▁silence	-10.8023
▁trente	-10.8023
ung	-10.8023
▁FN	-10.8028
▁Android	-10.8031
▁bo	-10.8031
▁kit	-10.8035
▁dévoile	-10.8036
▁réserver	-10.8038
▁so	-10.8041
▁vues	-10.8048
▁reine	-10.805
DE	-10.8051
▁fidèle	-10.8051
▁cadres	-10.8052
▁blessé	-10.8052
▁indésirables	-10.8052
▁agir	-10.8056
▁triste	-10.8056
bra	-10.8056
lire	-10.8059
▁raisonnable	-10.8068
▁voyez	-10.8068
▁maintenance	-10.8068
av	-10.8069
▁Er	-10.8069
▁conducteur	-10.8074
▁continent	-10.8078
▁Décoration	-10.8079
▁évènements	-10.8084
▁apparaît	-10.8085
▁hip	-10.8086
nat	-10.8087
▁Ab	-10.8093
▁littéraire	-10.8096
aurait	-10.8097
▁conclu	-10.8099
▁accident	-10.8099
▁78	-10.8103
uel	-10.8107
▁modifiée	-10.811
▁mobilisation	-10.8112
▁augmenter	-10.8114
▁cookie	-10.8115
▁commandant	-10.8115
ges	-10.8128
▁obligations	-10.8129
▁recherchez	-10.813
▁exclusive	-10.8141
ret	-10.8141
▁rond	-10.8142
attaque	-10.8145
uit	-10.8145
58	-10.8146
efficacité	-10.8147
▁tué	-10.8147
▁cor	-10.8149
égalité	-10.8151
▁émotions	-10.8155
▁commerciaux	-10.8158
▁disparition	-10.8158
adapter	-10.8158
▁conduire	-10.8158
▁conservation	-10.8158
▁charte	-10.8159
▁camping	-10.816
▁grille	-10.8166
▁plats	-10.8169
▁Théâtre	-10.8171
ü	-10.8175
▁émissions	-10.8175
▁ingrédients	-10.8175
▁Envie	-10.8176
▁agit	-10.8177
▁Star	-10.8178
gl	-10.8179
ile	-10.8181
▁fermé	-10.8182
▁câble	-10.8188
▁bu	-10.8189
▁geste	-10.819
nis	-10.8191
initiative	-10.8192
▁révèle	-10.8194
▁HP	-10.8195
41	-10.8197
▁décider	-10.8197
??	-10.8199
▁virus	-10.8203
▁collectivités	-10.8204
▁désert	-10.8205
▁(«	-10.8206
▁doté	-10.8207
▁Vol	-10.8209
▁chances	-10.8212
ste	-10.8213
tent	-10.8215
▁traduit	-10.8215
uch	-10.8216
▁placer	-10.8216
▁accueillir	-10.8217
▁Face	-10.8218
ting	-10.8218
▁ad	-10.8219
▁(+	-10.8226
▁quitte	-10.8226
▁sérieuse	-10.8231
▁anciennes	-10.8234
▁verte	-10.8235
amélioration	-10.8238
expédition	-10.8238
SI	-10.8238
▁tablette	-10.8239
▁frères	-10.8242
▁live	-10.8245
ib	-10.8247
▁éditeurs	-10.8248
▁fallu	-10.8248
▁̈re	-10.825
▁600	-10.8253
▁regroupe	-10.8253
▁électroniques	-10.8253
▁médecins	-10.8254
▁accompagne	-10.8255
▁bureaux	-10.826
▁conformité	-10.8261
▁Cuba	-10.8261
gra	-10.8261
▁filtre	-10.8262
▁fur	-10.8267
années	-10.8269
▁coûts	-10.8273
▁Sujet	-10.8274
lette	-10.8279
cou	-10.8281
▁producteur	-10.8281
▁USA	-10.8281
odo	-10.8282
rice	-10.8283
▁procédé	-10.8283
▁étudiant	-10.8283
▁privilégié	-10.8284
essai	-10.8284
▁débats	-10.8288
▁pa	-10.829
▁prudence	-10.8294
appui	-10.8295
FR	-10.8296
otte	-10.8298
▁Montrer	-10.8303
▁Loisirs	-10.8303
▁maintien	-10.8305
oire	-10.8307
ath	-10.831
cor	-10.831
▁prenez	-10.8312
ome	-10.8312
▁lèvres	-10.8315
rat	-10.8315
éditeur	-10.8317
▁tâches	-10.8325
aéroport	-10.8328
▁relève	-10.8331
°1	-10.8331
▁accepte	-10.8332
voy	-10.8335
ID	-10.8337
▁Aux	-10.834
▁dents	-10.8341
▁débit	-10.8342
tom	-10.8345
67	-10.8349
inc	-10.8357
▁proposant	-10.8357
▁conseillers	-10.8357
▁US	-10.8358
▁Sau	-10.836
qua	-10.8361
erreur	-10.8363
▁consacrée	-10.8368
Mon	-10.8373
▁traité	-10.8375
▁fiable	-10.8378
▁identifier	-10.8378
▁avais	-10.8382
▁smartphone	-10.8383
uche	-10.8385
▁Collector	-10.8386
▁poésie	-10.8386
▁législation	-10.8386
▁clôture	-10.8386
▁enregistrés	-10.839
▁bisous	-10.8394
▁sèche	-10.8395
▁disposer	-10.8397
▁Claude	-10.8398
oy	-10.8404
61	-10.8406
▁parvenir	-10.8407
▁im	-10.8407
▁sexuelle	-10.8409
ajouter	-10.8412
▁Bla	-10.8415
▁Semaines	-10.8415
▁detail	-10.8418
ART	-10.8419
ect	-10.8422
▁:)	-10.8423
▁collaborateurs	-10.8425
▁Vers	-10.8426
▁invité	-10.8427
▁Né	-10.8429
▁quelconque	-10.8432
▁boulot	-10.8433
▁1999	-10.8435
▁prévisions	-10.8436
▁Stéphane	-10.8436
▁autorisation	-10.8438
▁rues	-10.8439
5)	-10.8439
▁tendre	-10.844
▁différente	-10.8446
▁partagé	-10.845
▁Show	-10.845
▁canal	-10.845
▁Pat	-10.8451
ié	-10.8451
Si	-10.8454
▁Ki	-10.8455
▁Fonds	-10.8457
vol	-10.8457
▁matchs	-10.846
▁Red	-10.8462
▁préféré	-10.8464
ada	-10.8465
▁bite	-10.8466
Ordre	-10.8468
▁fonctionner	-10.847
▁repris	-10.8471
▁poche	-10.8471
abi	-10.8471
ayez	-10.8472
▁seins	-10.8474
▁précédentes	-10.8475
▁morceau	-10.8475
▁reprises	-10.8476
▁chapitre	-10.8479
aspect	-10.848
▁excellente	-10.8483
cad	-10.8489
▁exceptionnel	-10.849
▁us	-10.849
tons	-10.849
▁utilisent	-10.8493
▁Rose	-10.8498
▁Anti	-10.8501
aura	-10.8503
▁soucis	-10.8506
.000	-10.8516
▁indiquer	-10.8518
appartement	-10.8518
Orient	-10.8518
▁ouvrages	-10.852
▁OS	-10.852
▁prochaines	-10.8523
▁massif	-10.8523
▁proposée	-10.8525
▁échéant	-10.8525
Zélande	-10.8525
▁mobilier	-10.8525
▁recevrez	-10.8526
▁Rennes	-10.8527
▁transition	-10.8527
ifié	-10.8528
▁permanente	-10.8529
▁vague	-10.8531
91	-10.8532
▁ét	-10.8533
▁vivent	-10.8533
▁mets	-10.8534
▁bijoux	-10.8535
▁actifs	-10.8537
▁collectées	-10.8558
influence	-10.8565
▁primaire	-10.8565
▁notification	-10.8565
▁Liste	-10.8565
▁ballon	-10.8566
▁déposer	-10.8566
Espace	-10.8567
▁belge	-10.8567
▁moteurs	-10.8571
▁intitulé	-10.8574
arrière	-10.8581
▁Septembre	-10.8582
▁mobiles	-10.8582
pin	-10.8585
▁remis	-10.8589
▁versions	-10.8591
▁disait	-10.8596
vier	-10.8601
arc	-10.8606
quer	-10.8608
▁frontières	-10.8612
échelle	-10.8613
▁scénario	-10.8613
AB	-10.8613
fin	-10.8614
▁sportif	-10.8616
MC	-10.8617
▁conforme	-10.8618
▁Montpellier	-10.862
▁transparence	-10.862
64	-10.8621
▁facteurs	-10.8622
88	-10.8627
▁extrait	-10.8629
▁agences	-10.8633
76	-10.8634
▁gras	-10.8641
▁SUR	-10.865
élé	-10.8651
enligne	-10.8651
teurs	-10.8652
dou	-10.8653
▁claire	-10.8658
AP	-10.866
organisme	-10.8661
▁biens	-10.8662
AG	-10.8667
▁suffisamment	-10.8667
▁vocation	-10.8667
▁industriel	-10.8667
▁préserver	-10.8669
▁module	-10.867
ban	-10.8673
▁destinée	-10.8676
▁collecter	-10.8679
▁norme	-10.8683
▁constituent	-10.8685
▁Association	-10.8686
▁légal	-10.8691
▁réfléchir	-10.8699
court	-10.8705
2018	-10.8712
▁doigts	-10.8713
▁heureuse	-10.8714
▁panneau	-10.8714
▁rémunération	-10.8715
▁résoudre	-10.8715
▁progrès	-10.8715
▁folle	-10.8716
▁éventuellement	-10.8718
▁Sc	-10.8718
▁rapides	-10.8718
els	-10.872
▁Transport	-10.8722
OC	-10.8724
▁élève	-10.8726
▁marocain	-10.8726
▁all	-10.8726
actu	-10.8727
lat	-10.8728
▁ressemble	-10.8728
▁exclusives	-10.8731
▁siècles	-10.8731
▁socio	-10.8739
ich	-10.8741
▁pistes	-10.8746
espoir	-10.8756
ambiance	-10.8757
assistance	-10.8757
▁dizaine	-10.8758
▁codes	-10.8759
▁Toujours	-10.8762
▁miroir	-10.8762
▁Trump	-10.8762
84	-10.8771
ature	-10.8772
▁traditionnel	-10.8773
mb	-10.8774
▁fournit	-10.8774
▁Bri	-10.8774
are	-10.8775
▁papiers	-10.8776
▁passent	-10.8785
52	-10.8787
▁historiques	-10.8788
▁évident	-10.8791
gon	-10.8791
ren	-10.8792
[2	-10.8793
▁esthétique	-10.8797
-2018	-10.8799
▁marge	-10.8801
Algérie	-10.8801
▁témoignages	-10.8802
old	-10.8803
▁adulte	-10.8804
aménagement	-10.8805
Alpes	-10.8806
94	-10.8807
▁organiser	-10.8807
▁relevé	-10.881
IP	-10.8811
▁régler	-10.8814
raient	-10.8815
▁Mr	-10.8816
▁Peinture	-10.8822
har	-10.8824
▁Demande	-10.8828
nal	-10.8831
▁difficiles	-10.8832
▁recueil	-10.8833
▁implique	-10.8834
▁case	-10.8835
▁Pri	-10.8838
▁Ceux	-10.8845
▁archives	-10.8846
RO	-10.8848
▁avenir	-10.8849
▁limité	-10.885
▁Syrie	-10.8852
▁rempli	-10.8854
king	-10.8856
▁perspective	-10.8857
▁fonctionnalité	-10.8857
▁variété	-10.8857
▁facteur	-10.8858
▁territoires	-10.8858
▁!)	-10.8858
pen	-10.8859
PA	-10.8859
anti	-10.886
ous	-10.886
▁Lien	-10.8861
▁arrêt	-10.8861
▁tendances	-10.8865
▁authentique	-10.8866
▁garçons	-10.8866
igné	-10.8869
с	-10.8869
▁Public	-10.887
égard	-10.8874
▁comparer	-10.8876
AGE	-10.8876
▁alimentaires	-10.8881
entraînement	-10.8888
▁Normandie	-10.889
▁dép	-10.889
▁présentent	-10.889
ick	-10.8896
▁Julien	-10.8898
▁bloc	-10.89
▁attitude	-10.8904
▁confirmer	-10.8906
▁voudrais	-10.8908
▁écrite	-10.8908
▁transmettre	-10.8909
▁génie	-10.8909
74	-10.8911
▁Système	-10.8914
▁lectures	-10.8918
ettes	-10.8921
56	-10.8923
▁facilité	-10.8925
▁constat	-10.8929
▁publiée	-10.8929
▁savais	-10.893
▁disparu	-10.893
▁fe	-10.8931
asse	-10.8933
oral	-10.8936
▁Rue	-10.8939
~	-10.894
auf	-10.8942
▁Environnement	-10.8942
▁musical	-10.8947
▁59	-10.8948
rg	-10.8949
▁tranquille	-10.8951
▁tiens	-10.8952
▁ajouté	-10.8952
alimentation	-10.8954
▁Nature	-10.8955
▁management	-10.8956
▁poignée	-10.8956
▁tribunal	-10.8956
▁Revue	-10.8957
▁rayon	-10.8957
oreille	-10.8962
▁inférieure	-10.8963
▁Thomas	-10.8963
▁sportifs	-10.8964
rn	-10.8968
▁Commerce	-10.8971
▁TVA	-10.8972
▁44	-10.8975
▁supports	-10.8977
▁former	-10.8978
▁800	-10.8978
▁arrondissement	-10.8979
▁remarque	-10.8981
47	-10.8986
▁stars	-10.8991
▁Marine	-10.8991
personnalisation	-10.8994
▁modernes	-10.8995
▁Za	-10.8996
▁sécurisé	-10.9
▁épreuves	-10.9002
▁endroits	-10.9002
hôpital	-10.9002
Ecole	-10.9002
MENT	-10.9003
▁classé	-10.9003
▁appartiennent	-10.9005
▁destruction	-10.9005
▁fantastique	-10.9005
▁Madame	-10.9005
▁deviennent	-10.9005
▁choisissez	-10.9008
éco	-10.901
▁fruit	-10.9011
▁Vin	-10.9016
emp	-10.9016
▁sœur	-10.9018
▁1945	-10.902
▁fleur	-10.9022
die	-10.9023
venant	-10.9029
▁dédiée	-10.9029
▁faisons	-10.9031
ITE	-10.9031
▁expliqué	-10.9034
cour	-10.9042
69	-10.9043
▁fortes	-10.905
habitation	-10.9053
▁critiques	-10.9054
▁7,95	-10.9055
▁connaissent	-10.9056
▁Exemple	-10.9059
▁réglementation	-10.9061
▁pollution	-10.9062
▁romantique	-10.9063
ord	-10.9068
▁essentielles	-10.9074
▁ren	-10.9076
▁Sé	-10.9082
▁éditions	-10.9092
▁conseillé	-10.9094
▁administrateur	-10.9095
ente	-10.9095
cré	-10.9096
▁Rapport	-10.9098
▁paraît	-10.9099
humour	-10.9102
▁jambon	-10.9104
▁géographique	-10.9104
▁Patrick	-10.9104
▁comparaison	-10.9105
▁tapis	-10.9106
▁cré	-10.9106
▁profession	-10.9106
▁relatif	-10.9107
▁roulant	-10.9107
▁LED	-10.9108
68	-10.9109
▁posté	-10.9111
▁discipline	-10.9113
▁not	-10.9115
▁tours	-10.9119
▁Poste	-10.9121
▁plate	-10.9122
ros	-10.9126
▁promotions	-10.9129
▁tuer	-10.9129
▁Dia	-10.9129
▁expertise	-10.913
▁(16)	-10.9131
▁allemande	-10.9137
▁développe	-10.9137
▁IN	-10.9139
CHE	-10.9141
▁humeur	-10.9144
▁172	-10.9146
▁PAR	-10.9149
▁graphiques	-10.915
astrologie	-10.9152
indépendance	-10.9153
van	-10.9153
▁promouvoir	-10.9154
▁ludique	-10.9154
▁boire	-10.9155
▁info	-10.9157
▁stratégique	-10.9158
▁juifs	-10.916
▁issus	-10.9161
▁connus	-10.9161
gri	-10.9163
▁Kit	-10.9164
▁présentés	-10.9168
▁restant	-10.9172
▁Asie	-10.9175
PE	-10.9176
▁dÃ	-10.918
▁racines	-10.9184
▁One	-10.9185
▁douze	-10.9185
aille	-10.919
ît	-10.9191
ld	-10.9192
ding	-10.9195
▁contrairement	-10.9196
▁bibliothèques	-10.9196
▁CR	-10.9202
informatique	-10.9203
▁autorisé	-10.9203
▁colloque	-10.9204
▁fidélité	-10.9204
▁Contenu	-10.9204
▁Adobe	-10.9204
▁jury	-10.9204
oeil	-10.9205
77	-10.9206
▁offerts	-10.9207
▁Parlement	-10.9208
▁futurs	-10.9212
Vi	-10.9217
rier	-10.9218
tré	-10.9219
▁savent	-10.9227
▁Sacs	-10.9227
ev	-10.923
▁albums	-10.9234
▁Pont	-10.9236
Ré	-10.9237
cteur	-10.9239
nement	-10.9239
rage	-10.9242
▁64	-10.9244
SS	-10.9248
▁War	-10.9248
▁Dis	-10.9249
ED	-10.9252
▁couples	-10.9252
ordinateur	-10.9252
Amérique	-10.9253
▁Là	-10.9253
▁John	-10.9255
▁suspension	-10.9255
▁Congo	-10.9256
▁fuite	-10.9259
▁créateur	-10.926
▁sauvage	-10.926
▁record	-10.9261
ther	-10.9263
▁contente	-10.9264
▁magnifiques	-10.9264
▁gi	-10.9266
▁industrielle	-10.9267
▁39	-10.9268
▁ajoute	-10.9274
lou	-10.9274
▁Documentaires	-10.9278
leur	-10.9278
hors	-10.928
▁fun	-10.9284
actions	-10.9289
▁pierres	-10.9291
▁sacré	-10.9292
53	-10.9295
▁prends	-10.9296
sta	-10.9297
▁profonde	-10.9298
▁âgées	-10.93
▁Madrid	-10.9304
▁bizarre	-10.9304
▁fameux	-10.9304
▁permanence	-10.9304
▁répertoire	-10.9304
▁beurre	-10.9305
▁vas	-10.9305
▁suivent	-10.9306
▁résolution	-10.9306
EP	-10.9306
▁DJ	-10.9306
▁cool	-10.931
▁conflit	-10.9311
tez	-10.9314
▁72	-10.9318
▁ronde	-10.9319
▁poisson	-10.9322
issement	-10.9326
▁marine	-10.9329
ologue	-10.933
▁free	-10.9332
oud	-10.9338
▁confirme	-10.9338
▁Sol	-10.9339
▁évoque	-10.9339
▁Har	-10.9345
▁casque	-10.9353
▁Can	-10.9355
▁Telecharger	-10.9355
▁guitare	-10.9355
▁permettront	-10.9355
▁Affaires	-10.9356
▁humide	-10.9356
▁Salut	-10.9356
impact	-10.9356
▁51	-10.9357
avantage	-10.9357
▁moulin	-10.9358
▁OK	-10.9359
▁frontière	-10.9364
▁privées	-10.937
▁compatible	-10.9371
▁(15)	-10.9375
85	-10.9376
▁sanitaire	-10.9378
▁Sha	-10.9382
▁étudiante	-10.9382
▁dame	-10.9383
▁Homme	-10.9385
▁el	-10.9387
▁morale	-10.9395
▁Celle	-10.9398
▁souhaitent	-10.94
▁quels	-10.9402
▁équipée	-10.9402
pli	-10.9403
▁poursuit	-10.9403
UM	-10.9404
▁économies	-10.9406
▁payant	-10.9407
▁foule	-10.9407
automne	-10.9407
▁venant	-10.9413
▁randonnée	-10.9415
▁priorité	-10.9416
▁million	-10.9417
▁FR	-10.9417
rap	-10.9417
▁chanteur	-10.9418
▁tissus	-10.9419
▁Psychologie	-10.942
▁score	-10.9421
▁empêcher	-10.9422
▁sacs	-10.9423
▁modifié	-10.9426
98	-10.9428
65	-10.9432
▁oiseaux	-10.9432
offres	-10.9434
TA	-10.9436
bes	-10.9436
▁troubles	-10.9441
effectuer	-10.9446
▁artisans	-10.9449
▁Mag	-10.9449
cri	-10.9453
ish	-10.9454
▁arabes	-10.9455
▁prévenir	-10.9458
impôt	-10.9459
activer	-10.946
▁sensibilité	-10.946
▁origines	-10.9463
▁1998	-10.9463
▁Méditerranée	-10.9463
▁repose	-10.9464
ost	-10.9467
▁astrologique	-10.9468
▁variable	-10.9468
▁sondage	-10.9468
▁remarquable	-10.9468
issue	-10.9469
▁balade	-10.947
mu	-10.9471
ités	-10.9473
▁brut	-10.9476
▁annuelle	-10.9477
▁49	-10.9478
▁discussions	-10.9479
▁Tourisme	-10.9479
▁Bro	-10.9484
▁Peu	-10.9485
▁couper	-10.9487
▁démarches	-10.9501
▁villages	-10.9503
...),	-10.9503
▁Free	-10.9507
▁convaincu	-10.9509
▁bienvenue	-10.9509
tz	-10.951
▁Maître	-10.9511
orientation	-10.9512
0)	-10.9515
▁Ford	-10.9518
alisation	-10.952
▁pédagogique	-10.952
▁catholique	-10.952
▁Accès	-10.9521
▁sportive	-10.9522
▁Mou	-10.9523
▁Wa	-10.9523
▁onglet	-10.9524
▁engage	-10.9525
▁contraintes	-10.9529
▁photographies	-10.953
▁Projet	-10.9533
▁incontournable	-10.9533
pot	-10.9542
▁gentil	-10.9542
▁soirées	-10.9543
73	-10.955
ax	-10.9552
▁oeuvres	-10.9554
Par	-10.9557
▁aventures	-10.9559
▁copropriété	-10.9561
rsquo	-10.9561
▁progression	-10.9561
▁feuille	-10.9561
▁postés	-10.9562
▁réclamation	-10.9562
▁palais	-10.9562
▁Salade	-10.9563
attente	-10.9564
imp	-10.9566
▁adoré	-10.9567
▁mono	-10.957
▁quasiment	-10.957
▁concernés	-10.9573
▁bouteille	-10.9573
▁motivation	-10.9573
▁caméra	-10.9573
▁complémentaire	-10.9574
▁foyer	-10.9574
▁rep	-10.9585
uf	-10.9588
pha	-10.959
chon	-10.9593
dor	-10.9596
▁verra	-10.9596
FA	-10.9597
▁Voyage	-10.9599
▁éclat	-10.9601
▁chaise	-10.9602
cy	-10.9604
appliquer	-10.9606
▁off	-10.9609
ives	-10.9611
▁expositions	-10.9612
▁mourir	-10.9613
▁merveilleux	-10.9614
▁individuelle	-10.9615
inspiration	-10.9616
Espagne	-10.9616
▁définitivement	-10.9618
▁limitée	-10.9619
▁échanger	-10.9623
▁rÃ	-10.9624
▁parfum	-10.9624
▁man	-10.9624
shirt	-10.9628
▁extérieure	-10.9629
onde	-10.9631
▁appartient	-10.9631
▁indispensables	-10.9633
▁universitaire	-10.964
▁traitées	-10.9643
cia	-10.9644
▁peuples	-10.9646
▁Gr	-10.9646
▁assemblée	-10.9652
▁hôtels	-10.9655
▁Sam	-10.9655
▁poissons	-10.9658
▁appelée	-10.966
▁gagne	-10.9662
▁natal	-10.9664
▁Cro	-10.9665
▁journaux	-10.9667
▁recevez	-10.9668
▁Christophe	-10.9668
Utilisateur	-10.9669
▁forts	-10.9669
ern	-10.9671
▁synthèse	-10.9671
Jean	-10.9672
agne	-10.9673
▁(21)	-10.9675
▁rendement	-10.9676
ort	-10.9677
▁Del	-10.9678
▁intense	-10.968
▁galerie	-10.968
▁Octobre	-10.9681
▁Ecole	-10.9682
▁profitez	-10.9684
▁Amazon	-10.9684
▁Agence	-10.9687
▁Concours	-10.9692
▁Berge	-10.9692
▁consacre	-10.9694
ye	-10.9695
berg	-10.9695
▁recommandations	-10.9696
cl	-10.9697
▁rouges	-10.9698
▁Lille	-10.9699
▁communautés	-10.9703
èche	-10.9706
▁sportives	-10.9707
”.	-10.9707
▁fondé	-10.9713
▁sombre	-10.9713
isés	-10.9713
▁syndicat	-10.9714
▁apprécier	-10.9715
éti	-10.9716
▁Légion	-10.9718
▁Données	-10.9718
▁Is	-10.9721
▁pause	-10.9721
▁tension	-10.9722
▁gars	-10.9722
▁Pr	-10.9723
NI	-10.9728
▁désigne	-10.9728
aurai	-10.9729
siez	-10.9729
▁Communauté	-10.973
▁secondaires	-10.9731
ût	-10.9732
92	-10.9732
▁Vincent	-10.9733
Vos	-10.9733
▁laboratoire	-10.9734
▁rem	-10.9735
▁pension	-10.9736
▁milieux	-10.9736
▁Antoine	-10.9739
cra	-10.974
▁intervenir	-10.974
▁âme	-10.9744
▁mariée	-10.9745
▁préciser	-10.9748
SC	-10.9749
▁particules	-10.9752
ça	-10.9753
▁envies	-10.9755
nez	-10.9757
▁max	-10.9759
▁Vidéos	-10.9765
▁sensibles	-10.9767
bour	-10.9767
▁aliments	-10.9767
horizon	-10.9769
▁approprié	-10.9769
▁hi	-10.977
▁internationaux	-10.9771
▁fine	-10.9771
▁dépannage	-10.9771
▁2017,	-10.9772
▁édité	-10.9772
▁from	-10.9774
tres	-10.9775
‘	-10.9776
▁Communication	-10.9777
hébergement	-10.9779
▁Lui	-10.978
▁Fort	-10.978
ats	-10.9781
▁tomates	-10.9782
▁assurez	-10.9783
▁tâche	-10.9787
▁titulaire	-10.9788
▁assuré	-10.9788
engagement	-10.979
▁individus	-10.9791
ash	-10.9793
▁apprend	-10.9793
IER	-10.9793
ouche	-10.9796
▁Guy	-10.9797
ION	-10.9798
▁chats	-10.9798
▁clinique	-10.9799
▁aimer	-10.98
▁indépendante	-10.9801
▁Chi	-10.9803
mas	-10.9808
low	-10.9817
▁chargée	-10.9821
▁payé	-10.9821
▁protégée	-10.9821
▁spéciales	-10.9822
▁curieux	-10.9824
▁accueilli	-10.9825
olo	-10.9826
▁u	-10.9826
▁your	-10.9832
97	-10.9834
ves	-10.9834
▁ya	-10.9838
а	-10.984
▁Lac	-10.9841
▁personnellement	-10.9842
▁Produit	-10.9843
we	-10.9846
▁lieutenant	-10.9847
▁acteur	-10.9847
▁bleue	-10.9847
▁chrétiens	-10.985
▁euro	-10.9854
▁Thèmes	-10.9857
▁subi	-10.9858
ella	-10.9858
▁Bac	-10.9862
▁positions	-10.9862
▁réservée	-10.9863
▁complémentaires	-10.9865
▁traditionnelles	-10.987
▁citations	-10.9871
▁dite	-10.9873
▁circonstances	-10.9874
▁paru	-10.9876
▁pouvais	-10.9878
▁trimestre	-10.9878
▁ru	-10.988
▁quelles	-10.988
▁Mission	-10.9882
▁panneaux	-10.9883
▁orange	-10.9883
acquisition	-10.9884
▁(5	-10.9889
▁vo	-10.9891
▁varier	-10.9893
▁sûrement	-10.9894
▁venus	-10.9895
▁colonne	-10.9897
▁fausse	-10.9899
▁climatique	-10.9899
▁Hier	-10.99
▁plaque	-10.99
lam	-10.9901
▁Bé	-10.9902
▁testé	-10.9903
web	-10.9904
ame	-10.9905
▁Galerie	-10.9912
dan	-10.9912
▁constitution	-10.9917
▁venait	-10.9921
▁africaine	-10.9922
▁équilibre	-10.9923
▁contiennent	-10.9931
▁curiosité	-10.9931
▁GMT	-10.9931
▁Certes	-10.9931
▁satisfaire	-10.9931
▁réputation	-10.9932
▁précieux	-10.9932
▁répartition	-10.9932
▁Visite	-10.9932
emplacement	-10.9933
▁connaitre	-10.9937
▁périodes	-10.9938
rer	-10.9939
▁Che	-10.9941
▁béton	-10.9943
▁dominantes	-10.9943
▁alinéa	-10.9944
apprendre	-10.995
lum	-10.9953
▁réalisées	-10.9954
▁attaque	-10.9954
ble	-10.9955
▁pauvres	-10.9956
▁dispositifs	-10.9956
▁Vert	-10.9957
▁étrangères	-10.9961
ouvrage	-10.9961
iff	-10.9962
rés	-10.9962
▁chic	-10.9963
▁normale	-10.9965
▁Bat	-10.9974
▁congé	-10.9976
ras	-10.9976
▁Pre	-10.998
▁secrets	-10.9982
▁nez	-10.9983
▁visualiser	-10.9985
▁devront	-10.9986
▁cr	-10.9992
accéder	-10.9993
▁évoluer	-10.9996
lés	-10.9998
▁média	-10.9998
▁tre	-11.0003
onna	-11.0003
▁culturelles	-11.0004
étend	-11.0005
▁totalité	-11.0005
équipement	-11.0009
ann	-11.0011
▁termine	-11.0015
AV	-11.0016
▁américains	-11.0022
▁musées	-11.0023
▁Ok	-11.003
tain	-11.0035
Po	-11.0036
▁You	-11.0036
▁épi	-11.0038
occupation	-11.0039
▁Gérard	-11.004
▁Seigneur	-11.004
▁fixation	-11.004
▁Trouvez	-11.004
▁Département	-11.0043
▁Janvier	-11.0043
▁née	-11.0047
▁Allez	-11.0047
▁Guillaume	-11.0049
▁Meilleur	-11.005
▁engagé	-11.0055
▁Ass	-11.0063
▁Open	-11.0067
▁ennemis	-11.007
tait	-11.007
▁Science	-11.0072
▁lunettes	-11.0074
OM	-11.0076
▁absence	-11.0092
▁royaume	-11.0094
▁Rendez	-11.0094
▁Genève	-11.0094
ode	-11.0095
▁Amérique	-11.0095
▁étions	-11.0096
▁collègues	-11.0097
▁Ali	-11.0099
▁exploit	-11.0099
mère	-11.0101
▁finances	-11.0102
▁And	-11.0104
▁documentation	-11.0107
TS	-11.0108
▁Lorsqu	-11.0109
")	-11.011
installe	-11.011
▁68	-11.0111
▁régionales	-11.0112
quelles	-11.0113
▁Tre	-11.0113
assemblée	-11.0116
▁plongée	-11.0116
way	-11.0118
▁équipé	-11.0118
▁signification	-11.0118
▁limitation	-11.0119
▁vendu	-11.012
▁Emploi	-11.0123
AU	-11.0125
ements	-11.0126
▁représenter	-11.0127
▁Basse	-11.013
yo	-11.0131
▁musulmans	-11.0138
rom	-11.0145
▁cri	-11.0148
▁démarrage	-11.0149
▁énormément	-11.0149
▁grève	-11.015
VE	-11.015
▁devons	-11.0151
Une	-11.016
SP	-11.0162
▁pensées	-11.0163
▁fiscale	-11.0164
▁découvertes	-11.0169
▁étrange	-11.0171
▁étrangère	-11.0174
▁Ciel	-11.0181
▁performant	-11.0182
▁arrivent	-11.0183
▁Roi	-11.0184
▁Min	-11.0186
applique	-11.0189
8%	-11.019
▁exclusif	-11.0191
▁souligne	-11.0193
▁respecte	-11.0197
sous	-11.0198
-3	-11.0199
▁pousser	-11.0199
▁sonore	-11.0202
VI	-11.0203
▁retours	-11.0203
▁Hollande	-11.0204
but	-11.0206
▁île	-11.0209
lt	-11.021
▁évaluation	-11.0213
ero	-11.0214
▁panne	-11.0217
▁officiellement	-11.0217
▁psychologique	-11.0218
Paul	-11.0219
lib	-11.022
dre	-11.0225
▁ressenti	-11.0228
AUX	-11.0228
▁Titre	-11.0228
▁tentative	-11.0231
▁bou	-11.0232
▁accorder	-11.0232
▁contacts	-11.0232
▁Mur	-11.0233
équilibre	-11.0234
4%	-11.0237
▁Olivier	-11.0239
ult	-11.024
▁grise	-11.024
û	-11.024
▁show	-11.024
▁salaire	-11.0242
▁carré	-11.0244
▁affiche	-11.0249
▁personnalisés	-11.0249
▁chiens	-11.0251
▁traces	-11.0251
57	-11.0256
agisse	-11.0256
▁appeler	-11.0257
ège	-11.0258
▁(19)	-11.0259
▁my	-11.026
▁conversation	-11.026
▁familial	-11.026
▁discret	-11.026
▁piano	-11.0261
▁balance	-11.0261
▁mor	-11.0262
▁tchat	-11.0263
▁hein	-11.0263
▁1995	-11.0263
▁1990	-11.0265
▁RC	-11.0275
bout	-11.0277
hr	-11.0278
▁Oh	-11.0281
udi	-11.0285
trice	-11.0286
▁évidence	-11.0287
▁citer	-11.0289
▁tirage	-11.0292
▁agricoles	-11.0294
▁résumé	-11.0294
las	-11.0296
illard	-11.0297
▁cre	-11.0297
▁nulle	-11.0301
▁obligé	-11.0302
▁gorge	-11.0304
Et	-11.0304
2014	-11.0305
▁queue	-11.0306
▁passionnés	-11.031
▁00	-11.0314
ussi	-11.0315
▁foncé	-11.0316
COM	-11.0316
▁validation	-11.0316
▁coach	-11.0316
▁Brésil	-11.0317
▁quitté	-11.0317
▁musiciens	-11.0317
▁chaleureux	-11.0318
▁pourrais	-11.0319
▁Ros	-11.0321
▁Dur	-11.0322
▁élégant	-11.0326
▁Juin	-11.0327
enfance	-11.0327
▁dormir	-11.0327
mann	-11.033
ning	-11.0335
▁95	-11.0336
▁fondée	-11.0341
rance	-11.0343
▁complément	-11.0344
▁rivière	-11.0345
▁conclusion	-11.0345
▁Fe	-11.0347
▁concernent	-11.0348
▁avocat	-11.035
sans	-11.0352
▁Vo	-11.0352
▁aluminium	-11.0358
▁refuse	-11.0359
▁participant	-11.036
▁désactivé	-11.0362
▁́t	-11.0362
▁ho	-11.0364
▁serveurs	-11.0364
mag	-11.0364
▁urbain	-11.0365
tter	-11.0368
▁superficie	-11.0372
▁Justice	-11.0372
▁nationaux	-11.0373
html	-11.0373
▁dommages	-11.0374
▁auparavant	-11.0382
▁souris	-11.0383
intelligence	-11.0384
▁préférés	-11.0384
▁légale	-11.0387
▁compagnies	-11.0389
▁serais	-11.039
▁Château	-11.039
avoue	-11.0391
▁influence	-11.0391
▁investissement	-11.0396
top	-11.0397
▁(18)	-11.0399
▁existence	-11.04
▁manuel	-11.0404
▁caisse	-11.0405
▁tuto	-11.0406
plan	-11.0406
▁organisme	-11.0407
▁bière	-11.0407
▁associée	-11.0407
▁aff	-11.0409
▁constituer	-11.0409
▁blonde	-11.0412
▁Fribourg	-11.0413
▁génial	-11.0414
atoire	-11.0417
▁contes	-11.0417
Ca	-11.0421
▁Questions	-11.0421
▁précédente	-11.0421
▁sortes	-11.0425
2015	-11.0425
mit	-11.0426
uri	-11.0426
▁prévoit	-11.0429
▁recommandons	-11.0429
▁auxquels	-11.0429
▁black	-11.0429
coute	-11.043
▁gardien	-11.043
outil	-11.0432
▁1997	-11.0432
79	-11.0434
▁carbonara	-11.0434
▁ado	-11.0438
▁louer	-11.0439
▁rendent	-11.044
2%	-11.0443
intention	-11.0444
▁Situé	-11.0444
uis	-11.0445
▁iPhone	-11.0446
▁sûre	-11.0446
▁constante	-11.0447
▁disant	-11.0447
▁rou	-11.0448
▁instruments	-11.0451
▁MAR	-11.0452
▁installée	-11.0453
▁Royal	-11.0453
▁Aki	-11.0454
:00	-11.0457
63	-11.0458
bourg	-11.0459
▁susceptible	-11.046
▁exprime	-11.046
▁touristique	-11.0461
▁tire	-11.0466
▁numéros	-11.0467
▁italienne	-11.0478
▁salut	-11.048
▁contribuer	-11.0481
▁Tunisie	-11.0482
▁!!!!	-11.0483
▁défini	-11.0483
venu	-11.0485
▁croit	-11.0486
▁devriez	-11.0486
▁coûte	-11.0486
▁AU	-11.0491
▁bandes	-11.0493
▁haine	-11.0493
vert	-11.0493
nk	-11.0499
▁secours	-11.05
▁partielle	-11.0501
▁liée	-11.0502
intéresse	-11.0506
istique	-11.051
▁moral	-11.0512
▁Créer	-11.0512
▁compliqué	-11.0514
communications	-11.0514
▁pareil	-11.0517
▁puissent	-11.0519
anc	-11.0521
lien	-11.0525
resse	-11.0525
▁plonge	-11.0532
rine	-11.0532
▁news	-11.0536
DA	-11.0536
0%	-11.054
▁(18	-11.0541
▁généraux	-11.0543
▁balcon	-11.0544
avion	-11.0544
▁couvert	-11.0544
nder	-11.0546
▁bars	-11.0547
▁concentration	-11.0547
▁os	-11.0548
orm	-11.055
▁rec	-11.0553
▁Portugal	-11.0557
▁this	-11.0564
▁effectuées	-11.0566
▁van	-11.0566
▁pin	-11.0568
▁Fleurs	-11.0569
RES	-11.0569
usine	-11.0573
▁Dom	-11.0575
▁future	-11.0576
▁pé	-11.0576
▁applicable	-11.0577
▁similaire	-11.0577
▁symbole	-11.0577
▁tables	-11.0577
▁masculin	-11.0577
▁Max	-11.058
▁baise	-11.0581
logie	-11.0582
▁ouvertes	-11.0582
▁lancée	-11.0582
ator	-11.0584
▁donnera	-11.0585
▁Amour	-11.0586
iennes	-11.0587
▁CON	-11.0588
pre	-11.059
72	-11.0591
▁lol	-11.0592
cept	-11.0593
bor	-11.0593
93	-11.0594
▁amateur	-11.0597
Se	-11.0597
FF	-11.0597
emb	-11.0599
▁Choisissez	-11.06
▁clavier	-11.06
Ivoire	-11.06
▁semblait	-11.06
0€/	-11.0602
AY	-11.0602
▁battre	-11.0603
▁terminer	-11.0604
▁Divers	-11.0606
▁Bruno	-11.0607
51	-11.061
▁promo	-11.061
▁fabricants	-11.0611
tur	-11.0612
▁City	-11.0612
affiche	-11.0614
▁efficacité	-11.0614
▁ventre	-11.0614
inverse	-11.0614
Internet	-11.0615
▁Appartement	-11.0615
ATION	-11.0619
▁électro	-11.062
▁poulet	-11.0621
▁Fer	-11.0622
▁2014,	-11.0625
▁Sexe	-11.0625
▁casse	-11.0625
▁parlent	-11.0626
▁saurait	-11.0632
▁thématiques	-11.0633
▁q	-11.0634
▁jou	-11.0634
▁combinaison	-11.0635
▁immobilière	-11.0636
▁juive	-11.0636
▁visité	-11.0639
▁am	-11.0639
▁détaillé	-11.0639
▁pub	-11.0648
uer	-11.0648
rus	-11.0649
▁inférieur	-11.065
écrire	-11.0653
▁virtuel	-11.0655
rifi	-11.0655
instruction	-11.0656
▁connait	-11.0656
/11/2014	-11.0658
▁poitrine	-11.0658
▁bourse	-11.0658
▁LLC	-11.0658
▁litige	-11.0659
▁médiation	-11.0659
arrête	-11.0661
<<	-11.0661
▁prépare	-11.0662
▁arbre	-11.0663
cho	-11.0664
▁GPS	-11.0667
▁jazz	-11.0668
▁vrais	-11.067
ena	-11.067
▁Réseau	-11.0672
▁Frais	-11.0672
autorité	-11.0672
▁App	-11.0673
▁Mas	-11.0678
82	-11.0678
▁Cu	-11.0679
▁fidèles	-11.068
▁Park	-11.0683
ONU	-11.0684
nette	-11.0686
▁opposition	-11.0686
▁assister	-11.0687
▁cave	-11.0687
▁investissements	-11.0689
▁personnalisée	-11.0696
▁manche	-11.0697
▁intégrée	-11.0701
▁postale	-11.0703
▁Chambres	-11.0707
ain	-11.0707
▁Dimanche	-11.0716
▁chevaux	-11.0716
▁poivre	-11.0716
▁Chacun	-11.0717
▁accusé	-11.0718
▁attendu	-11.072
▁émis	-11.072
▁toiture	-11.0722
▁Inde	-11.0725
▁apport	-11.0732
http	-11.0732
effort	-11.0732
Plus	-11.0732
▁intégrer	-11.0733
▁Libre	-11.0733
▁composants	-11.0734
▁initiatives	-11.0736
▁FA	-11.0738
▁(4	-11.0745
hésite	-11.0745
Qu	-11.0746
▁Don	-11.0746
tit	-11.0747
iant	-11.075
▁trou	-11.0753
▁britannique	-11.0754
▁at	-11.0754
▁facebook	-11.0756
Di	-11.0762
▁reconnaît	-11.0763
▁réside	-11.0766
▁analyses	-11.0769
▁;)	-11.0771
▁Ya	-11.0771
vr	-11.0772
laire	-11.0772
év	-11.0774
▁joindre	-11.0774
▁retrouvé	-11.0777
▁obligation	-11.0777
▁Télé	-11.0778
▁garantit	-11.0778
▁relais	-11.0779
▁évènement	-11.078
▁jus	-11.078
▁existent	-11.0784
▁Entretien	-11.0784
▁chronique	-11.0784
ième	-11.0787
▁égale	-11.0789
▁adapter	-11.0792
▁clan	-11.0792
Euro	-11.0792
Com	-11.0797
pp	-11.0797
▁Matériel	-11.0797
▁(17)	-11.0799
▁cultures	-11.08
▁décroissant	-11.08
▁Bu	-11.0801
avaient	-11.0803
▁géant	-11.0806
entreprises	-11.0806
▁arrêter	-11.0807
Azur	-11.0808
ala	-11.0809
nent	-11.0811
▁dose	-11.0814
81	-11.0817
▁promet	-11.082
▁déclare	-11.0822
▁Générale	-11.0823
▁Reste	-11.0824
▁Café	-11.0825
ève	-11.0826
▁explorer	-11.0827
got	-11.0829
▁émission	-11.0829
▁ceinture	-11.0833
▁illustre	-11.0833
▁carbone	-11.0835
▁pape	-11.0836
▁prévoir	-11.0837
▁franchement	-11.0837
▁it	-11.0839
TR	-11.0839
NO	-11.084
▁54	-11.084
uk	-11.084
▁coudre	-11.084
▁pique	-11.0842
▁James	-11.0842
bur	-11.0842
▁bâti	-11.0843
▁grosses	-11.0845
ple	-11.0847
str	-11.0847
mine	-11.0849
arrêter	-11.0852
IG	-11.0853
▁barbe	-11.0854
▁intéresse	-11.0854
▁Juste	-11.0858
▁paiements	-11.0862
▁correct	-11.0862
▁remercier	-11.0864
▁certifié	-11.0865
▁intéressante	-11.0866
▁culte	-11.0866
▁champion	-11.0867
▁amitié	-11.0868
▁navigateurs	-11.0873
▁file	-11.0874
▁cercle	-11.0874
▁Couleur	-11.0874
▁canapé	-11.0877
▁accompagnement	-11.0877
▁AR	-11.0885
▁copropriétaires	-11.0887
▁décrire	-11.0888
crit	-11.089
▁Pluton	-11.0892
▁ciblage	-11.0892
▁méditation	-11.0892
▁Mulhouse	-11.0892
▁gueule	-11.0892
mir	-11.0893
▁Cité	-11.0894
▁progressivement	-11.0895
▁jaunes	-11.0899
INE	-11.0902
▁Soirée	-11.0902
olive	-11.0903
NE	-11.0903
▁livrer	-11.0903
▁Juillet	-11.0904
exactitude	-11.0908
prix	-11.0911
▁Fl	-11.0916
ura	-11.0916
▁dirige	-11.0917
ition	-11.0917
▁Charte	-11.092
▁remboursé	-11.0921
▁citoyen	-11.0929
HA	-11.0932
▁CAP	-11.0933
▁ge	-11.0934
▁Fr	-11.0935
▁gain	-11.0936
▁talents	-11.0936
▁parallèle	-11.0944
IO	-11.0945
▁créateurs	-11.0946
FI	-11.0949
su	-11.0951
▁Saturne	-11.0952
▁provisoire	-11.0952
▁nomination	-11.0952
▁désactiver	-11.0953
▁souplesse	-11.0953
▁dedans	-11.0953
▁comprennent	-11.0954
▁pauvreté	-11.0954
▁stand	-11.0954
ANT	-11.0955
▁Berlin	-11.0956
▁interventions	-11.0957
▁appartements	-11.0958
images	-11.096
ef	-11.0961
▁AS	-11.0965
▁partition	-11.0966
▁chinoise	-11.0968
▁espèce	-11.0968
ôme	-11.0968
2016	-11.097
▁urgence	-11.0973
CT	-11.0975
▁bénévoles	-11.0978
▁Kar	-11.098
▁MA	-11.0982
dic	-11.0985
ij	-11.0986
temps	-11.0987
▁appels	-11.0988
chant	-11.0989
bal	-11.099
ARD	-11.099
▁we	-11.0991
▁soldats	-11.0991
▁unités	-11.0992
lay	-11.0993
▁Video	-11.0999
▁ki	-11.1001
ffect	-11.1002
▁terrible	-11.1004
▁76	-11.1005
serv	-11.1007
▁appliquer	-11.1007
▁Installation	-11.1012
▁Turquie	-11.1012
▁bobine	-11.1012
▁relever	-11.1012
tine	-11.1014
gène	-11.1015
▁vols	-11.1017
▁énergies	-11.1018
▁présentant	-11.1018
idées	-11.102
rain	-11.1023
▁entourage	-11.1024
▁avancer	-11.1032
cas	-11.1036
▁Pu	-11.1038
▁spectacles	-11.104
▁Assemblée	-11.104
▁(20)	-11.1043
▁mental	-11.1045
▁robots	-11.1046
▁cherchent	-11.1053
▁compar	-11.1053
▁nuits	-11.1055
▁**	-11.1055
▁peint	-11.1055
▁complexes	-11.1055
▁façade	-11.1057
▁préférence	-11.1058
^	-11.1059
▁Roche	-11.1061
mou	-11.1063
▁imprimé	-11.1064
▁issues	-11.1065
ika	-11.1068
▁Père	-11.1069
▁ordonnance	-11.107
▁Grenoble	-11.1072
évêque	-11.1072
▁Lahmy	-11.1072
▁fraude	-11.1072
▁Météo	-11.1072
▁perception	-11.1072
▁Monaco	-11.1073
▁Annonce	-11.1073
▁vive	-11.1076
élaboration	-11.1076
cus	-11.1078
▁Avril	-11.108
▁caractères	-11.1082
▁Pan	-11.1084
86	-11.1085
▁parcourir	-11.1088
NS	-11.1089
change	-11.109
identification	-11.1092
rio	-11.1093
▁spécialisés	-11.1094
▁plastiques	-11.1094
▁Master	-11.1097
▁Hi	-11.1098
▁apporté	-11.1099
▁accompagnée	-11.1101
entendre	-11.1103
▁aiment	-11.1103
▁Manuel	-11.1103
▁procédures	-11.1108
▁assis	-11.111
▁EUR	-11.1112
▁secondaire	-11.1114
▁chers	-11.1117
▁négatif	-11.1119
▁souffrance	-11.1119
▁concerné	-11.1125
▁affiché	-11.1127
ere	-11.1129
▁mine	-11.113
7%	-11.1131
▁figurant	-11.1133
▁tetracycline	-11.1133
▁Lausanne	-11.1133
▁conseillons	-11.1133
▁agréé	-11.1133
▁suivez	-11.1135
▁prestataires	-11.1136
▁Romain	-11.1137
▁alternative	-11.1137
lation	-11.1137
▁refaire	-11.1138
▁franchise	-11.1139
▁bateaux	-11.114
▁sachant	-11.1144
venez	-11.1145
▁réagir	-11.1147
▁loup	-11.1148
▁Simon	-11.1148
▁IT	-11.1152
°6	-11.1153
▁Collection	-11.1154
PI	-11.1155
ére	-11.1155
▁impressionnante	-11.1156
Paris	-11.1156
▁Commune	-11.1159
▁routes	-11.116
▁touristiques	-11.116
▁exp	-11.1161
▁efficacement	-11.1162
pit	-11.1162
▁monuments	-11.1163
SM	-11.1165
▁traditions	-11.1167
▁trompe	-11.1167
CP	-11.1171
▁coupé	-11.1172
ity	-11.1173
ontrairement	-11.1176
▁célibataire	-11.1181
▁constructeur	-11.1181
adapte	-11.1182
▁temporaire	-11.1186
▁Victor	-11.1187
▁Mc	-11.1187
amis	-11.1188
éni	-11.1188
▁marcher	-11.119
▁optimiser	-11.1191
▁Disney	-11.1193
▁conquête	-11.1194
▁lumineux	-11.1194
▁solidaire	-11.1194
▁charbon	-11.1194
▁révision	-11.1195
▁mène	-11.1195
▁scènes	-11.1195
▁administrateurs	-11.1195
▁dia	-11.1197
▁News	-11.1197
▁municipalité	-11.1198
▁Instagram	-11.12
▁aperçu	-11.1202
▁(22)	-11.1204
▁voté	-11.1204
▁neuve	-11.1209
ski	-11.1209
▁Tags	-11.122
▁fier	-11.1222
adoption	-11.1223
NC	-11.1228
évi	-11.1229
œil	-11.123
▁solo	-11.1231
▁ministres	-11.1232
▁départements	-11.1235
▁goûts	-11.1241
▁stable	-11.1243
▁bulletin	-11.1244
▁DI	-11.1246
▁soeur	-11.1246
▁navigu	-11.1248
▁fabricant	-11.1249
gré	-11.125
▁bravo	-11.1255
▁Malheureusement	-11.1255
▁62	-11.1256
omp	-11.1256
hôtes	-11.1256
▁destinés	-11.1257
▁servent	-11.1258
▁Petites	-11.1258
▁Introduction	-11.1264
liste	-11.1266
▁intéressé	-11.1266
olé	-11.1269
▁carton	-11.127
hommes	-11.127
▁Analyse	-11.1272
empêcher	-11.1272
▁----	-11.1274
▁renseigner	-11.1275
▁Rou	-11.1277
immeuble	-11.1277
ok	-11.1278
▁Joseph	-11.1279
identifier	-11.1279
voqu	-11.128
▁tort	-11.128
quin	-11.1281
▁immeuble	-11.1282
▁FC	-11.129
▁mit	-11.129
▁Référence	-11.129
▁genres	-11.1292
▁Nations	-11.1293
▁fenêtres	-11.1299
orn	-11.1301
ira	-11.1301
win	-11.1302
▁Kh	-11.1307
accepter	-11.1307
-18	-11.1311
▁savait	-11.1312
afficher	-11.1313
▁considérée	-11.1314
▁Es	-11.1315
▁golf	-11.1315
▁Définition	-11.1317
▁vérification	-11.1317
▁saumon	-11.1317
▁gentillesse	-11.1317
▁mené	-11.1317
▁stabilité	-11.1317
▁tabac	-11.1317
los	-11.132
▁up	-11.132
▁rural	-11.1324
▁analyser	-11.1326
▁Août	-11.1326
3%	-11.1327
aff	-11.1327
▁Para	-11.133
▁jusque	-11.1333
▁Front	-11.1334
hal	-11.1338
▁Famille	-11.1339
▁littéraires	-11.1339
fu	-11.1339
Présentation	-11.134
▁Anglais	-11.134
▁Jan	-11.1341
▁maximale	-11.1341
book	-11.1344
tions	-11.1344
▁140	-11.1346
▁matériels	-11.1349
▁enquêtes	-11.135
▁»)	-11.1351
▁propriétés	-11.1352
eo	-11.1353
Ac	-11.1353
▁emplois	-11.1356
78	-11.1359
dont	-11.1362
fo	-11.1364
▁avantage	-11.1366
▁épisodes	-11.1366
▁Déco	-11.1367
▁culturels	-11.1368
▁tournoi	-11.137
▁légende	-11.137
▁compétence	-11.137
ING	-11.1372
cf	-11.1374
▁amené	-11.1374
smet	-11.1377
▁thermique	-11.1378
▁significative	-11.1379
▁créativité	-11.1379
▁corruption	-11.1379
▁Richard	-11.1379
▁POUR	-11.1381
▁efficaces	-11.1382
▁troupes	-11.1383
▁Mark	-11.1385
rand	-11.1386
▁Corée	-11.1388
ass	-11.1389
▁Source	-11.139
▁individuel	-11.1391
▁tenant	-11.1392
▁riz	-11.1392
▁perso	-11.1392
▁représentations	-11.1393
▁douleurs	-11.1395
▁47	-11.1395
▁rarement	-11.1396
▁Henri	-11.1398
▁Type	-11.1399
nisme	-11.1401
dés	-11.1402
atmosphère	-11.1402
érer	-11.1408
Biz	-11.1408
▁styles	-11.1408
▁européennes	-11.1414
▁honnête	-11.1416
gué	-11.1416
▁chaine	-11.1416
▁new	-11.1418
▁unité	-11.1418
▁plaques	-11.1419
▁finance	-11.1421
▁ES	-11.1422
▁publications	-11.143
="	-11.1432
▁consommateur	-11.1433
ima	-11.1435
▁Fête	-11.1436
▁issu	-11.1436
/11	-11.144
▁Cameroun	-11.1441
▁yoga	-11.1441
ibi	-11.1442
-12	-11.1442
▁(24)	-11.1442
▁zéro	-11.1442
▁conversion	-11.1443
side	-11.1443
▁rétro	-11.1445
aurez	-11.1449
▁expression	-11.1449
▁obligatoires	-11.1454
▁trucs	-11.1454
▁monsieur	-11.1455
▁touché	-11.1455
gal	-11.1455
ites	-11.1456
▁réserves	-11.1458
▁portent	-11.1459
▁gestes	-11.1462
▁déçu	-11.1462
▁tenté	-11.1464
▁mathématiques	-11.1466
▁PME	-11.1467
Comité	-11.1467
▁présentées	-11.1467
▁optimisé	-11.1468
▁nov	-11.1469
▁suivie	-11.147
▁Outre	-11.1471
▁largeur	-11.1476
▁élevée	-11.1477
iane	-11.1478
▁effort	-11.1478
of	-11.1481
▁optique	-11.1482
▁tend	-11.1484
▁traits	-11.1485
▁fondation	-11.1485
ring	-11.1485
ky	-11.1489
▁SP	-11.1492
▁Sites	-11.1496
St	-11.1497
▁RT	-11.15
▁salope	-11.1504
▁validité	-11.1504
▁promenade	-11.1505
▁attaché	-11.1507
▁célébrer	-11.1508
▁Membre	-11.1508
▁engagée	-11.1512
▁normalement	-11.1516
▁66	-11.1517
▁cellules	-11.1517
eg	-11.1518
▁rentre	-11.1518
Mo	-11.1523
▁déroule	-11.1524
▁tiré	-11.1524
▁int	-11.1524
ico	-11.1525
▁placement	-11.1526
▁accordé	-11.1526
▁Fond	-11.1528
Rhin	-11.1531
▁chimique	-11.1531
▁compteur	-11.1531
▁indi	-11.1534
▁assurée	-11.1535
▁Recrutement	-11.1536
▁Actualité	-11.1536
2017	-11.1537
▁japonaise	-11.1544
▁saisie	-11.1545
py	-11.1548
▁aident	-11.1551
▁volontaire	-11.1554
▁remplacé	-11.1554
ram	-11.1555
▁adresser	-11.1559
▁distingue	-11.1559
▁ST	-11.1561
▁saut	-11.1562
▁chèque	-11.1562
▁parlementaire	-11.1562
▁52	-11.1563
ALL	-11.1565
▁révélé	-11.1566
▁Micro	-11.1567
▁classés	-11.1568
▁vingtaine	-11.1568
▁Ju	-11.1571
▁85	-11.1571
▁interface	-11.1575
▁sélectionné	-11.1576
▁doucement	-11.1585
▁pdf	-11.1588
▁IV	-11.1591
▁néo	-11.1591
▁google	-11.1591
▁Faut	-11.1592
opinion	-11.1593
adaptation	-11.1594
▁montagnes	-11.1594
amitié	-11.1594
Agence	-11.1594
lac	-11.1594
espèce	-11.1594
▁travaillent	-11.1595
logue	-11.1597
▁couvre	-11.1597
▁Internationale	-11.1599
▁CP	-11.16
▁différences	-11.1601
▁are	-11.1601
▁coffre	-11.1601
▁lumières	-11.1602
▁restera	-11.1603
▁épices	-11.1605
▁Ham	-11.1607
▁Ton	-11.161
▁écrits	-11.1611
▁oblige	-11.1611
▁couches	-11.1611
▁raconter	-11.1616
pu	-11.1618
▁locations	-11.1619
▁forfait	-11.162
▁bat	-11.1622
rum	-11.1623
échappement	-11.1624
▁banc	-11.1625
▁respectifs	-11.1625
▁77	-11.1626
▁francophone	-11.1627
▁grec	-11.1627
▁École	-11.163
▁(17	-11.163
▁convaincre	-11.1631
▁poêle	-11.1631
▁directrice	-11.1632
▁rideaux	-11.1633
MI	-11.1634
▁immédiate	-11.164
▁Garantie	-11.164
▁partiellement	-11.164
▁incluant	-11.1642
▁Power	-11.1643
▁Dominique	-11.1645
▁Ke	-11.1647
▁chatte	-11.1648
▁rap	-11.1649
▁reconnue	-11.1652
attend	-11.1654
Louis	-11.1658
épreuve	-11.1659
main	-11.1664
▁déposée	-11.1666
▁marquée	-11.1667
▁Cas	-11.1667
Pas	-11.1669
aut	-11.1672
▁CM	-11.1675
▁exploitation	-11.1678
▁Nouvelles	-11.1678
▁Ram	-11.1678
iter	-11.1679
▁Quoi	-11.1683
▁investi	-11.1685
▁nécessairement	-11.1685
lles	-11.1686
▁fixer	-11.1687
▁indiqués	-11.1688
▁eut	-11.1688
▁Mali	-11.1692
hou	-11.1692
▁favorable	-11.1692
▁témoin	-11.1692
▁collègue	-11.1692
▁salarié	-11.1692
▁report	-11.1693
▁56	-11.1694
▁formidable	-11.1695
▁organique	-11.1695
▁contenir	-11.1695
▁présidence	-11.1696
▁fiabilité	-11.1696
▁désigné	-11.1696
▁finition	-11.1697
▁Chaise	-11.1698
▁atteinte	-11.17
▁Défenseur	-11.1701
▁huile	-11.1701
▁malade	-11.1702
▁UV	-11.1703
▁2.0	-11.1705
▁compose	-11.1706
apporter	-11.1718
▁servant	-11.1721
▁serai	-11.1723
examen	-11.1723
Informatique	-11.1723
étant	-11.1723
animaux	-11.1723
shi	-11.1723
▁états	-11.1724
Li	-11.1726
▁AL	-11.1726
▁possèdent	-11.1727
▁professeurs	-11.1729
exprimer	-11.1729
▁Régional	-11.173
nde	-11.1731
égo	-11.1731
çon	-11.1733
Dans	-11.1734
ua	-11.1735
▁migrants	-11.1736
89	-11.1738
mus	-11.1739
▁urbaine	-11.174
▁Bra	-11.1741
gui	-11.1747
blog	-11.175
▁intime	-11.1752
▁George	-11.1758
▁augmenté	-11.1758
▁visitez	-11.1759
▁profondément	-11.176
▁souviens	-11.176
▁FAQ	-11.176
▁filière	-11.1762
▁forge	-11.1763
▁fauteuil	-11.1765
▁garanties	-11.1766
▁marron	-11.1767
▁business	-11.1773
ancé	-11.1775
▁boissons	-11.1777
▁habitudes	-11.178
▁surpris	-11.1785
Israël	-11.1788
accompagnement	-11.1793
tec	-11.1794
▁électorale	-11.1794
▁roues	-11.1795
▁av	-11.1797
▁comportements	-11.1798
tisme	-11.18
▁communications	-11.18
EST	-11.1801
▁valider	-11.1801
▁Appel	-11.1803
▁pic	-11.1805
▁Dan	-11.1808
asc	-11.1808
▁éducation	-11.1816
éné	-11.1817
▁Ph	-11.1817
▁lourd	-11.182
-5	-11.182
▁administratives	-11.1821
ium	-11.1823
▁religieuse	-11.1824
▁priori	-11.1825
▁Convention	-11.1825
▁remporté	-11.1825
▁révolutionnaire	-11.1825
▁plaire	-11.1828
▁bénéfice	-11.1829
▁habituellement	-11.1829
▁indicatif	-11.1831
▁vivement	-11.1833
▁donnez	-11.1835
jou	-11.1836
entrer	-11.1836
▁enseignement	-11.1836
▁Av	-11.1841
▁Cou	-11.1842
▁monté	-11.1843
▁CV	-11.1845
acc	-11.1846
pat	-11.185
▁Lot	-11.1852
encre	-11.1853
▁pou	-11.1854
▁joint	-11.1855
▁boucle	-11.1857
▁livré	-11.1858
▁TF	-11.186
▁Etat	-11.1861
▁développée	-11.1862
▁Vice	-11.1862
entend	-11.1863
▁prof	-11.1868
6%	-11.1868
▁commencent	-11.1869
▁péri	-11.187
▁Outils	-11.1875
▁Hommes	-11.1881
▁Alex	-11.1882
▁vivante	-11.1884
°3	-11.1884
▁Hé	-11.1889
▁Concernant	-11.189
▁cristal	-11.189
▁dégage	-11.1893
▁maillot	-11.1894
7)	-11.1896
hen	-11.1897
▁Samedi	-11.1897
▁Déclaration	-11.1898
▁franc	-11.1898
▁coloris	-11.1899
▁Thies	-11.1904
nées	-11.1905
▁sexuelles	-11.1905
oyer	-11.1911
▁hop	-11.1914
▁paraître	-11.1915
▁pensent	-11.1918
}	-11.1918
▁Marché	-11.1919
▁gu	-11.192
▁opt	-11.1922
▁Zone	-11.1926
ual	-11.1926
▁disposent	-11.1927
vir	-11.193
ping	-11.1932
):	-11.1933
▁papa	-11.1934
▁attaques	-11.1935
ctor	-11.1948
▁cote	-11.1948
▁positive	-11.195
▁bol	-11.1952
▁monte	-11.1954
kh	-11.1954
62	-11.1955
▁Résidence	-11.1956
▁tatouage	-11.1956
▁multimédia	-11.1956
▁Barcelone	-11.1956
▁maîtres	-11.1957
▁balle	-11.1957
▁Connectez	-11.1958
▁doigt	-11.1958
rot	-11.1959
▁réglable	-11.1959
▁pomme	-11.1959
▁fixé	-11.1961
▁Frédéric	-11.1962
▁chimiques	-11.1963
▁Post	-11.1964
OT	-11.1964
▁industriels	-11.1964
▁|--~	-11.1966
▁graisse	-11.1967
▁mixte	-11.1967
aw	-11.1969
▁animé	-11.197
▁Animaux	-11.197
200	-11.1971
▁saura	-11.1971
▁(10	-11.1973
▁rat	-11.1981
▁Pascal	-11.1983
▁Année	-11.1985
▁intègre	-11.1987
87	-11.1989
▁Hugo	-11.1994
chat	-11.1995
▁Ban	-11.1996
▁passées	-11.1997
coration	-11.1998
ace	-11.1998
contre	-11.1999
▁Mondial	-11.2001
5%	-11.2002
▁symptômes	-11.2004
▁Tar	-11.2012
▁résolu	-11.2013
roy	-11.2013
▁pp	-11.2014
avi	-11.2016
▁fiscal	-11.2019
DS	-11.2021
▁lève	-11.2021
▁Résumé	-11.2022
▁simplicité	-11.2022
▁Street	-11.2022
édifice	-11.2022
▁Collège	-11.2022
▁Où	-11.2023
IV	-11.2023
▁Bob	-11.2024
▁préavis	-11.2024
▁avancée	-11.2025
▁administrative	-11.2026
▁phrases	-11.2028
▁parisienne	-11.2032
▁Four	-11.2035
▁savons	-11.2038
▁personnalités	-11.2038
tie	-11.2039
▁vif	-11.2039
▁2010,	-11.204
▁effectuée	-11.2047
▁Fait	-11.2048
▁Cho	-11.2049
nale	-11.205
imagine	-11.205
▁conserve	-11.2051
dom	-11.2053
abonnement	-11.2054
Église	-11.2054
▁défend	-11.2054
iche	-11.2056
▁2007,	-11.206
▁manches	-11.2061
▁Fu	-11.2061
▁NO	-11.2062
▁bombe	-11.2064
UP	-11.2064
▁déterminée	-11.2066
▁traitements	-11.207
▁emprunt	-11.2077
ust	-11.2077
cr	-11.2079
▁planétaires	-11.208
500	-11.2083
▁Mir	-11.2087
tés	-11.2087
▁attente	-11.2088
▁best	-11.2088
▁islamique	-11.2089
▁constate	-11.2089
ades	-11.2089
▁noix	-11.209
▁Sélectionnez	-11.2092
▁750	-11.2092
ENS	-11.2093
▁établir	-11.2093
▁biologique	-11.2094
▁uniques	-11.2097
▁Kat	-11.2101
▁adjoint	-11.2106
▁Gros	-11.2113
▁protégé	-11.2113
▁mn	-11.2113
▁Pal	-11.2113
9%	-11.2116
ules	-11.2119
bien	-11.2123
▁considér	-11.2125
▁concepts	-11.2125
▁transmises	-11.2126
▁conscient	-11.2128
▁(15	-11.2128
▁amende	-11.2133
▁réduite	-11.2133
▁soupe	-11.214
▁pédagogiques	-11.2141
▁Part	-11.2144
▁usine	-11.2146
▁Game	-11.2147
rencontre	-11.2149
▁supplément	-11.2155
▁instrument	-11.2156
▁rayons	-11.2156
▁librairie	-11.2156
▁investisseurs	-11.2157
▁(23)	-11.2157
▁finit	-11.2159
▁trésor	-11.2161
▁réactions	-11.2162
▁carburant	-11.2162
▁texture	-11.2162
▁vitre	-11.2163
arbre	-11.2168
▁sols	-11.2169
▁Immobilier	-11.2171
▁jambes	-11.2173
▁faibles	-11.218
▁alentours	-11.218
▁duo	-11.218
UN	-11.218
▁AC	-11.2182
▁dépasser	-11.2182
▁Ét	-11.2188
▁longs	-11.2188
ato	-11.2189
▁consulté	-11.219
▁contr	-11.2197
▁promis	-11.2198
▁guider	-11.22
▁épreuve	-11.22
▁58	-11.22
▁traite	-11.2201
▁Yves	-11.2204
▁technologiques	-11.2205
▁artistiques	-11.2207
▁resté	-11.2208
thé	-11.2209
▁Images	-11.2209
▁fêter	-11.2212
▁déplacements	-11.2213
SO	-11.2213
▁AV	-11.2215
envie	-11.2216
Ad	-11.2221
▁étranger	-11.2222
▁faciles	-11.2223
▁Déjà	-11.2223
▁cinquième	-11.2223
▁Management	-11.2223
▁Télévision	-11.2224
▁portefeuille	-11.2224
aisissez	-11.2229
▁terrains	-11.2232
▁maternelle	-11.2233
▁chaudière	-11.2233
▁fumée	-11.2234
▁ka	-11.2234
duit	-11.2235
▁Hotel	-11.2237
▁Ed	-11.2242
▁réuni	-11.2242
▁tarte	-11.2243
▁adhérents	-11.2243
▁soutenu	-11.2245
LES	-11.2245
▁décennies	-11.2249
hier	-11.225
▁graves	-11.225
islam	-11.2252
▁Argent	-11.2256
▁mu	-11.2257
président	-11.2259
▁}	-11.2259
▁passionné	-11.2259
▁73	-11.2259
▁particulières	-11.2259
augmentation	-11.2259
▁couvrir	-11.226
▁dirigé	-11.2263
▁causes	-11.2263
▁incendie	-11.2269
▁Station	-11.2269
occuper	-11.2273
▁vitrines	-11.2277
▁voisin	-11.2279
▁voyant	-11.2281
▁souhaité	-11.2282
▁Mel	-11.2287
neur	-11.2288
▁aérien	-11.2289
▁éloigné	-11.2291
▁diamètre	-11.2292
▁ac	-11.2293
▁médiateur	-11.2293
▁témoins	-11.2295
trop	-11.2295
▁cl	-11.2296
▁pli	-11.2297
vre	-11.2297
▁abordable	-11.2298
▁Référencement	-11.23
▁couture	-11.2301
▁prière	-11.2302
▁;-)	-11.2302
EX	-11.2303
▁Droits	-11.2303
▁cam	-11.2307
▁Studio	-11.2309
▁apparaître	-11.2311
▁Albert	-11.2313
▁Maire	-11.2315
▁Lettre	-11.2319
▁entraîner	-11.232
▁clic	-11.2321
optimisation	-11.2321
▁modéré	-11.2323
▁//	-11.2324
▁blé	-11.2324
autonomie	-11.2327
8)	-11.2328
▁demandent	-11.2329
▁équipés	-11.233
▁team	-11.2331
▁Economie	-11.2331
▁nourrir	-11.2333
▁agent	-11.2334
▁contribue	-11.2338
▁Porno	-11.2339
83	-11.234
▁Rem	-11.234
.”	-11.2343
▁sauvegarde	-11.2343
El	-11.2344
celle	-11.2349
▁matelas	-11.2349
rd	-11.2352
▁placée	-11.2354
▁DA	-11.2354
act	-11.2354
▁apparu	-11.2358
▁stages	-11.2358
▁délégation	-11.236
▁réalisateur	-11.236
▁vapeur	-11.236
▁Mercure	-11.236
▁Interview	-11.236
▁Photographie	-11.236
▁logistique	-11.236
▁Niveau	-11.2362
Autres	-11.2362
ige	-11.2364
kin	-11.2364
▁voulons	-11.2364
▁fumé	-11.2365
▁plateformes	-11.2366
▁menée	-11.2367
▁guides	-11.2371
▁souhaiter	-11.2377
elli	-11.2377
nois	-11.2378
▁exercice	-11.2378
▁déterminé	-11.2383
▁console	-11.2385
▁ouverts	-11.2388
▁mature	-11.2388
▁Fiche	-11.239
▁data	-11.2391
▁identifiant	-11.2395
▁Libertés	-11.2395
▁miel	-11.2397
expertise	-11.2397
axe	-11.2397
▁combats	-11.2399
▁mix	-11.2399
▁horaire	-11.2399
▁Lorraine	-11.2399
▁interview	-11.2399
éclairage	-11.24
▁Techniques	-11.2401
▁exemples	-11.2401
▁explications	-11.2402
▁sp	-11.2406
▁ravi	-11.2407
▁précisé	-11.2407
▁trous	-11.241
▁chi	-11.241
▁transactions	-11.2414
▁balades	-11.2414
sauf	-11.2414
▁mensuel	-11.2417
▁fédéral	-11.2418
▁boutiques	-11.2422
ë	-11.2428
▁dégâts	-11.2429
▁incapable	-11.2429
▁monétaire	-11.2429
▁Thierry	-11.2429
▁Mu	-11.2431
▁constituée	-11.2431
▁transforme	-11.2432
▁1970	-11.2433
▁serv	-11.2433
▁Février	-11.2436
▁May	-11.2439
▁CH	-11.244
▁Clo	-11.244
▁Continuer	-11.244
▁Jack	-11.2441
▁problématique	-11.2441
chu	-11.2442
vente	-11.2443
▁transmis	-11.2443
ds	-11.2444
▁affichés	-11.2445
▁Boutique	-11.2447
▁témoignage	-11.2447
eff	-11.2447
▁MO	-11.2448
▁Angleterre	-11.2449
▁écrivain	-11.245
attends	-11.245
▁Mil	-11.2452
ESS	-11.2452
▁tranche	-11.2453
▁fo	-11.2453
▁Yo	-11.2454
▁déposé	-11.2457
▁frappe	-11.246
uré	-11.2461
к	-11.2462
pid	-11.2465
évènement	-11.2466
@{2014}	-11.2466
commerce	-11.2467
▁trace	-11.2468
▁attribué	-11.2472
-10	-11.2473
▁fournis	-11.2473
▁Médecine	-11.2474
▁essais	-11.2474
por	-11.2474
▁lever	-11.2474
▁climatiques	-11.2475
▁tournant	-11.2479
▁affecté	-11.2484
bat	-11.2488
▁fixée	-11.2494
ii	-11.2495
cel	-11.2497
▁bataillon	-11.2498
▁complexité	-11.2498
▁dictionnaire	-11.2498
▁rigueur	-11.2498
▁flash	-11.2499
▁ruban	-11.2499
▁(31)	-11.2499
▁oeufs	-11.25
▁emplacement	-11.25
▁humour	-11.2501
▁artisan	-11.2501
▁planification	-11.2502
▁World	-11.2506
▁PA	-11.2509
Car	-11.2511
▁manipulation	-11.2512
▁Langue	-11.2512
issa	-11.2514
charge	-11.2516
▁habituel	-11.2519
▁renseignement	-11.2521
▁retourne	-11.2527
▁Audio	-11.2528
ney	-11.2529
GM	-11.2531
agent	-11.2534
card	-11.2536
Homme	-11.2538
▁Ger	-11.254
▁UN	-11.2543
▁essentiels	-11.2545
mois	-11.2545
via	-11.2547
▁stratégies	-11.2549
▁Ouvert	-11.2553
▁adore	-11.2554
▁constaté	-11.2557
▁librement	-11.2558
▁MP	-11.2558
▁Ge	-11.256
▁Ter	-11.2564
uck	-11.2565
▁pack	-11.2565
cat	-11.2565
▁Social	-11.2567
▁Suivez	-11.2568
▁intervient	-11.2568
▁mythique	-11.2568
▁multitude	-11.2569
obtention	-11.257
▁Construction	-11.2574
▁vaccin	-11.2575
▁séparation	-11.2576
▁marin	-11.2581
▁Liens	-11.2583
▁thèse	-11.2583
oubli	-11.2584
▁anonyme	-11.2585
▁fermer	-11.2587
▁(30)	-11.2588
oo	-11.2592
type	-11.2593
▁Machine	-11.2595
▁confié	-11.2595
▁manga	-11.2603
▁caché	-11.2605
▁accompli	-11.2607
Ascendant	-11.2608
international	-11.2609
illi	-11.2611
Mai	-11.2613
ute	-11.2613
infection	-11.2618
▁Vu	-11.262
gard	-11.2621
▁cat	-11.2623
▁conjoint	-11.2624
kg	-11.2624
▁innovation	-11.2626
▁graines	-11.2633
cc	-11.2633
▁transaction	-11.2634
▁verts	-11.2634
agglomération	-11.2639
▁originaux	-11.2639
▁hypothèse	-11.2639
▁coordination	-11.2639
▁notice	-11.2639
▁offrons	-11.2639
▁modération	-11.2639
▁Serge	-11.2641
▁rembourser	-11.2643
▁confirmées	-11.2643
▁DP	-11.2643
ifs	-11.2643
▁débute	-11.2644
nard	-11.2644
▁touristes	-11.2646
71	-11.2646
▁sélectionnés	-11.2647
▁Fou	-11.2648
ache	-11.2648
▁fé	-11.265
▁effectués	-11.2651
▁57	-11.2651
▁Robe	-11.2652
▁Action	-11.2654
▁autonome	-11.2655
▁dîner	-11.2655
▁jeter	-11.2656
terre	-11.2662
▁Inscription	-11.2662
▁Actu	-11.2663
▁Sophie	-11.2665
insertion	-11.2665
▁actuels	-11.2668
▁pl	-11.267
/7	-11.2671
ologique	-11.2673
▁impôts	-11.2676
Tout	-11.2676
▁nike	-11.2678
▁jouent	-11.2678
inscrit	-11.268
▁61	-11.2683
cieux	-11.2683
▁températures	-11.2687
▁AG	-11.2695
▁goûter	-11.2696
▁imposé	-11.2698
▁74	-11.2699
4.	-11.2699
ignon	-11.2699
▁plomb	-11.2704
BO	-11.2706
▁Info	-11.2709
▁Catherine	-11.271
▁appartenant	-11.271
▁électeurs	-11.2711
▁guère	-11.2711
▁apparaissent	-11.2711
▁pal	-11.2711
▁verbe	-11.2714
▁plombier	-11.2715
▁recommandée	-11.2715
dent	-11.2715
▁honte	-11.2716
▁lave	-11.2719
QUE	-11.2722
▁HTML	-11.2722
▁thérapie	-11.2724
▁Activités	-11.2724
▁techniciens	-11.2725
▁avancé	-11.2725
▁adopter	-11.2726
fou	-11.2729
▁Moteur	-11.2731
iale	-11.2733
loi	-11.2738
▁volant	-11.2738
▁rêver	-11.274
▁ferait	-11.2741
EAU	-11.2745
individu	-11.2751
obligation	-11.2751
▁LI	-11.2755
▁remonte	-11.2756
▁Ven	-11.2756
▁ph	-11.2756
▁descendant	-11.2757
culaire	-11.2759
cation	-11.2762
▁animale	-11.2763
▁Mot	-11.2765
▁Générales	-11.2765
▁examen	-11.2767
▁Langues	-11.2768
Inde	-11.2768
▁Nov	-11.2773
▁habitant	-11.2774
LO	-11.2775
▁transformé	-11.2776
▁employé	-11.2777
▁Ag	-11.2777
▁viol	-11.2781
▁he	-11.2781
▁Michael	-11.2781
▁Sarkozy	-11.2781
▁belgique	-11.2781
▁délicieux	-11.2781
▁pseudo	-11.2781
▁spéciaux	-11.2781
▁cougar	-11.2782
▁Gilles	-11.2782
▁Adresse	-11.2782
▁Jeunesse	-11.2783
▁Pratique	-11.2783
▁remarquer	-11.2784
▁typique	-11.2785
▁sélectionnez	-11.2785
▁maîtriser	-11.2786
cut	-11.2788
▁considération	-11.2789
▁diffuser	-11.2789
▁AD	-11.2798
▁technologique	-11.2801
▁légitime	-11.2802
▁har	-11.2803
press	-11.2804
▁Mardi	-11.2804
▁citoyenne	-11.2805
▁Pass	-11.2806
▁remonter	-11.2808
▁chair	-11.2808
▁marquer	-11.281
▁dépendance	-11.2812
bin	-11.2814
▁remplace	-11.2818
▁Eh	-11.2819
-20	-11.282
▁op	-11.282
▁croissante	-11.2823
ago	-11.2823
▁adaptation	-11.2825
▁détour	-11.2826
▁Atelier	-11.2827
augmenter	-11.2829
▁courir	-11.2834
▁financer	-11.2837
▁Sall	-11.2838
▁AM	-11.284
▁gouvernements	-11.2841
organiser	-11.2847
▁Défense	-11.2847
▁gré	-11.2847
▁élevés	-11.2849
▁passés	-11.2851
▁prévus	-11.2852
▁Caractère	-11.2853
▁discrétion	-11.2853
▁médicaux	-11.2853
▁vainqueur	-11.2853
▁Heureusement	-11.2853
▁Aéroport	-11.2853
▁bienfaits	-11.2853
▁particularité	-11.2853
▁Lundi	-11.2853
▁reproduire	-11.2855
▁réunis	-11.2855
▁localisation	-11.2856
AI	-11.2856
▁peintures	-11.2857
▁architecture	-11.2857
▁Moto	-11.2857
▁détruit	-11.2859
▁statue	-11.286
CR	-11.2861
–	-11.2861
▁Vienne	-11.2862
lig	-11.2862
▁jouets	-11.2862
▁échelle	-11.2863
▁cacher	-11.2866
▁(8	-11.2868
▁dévoilent	-11.2868
▁spécialités	-11.287
▁affirme	-11.2873
▁souple	-11.2874
impose	-11.2876
▁chère	-11.2877
ary	-11.2879
▁fréquent	-11.2881
▁tombé	-11.2882
▁empêche	-11.2883
▁consommer	-11.2884
▁SM	-11.2889
abo	-11.289
▁éclairage	-11.2891
UC	-11.2892
vienne	-11.2893
▁EP	-11.2894
The	-11.2895
▁militants	-11.2896
Asie	-11.2898
▁policiers	-11.2901
humain	-11.2903
empêche	-11.2904
post	-11.2904
live	-11.2906
▁retenue	-11.2907
▁ti	-11.2908
▁Tor	-11.2912
igny	-11.2915
▁situés	-11.2916
▁ravis	-11.2917
bois	-11.2918
▁700	-11.2918
rig	-11.292
▁espagnol	-11.2924
▁Bre	-11.2924
oeuf	-11.2924
▁gîte	-11.2926
▁Prenez	-11.2926
▁Macky	-11.2926
▁infrastructures	-11.2927
/02/2015	-11.2927
▁Dou	-11.2928
umi	-11.2929
▁chanteuse	-11.2929
point	-11.293
aison	-11.293
▁palette	-11.2931
rel	-11.2931
▁senti	-11.2931
▁malades	-11.2931
▁appelés	-11.2932
ores	-11.2934
ards	-11.2935
▁Bourgogne	-11.2938
▁69	-11.2945
nos	-11.2946
▁Objet	-11.2946
▁habitation	-11.2948
▁schéma	-11.295
niste	-11.295
▁effectue	-11.2954
▁élection	-11.2955
▁registre	-11.2956
asser	-11.2957
▁Lit	-11.296
▁cassé	-11.2964
▁provoque	-11.2964
▁pol	-11.2965
▁SO	-11.2967
étage	-11.2969
avère	-11.2969
▁écrans	-11.297
Atelier	-11.297
écu	-11.2971
essence	-11.2974
▁Ouest	-11.2976
/2	-11.2977
▁mauvaises	-11.2978
▁caractérise	-11.298
▁Route	-11.298
unique	-11.2981
▁alerte	-11.2981
▁Roman	-11.2984
▁clip	-11.2987
▁façons	-11.2987
▁lente	-11.2988
▁comptable	-11.2989
▁(7	-11.2992
AIRE	-11.2993
alerte	-11.2995
ison	-11.2997
rite	-11.2998
▁indiquée	-11.2998
▁Calvados	-11.2999
▁Professeur	-11.2999
▁patience	-11.2999
▁prélèvement	-11.2999
▁obtient	-11.2999
▁indiquant	-11.2999
oris	-11.2999
▁sagesse	-11.2999
▁Creative	-11.2999
▁Australie	-11.3
▁taxi	-11.3002
▁Qualité	-11.3004
itude	-11.3006
▁Ku	-11.3008
tiers	-11.3008
▁star	-11.301
amuser	-11.301
zer	-11.3013
▁corriger	-11.3013
▁progresser	-11.3014
sport	-11.3014
nière	-11.3014
clés	-11.3019
▁artificielle	-11.3021
▁environnemental	-11.3021
▁crainte	-11.3021
▁XIXe	-11.3022
▁séminaire	-11.3023
▁policier	-11.3023
▁trouble	-11.3023
▁réglage	-11.3024
Pa	-11.3024
ei	-11.3027
▁gal	-11.3027
▁attiré	-11.3028
▁espoir	-11.3028
°2	-11.3029
......	-11.3032
▁pratiquer	-11.3033
RD	-11.3038
▁seuil	-11.304
vez	-11.304
▁(6	-11.3041
▁relié	-11.3043
▁confirmé	-11.3043
établir	-11.3044
▁impressionnant	-11.3045
▁bé	-11.3046
▁hotel	-11.3049
enregistrer	-11.305
TO	-11.3052
GA	-11.3052
▁habitat	-11.3054
lieu	-11.3055
▁pardon	-11.3058
°5	-11.306
▁bl	-11.3063
▁renforce	-11.3063
▁familiales	-11.3063
▁regardant	-11.3063
▁aidé	-11.3067
▁prince	-11.3072
▁Néanmoins	-11.3072
▁foncière	-11.3072
▁nocturne	-11.3072
▁Mexique	-11.3072
▁scandale	-11.3072
▁polémique	-11.3072
▁réfrigérateur	-11.3072
▁libération	-11.3073
▁usagers	-11.3073
▁mettons	-11.3074
bb	-11.3077
▁procurer	-11.3079
▁Série	-11.3081
▁seules	-11.3082
▁mani	-11.3084
▁Chimie	-11.3086
▁valorisation	-11.3087
uni	-11.3088
▁réunions	-11.3089
▁rôles	-11.3094
▁présentée	-11.3096
▁Guinée	-11.3097
▁évolutions	-11.31
▁baie	-11.3101
▁blogs	-11.3103
coup	-11.3105
ép	-11.3109
▁attendent	-11.3112
▁communautaire	-11.3112
▁imprimer	-11.3114
▁opérateurs	-11.3116
=>	-11.3117
▁fabriqué	-11.3117
dra	-11.3118
océan	-11.3118
éme	-11.3119
entrepreneur	-11.3119
▁passager	-11.312
tto	-11.312
ours	-11.3124
▁législatives	-11.3125
▁Meilleure	-11.3125
parole	-11.3125
▁brillant	-11.3126
▁Voyages	-11.3129
RS	-11.313
lev	-11.3133
NES	-11.3135
▁conflits	-11.3136
êt	-11.3136
▁indépendants	-11.3137
▁probable	-11.314
merci	-11.314
▁excuse	-11.3143
▁Nathalie	-11.3146
▁Physique	-11.3146
▁catastrophe	-11.3146
▁fatigue	-11.3146
▁possession	-11.3146
▁synonyme	-11.3146
▁Uranus	-11.3146
▁plomberie	-11.3147
▁synthétique	-11.3147
▁provenance	-11.3147
▁cherchant	-11.3148
▁mont	-11.3148
activation	-11.3148
▁perspectives	-11.3149
▁53	-11.315
▁nettement	-11.3153
▁annuaire	-11.3154
▁50%	-11.3155
▁1980	-11.3157
▁(29)	-11.3159
▁interprétation	-11.316
▁Support	-11.3161
▁René	-11.3161
rem	-11.3162
▁frein	-11.3163
▁FRANCE	-11.3163
▁saisons	-11.3165
▁prochains	-11.3168
▁pla	-11.3172
MP	-11.3173
BA	-11.3173
arme	-11.3173
▁externe	-11.3174
▁consultant	-11.3174
▁féminine	-11.3175
affichent	-11.3178
▁baiser	-11.3178
▁récolte	-11.3179
▁dessert	-11.3181
ONE	-11.3181
▁allée	-11.3183
▁(25)	-11.3183
▁ensoleillée	-11.3186
▁significations	-11.3188
posé	-11.3189
▁intervenants	-11.3192
François	-11.3195
▁buts	-11.3195
Notre	-11.3195
▁supporter	-11.3196
▁Lou	-11.3196
▁loyer	-11.3196
▁évite	-11.3197
▁chaînes	-11.3197
GO	-11.3197
attendre	-11.3198
accent	-11.3199
▁cuire	-11.3199
▁dessinée	-11.32
▁universitaires	-11.3202
▁Constitution	-11.3204
▁informe	-11.3207
▁pertes	-11.3207
▁Infos	-11.3209
rog	-11.321
▁Ze	-11.3211
union	-11.3211
▁Far	-11.3216
▁duquel	-11.3218
▁Neptune	-11.3221
▁cimetière	-11.3221
▁règne	-11.3221
▁broyeur	-11.3221
▁compromis	-11.3221
▁quinze	-11.3221
▁visibilité	-11.3221
émergence	-11.3221
▁farine	-11.3223
▁Thi	-11.3223
▁Surtout	-11.3223
▁circulaire	-11.3223
▁distinction	-11.3223
▁tiennent	-11.3225
▁hé	-11.3225
▁musiques	-11.3225
▁quantités	-11.3226
AFP	-11.3228
▁ressent	-11.3229
wer	-11.3229
▁West	-11.323
▁lis	-11.3231
aka	-11.3232
▁voyager	-11.3232
▁pratiquement	-11.3233
▁croix	-11.3233
▁Vendée	-11.3234
▁Bricolage	-11.3235
acteur	-11.3238
zy	-11.3239
▁violences	-11.3239
▁vou	-11.324
▁surfaces	-11.3241
▁bail	-11.3241
▁enceinte	-11.3244
lip	-11.3246
▁affirmé	-11.3247
▁locataire	-11.325
▁opposé	-11.3252
▁favorise	-11.3253
sible	-11.3254
▁diffusé	-11.3256
▁issue	-11.3258
TER	-11.3258
ido	-11.3263
▁race	-11.3264
office	-11.327
acceptation	-11.327
▁Seul	-11.3271
▁92	-11.3272
Ex	-11.3274
▁apparence	-11.3276
▁Caen	-11.3279
▁Gre	-11.3279
▁canon	-11.3281
PC	-11.3284
engager	-11.3285
gor	-11.329
rien	-11.3291
▁essai	-11.3292
dos	-11.3294
▁tampons	-11.3294
inquiète	-11.3296
▁Cercle	-11.3296
▁Congrès	-11.3296
▁Roger	-11.3297
▁anglo	-11.3297
▁tasse	-11.3297
▁Media	-11.3301
▁digitale	-11.3301
UI	-11.3302
▁meurtre	-11.3302
▁enseignements	-11.3305
ude	-11.3305
aga	-11.3306
oma	-11.3307
▁Peter	-11.3307
nay	-11.3307
pul	-11.331
▁concentré	-11.3311
▁Ensemble	-11.3317
▁initiale	-11.3318
add	-11.3318
▁ultime	-11.3318
▁séjours	-11.3319
▁croisière	-11.3321
▁game	-11.3322
rich	-11.3323
▁ressource	-11.3328
1%	-11.333
ête	-11.3331
▁subir	-11.3331
suite	-11.3331
ISE	-11.3336
▁Play	-11.3338
▁blanches	-11.3343
▁suppose	-11.3346
▁intermédiaire	-11.3346
▁immobiliers	-11.3347
▁internes	-11.3347
▁Fonction	-11.3347
▁arc	-11.3349
▁Technique	-11.335
sson	-11.3356
▁surprises	-11.3356
zen	-11.3359
▁surement	-11.3359
EG	-11.3359
▁actu	-11.3361
chen	-11.3363
▁forêts	-11.3365
▁restos	-11.3366
▁averti	-11.337
▁brune	-11.3371
▁Îles	-11.3372
▁fleuve	-11.3372
▁pensais	-11.3372
urbanisme	-11.3372
effacement	-11.3375
▁veste	-11.3376
▁gagnant	-11.3381
▁Bible	-11.3381
▁Heures	-11.3382
▁envoie	-11.3383
▁libéral	-11.3384
EZ	-11.3385
▁voient	-11.3386
▁terminée	-11.339
▁visuelle	-11.3392
quel	-11.3392
issage	-11.3392
épi	-11.3393
▁Composition	-11.3393
32)	-11.3394
▁traités	-11.3394
▁mécanismes	-11.3394
▁pros	-11.3395
wal	-11.3396
▁générations	-11.34
▁robot	-11.3404
▁SI	-11.3404
▁thématique	-11.3404
▁rez	-11.3406
▁OU	-11.3412
▁informatiques	-11.3413
▁XVI	-11.3416
▁respectant	-11.3417
▁Multi	-11.3419
▁récentes	-11.3422
pdf	-11.3423
▁Coup	-11.3427
▁nation	-11.3428
▁aides	-11.3428
▁mineur	-11.3429
▁permissions	-11.3429
▁cu	-11.3434
▁Of	-11.3437
▁protège	-11.3439
duction	-11.3439
photo	-11.3446
▁challenge	-11.3448
▁tolérance	-11.3448
▁Dommage	-11.3448
▁Samsung	-11.3448
▁médaille	-11.3448
▁fameuse	-11.3448
▁Laissez	-11.3448
▁opinion	-11.3448
▁Picture	-11.3448
▁neutre	-11.3448
▁poétique	-11.3448
activ	-11.3448
▁maïs	-11.3449
▁Network	-11.345
▁correspondance	-11.3451
▁enregistre	-11.3454
écouter	-11.3457
▁métropolitaine	-11.3458
▁juridiques	-11.3459
MO	-11.3461
▁imaginer	-11.3461
▁~	-11.3462
▁Milan	-11.3463
opposer	-11.3463
SU	-11.3463
fl	-11.3464
▁prés	-11.3464
arts	-11.3465
▁20%	-11.3465
▁Gala	-11.3465
▁élevage	-11.3467
porte	-11.3467
page	-11.347
▁Pres	-11.3472
▁forment	-11.3473
osse	-11.3474
▁Assurance	-11.3475
▁volets	-11.3477
lla	-11.3477
▁enlever	-11.3478
▁cite	-11.3478
▁occidentale	-11.348
▁franco	-11.3481
▁habite	-11.3483
▁abandonné	-11.3485
▁listes	-11.3489
▁justifier	-11.3494
**	-11.3495
room	-11.3495
▁Eco	-11.3496
▁juger	-11.3502
▁Enfants	-11.3503
▁noirs	-11.3504
▁fabrique	-11.3504
▁brun	-11.3505
chée	-11.3514
Nos	-11.3516
▁intra	-11.3517
▁relatifs	-11.3521
work	-11.3523
back	-11.3524
▁hospitalière	-11.3525
▁flèche	-11.3525
▁pavillon	-11.3525
▁densité	-11.3525
▁fluide	-11.3525
▁retenir	-11.3525
▁cahier	-11.3526
▁illuminations	-11.3526
▁connaissez	-11.3527
▁Mari	-11.3528
▁suggestions	-11.3532
▁William	-11.3532
▁montr	-11.3534
▁faiblesse	-11.3534
▁casino	-11.3535
▁Mercredi	-11.3536
▁Sète	-11.3537
▁Ressources	-11.354
▁acoustique	-11.3541
▁pétition	-11.3542
▁Dossier	-11.3543
quot	-11.3545
anda	-11.3547
▁Entreprise	-11.3547
ize	-11.355
▁filtres	-11.355
▁Dar	-11.3552
▁essence	-11.3555
▁saga	-11.3555
▁facilite	-11.3555
dri	-11.3556
vÃ	-11.3556
▁Hôtel	-11.3556
kk	-11.3558
gramme	-11.3561
▁chaussure	-11.3561
▁modérateur	-11.3561
dem	-11.3565
▁dépasse	-11.3568
agissait	-11.3569
▁Music	-11.3569
▁accords	-11.3572
▁ennemi	-11.3574
▁angle	-11.3579
Octobre	-11.3579
▁galeries	-11.3581
▁fortune	-11.3582
analyser	-11.3583
▁(2017).	-11.3587
▁étudié	-11.3588
izz	-11.3588
▁admis	-11.3588
avril	-11.3588
▁!"	-11.359
▁habit	-11.3591
▁Not	-11.3592
▁GR	-11.3596
▁Mus	-11.3597
▁masque	-11.3597
PO	-11.3598
▁trio	-11.3599
▁Idéal	-11.3601
▁académique	-11.3602
▁cocktail	-11.3602
▁douzaine	-11.3602
▁fantaisie	-11.3602
▁paramétrer	-11.3602
omi	-11.3603
▁Pie	-11.3603
immigration	-11.3603
▁Utilisez	-11.3603
élimination	-11.3603
▁refuge	-11.3604
▁promotionnelles	-11.3604
och	-11.3605
iva	-11.3606
nou	-11.3607
▁start	-11.3607
▁Denis	-11.3608
Mars	-11.3612
▁jolies	-11.3612
▁soumise	-11.3613
▁Green	-11.3613
▁répondent	-11.3613
▁Idées	-11.3614
expliquer	-11.3614
▁(27)	-11.3614
▁fermée	-11.3617
▁observer	-11.3619
▁spirituel	-11.362
explique	-11.3623
▁récents	-11.3623
france	-11.3625
▁défaite	-11.3625
▁Net	-11.3626
isées	-11.3627
▁Marche	-11.3627
▁blessés	-11.363
▁inscrivant	-11.3631
/24	-11.3631
ken	-11.3637
▁administratif	-11.3641
▁réveil	-11.3641
▁%)	-11.3642
▁avenue	-11.3644
bonne	-11.3645
édit	-11.3649
Angleterre	-11.3653
▁électricité	-11.3655
▁extrême	-11.3656
rale	-11.3656
▁rechercher	-11.3657
▁Liberté	-11.3658
▁nuances	-11.366
bie	-11.3662
▁communs	-11.3666
▁éthique	-11.3668
wn	-11.3671
▁exprimer	-11.3672
IEN	-11.3672
Air	-11.3672
▁BR	-11.3674
▁saisi	-11.3675
▁revit	-11.3677
ula	-11.3677
▁plu	-11.3679
▁Ol	-11.368
humidité	-11.3681
▁Bluetooth	-11.3681
▁Burkina	-11.3681
▁Faculté	-11.3681
▁Jupiter	-11.3681
▁qualification	-11.3681
▁Football	-11.3681
▁Douleur	-11.3681
tail	-11.3682
▁1992	-11.3683
▁Mairie	-11.3684
▁80%	-11.3686
▁Manger	-11.3687
▁rendue	-11.3688
▁Pack	-11.3689
▁Partie	-11.369
▁halloween	-11.3692
▁surveiller	-11.3696
▁Read	-11.3699
▁assisté	-11.37
▁réparer	-11.3702
)|	-11.3708
▁dévoilé	-11.3708
▁PO	-11.3709
▁Savoie	-11.3711
▁rejet	-11.3713
▁parisien	-11.3713
▁monument	-11.3715
▁Abdou	-11.3717
▁sage	-11.372
▁centaine	-11.3721
▁apprentissage	-11.3724
▁poème	-11.3727
▁ép	-11.3727
outre	-11.3728
▁socialiste	-11.3729
oth	-11.373
▁chrétien	-11.373
▁Deco	-11.3738
osa	-11.374
▁spirituelle	-11.3742
over	-11.3742
onglet	-11.3744
▁concession	-11.3749
▁Spécial	-11.3752
0.000	-11.3758
▁Donald	-11.3759
▁pourcentage	-11.3759
▁ados	-11.3759
▁Travaux	-11.3759
▁Climatisation	-11.376
▁Halloween	-11.376
▁précieuse	-11.376
for	-11.376
▁PVC	-11.3761
▁stations	-11.3762
▁libérer	-11.3762
▁philosophique	-11.3763
▁continuité	-11.3764
▁Papier	-11.3765
▁1960	-11.3765
▁Restaurant	-11.3767
▁égard	-11.3767
bul	-11.3768
▁plait	-11.3768
▁simulation	-11.3769
▁déficit	-11.3769
▁réaliste	-11.377
▁prit	-11.3775
▁Gabriel	-11.3776
▁nationalité	-11.378
▁ref	-11.378
▁remet	-11.3783
▁plaine	-11.3785
▁paye	-11.3785
▁Dj	-11.3786
▁suffisant	-11.3786
▁Section	-11.3786
pho	-11.3787
ller	-11.3788
▁Soit	-11.3788
▁capables	-11.3788
▁sexuel	-11.3789
▁végétalien	-11.3789
▁verrez	-11.379
DR	-11.379
▁universités	-11.3793
▁investir	-11.3793
▁fraîche	-11.3798
ides	-11.38
▁larmes	-11.38
▁tourné	-11.3801
▁régulier	-11.3801
▁trajet	-11.3801
▁étonnant	-11.3802
/02/	-11.3805
▁enseignant	-11.3806
▁Saison	-11.3806
▁universelle	-11.3807
▁Touch	-11.381
class	-11.3812
▁Hors	-11.3813
▁mecs	-11.3815
▁échec	-11.3816
intermédiaire	-11.3817
Claude	-11.3817
dictions	-11.3818
Rencontre	-11.3819
▁continuent	-11.382
▁originales	-11.3821
Dame	-11.3822
oie	-11.3822
enti	-11.3823
▁ras	-11.3825
pel	-11.383
▁Im	-11.383
▁définitive	-11.3832
▁Suède	-11.3839
▁sérénité	-11.3839
▁originaire	-11.3839
orthographe	-11.3839
▁débarque	-11.3839
▁générosité	-11.3839
▁tactile	-11.3839
▁lingerie	-11.384
▁paradis	-11.384
stra	-11.384
▁disparaître	-11.384
▁tantôt	-11.384
▁lavage	-11.3844
▁détection	-11.385
▁(12	-11.3853
aucun	-11.3856
essayer	-11.3858
▁86	-11.3858
▁Tel	-11.386
▁RO	-11.386
▁Catégorie	-11.3861
▁PAS	-11.3866
▁pleur	-11.387
▁vérifié	-11.3875
▁hébergement	-11.3876
IX	-11.3878
<	-11.3884
▁menaces	-11.3887
▁2020	-11.3888
▁départemental	-11.3889
▁pattes	-11.3889
▁fout	-11.3889
▁Fleur	-11.3891
▁attendez	-11.3892
!!!!	-11.3892
tat	-11.3893
▁lapin	-11.3894
hygiène	-11.3897
Office	-11.3898
▁1940	-11.39
▁problématiques	-11.3905
▁officiels	-11.3906
nor	-11.3907
cité	-11.3911
▁inform	-11.3913
▁lits	-11.3914
▁Responsable	-11.3919
▁doctrine	-11.3919
▁déguster	-11.3919
▁déterminant	-11.3919
▁membrane	-11.3919
▁pantalon	-11.3919
▁rigide	-11.3919
▁prescription	-11.3919
▁popularité	-11.3919
▁Simple	-11.3919
▁Liège	-11.3919
▁congrès	-11.3919
▁Parfois	-11.3919
▁Marketing	-11.3919
▁pourriez	-11.392
▁docteur	-11.392
▁tailles	-11.3924
▁espère	-11.3925
▁Membres	-11.3927
antenne	-11.3928
aval	-11.3931
▁bro	-11.3936
▁Gen	-11.3938
▁Architecture	-11.3938
▁grade	-11.3942
issons	-11.3945
▁Jeune	-11.3947
TP	-11.3947
▁Id	-11.3949
▁perles	-11.3949
▁franchi	-11.395
▁feux	-11.395
ysfonctionnement	-11.3951
▁Mad	-11.3952
▁abrite	-11.3955
▁_	-11.3955
▁boule	-11.3956
▁régulière	-11.3956
oirs	-11.3957
▁bra	-11.3958
▁sexuels	-11.3958
▁encourage	-11.3959
▁prochainement	-11.3963
▁démonstration	-11.3964
▁chauffer	-11.3966
▁more	-11.3967
vid	-11.3969
▁Tant	-11.3969
▁imm	-11.3969
▁partagée	-11.3969
Mar	-11.397
armes	-11.3971
écart	-11.3973
▁Logiciel	-11.3973
INS	-11.3974
▁cachée	-11.3977
▁tubes	-11.3981
▁Cat	-11.3981
awa	-11.3981
▁Pop	-11.3983
▁Dame	-11.3984
▁adolescents	-11.3986
semblent	-11.3987
Ou	-11.3988
▁répondant	-11.3988
▁discrète	-11.3992
▁étroite	-11.3993
▁légionnaires	-11.3994
▁teint	-11.3997
▁Contrôle	-11.3998
▁Pâques	-11.3999
▁Rejoignez	-11.3999
▁biodiversité	-11.3999
▁cathédrale	-11.3999
▁linguistique	-11.3999
▁vôtre	-11.3999
▁croient	-11.3999
▁délicieuse	-11.3999
▁génétique	-11.3999
▁shopping	-11.3999
▁chapelle	-11.4
▁Venise	-11.4
▁Blanche	-11.4
▁armée	-11.4001
▁faim	-11.4003
▁concentrer	-11.4009
interaction	-11.4011
▁avancées	-11.4012
TIC	-11.4014
▁survivre	-11.4014
▁Jeudi	-11.4018
▁Mort	-11.4018
deux	-11.4018
▁Domaine	-11.4019
▁prendra	-11.402
▁abonnés	-11.402
▁her	-11.4021
▁céréales	-11.4023
illy	-11.4024
▁160	-11.4025
▁Champagne	-11.4028
▁Conception	-11.4028
TV	-11.4032
▁signer	-11.4032
▁contrôles	-11.4032
▁pois	-11.4035
▁résistant	-11.4035
▁FF	-11.4036
ks	-11.4038
▁inédite	-11.404
▁actuelles	-11.404
▁id	-11.4043
▁Coll	-11.4045
▁statistique	-11.4047
▁assurances	-11.4049
illage	-11.405
▁transparent	-11.405
▁clos	-11.4054
▁Texte	-11.4057
▁syndicats	-11.4057
▁réparations	-11.4058
▁reve	-11.4062
élevage	-11.4062
▁JE	-11.4062
▁courts	-11.4064
▁extension	-11.4065
▁sanitaires	-11.4068
▁ciné	-11.4068
▁détachées	-11.4071
▁Ker	-11.4076
▁accessoire	-11.4076
Ha	-11.4077
▁reconnais	-11.408
▁alliance	-11.408
▁Horror	-11.4081
▁Côté	-11.4081
▁Vierge	-11.4081
▁foie	-11.4081
▁virement	-11.4081
▁cabine	-11.4081
▁déf	-11.4082
▁opus	-11.4082
▁Bern	-11.4084
▁offerte	-11.4084
▁dirais	-11.4085
▁voul	-11.4087
▁topic	-11.4088
▁jugé	-11.4088
▁Quelles	-11.4089
Oise	-11.4091
▁Révolution	-11.4093
▁chou	-11.4093
▁Version	-11.4098
oux	-11.4098
▁sublime	-11.4099
▁formé	-11.4101
▁forcé	-11.4102
▁BA	-11.4103
▁linge	-11.4104
vois	-11.4105
well	-11.4106
ense	-11.4106
▁aviez	-11.4113
▁che	-11.4114
▁Monte	-11.4115
▁entrées	-11.4116
▁67	-11.4116
écrit	-11.4117
oche	-11.4118
▁fonctionnent	-11.4121
ku	-11.4126
cookies	-11.4127
tron	-11.4129
▁requête	-11.413
▁liaison	-11.413
▁drogue	-11.413
TION	-11.4134
▁Grosse	-11.4134
▁environs	-11.4135
▁71	-11.4137
/5	-11.4138
Me	-11.414
Eglise	-11.4143
inte	-11.4143
▁dragon	-11.4143
extension	-11.4144
▁examens	-11.4144
source	-11.4144
▁entrepreneurs	-11.4145
éno	-11.4145
▁Gal	-11.4148
▁Cré	-11.4153
▁Dessin	-11.4153
▁protégés	-11.4156
▁réunir	-11.4157
▁réservations	-11.4159
▁expos	-11.4159
Bo	-11.416
▁inspiration	-11.416
immatriculation	-11.4163
▁Compagnie	-11.4163
▁Mémoire	-11.4163
▁provient	-11.4163
▁pétrole	-11.4163
▁psychologie	-11.4163
▁(28)	-11.4163
▁détention	-11.4164
▁Jazz	-11.4164
TC	-11.4164
▁campagnes	-11.4164
angle	-11.4164
▁sensibilisation	-11.4165
▁démo	-11.4166
▁PSG	-11.4168
ical	-11.4169
▁Baby	-11.417
▁Store	-11.4173
▁travaillant	-11.4175
▁Cuir	-11.4175
▁poussière	-11.4176
▁cessé	-11.4179
sent	-11.4179
▁poil	-11.4179
star	-11.4181
▁recommander	-11.4182
exclusion	-11.4182
ava	-11.4182
▁égal	-11.4182
▁adressée	-11.4187
allais	-11.4187
form	-11.4188
▁exemplaires	-11.4192
▁Offre	-11.4194
▁Pyrénées	-11.4195
▁spectateurs	-11.4198
▁RH	-11.4205
▁modérateurs	-11.4206
▁opposer	-11.4211
ndre	-11.4212
▁gout	-11.4212
▁Spa	-11.4215
▁célèbres	-11.4215
appuie	-11.4217
▁antique	-11.4221
▁Jeunes	-11.4223
lées	-11.4225
▁raid	-11.4225
▁serre	-11.4227
▁envisage	-11.4229
▁parlant	-11.4229
▁Los	-11.423
▁serons	-11.4231
▁coupable	-11.4233
▁4500	-11.4234
▁tombée	-11.4236
▁retenu	-11.4236
▁préparé	-11.4237
terie	-11.4239
▁red	-11.4241
▁Pacifique	-11.4245
▁détermination	-11.4245
▁frappé	-11.4245
▁racisme	-11.4245
▁Girl	-11.4245
▁méchant	-11.4246
▁webcam	-11.4247
▁drame	-11.4249
▁médiatique	-11.4249
▁Léo	-11.425
▁comparé	-11.425
▁Vis	-11.4252
Comté	-11.4252
▁varie	-11.4254
▁Patrimoine	-11.4256
▁arme	-11.4257
cen	-11.4258
▁dirigeant	-11.4258
▁commis	-11.4263
▁hautes	-11.4264
▁écriture	-11.4265
▁hectares	-11.4268
II	-11.4268
▁recev	-11.4273
vet	-11.4278
▁organisées	-11.4281
▁supp	-11.4281
TRE	-11.4283
▁Sun	-11.4285
nières	-11.429
▁faune	-11.4291
IGN	-11.4297
▁hauts	-11.43
в	-11.4301
▁essentielle	-11.4301
▁coller	-11.4301
▁réglages	-11.4301
▁rituel	-11.4303
▁individu	-11.4303
octobre	-11.4311
·	-11.4311
service	-11.4311
Président	-11.4311
hapitre	-11.4312
exp	-11.4312
lent	-11.4313
▁oreilles	-11.4314
▁coureurs	-11.4315
inspire	-11.4316
▁trés	-11.4321
pprovisionnement	-11.4322
▁Organisation	-11.4322
▁ordres	-11.4323
▁systématique	-11.4325
Académie	-11.4329
▁Numérique	-11.4329
▁bracelet	-11.4329
▁spectaculaire	-11.4329
▁urgent	-11.4329
▁Magasin	-11.4329
▁cardiaque	-11.4329
▁celibataire	-11.4329
orchestre	-11.4329
▁Artisan	-11.4329
▁Soyez	-11.4329
▁Trésor	-11.4329
▁Orient	-11.4329
▁SAINT	-11.4329
▁dégustation	-11.4329
▁lardons	-11.4329
▁Streaming	-11.4329
▁capture	-11.4329
▁Sénat	-11.433
LL	-11.4331
appréciation	-11.4331
AE	-11.4335
▁descendre	-11.4336
▁Présidentielle	-11.4338
▁défilé	-11.4339
▁déroulement	-11.4339
▁fleuri	-11.4339
iétonnes	-11.434
▁Animation	-11.4341
▁certification	-11.4341
▁130	-11.4343
▁Day	-11.4345
▁qualifié	-11.4346
▁Seconde	-11.4349
▁10%	-11.435
▁hydro	-11.435
Luc	-11.4351
iz	-11.4354
▁compositeur	-11.4356
▁cheminée	-11.4358
▁Ren	-11.4362
▁levier	-11.4367
/01/2015	-11.437
°4	-11.4371
▁construite	-11.4372
°7	-11.4373
▁choisis	-11.4374
lio	-11.4377
asso	-11.4381
▁abonner	-11.4381
▁fragile	-11.4384
▁compagnon	-11.4385
▁Crédit	-11.4385
▁AN	-11.4389
▁Pages	-11.4392
▁Angel	-11.4392
burg	-11.4393
▁Message	-11.4394
Empire	-11.4395
intégralité	-11.4395
échec	-11.4395
Septembre	-11.4396
Michel	-11.4396
atteindre	-11.4396
Prix	-11.4396
media	-11.4397
▁gère	-11.44
▁orientale	-11.4402
▁AB	-11.4403
▁souffre	-11.4403
nait	-11.4405
échanges	-11.4406
▁traductions	-11.4406
▁bouger	-11.4408
▁comédie	-11.4408
▁religions	-11.4409
ever	-11.4409
ben	-11.441
▁bouddhisme	-11.4413
▁fréquemment	-11.4413
▁paisible	-11.4413
▁Pôle	-11.4413
▁suicide	-11.4413
Arc	-11.4413
▁app	-11.4413
▁récupération	-11.4413
anime	-11.4413
▁vintage	-11.4415
▁gardé	-11.4415
▁couronne	-11.4416
▁that	-11.4416
▁résultant	-11.4419
/12	-11.4419
▁traditionnels	-11.4419
▁décline	-11.442
▁assistance	-11.4422
▁réflexions	-11.4422
arriver	-11.4423
▁potentielle	-11.4423
▁précautions	-11.4424
▁reconnus	-11.4426
▁collier	-11.4426
▁fédérale	-11.4427
▁poursuivi	-11.4428
▁Prince	-11.4429
▁parcs	-11.4433
▁rassemble	-11.4434
▁illustrations	-11.4434
▁mentions	-11.4437
▁Chant	-11.4437
▁Audi	-11.4438
▁symboliques	-11.4439
▁fermés	-11.444
▁Var	-11.444
▁secrète	-11.4441
▁Municipal	-11.4442
Af	-11.4444
▁autorité	-11.4446
▁Offres	-11.4446
pan	-11.4447
▁Petits	-11.4447
▁sois	-11.4454
▁Fo	-11.4456
▁profité	-11.4456
thérapie	-11.4459
PL	-11.4461
▁opinions	-11.4463
▁rédigé	-11.4463
thon	-11.4464
▁”	-11.4464
▁Ligne	-11.4465
▁manquez	-11.4465
▁̈	-11.4466
▁Six	-11.4466
chan	-11.4468
FS	-11.447
▁symbolique	-11.4471
▁paquet	-11.4471
▁troc	-11.4471
▁absolue	-11.4473
▁aérienne	-11.4474
▁survie	-11.4475
▁Bain	-11.448
▁astrologiques	-11.4481
emballage	-11.4481
Juillet	-11.4481
intégrer	-11.4481
Novembre	-11.4481
interprétation	-11.4482
▁baisser	-11.4482
▁JO	-11.4483
▁delà	-11.4487
▁Tim	-11.4487
▁initiative	-11.4488
artisanat	-11.4489
▁Ste	-11.449
TT	-11.449
assa	-11.4493
▁adversaire	-11.4496
▁voyance	-11.4497
▁hâte	-11.4497
▁Pensez	-11.4498
EMENT	-11.4498
▁Docteur	-11.4498
dr	-11.4499
▁inclut	-11.4501
▁canard	-11.4504
▁parlementaires	-11.4505
sée	-11.4507
▁modules	-11.4508
▁espérons	-11.451
▁refusé	-11.4511
▁Rechercher	-11.4511
▁blocage	-11.4512
autoroute	-11.4513
▁pénale	-11.4515
mari	-11.4516
▁pente	-11.4517
▁Rare	-11.4518
dite	-11.4518
▁XXe	-11.4519
▁Office	-11.452
ogne	-11.452
▁fabriquer	-11.452
▁MS	-11.4521
▁reg	-11.4526
sus	-11.4527
▁Publicité	-11.4531
DF	-11.4533
▁bénéficient	-11.4534
▁Information	-11.4537
HO	-11.4538
rica	-11.4539
▁Marcel	-11.454
▁esprits	-11.4541
▁recharge	-11.4541
rise	-11.4544
▁choisit	-11.4545
▁ajoutée	-11.4545
▁stocks	-11.455
len	-11.4551
iki	-11.4554
tifs	-11.4556
▁Résultat	-11.4558
▁poète	-11.4559
▁fourniture	-11.456
▁puissante	-11.4561
▁1)	-11.4561
▁Lieu	-11.4564
▁circuits	-11.4566
opportunité	-11.4567
▁eff	-11.4567
utilité	-11.4567
originalité	-11.4568
▁Classement	-11.4568
▁manifeste	-11.4568
PP	-11.4569
▁retourné	-11.4569
▁Gris	-11.4571
ope	-11.4571
▁poli	-11.4574
▁vache	-11.4578
▁Mouvement	-11.4583
▁aisément	-11.4583
▁Pologne	-11.4583
▁invisible	-11.4584
▁tricot	-11.4584
▁poker	-11.4584
▁respiration	-11.4584
▁lycées	-11.4585
▁circonscription	-11.4585
▁PIB	-11.4586
▁contrainte	-11.4586
▁1996	-11.4586
▁Bah	-11.4587
code	-11.4587
▁bannière	-11.4588
▁mentionné	-11.4591
▁révéler	-11.4591
▁variés	-11.4591
▁TR	-11.4595
▁temp	-11.4595
▁sale	-11.4596
▁Achat	-11.4596
▁ajoutez	-11.4598
▁passif	-11.4598
▁Fra	-11.46
▁Love	-11.4602
▁considérable	-11.4602
▁alternatives	-11.4602
▁coffret	-11.4604
eries	-11.4604
▁régie	-11.4606
▁mutuelle	-11.4608
aimer	-11.4609
▁écho	-11.4611
▁étudier	-11.4615
▁donnait	-11.462
gel	-11.462
bles	-11.4627
▁Wal	-11.4631
▁retrouvent	-11.4631
▁rapporte	-11.4632
urant	-11.4633
TES	-11.4638
▁décédé	-11.4643
ASS	-11.4643
▁difficilement	-11.4643
▁acquérir	-11.4644
thèque	-11.4644
▁personnalisées	-11.4645
▁civilisation	-11.4647
▁Camp	-11.4647
▁bête	-11.4648
▁loisir	-11.4649
dine	-11.4649
pose	-11.4649
éclat	-11.4652
croix	-11.4655
▁conservées	-11.4661
▁sévère	-11.4661
▁occupe	-11.4665
▁digital	-11.4665
/11/2018	-11.4666
▁Stratégie	-11.4669
▁dégradation	-11.4669
▁fatigué	-11.4669
▁inoubliable	-11.4669
▁offensif	-11.4669
▁praticien	-11.4669
▁ikea	-11.4669
▁CGV	-11.4669
▁diminution	-11.4669
▁Remarque	-11.467
▁musicaux	-11.467
▁désinscrire	-11.4671
}}	-11.4671
ware	-11.4671
▁appui	-11.4672
▁Cadre	-11.4672
▁descente	-11.4672
▁sécheresse	-11.4673
internaute	-11.4675
▁roue	-11.4676
▁revers	-11.4676
▁diminuer	-11.4677
▁signée	-11.4678
▁suspendu	-11.4679
▁Concert	-11.468
▁présidente	-11.4681
▁seniors	-11.4682
▁conçue	-11.4683
▁exception	-11.4684
▁tiendra	-11.4685
▁Calendrier	-11.4687
▁Vendredi	-11.4688
▁Maman	-11.4694
▁Résultats	-11.4694
▁Ac	-11.4695
▁Blu	-11.4701
▁190	-11.4705
▁contributions	-11.4705
▁aveugle	-11.4706
▁Golf	-11.4708
▁autonomie	-11.471
▁visibles	-11.4713
▁have	-11.4713
▁courtes	-11.4714
▁parent	-11.4714
▁régal	-11.4719
▁gla	-11.4719
èse	-11.4723
н	-11.4725
▁Acc	-11.4727
éo	-11.4729
▁consent	-11.473
▁mécanisme	-11.473
mbi	-11.4731
▁Mobile	-11.4735
▁sculptures	-11.4736
▁délégué	-11.4737
active	-11.4738
▁end	-11.4739
▁Chan	-11.4741
fond	-11.4741
▁institution	-11.4742
Education	-11.4742
ndi	-11.4742
▁Pic	-11.4742
garde	-11.4743
▁neufs	-11.4745
▁transporteur	-11.4746
▁puissants	-11.4747
ennemi	-11.4748
▁Brun	-11.4748
alors	-11.4748
▁inconnu	-11.4753
▁pouces	-11.4754
▁Fidélité	-11.4756
▁Napoléon	-11.4756
▁emblématique	-11.4756
▁intimiste	-11.4756
▁panoramique	-11.4756
▁Contrat	-11.4756
▁prétexte	-11.4757
▁évolué	-11.4757
▁Séance	-11.4757
▁Coucou	-11.4758
grand	-11.4759
▁Moulin	-11.4759
▁Caisse	-11.4759
▁Liban	-11.4759
phy	-11.4762
...”	-11.4762
Mais	-11.4764
▁canadienne	-11.4764
▁soumises	-11.4764
▁occupé	-11.4765
▁Vendu	-11.4765
▁renforcement	-11.4765
▁devrais	-11.4767
▁réunit	-11.4767
▁phénomènes	-11.4768
▁rachat	-11.477
▁arr	-11.4773
▁lots	-11.4774
▁passages	-11.4774
▁97	-11.4775
pent	-11.4777
▁Acheter	-11.4777
▁DOC	-11.4778
▁fl	-11.4778
tête	-11.4778
var	-11.4784
▁Beaux	-11.4785
▁branches	-11.4786
▁tablettes	-11.4786
venir	-11.4789
▁bloquer	-11.4792
▁stocker	-11.4793
▁Pot	-11.4795
iri	-11.4795
php	-11.4795
▁bri	-11.4797
▁enregistrées	-11.48
▁Dor	-11.48
▁Pou	-11.4801
▁chauffeur	-11.4802
appliquent	-11.4807
▁externes	-11.4811
▁prononcé	-11.4818
▁fines	-11.4818
▁traverser	-11.482
▁Express	-11.4821
▁métallique	-11.4823
▁phare	-11.4824
▁spécialité	-11.4826
▁Bagages	-11.4827
▁temple	-11.4828
écrivain	-11.483
Août	-11.4831
Juin	-11.4831
informer	-11.4831
▁Lion	-11.4831
étape	-11.4835
mond	-11.4836
tais	-11.4838
▁nuages	-11.4839
▁automne	-11.4842
▁poussé	-11.4843
▁Actuellement	-11.4844
▁Guadeloupe	-11.4844
▁destinataire	-11.4844
▁pinterest	-11.4844
▁productivité	-11.4844
ppuyez	-11.4844
▁pouvaient	-11.4844
▁cirque	-11.4844
watch	-11.4844
▁banni	-11.4846
▁chaudes	-11.4846
▁Vallée	-11.4846
▁Capital	-11.4846
▁1984	-11.4847
mobil	-11.4849
▁observé	-11.485
▁logos	-11.485
isto	-11.485
flex	-11.485
▁bancaires	-11.4852
▁envoyés	-11.4852
▁huiles	-11.4856
▁négociations	-11.4857
▁Isabelle	-11.4858
▁High	-11.486
▁short	-11.4861
▁Eve	-11.4862
▁réfléchi	-11.4863
î	-11.4866
▁French	-11.4867
▁Ski	-11.4868
▁Dragon	-11.4869
▁mignon	-11.487
▁ok	-11.487
▁géré	-11.4872
mel	-11.4872
▁pleins	-11.4873
ouve	-11.4874
▁SU	-11.4878
père	-11.4878
▁Team	-11.4879
cision	-11.4879
▁agriculture	-11.488
pré	-11.4882
▁charger	-11.4883
▁attendus	-11.4883
dar	-11.4885
▁camps	-11.4887
▁réfugiés	-11.4889
▁charmant	-11.4889
RC	-11.4889
▁chemins	-11.489
▁intention	-11.489
▁avion	-11.4891
▁atouts	-11.4891
▁tas	-11.4891
▁réclame	-11.4892
▁Personne	-11.4893
▁usages	-11.4893
▁Box	-11.4894
▁Bay	-11.4896
▁saveurs	-11.4896
▁distribué	-11.4896
▁regardez	-11.4897
nit	-11.4899
▁King	-11.49
lisé	-11.4902
▁passez	-11.4907
▁anglaise	-11.4909
▁protocole	-11.4913
▁technicien	-11.4914
▁cellule	-11.4914
▁notaire	-11.4915
▁animée	-11.4917
artistes	-11.4918
ILL	-11.492
▁Union	-11.492
Avril	-11.492
animal	-11.4922
▁responsabilités	-11.4922
▁chèvre	-11.4923
▁passions	-11.4925
métrique	-11.4925
▁extérieurs	-11.4927
▁Act	-11.4927
▁correction	-11.4928
▁Utilisation	-11.4928
▁emballage	-11.4929
▁gâteau	-11.493
▁audience	-11.493
▁Bouddha	-11.4932
▁Intitulé	-11.4932
▁boîtier	-11.4932
▁divorce	-11.4932
▁thérapeutique	-11.4932
▁Lycée	-11.4932
▁Dépannage	-11.4932
▁Accord	-11.4932
▁Envoyer	-11.4933
▁clause	-11.4933
▁syndical	-11.4933
core	-11.4933
▁gel	-11.4936
▁mépris	-11.4937
▁grecque	-11.494
▁bouge	-11.4941
▁Poésie	-11.4942
▁Mots	-11.4943
▁Hello	-11.4943
▁claque	-11.4944
▁État	-11.4946
▁livret	-11.4949
▁faille	-11.4951
▁régulation	-11.4951
▁souligner	-11.4951
anche	-11.4952
▁firme	-11.4954
▁protéines	-11.4955
▁Beauté	-11.4956
▁SMS	-11.4956
▁em	-11.4958
▁magazines	-11.496
BM	-11.4961
▁réputé	-11.4962
▁écart	-11.4962
tement	-11.4967
alisme	-11.4968
▁Op	-11.4969
▁visuel	-11.4972
sk	-11.4973
Ho	-11.4973
▁Maria	-11.4974
▁ordinateurs	-11.4975
ello	-11.4976
▁cho	-11.4977
▁poursuite	-11.4978
▁noires	-11.4978
▁créatifs	-11.498
BE	-11.4981
▁vendus	-11.4985
▁batt	-11.4986
▁jean	-11.4986
irent	-11.4989
▁postal	-11.4991
▁passagers	-11.4992
▁350	-11.4998
▁grandeur	-11.5005
ouf	-11.5005
▁étal	-11.5006
▁Cul	-11.5007
considérablement	-11.5011
cours	-11.5013
Grand	-11.5016
appeler	-11.5017
FE	-11.5019
▁voila	-11.502
▁Avertissement	-11.5021
▁Danemark	-11.5021
▁Mohamed	-11.5021
▁Poitou	-11.5021
▁constamment	-11.5021
▁gigantesque	-11.5021
▁gluten	-11.5021
▁gonflable	-11.5021
▁préjudice	-11.5021
▁végétaux	-11.5021
▁contraste	-11.5022
▁Versailles	-11.5022
▁généreux	-11.5022
▁soumettre	-11.5022
▁Florence	-11.5022
▁prévenu	-11.5023
▁espérant	-11.5023
▁single	-11.5023
▁pile	-11.5024
▁Lin	-11.5024
▁élégante	-11.5024
▁tonnes	-11.5025
▁dérive	-11.5026
▁Village	-11.503
adi	-11.503
▁vieilli	-11.5031
▁admirer	-11.5031
▁Edition	-11.5032
mber	-11.5032
▁nations	-11.5033
effectue	-11.5033
▁sexualité	-11.5034
▁violent	-11.5034
▁Garde	-11.5035
▁extraits	-11.5035
▁contribuent	-11.5036
cam	-11.5037
▁180	-11.5037
ération	-11.5041
EF	-11.5043
▁ascension	-11.5044
▁sain	-11.5044
▁Utilisateurs	-11.505
▁déteste	-11.5051
ILLE	-11.5051
▁pleurer	-11.5051
▁trip	-11.5054
▁bâton	-11.5056
▁immobilières	-11.5056
▁63	-11.5056
arr	-11.506
▁honneur	-11.5062
▁coquine	-11.5064
▁psy	-11.507
▁tape	-11.5075
▁Taux	-11.5075
▁accordée	-11.5077
ssy	-11.5078
▁mètre	-11.5079
▁assise	-11.5084
▁complets	-11.5086
▁requis	-11.5089
▁migration	-11.5096
▁négative	-11.5096
▁salade	-11.5096
▁express	-11.5099
▁essaie	-11.51
avocat	-11.5101
vidéo	-11.5101
▁SD	-11.5104
▁Claire	-11.5105
éth	-11.5106
▁It	-11.5107
▁intéressantes	-11.5108
▁high	-11.5108
▁preuves	-11.5108
not	-11.5109
/08/2015	-11.5112
▁Secrétaire	-11.5112
▁bienfaisance	-11.5112
▁bénéfique	-11.5112
▁majoritaire	-11.5112
▁précoce	-11.5112
▁Populaire	-11.5112
▁délivrance	-11.5112
▁Désolé	-11.5112
▁gastronomie	-11.5112
▁gouvernance	-11.5112
▁XII	-11.5112
▁pat	-11.5113
▁lourds	-11.5113
▁amélioration	-11.5113
▁Cannes	-11.5113
▁1994	-11.5115
▁1965	-11.5115
▁Hor	-11.5119
encontre	-11.5121
▁hybride	-11.5122
▁Sébastien	-11.5125
▁basket	-11.5125
▁appliquée	-11.5126
▁devises	-11.5127
▁concernées	-11.513
market	-11.513
▁poches	-11.5131
▁tenues	-11.5132
▁régionaux	-11.5135
llo	-11.5136
▁défauts	-11.5136
excellent	-11.5141
▁sérieuses	-11.5142
mod	-11.5144
▁(11	-11.5145
▁pharmacien	-11.5148
voyant	-11.5148
▁Bout	-11.5148
▁rangs	-11.5148
▁connues	-11.5151
▁parisiens	-11.5157
▁Fan	-11.5166
▁enceintes	-11.5169
▁occasions	-11.5169
▁doué	-11.5169
-11	-11.5171
▁leçon	-11.5174
▁analys	-11.5176
▁individuelles	-11.5181
RIS	-11.5181
▁pen	-11.5185
mur	-11.5186
ues	-11.5187
▁robes	-11.5188
▁négociation	-11.5189
▁africain	-11.519
▁Clé	-11.519
▁93	-11.5191
▁lisse	-11.5191
▁évaluer	-11.5192
altitude	-11.5192
excellence	-11.5192
▁dentaire	-11.5192
Vidéo	-11.5192
usement	-11.5193
Provence	-11.5193
interface	-11.5193
▁autorisés	-11.5193
▁toilette	-11.5194
▁Charente	-11.5197
Inter	-11.5197
ND	-11.5198
▁estimé	-11.52
▁solaires	-11.5201
▁Découverte	-11.5202
▁PayPal	-11.5202
▁détruire	-11.5202
▁rétractation	-11.5202
Observatoire	-11.5203
▁recouvert	-11.5203
▁Dakar	-11.5203
▁Pièces	-11.5204
encadrement	-11.5204
▁fût	-11.5204
▁scrutin	-11.5204
▁fosse	-11.5206
culture	-11.5206
▁Rousseau	-11.5208
bla	-11.5209
▁Imprimer	-11.521
▁Direct	-11.5212
pic	-11.5212
▁soigner	-11.5213
▁Proche	-11.5213
▁obtenez	-11.5216
▁gen	-11.5217
▁Aix	-11.5219
▁disais	-11.5222
long	-11.5225
▁SC	-11.5227
▁Ball	-11.5228
▁!).	-11.5229
extraction	-11.523
div	-11.5231
vision	-11.5232
▁rouler	-11.5238
▁contemporains	-11.5238
herbe	-11.5239
vic	-11.524
▁poly	-11.524
orgue	-11.5243
▁Avallon	-11.5243
▁ram	-11.5244
liser	-11.5247
▁avocats	-11.5249
tha	-11.5249
)...	-11.525
▁réelles	-11.5251
▁ann	-11.5252
▁home	-11.5255
ora	-11.5256
oto	-11.5257
▁rendant	-11.526
▁BO	-11.5262
▁signalé	-11.5262
▁blessures	-11.5262
aliser	-11.5265
▁équivalent	-11.5273
▁positifs	-11.5274
▁inutile	-11.5275
▁reposer	-11.5276
▁(16	-11.5276
rick	-11.5277
▁priorités	-11.5278
▁asiatique	-11.5282
▁coutures	-11.5282
▁juif	-11.5283
▁Heure	-11.5283
annuaire	-11.5284
▁Via	-11.5285
Chambre	-11.5285
Février	-11.5285
▁motivé	-11.5286
▁condamné	-11.5287
internet	-11.5288
uy	-11.5288
incarn	-11.5291
▁engagements	-11.5292
attraction	-11.5292
uelle	-11.5293
▁soudain	-11.5293
▁Nu	-11.5293
▁déroulera	-11.5294
appuyant	-11.5294
fait	-11.5294
▁impeccable	-11.5294
▁respectivement	-11.5294
▁volontiers	-11.5294
▁Paiement	-11.5294
▁Massage	-11.5294
▁Flash	-11.5294
▁trophée	-11.5295
▁mythe	-11.5295
▁PARIS	-11.5295
▁oignons	-11.5296
▁Roul	-11.5296
▁Assurez	-11.5296
▁dramatique	-11.5297
▁Bourse	-11.5297
▁Rob	-11.5299
▁Franc	-11.5299
▁Mariage	-11.53
▁francophones	-11.53
▁maîtresse	-11.5301
▁prudent	-11.5301
ousse	-11.5305
▁(26)	-11.5308
▁Bour	-11.5308
▁pochette	-11.5309
amine	-11.5311
▁visuels	-11.5313
▁déclin	-11.5313
LU	-11.5318
▁sapin	-11.5319
▁revêtement	-11.532
▁âgé	-11.532
▁précédents	-11.5321
▁recrute	-11.5325
engagent	-11.5328
EU	-11.5329
▁inconnue	-11.533
▁matinée	-11.533
▁transporter	-11.5331
▁food	-11.5331
texte	-11.5331
▁descend	-11.5333
▁introduit	-11.5334
OUR	-11.5335
400	-11.5335
▁regardé	-11.5335
▁actualité	-11.5337
▁provoquer	-11.5338
▁fous	-11.534
▁disques	-11.534
▁payée	-11.5341
▁administration	-11.5341
▁XV	-11.5343
rousse	-11.5344
▁découpe	-11.535
▁2008,	-11.5351
▁choisie	-11.5352
▁rage	-11.5352
▁majeurs	-11.5355
Val	-11.5357
IQUE	-11.536
2019	-11.5363
▁lâcher	-11.5369
▁mystère	-11.5376
▁soldes	-11.5376
accident	-11.5378
▁1500	-11.5378
▁Glo	-11.5379
▁visée	-11.5379
▁reportage	-11.5379
▁béta	-11.5381
▁Montre	-11.5384
▁chantiers	-11.5385
▁floraison	-11.5387
▁Brassens	-11.5387
▁tennis	-11.5387
▁passera	-11.5387
▁Arbres	-11.5388
▁(33)	-11.5388
▁comptoir	-11.5389
▁remarques	-11.5389
▁habitué	-11.5389
▁chaleureuse	-11.5389
▁contribu	-11.539
mos	-11.5392
▁Hab	-11.5393
▁Besoin	-11.5396
▁réglé	-11.5397
▁futures	-11.5397
▁prétend	-11.5397
Des	-11.5398
▁pâtisserie	-11.5398
▁séduire	-11.5399
▁secs	-11.5401
▁coins	-11.5402
▁contribué	-11.5403
contact	-11.5404
▁marchandises	-11.5407
MS	-11.541
▁savant	-11.5411
▁remplie	-11.5412
enfin	-11.5415
▁exacte	-11.5424
▁1,5	-11.5425
▁Champ	-11.5426
▁gou	-11.5428
▁doré	-11.543
dress	-11.5432
ated	-11.5435
▁libertin	-11.5435
bro	-11.5437
▁restée	-11.5437
▁pilotes	-11.5439
▁compt	-11.5445
▁exceptionnelles	-11.5447
gag	-11.5447
▁tensions	-11.5454
aiguille	-11.5455
▁1/	-11.5456
▁merveille	-11.5457
▁opportunités	-11.5457
mbr	-11.546
▁proposera	-11.546
▁foire	-11.5463
Mettre	-11.5464
▁conc	-11.5464
▁devais	-11.5464
▁dénonce	-11.5464
▁éclair	-11.5465
▁Thé	-11.5467
▁exerce	-11.547
▁110	-11.547
▁faculté	-11.5472
▁exemplaire	-11.5472
▁Meuble	-11.5472
intéresser	-11.5472
▁Gui	-11.5474
▁accorde	-11.5476
▁troupe	-11.5477
▁musulmane	-11.548
▁Magazine	-11.548
▁nettoyer	-11.548
▁singulier	-11.548
▁miracle	-11.548
▁fédération	-11.548
▁manager	-11.548
▁suspect	-11.5481
▁Renault	-11.5481
▁accueillant	-11.5482
▁calculé	-11.5482
niers	-11.5482
▁flou	-11.5483
▁illimité	-11.5483
▁renouvellement	-11.5484
important	-11.5485
sac	-11.5485
▁tempête	-11.5485
▁Call	-11.5486
▁Mille	-11.5487
▁GA	-11.5489
ambassadeur	-11.5492
▁(20	-11.5494
т	-11.5494
enfer	-11.5494
▁fournie	-11.5496
▁cherché	-11.5497
▁Franche	-11.5501
▁escorte	-11.5502
▁Temps	-11.5502
▁Flo	-11.5503
▁Plantes	-11.5506
▁étais	-11.5506
▁laissent	-11.5506
▁rajouter	-11.5506
▁nutrition	-11.5509
▁Expert	-11.551
▁étoile	-11.5511
down	-11.5513
▁cross	-11.5513
échanger	-11.5515
espérance	-11.5518
gne	-11.5519
attache	-11.5521
▁Poissons	-11.5521
▁Mis	-11.5521
▁BI	-11.5522
▁Conseils	-11.5523
▁laser	-11.5523
-8	-11.5524
nia	-11.5527
▁commerçants	-11.5529
▁?)	-11.5533
abandon	-11.5534
puls	-11.5534
▁pers	-11.5535
▁ère	-11.5535
éveil	-11.5536
▁cousin	-11.5538
oulou	-11.5539
▁lampes	-11.5539
▁Arm	-11.5542
▁désirs	-11.5542
▁CN	-11.5544
▁Miss	-11.5545
value	-11.5545
▁tige	-11.5549
play	-11.555
▁anonymes	-11.5553
▁emp	-11.5555
RIE	-11.5557
▁perfection	-11.5557
égi	-11.5559
▁crimes	-11.5559
▁Julie	-11.556
▁associées	-11.556
gate	-11.5565
▁AP	-11.5566
Sa	-11.5567
▁dépassé	-11.5567
épaule	-11.5568
▁critère	-11.5568
Janvier	-11.5568
André	-11.5568
lets	-11.5568
▁planches	-11.5569
Photo	-11.5569
fiction	-11.557
éna	-11.5572
▁défenseur	-11.5573
académie	-11.5575
▁Astrotheme	-11.5575
▁vocabulaire	-11.5575
▁gloire	-11.5575
▁noël	-11.5575
▁travaillons	-11.5575
▁Bru	-11.5575
▁parcouru	-11.5575
▁Secret	-11.5575
▁string	-11.5575
▁vernis	-11.5576
▁trouvait	-11.5577
▁préoccupations	-11.5578
▁préparateur	-11.558
▁LG	-11.558
▁Zen	-11.558
▁essayez	-11.558
créant	-11.558
▁entré	-11.5581
vu	-11.5581
▁ven	-11.5586
▁résume	-11.5587
▁séparé	-11.5587
▁approuvé	-11.5588
▁interlocuteur	-11.559
▁88	-11.5591
▁substances	-11.5595
▁Spiritualité	-11.5597
▁grandir	-11.5597
▁smartphones	-11.5597
▁identique	-11.5599
^^	-11.56
▁Hol	-11.5603
▁dominante	-11.561
▁laine	-11.561
▁portraits	-11.5612
▁heureusement	-11.5613
▁Ami	-11.5613
▁intelligente	-11.5615
gres	-11.5618
\'	-11.562
▁twitter	-11.5621
▁gé	-11.5624
Mi	-11.5627
reux	-11.5627
▁atmosphère	-11.5634
▁morte	-11.5634
shop	-11.5637
▁matérielle	-11.5638
▁Shi	-11.5638
▁délicat	-11.5641
▁roses	-11.5644
▁merveilleuse	-11.5647
apprécie	-11.5648
▁maxi	-11.5651
CL	-11.5652
▁romans	-11.5655
rma	-11.5657
▁CAR	-11.5659
pie	-11.5662
enseignant	-11.5664
>>	-11.5664
▁nommer	-11.5664
Jacques	-11.5665
</	-11.5665
▁prestataire	-11.5665
▁copain	-11.5665
mandant	-11.5666
ampleur	-11.5667
▁Colombie	-11.5669
▁inf	-11.5669
▁Benoît	-11.567
▁Washington	-11.567
▁apparemment	-11.567
▁fataliste	-11.567
▁rive	-11.567
▁poubelle	-11.567
▁couteau	-11.567
▁Villeneuve	-11.567
▁Francis	-11.567
▁comparatif	-11.567
▁Deuxième	-11.5671
▁terroir	-11.5671
▁Ajoutez	-11.5671
▁œufs	-11.5672
▁dépression	-11.5672
▁Classique	-11.5673
▁chouette	-11.5673
▁astrologie	-11.5673
▁combler	-11.5673
accessibilité	-11.5674
systématiquement	-11.5674
▁combattre	-11.5674
▁attirer	-11.5675
▁mettez	-11.5676
▁retire	-11.5676
/3	-11.5676
phi	-11.5677
▁fiction	-11.5678
▁oeil	-11.5678
▁Die	-11.5679
▁terrestre	-11.568
▁Sauce	-11.568
▁conclure	-11.5681
forum	-11.5683
▁ratio	-11.5683
▁1989	-11.5684
▁Fontaine	-11.5685
bot	-11.5686
▁enregistrée	-11.5693
Aide	-11.5693
▁bordure	-11.5694
▁fiables	-11.5695
GES	-11.5695
▁Ten	-11.5697
▁enregistrement	-11.5699
▁nourri	-11.57
▁Ubuntu	-11.5701
▁с	-11.5705
▁CS	-11.5708
▁sentiers	-11.5708
▁biologie	-11.5709
▁WC	-11.571
▁estimation	-11.5711
▁dépit	-11.5712
▁résiste	-11.5713
▁Pra	-11.5714
▁standards	-11.5715
gou	-11.5716
▁Orange	-11.5718
puis	-11.572
▁VF	-11.5721
▁dominant	-11.5722
▁repli	-11.5723
▁minéral	-11.5724
▁abri	-11.5724
▁étages	-11.5724
mination	-11.5724
▁engagés	-11.5727
▁about	-11.5728
ory	-11.5729
▁moule	-11.5735
lique	-11.5737
▁maquette	-11.5738
▁Présidente	-11.5738
ôt	-11.5738
▁violente	-11.5739
▁Local	-11.5739
▁industries	-11.5739
stat	-11.5741
▁teinte	-11.5742
▁alliés	-11.5744
▁Toile	-11.5745
▁roche	-11.5748
▁découvrirez	-11.5749
▁innovations	-11.575
CD	-11.5752
▁comporter	-11.5756
liers	-11.5757
brique	-11.5761
employeur	-11.5761
anniversaire	-11.5762
▁Pain	-11.5762
▁copine	-11.5763
▁collectivité	-11.5763
▁distinguer	-11.5764
▁Vé	-11.5765
wan	-11.5765
▁serrure	-11.5765
agrément	-11.5765
▁Burundi	-11.5766
▁Mathieu	-11.5766
▁Nintendo	-11.5766
▁Norvège	-11.5766
▁pilotage	-11.5766
▁rapidité	-11.5766
▁spammeurs	-11.5766
▁timide	-11.5766
▁Junior	-11.5766
▁banquier	-11.5766
▁Commons	-11.5766
▁placard	-11.5766
▁bandoulière	-11.5766
▁princesse	-11.5767
▁semelle	-11.5768
▁Cadeaux	-11.5768
▁générique	-11.5768
▁voler	-11.5769
spect	-11.5771
Loire	-11.5773
nov	-11.5774
▁dirait	-11.5776
▁cumul	-11.5777
▁orienté	-11.5778
▁lentement	-11.5778
▁Blue	-11.5781
▁indienne	-11.5781
tance	-11.5783
élever	-11.5783
▁faisais	-11.5784
prise	-11.5784
anger	-11.5784
url	-11.5786
ito	-11.5786
▁Menu	-11.5787
▁??	-11.5791
▁musicien	-11.5792
▁téléphones	-11.5793
lait	-11.5793
▁reporter	-11.5793
▁spécifiquement	-11.5794
nelles	-11.5799
▁résulte	-11.5801
▁indications	-11.5802
▁cuisines	-11.5804
▁interprète	-11.5808
▁harmonie	-11.5808
▁Alexandre	-11.5809
▁online	-11.581
▁débutant	-11.5813
aucune	-11.5813
habitants	-11.5814
▁Réalisé	-11.5815
cale	-11.5815
▁plancher	-11.5818
▁notions	-11.5819
ELLE	-11.5819
2009	-11.582
cord	-11.582
▁tuteur	-11.5822
▁gentille	-11.5824
uté	-11.5824
▁dentelle	-11.583
▁démission	-11.583
indique	-11.5832
▁constant	-11.5833
▁Bande	-11.5833
▁reli	-11.5834
hom	-11.5836
issé	-11.5838
▁exposé	-11.5838
char	-11.5839
▁bourg	-11.5841
▁instants	-11.5841
tabli	-11.5844
blo	-11.5844
▁Kan	-11.5847
imant	-11.585
▁inscriptions	-11.5851
▁collé	-11.5851
▁litres	-11.5853
▁traverse	-11.5853
▁nette	-11.5856
pole	-11.5858
Atlantique	-11.5859
▁malheur	-11.5859
Emmanuel	-11.5859
▁ress	-11.586
▁maritime	-11.5862
▁tomate	-11.5863
▁(13	-11.5863
▁Maîtrise	-11.5863
▁chêne	-11.5863
▁javascript	-11.5863
▁phpBB	-11.5863
▁légendaire	-11.5863
▁séduit	-11.5863
▁bricolage	-11.5863
▁refroidissement	-11.5863
▁inséré	-11.5863
▁disposant	-11.5863
▁valoir	-11.5863
▁bienvenus	-11.5864
▁reproduit	-11.5865
▁domination	-11.5865
ehran	-11.5866
mesure	-11.5867
▁variétés	-11.5867
osité	-11.5867
▁gestionnaire	-11.5867
▁immédiat	-11.5868
▁posée	-11.5868
▁BTS	-11.5869
▁finitions	-11.5869
isseur	-11.587
▁Barrière	-11.587
▁dépendent	-11.5874
▁cycles	-11.5876
email	-11.5876
ANCE	-11.5876
▁Autant	-11.5878
▁drapeau	-11.588
▁surprenant	-11.5881
▁Editions	-11.5882
▁délicate	-11.5882
pass	-11.5884
▁découvr	-11.5885
▁LO	-11.5885
▁Lib	-11.5889
▁devoirs	-11.5889
lock	-11.5889
atives	-11.5892
nic	-11.5893
hl	-11.5893
natur	-11.5893
▁poule	-11.5895
ook	-11.5896
▁Discussions	-11.5898
▁délit	-11.5898
▁définit	-11.59
▁apres	-11.5902
▁formats	-11.5904
occupe	-11.5905
OIS	-11.5906
rive	-11.5909
▁pis	-11.5909
▁79	-11.5915
trac	-11.5916
▁Commun	-11.5921
▁merde	-11.5921
▁sanction	-11.5928
▁82	-11.5931
▁romaine	-11.5931
▁légitimes	-11.5933
poli	-11.5934
▁soutient	-11.5934
▁Noire	-11.5936
nçant	-11.5937
▁agenda	-11.5937
▁bébés	-11.5938
▁chaises	-11.5938
▁déclarations	-11.594
▁illégale	-11.594
quier	-11.5941
▁Expos	-11.5944
▁motion	-11.5945
5.	-11.5945
▁class	-11.5946
▁sauvages	-11.5948
stan	-11.5953
▁Cherche	-11.5954
▁marchands	-11.5956
artisan	-11.5957
▁Unique	-11.5957
▁épais	-11.5958
ingénieur	-11.5959
▁Eau	-11.5959
▁Rec	-11.596
expert	-11.5961
Psychanalyse	-11.5961
▁Laboratoire	-11.5961
▁Solidarité	-11.5961
▁certitude	-11.5961
▁discrimination	-11.5961
▁pertinence	-11.5961
▁satellite	-11.5961
▁trentaine	-11.5961
▁vinaigre	-11.5961
▁convoqué	-11.5961
aptitude	-11.5961
▁linéaire	-11.5961
▁11,95	-11.5961
▁recueille	-11.5962
▁Ayant	-11.5962
▁Somme	-11.5962
▁Portrait	-11.5963
▁stationnement	-11.5963
abus	-11.5964
ajustement	-11.5965
▁cités	-11.5965
roux	-11.5966
▁Lily	-11.5966
▁terminal	-11.5968
▁aussitôt	-11.5968
▁analysé	-11.5969
▁sessions	-11.597
▁marbre	-11.5973
▁Stade	-11.5974
▁Business	-11.5974
▁individuels	-11.5975
▁indien	-11.5975
mission	-11.5979
▁faisaient	-11.598
mt	-11.598
▁360	-11.5981
▁donnés	-11.5982
▁évolue	-11.5982
▁idéalement	-11.5987
mili	-11.5989
-17	-11.5989
▁péril	-11.599
▁Rom	-11.5992
Garonne	-11.5992
▁désire	-11.5994
▁bis	-11.5995
▁généré	-11.5995
▁qualifiés	-11.5997
▁Championnat	-11.5997
▁Real	-11.5997
▁num	-11.5998
▁amples	-11.6
▁Gé	-11.6003
▁Anna	-11.6003
▁communiquées	-11.6004
▁viendra	-11.6005
▁installés	-11.6005
▁détenu	-11.6006
▁extras	-11.6007
gestion	-11.6008
▁choisiss	-11.6008
▁illustr	-11.601
▁bla	-11.601
▁salaires	-11.6013
▁chants	-11.6019
▁initial	-11.602
▁parait	-11.602
▁studios	-11.6021
dir	-11.6023
dal	-11.6023
gée	-11.6023
▁GT	-11.6023
lance	-11.6024
▁BE	-11.6024
▁magn	-11.6025
▁suffisante	-11.6027
dant	-11.6028
▁fonctionnelle	-11.6033
▁(0	-11.6034
▁lâche	-11.6036
▁Met	-11.6036
▁foyers	-11.6037
illons	-11.6044
▁placés	-11.6045
▁..."	-11.6046
▁Ray	-11.6046
▁party	-11.6046
institut	-11.605
▁clics	-11.605
Tu	-11.6051
▁Île	-11.6052
▁optimal	-11.6053
ajout	-11.6056
▁terminale	-11.6056
rt	-11.6057
animateur	-11.6058
notamment	-11.6059
▁dotée	-11.6059
▁Gard	-11.6059
authenticité	-11.606
▁Airbnb	-11.606
▁Benjamin	-11.606
▁district	-11.606
▁mystérieuse	-11.606
▁précédemment	-11.606
▁solitaire	-11.606
▁tweet	-11.606
▁provoqué	-11.606
▁quarante	-11.606
▁Youtube	-11.606
▁musculaire	-11.606
▁routière	-11.606
▁lourde	-11.606
▁livrés	-11.606
▁prioritaire	-11.606
▁25,25	-11.6061
▁More	-11.6061
▁Instruments	-11.6061
▁succession	-11.6061
▁imaginé	-11.6062
▁barrage	-11.6062
▁COM	-11.6062
▁aidant	-11.6062
▁universel	-11.6063
▁Réalisation	-11.6064
▁sculpteur	-11.6065
chage	-11.6066
▁was	-11.6067
▁Mod	-11.6067
▁Coton	-11.6067
▁pouce	-11.6067
▁Sont	-11.6067
▁Vive	-11.6068
▁facettes	-11.6069
▁в	-11.6069
▁ticket	-11.6074
▁Pla	-11.6076
objets	-11.6077
vaient	-11.6078
IDE	-11.6079
▁Agenda	-11.6079
▁Réponse	-11.6079
atte	-11.608
▁SAS	-11.6081
▁profondes	-11.6081
ALE	-11.6083
▁vagues	-11.6085
▁2)	-11.6087
▁regrette	-11.6087
▁NF	-11.6088
▁participent	-11.6089
▁canne	-11.6089
lem	-11.6089
▁insolite	-11.609
git	-11.6091
▁aériennes	-11.6092
▁romain	-11.6093
▁vendeurs	-11.6094
LY	-11.6096
ains	-11.6097
▁Escort	-11.6098
▁Lecteur	-11.61
ст	-11.6101
▁affichées	-11.6103
▁déclenche	-11.6105
graphie	-11.6105
▁végétaliens	-11.6108
▁Imp	-11.6109
▁artisanale	-11.611
▁affronter	-11.611
▁PM	-11.6111
disciplinaire	-11.6112
élite	-11.6115
▁export	-11.6117
▁revues	-11.6118
AZ	-11.6118
▁hard	-11.6118
onnais	-11.612
uvre	-11.6123
▁chanter	-11.6125
▁veau	-11.6128
▁titulaires	-11.6128
roll	-11.6129
▁exclu	-11.6129
œ	-11.6131
▁prouver	-11.6132
pop	-11.6132
▁concernée	-11.6133
▁renforcée	-11.6133
mode	-11.6134
▁salons	-11.6136
▁évoqué	-11.6138
▁Gay	-11.614
▁clin	-11.6148
▁Win	-11.6149
END	-11.6149
▁Live	-11.615
▁rappelé	-11.615
▁dédiés	-11.6152
rack	-11.6152
▁explicite	-11.6152
pression	-11.6154
▁Trop	-11.6155
▁Bach	-11.6156
▁apparition	-11.6157
▁directeurs	-11.6158
Halloween	-11.6159
▁Galaxy	-11.616
▁coiffure	-11.616
▁modernité	-11.616
▁tranquillité	-11.616
intimité	-11.616
▁concevoir	-11.616
▁Watch	-11.616
▁Fermeture	-11.616
▁céder	-11.616
▁seigneur	-11.6161
▁réservoir	-11.6161
▁cire	-11.6161
▁tristesse	-11.6161
▁voudrait	-11.6161
▁Quartier	-11.6162
▁créatrice	-11.6162
▁iphone	-11.6162
Martin	-11.6162
▁panique	-11.6163
▁fréquentation	-11.6163
▁1988	-11.6164
▁1968	-11.6164
▁coaching	-11.6164
▁Finalement	-11.6164
nza	-11.6165
▁générer	-11.6165
▁Créez	-11.6166
▁Spécialiste	-11.6166
▁gants	-11.6168
▁ko	-11.6168
wear	-11.6169
▁dette	-11.6171
▁900	-11.6172
xx	-11.6173
cieuse	-11.6173
▁intitulée	-11.6175
▁effectifs	-11.6176
vivant	-11.6176
▁gravure	-11.6177
habite	-11.6177
▁Autour	-11.6178
▁rugby	-11.6178
▁connectés	-11.618
▁parution	-11.618
▁engager	-11.6181
▁validé	-11.6183
▁éditeur	-11.6184
▁Boîte	-11.6185
▁aéroport	-11.6185
▁consultations	-11.6188
▁superbes	-11.619
hin	-11.619
▁mince	-11.6191
▁institut	-11.6193
▁symbolise	-11.6193
▁accidents	-11.6194
▁vieilles	-11.6194
▁marchand	-11.6195
▁Valentin	-11.6195
▁office	-11.6195
▁bloqué	-11.6198
▁retrouverez	-11.6199
▁débuts	-11.6202
▁américaines	-11.6206
▁Fre	-11.6206
▁intégration	-11.6206
▁exécution	-11.6208
ception	-11.6209
ONS	-11.621
avions	-11.6211
ticien	-11.6213
▁récupéré	-11.6214
dition	-11.6217
▁Option	-11.6218
▁visé	-11.6218
▁champignons	-11.622
▁Pl	-11.6225
MB	-11.6228
▁Hy	-11.6231
▁expose	-11.6231
▁Située	-11.6233
DO	-11.6236
orge	-11.6237
▁sus	-11.6243
isson	-11.6243
▁»).	-11.6244
▁2006,	-11.6245
▁trouvera	-11.6247
▁autorisée	-11.6249
▁sanctions	-11.6258
hypothèse	-11.6261
▁Peugeot	-11.6261
▁souverain	-11.6261
▁corrigé	-11.6261
isolation	-11.6261
▁connaissais	-11.6261
équivalent	-11.6261
alliance	-11.6261
▁géographie	-11.6262
Service	-11.6262
▁sixième	-11.6262
Avec	-11.6262
▁Combien	-11.6262
Santé	-11.6263
▁relief	-11.6263
▁fourchette	-11.6263
▁sécuriser	-11.6263
▁Dernier	-11.6263
▁déménagement	-11.6265
▁blocs	-11.6266
quant	-11.6266
▁hum	-11.6268
▁légionnaire	-11.6268
▁culinaire	-11.6268
▁blague	-11.6268
▁fibre	-11.6269
émotion	-11.627
▁Vendeur	-11.627
▁Piscine	-11.6273
▁légalement	-11.6278
▁rassembler	-11.6279
▁Ferr	-11.628
Elle	-11.628
RT	-11.6285
▁sensations	-11.6287
▁83	-11.6288
▁indiquées	-11.6288
TF	-11.6288
zé	-11.6292
▁Changer	-11.6293
archi	-11.6294
▁transféré	-11.6294
▁Nicole	-11.6296
▁Aéro	-11.6299
▁tenus	-11.63
riv	-11.63
glo	-11.6305
▁démontrer	-11.6307
DC	-11.6311
TH	-11.6312
▁aborde	-11.6314
▁81	-11.6314
▁chaussettes	-11.6319
▁Nor	-11.632
▁misère	-11.6324
red	-11.6325
▁Rhin	-11.6326
TÉ	-11.6326
▁Coeur	-11.6329
▁passionnée	-11.6332
▁intelligent	-11.6333
▁entités	-11.6334
▁nouveauté	-11.6338
▁dense	-11.6342
▁intelligence	-11.6342
AK	-11.6344
▁Tarn	-11.6344
▁arrêtés	-11.6345
▁hall	-11.6345
uma	-11.6345
▁dispo	-11.6347
▁partagent	-11.6347
▁Nat	-11.6352
aimerai	-11.6354
▁exact	-11.6354
rue	-11.6356
▁impacts	-11.6356
NET	-11.6357
▁Pointe	-11.6359
▁démarre	-11.636
▁Gold	-11.636
▁formateur	-11.6361
▁québécois	-11.6362
ambo	-11.6362
▁dépendant	-11.6363
instinct	-11.6363
/03/2015	-11.6363
▁Jérusalem	-11.6363
▁SNCF	-11.6363
▁douloureuse	-11.6363
▁vétérinaire	-11.6363
Hôpital	-11.6363
▁fourrure	-11.6363
▁femelle	-11.6363
Uzès	-11.6363
▁connaissait	-11.6364
▁vierge	-11.6364
embauche	-11.6364
▁Essayez	-11.6364
automobile	-11.6365
▁marginal	-11.6365
▁québécoise	-11.6365
Politique	-11.6365
Votre	-11.6365
dien	-11.6365
▁1962	-11.6366
▁RDC	-11.6366
▁répéter	-11.6367
▁argument	-11.6367
Marne	-11.6368
stro	-11.6369
Australie	-11.6369
▁couloir	-11.6369
▁projection	-11.6372
▁qualit	-11.6372
▁fixes	-11.6372
rir	-11.6377
Date	-11.6377
vue	-11.638
▁Education	-11.638
ANG	-11.638
▁debout	-11.638
▁Univers	-11.6382
▁visiblement	-11.6382
▁sérieusement	-11.6382
▁débuter	-11.6383
▁gêne	-11.6384
▁royale	-11.6385
▁entoure	-11.6386
▁partant	-11.6389
▁Tir	-11.6392
▁jeté	-11.6393
▁démontré	-11.6394
▁souligné	-11.6396
emmen	-11.6399
▁soie	-11.64
▁entrain	-11.6402
▁Dix	-11.6403
▁mag	-11.6404
▁Online	-11.6406
▁élaboré	-11.6406
▁Laisser	-11.6407
▁batteries	-11.6408
zou	-11.6413
▁réels	-11.6414
ORI	-11.6415
CES	-11.6421
chez	-11.6425
▁Syndicat	-11.6427
oï	-11.6429
▁disons	-11.6429
▁anal	-11.6429
în	-11.643
▁Germain	-11.6433
▁Romans	-11.6434
▁Hum	-11.6436
hô	-11.6438
▁Vent	-11.6438
pers	-11.6439
▁Mary	-11.6441
▁3000	-11.6441
▁bouteilles	-11.6442
▁fonctionnaires	-11.6449
iro	-11.6449
▁Flor	-11.645
▁Rex	-11.6451
▁comport	-11.6456
▁Alger	-11.6463
▁Book	-11.6464
▁copier	-11.6465
▁Propriété	-11.6466
▁Vietnam	-11.6466
▁aromates	-11.6466
▁hospitalier	-11.6466
▁proviennent	-11.6466
▁requiert	-11.6466
▁crochet	-11.6467
▁pizza	-11.6467
▁interactive	-11.6467
▁ongles	-11.6467
annulation	-11.6469
École	-11.6469
économique	-11.6469
▁confusion	-11.6469
Soins	-11.6469
▁mondialisation	-11.6469
▁TTC	-11.647
▁chalet	-11.6471
▁courgette	-11.6471
▁ramener	-11.6471
▁tenait	-11.6472
▁Seulement	-11.6475
▁montres	-11.6476
▁pull	-11.6476
▁automatiques	-11.6477
▁séquence	-11.6477
▁Soul	-11.6477
▁variées	-11.6478
▁théorique	-11.6479
▁Ouverture	-11.648
▁Belge	-11.6481
▁spa	-11.6481
IRE	-11.6482
▁LCD	-11.6483
▁réalisations	-11.6484
▁lourdes	-11.6485
▁amène	-11.6486
▁fière	-11.6487
▁muni	-11.649
▁Fêtes	-11.649
▁réductions	-11.6491
accompagn	-11.6492
▁planche	-11.6492
▁CNIL	-11.6493
▁ouvrant	-11.6493
▁Ang	-11.6496
▁financé	-11.6499
▁Casque	-11.6502
route	-11.6503
▁opérationnelle	-11.6504
▁figures	-11.6507
▁mien	-11.6509
▁récits	-11.651
cap	-11.651
▁Hard	-11.6511
▁chargés	-11.6514
▁nue	-11.6514
▁compléments	-11.6517
bord	-11.6519
NT	-11.652
annonces	-11.6522
▁attribution	-11.6522
▁CI	-11.6523
▁extrêmes	-11.6524
▁collectifs	-11.6525
élèves	-11.6529
▁envoyée	-11.6531
▁emb	-11.6531
▁réalités	-11.6532
▁Yu	-11.6533
▁renouvelables	-11.6536
▁étonnante	-11.6537
▁vraies	-11.6541
▁cage	-11.6543
écris	-11.6543
▁fréquentes	-11.6543
▁mienne	-11.6547
Ina	-11.6547
▁enseigne	-11.6548
landais	-11.655
▁deviendra	-11.6551
▁annoncée	-11.6551
▁détaillée	-11.6554
▁embrasse	-11.6557
▁publiées	-11.6557
▁Bir	-11.6557
▁grain	-11.6565
▁orale	-11.6567
▁robuste	-11.657
▁attentif	-11.657
▁chauffant	-11.657
▁dynamisme	-11.657
▁Appareil	-11.657
▁Voyez	-11.657
▁angulaire	-11.657
▁expressément	-11.657
▁madame	-11.6571
▁inscrivez	-11.6571
▁chemise	-11.6571
▁sauvé	-11.6571
▁douces	-11.6572
apparition	-11.6572
▁coupure	-11.6573
ordonnance	-11.6574
Article	-11.6574
architecte	-11.6574
▁installateur	-11.6575
▁surnom	-11.6576
enlèvement	-11.6577
▁Mans	-11.6579
▁recueillir	-11.6582
▁massacre	-11.6583
▁prostituée	-11.6584
alys	-11.6584
▁évit	-11.6584
hel	-11.6585
▁Montparnasse	-11.6585
▁XI	-11.6586
▁Sylvie	-11.6586
▁arrivés	-11.659
Jeux	-11.6592
▁nommée	-11.6592
▁renommée	-11.6593
▁Personnes	-11.6593
▁125	-11.6595
heim	-11.6596
▁vêtement	-11.6597
▁envoi	-11.6599
▁tv	-11.66
▁cotisations	-11.6603
▁Autriche	-11.6607
▁Entrée	-11.6608
tiens	-11.6609
▁passait	-11.6609
Sur	-11.6609
mettre	-11.661
▁symboles	-11.6613
▁ambitions	-11.6614
▁plume	-11.6615
▁ICI	-11.6617
▁Bad	-11.662
▁nomme	-11.662
▁abord	-11.6624
▁inédit	-11.6626
aba	-11.6626
▁démon	-11.6626
▁flore	-11.6628
▁oublie	-11.6629
▁rapprocher	-11.6631
▁instance	-11.6631
▁Amis	-11.6632
▁Arrêt	-11.6634
▁modeste	-11.6634
▁couverte	-11.6637
▁applique	-11.6638
▁Coffrets	-11.6639
▁Lumières	-11.6641
itch	-11.6643
▁procure	-11.6644
eva	-11.6646
▁strict	-11.6646
▁épargne	-11.6647
orient	-11.6647
▁lisant	-11.665
▁origine	-11.6652
bis	-11.6654
isser	-11.6654
▁précisions	-11.6655
▁mélanger	-11.6655
▁minière	-11.6656
apportent	-11.6657
2010	-11.6657
gno	-11.6661
▁Bill	-11.6662
▁arriv	-11.6662
▁Cass	-11.6664
EI	-11.6665
▁claires	-11.6667
embarque	-11.667
▁camarades	-11.6672
▁rideau	-11.6672
▁anime	-11.6673
infrastructure	-11.6674
tta	-11.6674
ssou	-11.6674
▁CC	-11.6675
▁obscur	-11.6675
▁falloir	-11.6676
▁flexible	-11.6676
▁splendide	-11.6676
▁terrorisme	-11.6676
appuyer	-11.6676
▁souveraineté	-11.6676
posit	-11.6676
▁Sommaire	-11.6676
▁Bonsoir	-11.6676
▁Figaro	-11.6676
intrigue	-11.6676
▁lauréat	-11.6676
▁herbes	-11.6676
▁astrologues	-11.6676
▁Uni	-11.6676
▁impose	-11.6676
▁webmaster	-11.6677
▁pirate	-11.6677
▁Faso	-11.6678
▁vitalité	-11.6678
▁demandez	-11.6678
▁dérange	-11.668
adolescent	-11.668
time	-11.668
▁ménages	-11.668
Utilisation	-11.668
introduction	-11.668
▁récompense	-11.6681
cheveux	-11.6682
imagination	-11.6682
▁wc	-11.6682
tem	-11.6687
▁fonctionnel	-11.6687
▁1950	-11.6688
institution	-11.6689
gros	-11.669
▁hebdomadaire	-11.669
fé	-11.6691
▁philosophe	-11.6691
▁Thaïlande	-11.6691
▁graphismes	-11.6692
▁Tes	-11.6692
▁magistrat	-11.6693
champ	-11.6693
▁macro	-11.6697
▁fac	-11.67
▁concurrents	-11.67
▁flotte	-11.6706
▁supporte	-11.6706
▁Posté	-11.6707
▁souriant	-11.6707
▁89	-11.6709
▁préalablement	-11.6709
36)	-11.6709
▁fontaine	-11.671
maison	-11.6711
▁budgets	-11.6711
▁diriger	-11.6711
▁DC	-11.6712
▁expédié	-11.6713
▁bec	-11.6715
ов	-11.6718
ué	-11.672
feu	-11.672
/01	-11.6722
▁rel	-11.6722
position	-11.6725
▁préfér	-11.6725
▁bagages	-11.6726
▁conclusions	-11.6727
▁pharmaceutique	-11.6729
▁définis	-11.673
▁dira	-11.673
▁suscite	-11.6731
▁vertus	-11.6732
▁RF	-11.6735
plément	-11.6736
▁Up	-11.6737
chef	-11.6738
gat	-11.674
▁dynamiques	-11.674
▁exige	-11.6743
▁IM	-11.6744
▁Plate	-11.6746
▁richesses	-11.6748
▁amener	-11.6748
inauguration	-11.675
▁durer	-11.6751
▁triple	-11.6752
uro	-11.6753
ml	-11.6758
▁color	-11.6759
▁suiv	-11.676
▁résister	-11.676
л	-11.6761
▁cachés	-11.6762
▁converti	-11.6764
▁fouille	-11.6764
▁observe	-11.6767
▁autorise	-11.6768
▁entouré	-11.6771
▁veiller	-11.6772
▁parquet	-11.6773
▁massive	-11.6774
▁noté	-11.6775
▁admir	-11.6777
▁votes	-11.6778
▁joints	-11.6779
▁Pay	-11.6779
▁Solutions	-11.6779
▁moyennes	-11.6782
▁scooter	-11.6782
▁Tokyo	-11.6782
▁marathon	-11.6782
▁mélodie	-11.6782
▁pancetta	-11.6782
archéologie	-11.6782
▁Quatre	-11.6782
▁Tribunal	-11.6782
▁spacieuse	-11.6782
▁bouleverse	-11.6782
▁bilingue	-11.6782
▁retiré	-11.6783
▁Week	-11.6783
▁Souvent	-11.6783
▁Bayard	-11.6783
▁Seule	-11.6784
▁demandée	-11.6784
▁Jeanne	-11.6785
▁Publique	-11.6785
▁légèreté	-11.6785
▁odeur	-11.6786
▁démarrer	-11.6787
▁routier	-11.6787
excuse	-11.6788
▁positionnement	-11.6788
▁tracé	-11.6789
trage	-11.6789
▁Européen	-11.6791
▁(14	-11.6793
▁cellulaire	-11.6794
▁indépendantes	-11.6794
▁Coin	-11.6796
lain	-11.6797
▁violet	-11.6798
ties	-11.6799
▁africains	-11.68
▁consacrer	-11.6801
▁tiroir	-11.6801
Du	-11.6801
▁grandi	-11.6802
Que	-11.6802
▁crime	-11.6803
▁spectre	-11.6804
▁Avez	-11.6804
-9	-11.6805
viv	-11.6805
zie	-11.6806
▁chante	-11.6809
▁mg	-11.6812
érable	-11.6812
▁fu	-11.6815
Cette	-11.6816
▁situées	-11.6817
!!!!!!	-11.6818
ics	-11.6819
▁Juan	-11.6819
tente	-11.682
▁Arc	-11.6823
▁jet	-11.6823
▁obstacles	-11.6824
▁aimant	-11.6825
diction	-11.6826
insta	-11.6826
▁will	-11.6827
util	-11.6833
▁compact	-11.6833
▁Bet	-11.6834
▁précises	-11.6836
mark	-11.6838
▁Porto	-11.684
vain	-11.6841
▁94	-11.6842
▁imaginaire	-11.6844
▁adolescent	-11.6847
▁freins	-11.6848
▁2005,	-11.6851
gli	-11.6851
▁amont	-11.6852
▁RSS	-11.6854
accessoires	-11.6861
▁variables	-11.6868
cq	-11.6869
▁pratiqué	-11.6871
petits	-11.6871
▁Indien	-11.6873
nar	-11.6874
▁Gri	-11.6875
▁Laval	-11.6876
:30	-11.6877
▁regards	-11.6877
▁Blo	-11.6878
color	-11.6881
▁Bur	-11.6885
▁év	-11.6885
▁simul	-11.6885
mn	-11.6886
lez	-11.6887
▁fraiche	-11.6887
Égypte	-11.689
évacuation	-11.689
▁Clermont	-11.689
▁bucolique	-11.689
▁concasseur	-11.689
▁remercions	-11.689
▁sophistiqué	-11.689
▁tambour	-11.689
▁éventail	-11.689
▁vedette	-11.689
▁Abonnez	-11.689
▁descriptif	-11.689
▁analogie	-11.689
▁Palestine	-11.689
▁cuivre	-11.689
homosexualité	-11.689
▁Arnaud	-11.689
▁oct	-11.689
▁déception	-11.6892
▁chaos	-11.6892
▁Brest	-11.6893
▁tournage	-11.6894
asseoir	-11.6894
▁lame	-11.6895
▁Adam	-11.6896
idé	-11.6897
enceinte	-11.6897
index	-11.6897
Indice	-11.6897
▁utilisable	-11.6898
extrait	-11.6898
▁Canal	-11.6898
▁bits	-11.6899
▁cran	-11.6899
▁préfecture	-11.6901
droit	-11.6902
▁souhaitons	-11.6904
organisateur	-11.6905
▁Mieux	-11.6906
verbal	-11.6907
▁distinct	-11.6907
▁Léon	-11.6908
▁datant	-11.6908
▁solde	-11.6909
▁ju	-11.6909
blanc	-11.6909
▁géo	-11.6909
▁mensonge	-11.691
▁Dés	-11.6914
▁expédition	-11.6915
▁représentée	-11.6915
▁comte	-11.6917
▁doc	-11.6919
▁radi	-11.692
▁correcte	-11.6921
.9	-11.6921
▁Caf	-11.6924
▁casser	-11.6924
▁conserv	-11.6926
CM	-11.6928
Go	-11.6932
▁visit	-11.6936
orange	-11.6937
▁Saône	-11.6937
▁sortant	-11.6939
▁piment	-11.6944
▁TA	-11.6945
▁rendus	-11.6946
rène	-11.6948
▁solides	-11.6949
hum	-11.6952
▁Tan	-11.6954
mot	-11.6957
▁autrui	-11.6958
parleur	-11.6961
▁Project	-11.6962
▁tit	-11.6963
ASSE	-11.6964
").	-11.6964
▁annoncer	-11.6966
▁Classe	-11.6968
No	-11.6968
▁véritablement	-11.6969
arm	-11.697
▁ob	-11.6971
▁gamin	-11.6972
▁subit	-11.6976
▁sonores	-11.6976
▁Cri	-11.6976
▁invitation	-11.6978
▁Passion	-11.6981
▁désigner	-11.6982
▁livraisons	-11.6984
outils	-11.6985
▁sièges	-11.6988
ICA	-11.6989
▁témoigne	-11.6989
ologiques	-11.699
Oui	-11.6992
▁transmet	-11.6993
risme	-11.6995
▁flo	-11.6995
lutôt	-11.6997
.";	-11.6998
▁Vérifiez	-11.6998
▁cohérence	-11.6998
▁consécutive	-11.6998
▁Basket	-11.6998
▁contradiction	-11.6998
▁cigarette	-11.6998
▁complicité	-11.6998
angoisse	-11.6999
▁religieuses	-11.6999
▁paroisse	-11.7
▁Active	-11.7
▁Logement	-11.7
▁Américains	-11.7
▁contactant	-11.7002
▁if	-11.7002
▁coucou	-11.7003
▁émergent	-11.7003
▁meurt	-11.7003
montrent	-11.7003
dio	-11.7004
▁valoriser	-11.7004
▁weekend	-11.7005
attitude	-11.7006
Organisation	-11.7007
▁Contre	-11.7007
▁posséder	-11.7007
▁corne	-11.7007
▁redonner	-11.7007
Denis	-11.7008
▁Challenge	-11.7008
science	-11.701
▁magnétique	-11.7011
▁initialement	-11.7011
▁semblerait	-11.7012
nner	-11.7012
▁programmée	-11.7012
▁job	-11.7014
▁éprouve	-11.7018
▁conformes	-11.7019
▁ressemblent	-11.702
▁leçons	-11.7021
▁intégrés	-11.7021
▁pôle	-11.7021
▁vitrine	-11.7022
▁camion	-11.7022
allemand	-11.7024
▁épaule	-11.7027
▁big	-11.7027
▁âges	-11.7029
▁allié	-11.703
▁quotidiennement	-11.7031
▁relance	-11.7031
▁Soupe	-11.7032
endo	-11.7032
▁ouvrables	-11.7032
bio	-11.7033
▁fondre	-11.7034
▁musicales	-11.7035
▁Palm	-11.7035
▁Charlie	-11.7036
▁figurent	-11.7037
For	-11.7037
▁décrites	-11.7038
▁tribu	-11.7039
▁Unis	-11.704
board	-11.704
▁rail	-11.7042
Île	-11.7042
▁musulman	-11.7045
méri	-11.7047
▁Rive	-11.7049
▁inspirée	-11.7049
harmonie	-11.7049
▁Sim	-11.7049
▁bâtir	-11.7049
▁Rab	-11.705
▁verser	-11.7053
▁Bis	-11.7053
viens	-11.7057
▁Finances	-11.7059
ett	-11.7063
Exp	-11.7064
▁sollicité	-11.7065
▁PE	-11.7065
▁Iran	-11.7066
▁stop	-11.7066
yne	-11.707
igner	-11.7071
▁Carré	-11.7071
zone	-11.7071
imposer	-11.7071
avage	-11.7075
▁Charge	-11.7075
équipements	-11.7076
▁bottes	-11.7077
ibilité	-11.7077
▁satisfaite	-11.7079
▁sondages	-11.7086
▁interroge	-11.709
▁tirs	-11.7091
enseigne	-11.7091
FC	-11.7092
ographique	-11.7092
Défis	-11.7094
asile	-11.7094
Info	-11.7097
▁spatiale	-11.7097
▁bords	-11.7097
mise	-11.7098
▁reflète	-11.7099
▁glisser	-11.7099
▁Yon	-11.71
▁Partenaires	-11.7101
note	-11.7101
▁mêl	-11.7103
essay	-11.7108
/07/2015	-11.7108
▁MieuxEnseigner	-11.7108
▁bêta	-11.7108
▁châssis	-11.7108
▁céramique	-11.7108
▁ferroviaire	-11.7108
▁majuscule	-11.7108
▁manuscrit	-11.7108
▁ridicule	-11.7108
▁Firefox	-11.7108
▁bronze	-11.7108
énigme	-11.7108
▁actionnaires	-11.7108
▁tribunaux	-11.7108
▁cyber	-11.7108
▁Suivi	-11.7108
▁métropole	-11.7109
affinité	-11.7109
▁Reims	-11.7109
▁Hongrie	-11.7109
▁Bisous	-11.7109
▁Paix	-11.711
▁répartis	-11.711
▁préférable	-11.711
▁1987	-11.7112
▁alias	-11.7112
▁observations	-11.7113
product	-11.7116
historique	-11.7117
▁régimes	-11.7117
Intérieur	-11.7117
optimiser	-11.7118
▁encourager	-11.7118
opérateur	-11.7119
haut	-11.7119
▁interactif	-11.712
▁dépose	-11.712
▁Wiki	-11.7121
original	-11.7121
▁contrôlée	-11.7121
▁ret	-11.7122
▁exprimé	-11.7122
▁divine	-11.7122
ecker	-11.7123
compte	-11.7124
▁attire	-11.7125
▁notifications	-11.7126
▁Promotion	-11.7127
nements	-11.7128
▁pote	-11.7128
/4	-11.7131
euro	-11.7131
▁diable	-11.7131
gmail	-11.7131
▁costume	-11.7133
▁cosmétique	-11.7133
▁sculpture	-11.7133
▁Alexis	-11.7136
▁NE	-11.7136
▁book	-11.7137
▁oreille	-11.7138
▁Thérapie	-11.7138
▁Ultra	-11.7139
▁obligatoirement	-11.714
apport	-11.714
petit	-11.7141
▁ingénieurs	-11.7141
▁cuit	-11.7142
▁Sel	-11.7146
▁intéresser	-11.7146
▁commandement	-11.7152
▁peaux	-11.7154
▁diffuse	-11.7155
▁dresse	-11.7156
▁Long	-11.7156
▁entrepreneur	-11.7157
▁amies	-11.7157
vas	-11.7161
ivité	-11.7164
▁tromper	-11.7165
▁Pin	-11.7166
ayer	-11.7166
presse	-11.7166
▁RP	-11.7168
organe	-11.7169
▁Sub	-11.7172
etti	-11.7173
ilité	-11.7173
velopp	-11.7173
▁diminue	-11.718
light	-11.7183
▁Articles	-11.7183
▁âgée	-11.7184
▁alertes	-11.7185
▁Jam	-11.7185
▁trouvée	-11.7187
OD	-11.7196
▁Parole	-11.7196
MES	-11.7198
▁MAN	-11.72
▁interviews	-11.72
lone	-11.7202
▁nés	-11.7203
▁église	-11.7203
TRA	-11.7205
▁Image	-11.7205
▁voisine	-11.7207
estime	-11.7207
▁communal	-11.7208
sky	-11.7212
LAN	-11.7212
▁media	-11.7212
▁made	-11.7214
œuf	-11.7216
métrie	-11.7219
assainissement	-11.7219
▁Achetez	-11.7219
▁banlieue	-11.7219
▁maternité	-11.7219
▁résiliation	-11.7219
▁souffrir	-11.7219
▁vulnérable	-11.7219
▁Pornhub	-11.7219
▁séduction	-11.7219
▁Chronique	-11.722
▁Moscou	-11.722
▁paie	-11.722
▁répétition	-11.722
▁Division	-11.722
▁sobre	-11.722
▁convivialité	-11.7221
▁Balance	-11.7222
▁voeux	-11.7222
▁tarot	-11.7222
▁climatisation	-11.7222
êm	-11.7223
▁fraîcheur	-11.7224
▁canaux	-11.7225
▁clichés	-11.7225
ennes	-11.7226
▁réformes	-11.7227
▁Sar	-11.7228
imposition	-11.7229
▁représenté	-11.7229
adhésion	-11.723
“	-11.723
étiquette	-11.7232
▁déploiement	-11.7232
▁form	-11.7233
▁Vacances	-11.7235
▁coco	-11.7239
▁phases	-11.7239
▁fuir	-11.7239
▁MM	-11.7239
mbo	-11.7239
▁sentez	-11.7239
▁84	-11.724
▁croise	-11.7242
▁cuisiner	-11.7245
300	-11.7246
▁United	-11.7248
mart	-11.7249
▁Espagnol	-11.7249
tens	-11.7249
▁diplômé	-11.7249
▁coussin	-11.725
▁permission	-11.7251
▁employeur	-11.7251
admission	-11.7258
▁housse	-11.7258
instrument	-11.7259
▁Médias	-11.7259
▁acceptation	-11.7259
▁créent	-11.7261
ennui	-11.7263
▁marre	-11.7265
▁DS	-11.7265
yre	-11.7267
▁nombres	-11.7267
▁documentaires	-11.7267
▁107	-11.7267
▁brevet	-11.7268
▁violon	-11.727
avan	-11.7271
▁aménagée	-11.7271
▁imprimante	-11.7272
▁chrétienne	-11.7275
▁Fat	-11.7275
▁anges	-11.7275
2012	-11.7276
path	-11.7278
▁fériés	-11.7279
▁ressentir	-11.728
▁Entreprises	-11.7281
▁Rio	-11.7283
▁Land	-11.7283
▁APP	-11.7289
So	-11.7289
▁).	-11.7291
▁fabriqués	-11.7291
▁explor	-11.7292
▁complètes	-11.7294
▁cris	-11.7294
▁mettra	-11.7298
▁Boy	-11.7299
▁Perso	-11.7303
vor	-11.7305
▁taper	-11.7308
▁ravie	-11.7313
▁cash	-11.7313
fusion	-11.7316
▁Mart	-11.7318
LR	-11.7318
▁développés	-11.7321
▁produis	-11.7321
▁Roll	-11.7321
▁psycho	-11.7323
▁Ecrit	-11.7323
▁?"	-11.7324
▁Nouvel	-11.7324
chimie	-11.7324
▁cesser	-11.7326
▁imagination	-11.7327
▁revêt	-11.7328
▁Consult	-11.7328
------------	-11.7328
▁chapeau	-11.7329
▁Commissaire	-11.7332
▁Sylvain	-11.7332
Egypte	-11.7332
antisémitisme	-11.7332
▁ambitieux	-11.7332
▁compensation	-11.7332
▁maturité	-11.7332
▁méthodologie	-11.7332
▁Invité	-11.7332
▁Véritable	-11.7332
▁soigneusement	-11.7332
▁Poids	-11.7332
▁tramway	-11.7332
▁parvient	-11.7332
empereur	-11.7332
▁classification	-11.7332
▁Didier	-11.7332
▁compagne	-11.7332
▁supermarché	-11.7332
▁Miami	-11.7333
▁solitude	-11.7333
▁prospection	-11.7333
▁ajoutés	-11.7333
blé	-11.7333
▁Caroline	-11.7334
▁VTT	-11.7334
▁balles	-11.7336
▁Chili	-11.7336
▁commémoration	-11.7336
▁Echange	-11.7337
><	-11.7337
▁grotte	-11.7337
▁Intel	-11.7337
▁pneus	-11.7337
▁menus	-11.7338
▁célébration	-11.7338
▁désordre	-11.7338
▁modifiant	-11.7338
▁mères	-11.7338
▁identiques	-11.734
▁illicite	-11.734
▁chirurgie	-11.734
▁empreinte	-11.734
▁nourrit	-11.7341
▁State	-11.7341
▁1985	-11.7342
▁Cinq	-11.7342
▁maille	-11.7342
▁disciples	-11.7342
▁Métropole	-11.7343
▁Officiel	-11.7343
épisode	-11.7343
Bretagne	-11.7344
Accueil	-11.7344
▁débarrasser	-11.7344
▁out	-11.7344
▁varient	-11.7345
▁réussie	-11.7345
Forum	-11.7345
▁handicapées	-11.7346
▁tribune	-11.7346
▁Tarte	-11.7347
▁Jura	-11.7347
étendre	-11.7348
▁remises	-11.7352
▁expressions	-11.7354
▁municipale	-11.7354
▁lointain	-11.7355
▁???	-11.7356
▁fautes	-11.736
▁peindre	-11.7361
▁crayon	-11.7362
▁lumineuse	-11.7362
▁procédés	-11.7364
▁Douche	-11.7368
▁enjeu	-11.7369
ailles	-11.7369
▁Abonnement	-11.7373
▁sections	-11.7376
▁Accepter	-11.7377
▁Vieux	-11.7377
Am	-11.7377
alement	-11.7378
aya	-11.7378
▁recherché	-11.7379
▁Comb	-11.7381
▁opportunité	-11.7381
dier	-11.7383
▁puni	-11.7385
▁syn	-11.7387
▁existant	-11.7388
▁tor	-11.7389
pprendre	-11.7391
▁Villes	-11.7393
Cha	-11.7393
▁levée	-11.7397
idéal	-11.7399
▁Lang	-11.7399
▁tro	-11.74
▁têtes	-11.74
▁Seuls	-11.74
▁God	-11.7404
événements	-11.7405
▁Bord	-11.7405
aïque	-11.7406
inée	-11.7407
clé	-11.7407
▁Gene	-11.7408
ego	-11.7409
kt	-11.741
▁végétal	-11.741
monde	-11.7411
▁attendue	-11.7411
ommercialisation	-11.7415
▁QUE	-11.7418
▁newsletters	-11.7418
▁cosmétiques	-11.7419
▁créés	-11.7421
▁soutenue	-11.7422
▁enveloppe	-11.7423
▁remarquables	-11.7423
▁Carol	-11.7426
▁conservé	-11.7429
▁coloré	-11.7429
▁Recettes	-11.7432
aube	-11.7434
▁clique	-11.7435
▁industrielles	-11.7437
▁effective	-11.7437
rob	-11.7445
▁Californie	-11.7445
▁Effectivement	-11.7445
▁Xavier	-11.7445
▁caoutchouc	-11.7445
▁barbecue	-11.7445
▁rédacteur	-11.7445
▁nôtre	-11.7445
▁Prévention	-11.7445
▁prescrit	-11.7445
▁renvoie	-11.7446
▁complice	-11.7446
system	-11.7446
▁république	-11.7446
tti	-11.7446
▁bénéfices	-11.7446
▁Felicit	-11.7446
▁Taxi	-11.7447
▁définie	-11.7447
▁souscription	-11.7448
▁verres	-11.7448
Ne	-11.7448
▁comptabilité	-11.7448
▁assurant	-11.7449
▁1991	-11.7449
▁protecteur	-11.745
▁mangé	-11.7451
▁passeport	-11.7452
▁98	-11.7455
▁Enregistrer	-11.7456
▁républicain	-11.7457
▁brosse	-11.7457
▁1993	-11.7458
Côte	-11.7458
▁plateaux	-11.746
▁:-)	-11.7462
▁conf	-11.7462
gna	-11.7463
▁dentaires	-11.7465
▁manette	-11.7466
▁gérant	-11.7466
▁compl	-11.7466
▁procureur	-11.7466
▁SUD	-11.7468
▁Pet	-11.7469
▁Talon	-11.7469
▁centrales	-11.7471
▁ID	-11.7472
▁intéressés	-11.7472
dium	-11.7474
▁déposées	-11.7476
toire	-11.7476
▁vivants	-11.7476
Pays	-11.7477
▁Méthode	-11.7478
▁distributeur	-11.7478
▁concret	-11.7479
▁épaisse	-11.748
▁intégral	-11.7481
Col	-11.7482
▁By	-11.7488
▁posées	-11.749
▁Will	-11.749
▁Hauts	-11.749
exercer	-11.749
aki	-11.7493
phile	-11.7493
▁ciblées	-11.7495
lui	-11.7496
entends	-11.7496
▁PI	-11.75
▁TO	-11.7501
▁photographes	-11.7502
bol	-11.7503
▁Tome	-11.7503
▁tués	-11.7503
pir	-11.7505
▁tentatives	-11.7506
▁sauve	-11.7506
rendu	-11.7507
▁décorer	-11.7509
▁raccourcis	-11.7512
▁avatar	-11.7512
▁tendu	-11.7514
PORT	-11.7514
▁Inf	-11.7515
▁locataires	-11.7515
▁portugais	-11.7516
invite	-11.7519
▁frissons	-11.7519
OK	-11.7526
▁XL	-11.7527
▁regret	-11.7528
marche	-11.7528
▁Dub	-11.7529
sort	-11.7529
▁élégance	-11.7529
▁fusil	-11.7532
▁Vue	-11.7534
▁carbo	-11.7534
teuse	-11.7534
▁perdue	-11.7539
▁Wars	-11.7539
▁églises	-11.7539
guer	-11.7541
pad	-11.7542
▁Portes	-11.7544
▁manuelle	-11.7547
VER	-11.7549
vrai	-11.7551
▁intéressée	-11.7555
▁terroristes	-11.7555
▁souscrit	-11.7556
▁matériau	-11.7557
▁entité	-11.7559
Man	-11.7559
Aveyron	-11.756
▁Bertrand	-11.756
▁Québécois	-11.756
▁RaceChip	-11.756
▁Recevez	-11.756
▁divertissement	-11.756
▁embarqué	-11.756
▁protestant	-11.756
▁rooftop	-11.756
▁équitable	-11.756
avortement	-11.756
▁BMW	-11.756
▁flamme	-11.756
▁interrogé	-11.756
▁propice	-11.756
▁achetez	-11.756
▁époux	-11.756
▁désagréable	-11.756
▁comprimé	-11.7561
▁écouté	-11.7561
▁encadré	-11.7561
▁moniteur	-11.7561
▁Variété	-11.7561
▁flottant	-11.7561
▁Obten	-11.7561
▁retrace	-11.7561
▁Marrakech	-11.7561
▁automatisé	-11.7561
▁vanille	-11.7562
▁Plein	-11.7562
▁Réalité	-11.7563
▁SEPA	-11.7564
▁Production	-11.7564
▁fondamentale	-11.7565
[...]
