<unk>	0
<s>	0
</s>	0
<mask>	0
<pad>	0
,	-3.2836
▁de	-3.29099
.	-3.58892
s	-3.89389
'	-3.99377
▁et	-4.08518
▁la	-4.13488
’	-4.16542
▁à	-4.33586
▁le	-4.41028
▁l	-4.44448
▁d	-4.49099
▁les	-4.529
▁	-4.61973
▁des	-4.62964
▁en	-4.72495
-	-4.91635
▁du	-4.9518
▁pour	-4.96125
▁un	-4.99016
▁que	-5.20396
▁une	-5.25019
▁dans	-5.29216
▁sur	-5.29586
▁est	-5.3101
▁vous	-5.3677
▁qui	-5.45735
e	-5.48379
▁par	-5.53298
▁:	-5.54881
▁au	-5.56822
▁pas	-5.57158
▁a	-5.61359
▁(	-5.61413
▁plus	-5.71786
▁ou	-5.76144
▁avec	-5.77017
▁ce	-5.8199
est	-5.85835
▁ne	-5.93342
▁n	-6.00466
)	-6.00877
▁votre	-6.03844
▁se	-6.06961
...	-6.07746
▁qu	-6.07852
▁Le	-6.09468
▁sont	-6.10799
▁-	-6.1387
▁s	-6.16174
▁il	-6.17739
un	-6.23043
▁je	-6.23446
a	-6.24654
▁son	-6.27975
▁nous	-6.29277
▁La	-6.29866
▁aux	-6.39786
▁Les	-6.41725
▁c	-6.43729
il	-6.46608
▁L	-6.46766
▁«	-6.47077
▁tout	-6.54289
une	-6.54758
▁mais	-6.54879
r	-6.55933
es	-6.60528
▁!	-6.61567
▁site	-6.65396
▁Il	-6.65752
▁cette	-6.67368
▁sa	-6.68881
:	-6.70116
▁bien	-6.71503
▁En	-6.74285
▁C	-6.7461
ai	-6.74636
▁"	-6.76009
▁comme	-6.76897
▁|	-6.77561
▁j	-6.7904
▁faire	-6.81866
▁être	-6.82332
▁fait	-6.8273
▁si	-6.84485
▁ses	-6.85592
▁vos	-6.87953
▁»	-6.89457
on	-6.91515
▁notre	-6.92077
▁leur	-6.9296
▁?	-6.93369
en	-6.93563
▁A	-6.97023
▁peut	-6.97406
er	-7.01228
▁on	-7.01997
▁très	-7.02271
▁y	-7.02868
/	-7.03071
▁même	-7.03324
▁aussi	-7.03666
▁ont	-7.03971
y	-7.04149
h	-7.05593
▁sans	-7.059
▁Pour	-7.0618
▁Je	-7.06217
▁été	-7.07125
▁tous	-7.09158
nt	-7.11614
▁2	-7.14218
▁1	-7.15429
▁Vous	-7.15612
t	-7.15761
▁me	-7.16523
▁ces	-7.17013
"	-7.19846
▁elle	-7.23954
▁nos	-7.24467
▁m	-7.25423
).	-7.25883
▁lui	-7.26823
ment	-7.27338
▁deux	-7.2756
▁J	-7.29047
▁3	-7.29179
z	-7.30592
▁ans	-7.30684
▁Nous	-7.32979
▁|--	-7.33197
▁•	-7.3539
é	-7.36526
▁entre	-7.36761
▁Ce	-7.38027
▁temps	-7.38766
▁Si	-7.39725
▁vie	-7.41025
▁2018	-7.43529
▁mon	-7.43748
▁Un	-7.483
▁peu	-7.49301
|	-7.49764
▁/	-7.51161
▁D	-7.512
▁De	-7.51962
▁cookies	-7.52643
▁France	-7.52792
!	-7.5434
▁S	-7.54393
▁sous	-7.55085
▁ainsi	-7.55134
▁encore	-7.55195
),	-7.55513
▁où	-7.55706
▁;	-7.56319
▁monde	-7.58125
▁...	-7.58434
▁jour	-7.58477
▁depuis	-7.58481
▁non	-7.59501
elle	-7.59522
le	-7.60333
▁Et	-7.60409
▁suis	-7.61243
▁fois	-7.62096
▁donc	-7.6236
▁toute	-7.63218
▁4	-7.63747
o	-7.63789
à	-7.64078
▁tu	-7.64962
ant	-7.65532
S	-7.65579
▁Une	-7.65803
▁dont	-7.66123
▁toutes	-7.66567
▁M	-7.66583
▁ma	-7.67745
;	-7.68184
▁ça	-7.68687
▁cas	-7.69164
▁données	-7.70106
▁avant	-7.70325
▁2017	-7.70392
com	-7.7093
▁moins	-7.71442
▁pouvez	-7.71496
▁mois	-7.72034
être	-7.72044
1	-7.72526
▁5	-7.72739
utilisation	-7.73099
▁également	-7.73886
▁Mais	-7.73998
▁après	-7.74034
▁leurs	-7.74448
▁–	-7.74921
d	-7.75965
▁contre	-7.76047
▁soit	-7.76947
▁toujours	-7.77217
?	-7.78088
▁autres	-7.78671
m	-7.78965
2	-7.79098
▁N	-7.79124
▁était	-7.79862
▁savoir	-7.80058
▁avoir	-7.80325
▁novembre	-7.81553
▁quelques	-7.81619
▁va	-7.82786
▁2015	-7.82794
▁10	-7.83167
▁2016	-7.83219
▁Dans	-7.83441
▁car	-7.83585
C	-7.83748
▁sera	-7.83795
▁vers	-7.84451
▁alors	-7.84721
c	-7.88234
▁bon	-7.88436
▁rencontre	-7.88684
A	-7.89527
▁jours	-7.8996
vous	-7.90013
▁Elle	-7.90132
in	-7.90283
▁2014	-7.90482
▁6	-7.90524
▁·	-7.90668
▁On	-7.91269
▁Cette	-7.9179
l	-7.91943
▁compte	-7.92121
et	-7.92266
▁prix	-7.92443
▁Paris	-7.92679
▁produits	-7.93254
▁ligne	-7.93299
▁cela	-7.9334
▁grand	-7.94274
▁&	-7.94568
▁B	-7.95042
▁chaque	-7.95121
autres	-7.95312
ait	-7.95515
▁personnes	-7.9648
▁afin	-7.9652
▁moi	-7.97795
▁avait	-7.97919
▁travail	-7.98798
i	-7.99141
▁voir	-7.99255
▁place	-7.99346
▁chez	-7.99725
▁quand	-7.99741
▁18	-7.99781
▁P	-7.99999
▁faut	-8.00103
ons	-8.00138
▁moment	-8.00699
fr	-8.00752
n	-8.01014
de	-8.01893
▁T	-8.02841
▁beaucoup	-8.0338
▁autre	-8.03502
▁peuvent	-8.03749
▁jusqu	-8.04135
ci	-8.04423
▁octobre	-8.0477
▁ils	-8.04809
ou	-8.04967
ez	-8.05145
▁septembre	-8.05459
▁pays	-8.05975
au	-8.06052
▁maison	-8.0615
▁2013	-8.06297
▁premier	-8.06491
▁petit	-8.07448
▁services	-8.07544
▁janvier	-8.07757
▁juin	-8.08005
▁service	-8.08158
▁plusieurs	-8.08417
B	-8.09014
▁droit	-8.09317
▁informations	-8.09841
▁avez	-8.0989
▁mes	-8.10591
▁partie	-8.11319
▁mai	-8.11463
▁ici	-8.11923
▁recherche	-8.1203
▁[	-8.12204
▁fin	-8.12374
▁doit	-8.12661
▁nouvelle	-8.12783
3	-8.12792
ils	-8.13161
eau	-8.13335
▁permet	-8.13435
▁nouveau	-8.14749
▁grande	-8.14931
▁suite	-8.15073
▁déjà	-8.15486
▁dit	-8.15641
▁forum	-8.1584
▁Au	-8.16706
p	-8.16756
▁7	-8.16957
▁trop	-8.1728
▁20	-8.17641
▁cet	-8.17879
▁décembre	-8.17903
▁15	-8.17979
ra	-8.18032
hui	-8.18284
L	-8.18373
▁lors	-8.18475
▁8	-8.1872
la	-8.18811
ur	-8.1906
▁qualité	-8.1914
ont	-8.19419
▁mars	-8.19712
▁cours	-8.20173
ne	-8.20544
▁rien	-8.21403
x	-8.21721
▁femme	-8.22102
▁première	-8.2214
re	-8.22722
▁t	-8.2281
D	-8.22935
▁dire	-8.23079
▁là	-8.23199
▁12	-8.23313
▁puis	-8.23503
▁juillet	-8.23562
▁avons	-8.23936
▁jamais	-8.2441
▁F	-8.25105
▁ville	-8.25151
P	-8.25392
▁2012	-8.25914
▁avril	-8.25983
▁part	-8.27187
▁enfants	-8.27262
▁E	-8.27598
al	-8.27843
les	-8.28044
▁G	-8.28047
▁personne	-8.29382
ent	-8.29475
▁point	-8.29527
ce	-8.29546
­	-8.30037
▁R	-8.30103
▁projet	-8.30627
▁février	-8.31225
▁années	-8.31482
]	-8.31552
▁lieu	-8.32262
▁trois	-8.32679
▁partir	-8.33189
▁prendre	-8.33509
it	-8.33917
▁14	-8.34541
▁demande	-8.34983
▁politique	-8.35084
▁dernier	-8.35301
▁celui	-8.35396
▁re	-8.35418
était	-8.3569
▁ceux	-8.35914
▁pouvoir	-8.35924
▁août	-8.36086
▁bonne	-8.36099
▁mieux	-8.36253
(	-8.36792
▁etc	-8.36825
▁mise	-8.36903
▁conditions	-8.37232
▁ni	-8.37737
▁mal	-8.37883
▁pendant	-8.38097
g	-8.38323
▁possible	-8.39008
▁9	-8.39175
▁page	-8.39511
T	-8.39534
▁Des	-8.4022
▁»,	-8.4032
▁mettre	-8.40391
▁ton	-8.4063
▁selon	-8.41038
▁produit	-8.41208
▁Tous	-8.41214
▁e	-8.41333
▁groupe	-8.41684
▁nom	-8.41863
an	-8.42195
▁famille	-8.42371
▁êtes	-8.424
E	-8.42812
▁gratuit	-8.43108
▁nombre	-8.43586
▁17	-8.44096
▁30	-8.44576
▁in	-8.44604
▁Saint	-8.45233
▁comment	-8.45306
▁trouver	-8.45746
▁16	-8.4592
▁souvent	-8.4602
f	-8.46134
▁Par	-8.46496
▁choix	-8.46852
▁acceptez	-8.47018
▁eu	-8.47215
ing	-8.47229
▁porte	-8.4726
©	-8.47717
▁jeu	-8.4835
▁te	-8.48432
▁société	-8.48556
F	-8.48571
▁effet	-8.48644
▁reste	-8.48966
▁propose	-8.48973
▁niveau	-8.49946
▁question	-8.50031
7	-8.5021
▁besoin	-8.50371
▁Avec	-8.50896
H	-8.51278
u	-8.51523
▁vraiment	-8.51561
M	-8.5161
▁petite	-8.51744
▁2011	-8.52072
▁tant	-8.52301
▁celle	-8.52308
▁seront	-8.52773
▁façon	-8.53057
▁droits	-8.53059
or	-8.53172
age	-8.53494
▁certains	-8.536
▁sommes	-8.53936
▁À	-8.54671
autre	-8.5534
ée	-8.55381
▁chose	-8.55418
▁p	-8.5547
▁navigation	-8.55494
▁H	-8.55585
▁français	-8.5564
▁11	-8.55641
▁utiliser	-8.55658
▁cadre	-8.55715
▁13	-8.55888
▁V	-8.56185
▁jeune	-8.56342
▁passe	-8.56461
▁année	-8.56821
▁exemple	-8.57197
▁semaine	-8.57274
6	-8.57587
▁système	-8.57943
▁notamment	-8.57993
▁femmes	-8.58013
▁».	-8.58861
▁grâce	-8.5936
▁photos	-8.59658
▁heures	-8.59715
▁surtout	-8.59754
▁Ces	-8.5998
▁Après	-8.60207
V	-8.6039
▁loi	-8.6052
▁forme	-8.60632
▁sécurité	-8.60909
▁19	-8.60972
▁sens	-8.61055
▁internet	-8.6122
▁trouve	-8.6216
▁homme	-8.62212
▁ré	-8.62286
▁simple	-8.62733
▁aujourd	-8.63012
b	-8.6305
▁type	-8.63185
art	-8.63417
▁Ils	-8.63568
▁I	-8.63727
°	-8.63871
▁plan	-8.63955
▁ci	-8.64443
▁K	-8.64497
te	-8.64849
aux	-8.65113
▁manière	-8.65296
▁base	-8.65366
▁salle	-8.65479
▁+	-8.65588
v	-8.66206
▁découvrir	-8.66336
▁seul	-8.66363
▁coup	-8.66644
▁expérience	-8.66716
▁seulement	-8.66748
▁rapport	-8.66798
▁juste	-8.67284
▁belle	-8.67444
avoir	-8.6783
30	-8.67887
▁Jean	-8.67917
ème	-8.68185
▁24	-8.68696
▁frais	-8.68775
▁sites	-8.6903
▁nouvelles	-8.6917
▁parce	-8.69205
▁santé	-8.69271
▁Sa	-8.69539
▁mis	-8.69598
▁nombreux	-8.69667
us	-8.69933
G	-8.69959
▁public	-8.69963
▁vu	-8.70091
00	-8.70312
▁adresse	-8.70471
▁développement	-8.70839
▁vente	-8.71073
▁passer	-8.71353
▁2010	-8.71497
▁Merci	-8.71555
▁livre	-8.71646
▁carte	-8.71824
▁fonction	-8.71838
▁sujet	-8.71913
année	-8.71994
▁lien	-8.72474
▁meilleur	-8.72587
▁côté	-8.72737
▁membres	-8.72915
4	-8.73087
▁an	-8.73096
R	-8.73337
▁Du	-8.73413
▁font	-8.73496
▁centre	-8.73695
▁Tout	-8.73797
▁film	-8.73807
▁25	-8.74095
▁raison	-8.74287
▁offre	-8.74405
▁haut	-8.74572
▁face	-8.74599
▁vue	-8.74644
▁%	-8.74952
▁formation	-8.75307
at	-8.75386
▁vidéo	-8.75414
▁dès	-8.75955
▁blog	-8.76482
is	-8.76501
▁devant	-8.76861
▁donner	-8.77382
▁“	-8.7759
▁près	-8.77685
▁long	-8.77766
ie	-8.77821
▁assez	-8.78127
▁mesure	-8.78206
ais	-8.78289
me	-8.78327
même	-8.78461
▁concernant	-8.78741
▁début	-8.788
▁gestion	-8.78868
N	-8.79091
és	-8.79116
▁corps	-8.79215
▁aucun	-8.79354
eur	-8.79424
▁DE	-8.79704
▁commande	-8.7991
▁web	-8.80035
&	-8.80114
histoire	-8.80176
▁différents	-8.80241
▁parfois	-8.80418
▁photo	-8.80617
▁traitement	-8.80768
▁quelque	-8.80989
▁quoi	-8.81266
▁cuisine	-8.81381
",	-8.81446
▁marque	-8.81592
▁dé	-8.81612
▁travers	-8.81614
▁mode	-8.81776
▁pu	-8.81894
▁(1)	-8.82062
▁propos	-8.82176
▁#	-8.82695
▁Page	-8.82734
k	-8.82802
▁titre	-8.82824
▁main	-8.83105
▁programme	-8.83124
aient	-8.83273
j	-8.83536
▁problème	-8.83577
ation	-8.83589
▁pris	-8.83595
el	-8.83843
▁peux	-8.84221
▁hommes	-8.84362
://	-8.84378
co	-8.84521
▁contenu	-8.84639
O	-8.84641
▁jeux	-8.85015
▁tête	-8.8504
▁bas	-8.85144
▁Sur	-8.85151
▁maintenant	-8.85266
▁Re	-8.85394
▁serait	-8.85448
▁autour	-8.85545
▁retour	-8.85596
▁choses	-8.85625
▁000	-8.85856
▁jeunes	-8.85864
▁Notre	-8.86079
▁eux	-8.86098
▁général	-8.86169
▁tour	-8.86251
que	-8.86462
▁plaisir	-8.8687
▁Votre	-8.87034
▁ta	-8.8763
▁2009	-8.88241
ine	-8.8849
▁marché	-8.88556
▁gens	-8.88665
▁bois	-8.88838
▁lorsque	-8.89035
▁donne	-8.89432
▁rencontres	-8.89478
▁région	-8.89762
▁date	-8.9011
▁21	-8.90237
▁clients	-8.90273
▁journée	-8.90372
▁messages	-8.90984
K	-8.91022
▁passé	-8.91201
▁article	-8.91267
▁elles	-8.91331
▁€	-8.91522
▁utilise	-8.91615
▁protection	-8.91701
".	-8.91771
▁*	-8.91786
▁liste	-8.91864
▁nouveaux	-8.91892
Le	-8.92036
▁nature	-8.92175
▁avis	-8.92184
»	-8.92495
▁questions	-8.92565
▁mort	-8.92674
▁situation	-8.93076
▁W	-8.93103
▁but	-8.93321
▁création	-8.93438
▁fille	-8.93638
article	-8.93659
agit	-8.93727
▁couleur	-8.93877
able	-8.93901
▁générales	-8.94
J	-8.94147
▁propre	-8.94516
▁dernière	-8.94996
w	-8.95195
▁Z	-8.95233
ensemble	-8.9525
▁présente	-8.95482
▁pense	-8.9552
▁ayant	-8.95616
▁navigateur	-8.95727
▁plutôt	-8.9594
▁Alors	-8.96053
▁[...]	-8.96208
▁seule	-8.96397
▁articles	-8.96447
▁entreprises	-8.96498
▁créer	-8.96574
▁mot	-8.96579
▁petits	-8.96809
▁travaux	-8.96813
▁proposer	-8.96928
▁message	-8.97019
▁compris	-8.97201
▁chambre	-8.97221
▁livraison	-8.97312
▁h	-8.97317
▁minutes	-8.97383
▁Comme	-8.97476
▁réseau	-8.97586
Les	-8.9783
▁musique	-8.9817
▁50	-8.98837
aide	-8.98882
accès	-8.98979
▁pourrait	-8.99108
information	-8.99126
▁meilleure	-8.9919
occasion	-8.99398
▁pourquoi	-8.99572
▁points	-9.00286
▁nuit	-9.003
▁plein	-9.00567
ch	-9.0072
La	-9.01021
▁pratique	-9.01091
▁personnel	-9.01354
▁vient	-9.01374
▁aucune	-9.01435
▁semble	-9.01486
▁loin	-9.01747
I	-9.01782
▁fut	-9.01966
▁cher	-9.02008
W	-9.0202
auteur	-9.02161
▁Car	-9.02428
Ã	-9.02772
▁visite	-9.028
▁Pas	-9.02817
▁série	-9.02823
▁cause	-9.02865
▁vivre	-9.02957
▁O	-9.03105
▁soir	-9.03211
▁veut	-9.03415
▁rue	-9.0352
▁Plus	-9.03554
▁auprès	-9.03773
▁présent	-9.03887
▁relation	-9.03888
▁version	-9.0394
▁sais	-9.03974
▁offres	-9.04168
▁saison	-9.04371
▁rendre	-9.04404
▁22	-9.04518
avais	-9.04846
té	-9.04952
▁Internet	-9.05107
▁prise	-9.05115
▁différentes	-9.05146
▁voyage	-9.05245
▁merci	-9.05246
▁entreprise	-9.05269
ma	-9.05276
▁grands	-9.0535
▁Son	-9.05496
▁Web	-9.05579
▁charge	-9.05726
▁simplement	-9.05999
▁personnelles	-9.06133
▁étaient	-9.06246
▁domaine	-9.0627
ter	-9.06417
▁Mon	-9.06945
▁>	-9.06999
▁professionnels	-9.07035
▁certaines	-9.07063
▁contacter	-9.07132
▁Ma	-9.07186
▁sortie	-9.07597
▁française	-9.0772
▁aller	-9.07814
▁40	-9.08022
▁partenaires	-9.08071
▁prend	-9.08165
▁matière	-9.08317
▁recevoir	-9.0834
urs	-9.08514
▁vrai	-9.08553
▁contact	-9.08622
▁taille	-9.08695
▁code	-9.08781
▁Depuis	-9.09155
▁équipe	-9.09165
▁pro	-9.09191
▁numéro	-9.09216
▁100	-9.09241
elles	-9.09738
▁directement	-9.09849
▁vacances	-9.09864
▁moyen	-9.09915
▁période	-9.09983
▁lire	-9.10144
▁histoire	-9.10287
end	-9.10475
▁amis	-9.10512
▁parler	-9.10583
ex	-9.1083
man	-9.10878
▁force	-9.11008
▁président	-9.11086
as	-9.11225
▁réaliser	-9.1124
entreprise	-9.1129
▁rapidement	-9.11346
▁f	-9.11442
▁étant	-9.11518
tu	-9.11679
▁cœur	-9.11748
▁ensemble	-9.11826
▁souhaitez	-9.11874
▁particulier	-9.12056
ir	-9.12072
ré	-9.12178
▁nombreuses	-9.12257
▁devez	-9.12398
équipe	-9.12435
▁sein	-9.12714
▁valeur	-9.12819
ta	-9.1284
▁texte	-9.12908
na	-9.1294
▁important	-9.13052
▁sûr	-9.13178
▁poursuivant	-9.13248
▁terre	-9.13268
je	-9.13338
▁responsable	-9.13345
▁millions	-9.135
▁client	-9.13542
▁sociaux	-9.13632
▁quatre	-9.1384
▁quelqu	-9.13846
▁r	-9.13926
▁modèle	-9.13974
▁g	-9.14134
ement	-9.14254
▁Politique	-9.14269
▁Forum	-9.1448
▁Site	-9.14505
▁Cela	-9.14546
5	-9.14606
aime	-9.14789
▁gros	-9.14906
▁doivent	-9.14907
▁activités	-9.15023
mail	-9.15116
▁via	-9.15244
du	-9.15398
▁beau	-9.15443
▁communication	-9.15502
▁thème	-9.1555
▁semaines	-9.15613
▁autant	-9.15623
ées	-9.15797
▁yeux	-9.15913
▁tard	-9.16088
ailleurs	-9.16152
▁Ne	-9.16233
▁vont	-9.16263
▁père	-9.16366
▁utilisation	-9.16442
▁rapide	-9.16581
▁toi	-9.16638
▁23	-9.16643
▁résultats	-9.16684
▁projets	-9.16715
▁ensuite	-9.1679
air	-9.16898
▁guerre	-9.16918
▁laquelle	-9.17136
▁enfant	-9.17241
▁jardin	-9.17285
▁durée	-9.17314
_	-9.17328
▁aura	-9.17492
▁met	-9.17554
▁Dieu	-9.17575
▁disponible	-9.17614
▁(2)	-9.17643
▁gouvernement	-9.17668
▁Comment	-9.17674
▁terme	-9.17678
▁techniques	-9.17876
▁pré	-9.17927
▁mer	-9.17963
▁fort	-9.17968
▁unique	-9.18015
▁vite	-9.18188
▁nécessaire	-9.18497
▁technique	-9.18585
id	-9.18688
homme	-9.18818
to	-9.18934
▁professionnelle	-9.18993
▁conseils	-9.19057
▁siècle	-9.19114
▁mots	-9.19183
▁images	-9.1938
8	-9.19405
origine	-9.19595
▁risque	-9.19644
▁anti	-9.19806
ner	-9.1983
▁pièces	-9.1987
adresse	-9.19929
▁doute	-9.20143
▁uniquement	-9.20364
▁comprendre	-9.2038
▁téléphone	-9.20391
▁contrôle	-9.20419
▁permettre	-9.20505
nous	-9.20678
▁chacun	-9.20683
▁permettent	-9.20725
▁facile	-9.20819
▁dis	-9.20919
▁samedi	-9.21105
ar	-9.21181
▁2008	-9.21295
été	-9.21386
”	-9.21417
▁x	-9.21495
▁Que	-9.21609
▁noir	-9.21888
▁vais	-9.22035
use	-9.2213
▁Conditions	-9.22217
▁Tu	-9.22338
ed	-9.22473
▁aider	-9.22643
▁utilisateurs	-9.22646
Unis	-9.22767
ca	-9.2292
▁présence	-9.22931
▁quel	-9.22939
amour	-9.2297
ard	-9.2313
iste	-9.2318
▁Plan	-9.23233
▁Conseil	-9.23258
▁cm	-9.23668
▁besoins	-9.23773
▁gamme	-9.23926
▁)	-9.23972
▁matin	-9.24171
rie	-9.24238
▁répondre	-9.24281
▁style	-9.2437
▁secteur	-9.24504
▁aurait	-9.24743
▁choisir	-9.24945
▁confidentialité	-9.25113
▁professionnel	-9.25368
▁genre	-9.25579
▁couleurs	-9.25812
▁In	-9.25846
▁28	-9.25981
▁possibilité	-9.26137
Y	-9.26197
isme	-9.26445
▁partager	-9.26503
▁mère	-9.26512
▁Se	-9.26674
▁Bien	-9.26716
um	-9.26746
▁production	-9.27059
▁coeur	-9.27079
▁Nos	-9.2711
▁nationale	-9.27284
▁enfin	-9.27372
▁profiter	-9.27378
▁©	-9.27509
abord	-9.27557
▁ca	-9.27602
ul	-9.2761
▁fond	-9.27724
ier	-9.27728
▁laisser	-9.27889
action	-9.27967
▁co	-9.27986
apos	-9.28076
▁libre	-9.28234
après	-9.28258
▁Pro	-9.28356
▁fil	-9.28374
ic	-9.28866
▁km	-9.28892
▁changer	-9.29039
▁état	-9.2904
▁solution	-9.29102
▁parmi	-9.29343
▁soient	-9.29345
▁donné	-9.29363
▁26	-9.29453
▁réseaux	-9.29471
▁of	-9.29517
▁sexe	-9.29765
▁tel	-9.29778
▁voiture	-9.29779
U	-9.29852
▁dimanche	-9.30173
▁suivi	-9.30187
▁permettant	-9.30677
▁parents	-9.30917
▁X	-9.31152
▁garde	-9.31174
▁pourrez	-9.31378
▁suivre	-9.31445
▁U	-9.31457
▁quotidien	-9.31488
▁écrit	-9.31507
▁ex	-9.31513
@	-9.31517
▁mariage	-9.3153
▁pages	-9.31553
ia	-9.31801
▁27	-9.31917
▁rôle	-9.32009
▁hors	-9.32038
▁textes	-9.32121
argent	-9.32143
▁social	-9.32245
X	-9.3236
▁sol	-9.32396
▁disponibles	-9.32609
▁blanc	-9.32699
▁dernières	-9.32788
dessous	-9.32794
▁Sud	-9.32796
▁conseil	-9.329
▁sélection	-9.32921
▁super	-9.33116
▁départ	-9.33157
▁demander	-9.33258
▁table	-9.33276
▁scène	-9.33434
▁chef	-9.3351
eux	-9.33571
▁obtenir	-9.33626
▁Quand	-9.33652
▁bout	-9.33757
▁grandes	-9.33819
▁route	-9.33839
▁ai	-9.34157
▁jouer	-9.34173
▁Sélectionner	-9.34427
▁classe	-9.34499
▁Toutes	-9.34581
▁disposition	-9.34686
ge	-9.34727
▁0	-9.34758
▁confiance	-9.34766
▁commentaires	-9.35036
▁milieu	-9.35129
▁gauche	-9.35194
ut	-9.35203
▁éléments	-9.35244
▁culture	-9.35298
0	-9.35321
▁fonctionnement	-9.35324
▁sociale	-9.35521
li	-9.35566
▁fais	-9.35593
▁vidéos	-9.35689
▁email	-9.35884
▁séjour	-9.36049
os	-9.36079
▁envie	-9.36083
▁large	-9.36441
▁signe	-9.3656
▁venir	-9.36562
▁taux	-9.36622
▁pied	-9.36637
▁direction	-9.36645
▁sortir	-9.36659
▁lequel	-9.36688
▁construction	-9.36698
▁existe	-9.36807
ac	-9.36886
▁Voici	-9.36996
▁Grand	-9.37001
▁réalité	-9.3709
▁celles	-9.37174
par	-9.37268
▁économique	-9.37314
▁Lire	-9.37544
ad	-9.37582
▁fils	-9.37614
tte	-9.37664
▁réponse	-9.37835
▁rendez	-9.38087
▁meilleurs	-9.38158
▁connaissance	-9.38217
école	-9.38292
dé	-9.38374
9	-9.38571
▁Bon	-9.3863
▁The	-9.38713
tre	-9.38785
▁difficile	-9.388
▁problèmes	-9.38832
▁vendredi	-9.38857
▁2007	-9.3888
▁presque	-9.38988
▁Pierre	-9.3906
15	-9.39181
be	-9.39182
emploi	-9.39273
ère	-9.39419
▁générale	-9.3947
▁longtemps	-9.39593
▁presse	-9.39795
▁petites	-9.3989
eurs	-9.39919
am	-9.39983
▁caractère	-9.39994
▁rouge	-9.40076
heure	-9.40084
▁É	-9.40106
né	-9.40166
▁lecture	-9.40178
▁paiement	-9.40253
▁31	-9.40398
ique	-9.40512
▁oui	-9.40516
▁durant	-9.40571
▁soleil	-9.40712
▁créé	-9.40933
▁consulter	-9.40954
▁Nord	-9.40966
▁retrouver	-9.40992
▁partage	-9.41022
qui	-9.41052
▁deuxième	-9.4107
▁derniers	-9.4112
▁Bonjour	-9.41129
▁con	-9.41221
▁Y	-9.41248
▁Maison	-9.41443
▁trouverez	-9.41475
▁parle	-9.4181
▁communauté	-9.41838
achat	-9.41888
▁accès	-9.41917
▁pourra	-9.41945
im	-9.42003
ton	-9.42026
▁double	-9.42145
avait	-9.42193
▁euros	-9.42274
▁plupart	-9.4254
▁pièce	-9.42767
▁bord	-9.42774
informations	-9.42796
▁ministre	-9.42819
▁espace	-9.42854
▁sait	-9.4307
▁Noël	-9.43229
▁29	-9.43253
▁peau	-9.43282
▁environ	-9.43357
▁image	-9.43425
▁permis	-9.43511
▁utilisé	-9.43571
aire	-9.43731
▁devenir	-9.43789
▁facilement	-9.43881
esprit	-9.43909
ux	-9.43941
▁bons	-9.43955
▁trouvé	-9.43964
énergie	-9.44166
▁cherche	-9.44209
image	-9.44228
▁faites	-9.44327
▁é	-9.4434
▁matériel	-9.44455
▁commune	-9.44504
▁terrain	-9.44514
▁design	-9.44701
▁]	-9.44828
▁St	-9.44837
▁haute	-9.44845
▁aide	-9.44869
▁logiciel	-9.45085
ure	-9.45114
particulièrement	-9.4523
▁Qu	-9.45233
www	-9.45243
▁(3)	-9.45401
▁Marie	-9.45582
▁the	-9.45605
▁Ré	-9.45819
ro	-9.45848
expérience	-9.45862
▁source	-9.46074
▁connaître	-9.46136
▁droite	-9.46137
▁mouvement	-9.46188
▁bureau	-9.46459
▁livres	-9.46654
▁Co	-9.46685
▁fonctionnalités	-9.46696
▁proche	-9.46792
▁60	-9.46803
▁Or	-9.46824
▁salon	-9.46951
▁formulaire	-9.46979
▁sport	-9.4705
▁lit	-9.4707
É	-9.47171
▁certain	-9.47268
▁manque	-9.47369
▁Veuillez	-9.47463
ion	-9.47504
lé	-9.47541
▁République	-9.47572
▁désormais	-9.47577
▁règles	-9.47651
▁améliorer	-9.47721
di	-9.4788
▁situé	-9.47918
ly	-9.47939
▁études	-9.48084
▁lorsqu	-9.48095
▁activité	-9.48117
▁tiers	-9.48273
▁ailleurs	-9.48317
▁contrat	-9.48422
intérieur	-9.48469
▁Découvrez	-9.48514
▁Al	-9.48588
▁Ainsi	-9.48595
▁référence	-9.48646
▁légales	-9.48791
▁souhaite	-9.48898
▁commentaire	-9.48924
Etat	-9.48964
▁réserve	-9.49099
▁annonce	-9.492
▁Blog	-9.49356
▁véritable	-9.49439
▁zone	-9.49448
▁langue	-9.49454
ri	-9.49536
▁regard	-9.49762
▁(...)	-9.49794
objet	-9.49865
▁bain	-9.49895
▁peine	-9.50034
▁village	-9.50035
▁ancien	-9.5012
entre	-9.50318
▁offrir	-9.50348
▁suivant	-9.50445
utilisateur	-9.50529
▁succès	-9.50636
if	-9.50818
ité	-9.50924
▁Cet	-9.50934
▁publique	-9.50946
▁b	-9.50981
▁voit	-9.50998
▁lieux	-9.51049
up	-9.51223
ville	-9.51251
▁complet	-9.51274
go	-9.51378
▁Centre	-9.51403
▁moyenne	-9.51405
association	-9.51459
▁modifier	-9.51496
avez	-9.51515
▁dés	-9.51605
▁Sandales	-9.51633
▁liberté	-9.51665
▁cinéma	-9.51668
ot	-9.51824
▁http	-9.51875
ront	-9.51907
▁Dé	-9.51955
▁chemin	-9.51965
▁Chaque	-9.51973
état	-9.51983
€	-9.52023
▁annonces	-9.52119
▁Ca	-9.52134
▁national	-9.52152
qu	-9.5217
da	-9.52183
hésitez	-9.52417
▁garantie	-9.52451
%	-9.52487
▁solutions	-9.52628
▁veux	-9.52719
mm	-9.52753
▁idées	-9.52864
▁Prix	-9.53022
▁devrait	-9.53023
▁soutien	-9.53052
▁voix	-9.53089
ni	-9.53163
▁soins	-9.53233
▁édition	-9.53281
▁Non	-9.5329
▁marques	-9.53299
▁LA	-9.53314
▁montant	-9.53345
▁soi	-9.53386
▁marche	-9.53394
▁lumière	-9.53406
▁respect	-9.53421
10	-9.53433
▁mission	-9.53464
▁lundi	-9.53651
▁membre	-9.53711
▁chance	-9.53782
▁2006	-9.53818
istes	-9.5391
▁prêt	-9.53955
rait	-9.53986
ti	-9.54019
▁club	-9.54193
▁train	-9.54232
espace	-9.54265
▁papier	-9.54331
▁moyens	-9.54461
▁outils	-9.54523
▁joueurs	-9.54599
▁devient	-9.54618
▁fins	-9.54814
▁pourtant	-9.54846
▁soirée	-9.54899
▁processus	-9.54918
▁domicile	-9.54958
ordre	-9.54984
▁inter	-9.5526
▁numérique	-9.55397
▁centres	-9.55686
▁Google	-9.55739
▁sorte	-9.5582
▁contenus	-9.55875
▁collection	-9.559
▁couple	-9.56059
▁Oui	-9.56328
mer	-9.5682
▁cinq	-9.5685
▁montre	-9.56884
der	-9.57071
▁passage	-9.57095
▁responsabilité	-9.57125
do	-9.57223
▁identifié	-9.57238
▁Qui	-9.57265
▁fichier	-9.57268
▁nécessaires	-9.57301
▁cliquez	-9.5738
pe	-9.57509
▁chambres	-9.57606
▁représente	-9.57739
▁politiques	-9.57813
ance	-9.57903
▁Europe	-9.5791
+	-9.57937
▁mercredi	-9.57957
▁Est	-9.58
▁peur	-9.58301
▁propriété	-9.58372
▁actuellement	-9.58381
▁magasin	-9.58402
Europe	-9.5841
dessus	-9.58421
▁port	-9.58466
che	-9.58554
per	-9.58554
▁gratuitement	-9.58592
▁tes	-9.58602
▁format	-9.587
▁parti	-9.58713
▁catégorie	-9.58798
ler	-9.58798
▁appel	-9.58868
▁connu	-9.58899
application	-9.59014
▁Con	-9.59122
▁avaient	-9.59155
▁pratiques	-9.59277
ins	-9.59336
▁élèves	-9.59369
▁Ou	-9.59376
▁modèles	-9.5939
▁œuvre	-9.59443
▁An	-9.59503
▁décision	-9.59539
...)	-9.59717
▁population	-9.59744
▁malgré	-9.59755
▁physique	-9.59819
▁rend	-9.59904
▁www	-9.59963
▁voulez	-9.60047
intérêt	-9.60083
▁États	-9.60108
▁Canada	-9.60274
▁poste	-9.60372
ry	-9.60446
▁Québec	-9.60463
▁quelle	-9.60468
activité	-9.60517
q	-9.60646
▁divers	-9.60747
▁liens	-9.60775
enfant	-9.6094
▁mi	-9.61123
ions	-9.61317
si	-9.61489
accord	-9.61694
▁délai	-9.61698
▁changement	-9.61784
▁vol	-9.61832
▁fête	-9.61893
th	-9.6194
idée	-9.62021
▁concours	-9.62065
▁planète	-9.62076
étais	-9.62112
▁feu	-9.62139
▁Rencontre	-9.62162
des	-9.62346
▁Mois	-9.62347
importe	-9.62478
▁volonté	-9.62482
ici	-9.6253
▁confort	-9.62634
▁ressources	-9.62717
▁longue	-9.62831
▁crois	-9.62893
▁commun	-9.629
▁premiers	-9.62974
▁puissance	-9.63069
▁groupes	-9.63271
Z	-9.63321
▁naissance	-9.63527
▁jeudi	-9.6356
▁gratuite	-9.63579
▁nouvel	-9.63628
▁ouvert	-9.63643
▁boutique	-9.63688
ante	-9.63859
▁utilisons	-9.63903
*	-9.6391
▁bar	-9.6392
▁dossier	-9.64005
▁Pays	-9.64028
▁parcours	-9.64096
▁gagner	-9.64229
▁idée	-9.64247
▁faisant	-9.64356
ga	-9.64534
▁arrive	-9.64602
▁maximum	-9.64699
▁privée	-9.64864
▁moteur	-9.64948
▁Enfin	-9.64948
▁puisque	-9.65048
▁transport	-9.65112
▁reçu	-9.65382
▁territoire	-9.65404
▁campagne	-9.65423
▁suffit	-9.65457
▁détails	-9.65531
sse	-9.65629
▁importante	-9.65798
▁Facebook	-9.65816
▁dos	-9.65853
▁rester	-9.65939
▁consommation	-9.66061
▁participer	-9.66077
En	-9.66134
▁assurer	-9.66219
▁Me	-9.66279
▁sud	-9.66296
âge	-9.66387
▁résultat	-9.66598
no	-9.66633
▁envoyer	-9.6667
▁internationale	-9.66696
▁Sans	-9.66808
ver	-9.6687
▁Elles	-9.66875
▁vis	-9.66919
▁beauté	-9.66931
▁laisse	-9.66943
▁retrouve	-9.66945
administration	-9.66958
▁bio	-9.66999
▁telle	-9.6742
isation	-9.67431
▁pose	-9.67451
▁commence	-9.67484
▁statistiques	-9.67488
▁Aujourd	-9.67572
▁!!	-9.67624
▁proximité	-9.67677
mo	-9.67783
▁and	-9.67912
▁ami	-9.68
▁actions	-9.68097
▁informatique	-9.68139
▁décidé	-9.68185
▁tels	-9.68219
▁direct	-9.6823
▁travailler	-9.68378
▁rencontrer	-9.68402
▁films	-9.68605
▁2019	-9.68644
▁heure	-9.68676
▁(4)	-9.68683
▁réduire	-9.689
▁Français	-9.69032
>	-9.69064
▁européenne	-9.69508
▁mains	-9.69513
▁efficace	-9.69561
▁cheveux	-9.69639
▁post	-9.6976
▁contraire	-9.69889
▁quartier	-9.70043
▁commerce	-9.70251
▁médias	-9.70314
▁agréable	-9.70349
20	-9.70384
▁position	-9.70428
enligne	-9.70523
▁bonnes	-9.70555
▁Bordeaux	-9.70752
▁Per	-9.70801
▁propres	-9.7082
voir	-9.70827
▁voie	-9.70835
car	-9.70856
▁location	-9.70862
▁limite	-9.70888
▁électronique	-9.70972
▁documents	-9.70985
ateur	-9.71061
▁Ã	-9.71094
lo	-9.71115
▁véhicule	-9.71132
▁publié	-9.71283
▁Service	-9.71392
▁pleine	-9.71407
po	-9.71453
▁to	-9.7155
▁Lorsque	-9.71765
con	-9.71885
▁forte	-9.71917
▁réalisé	-9.7196
▁Voir	-9.72003
net	-9.7203
50	-9.72071
▁réservés	-9.72147
nes	-9.72151
▁complète	-9.72398
impression	-9.72493
▁moderne	-9.72533
▁Avant	-9.7274
▁développer	-9.72746
▁département	-9.72775
▁cul	-9.72829
▁allez	-9.72847
▁prochain	-9.72908
▁!!!	-9.72942
▁présenter	-9.72967
▁capacité	-9.72976
▁80	-9.73015
▁application	-9.73021
▁dessus	-9.73142
ve	-9.73143
▁plainte	-9.73175
▁match	-9.73231
▁mesures	-9.7327
actualité	-9.73472
▁éviter	-9.73517
ol	-9.73602
▁ordinateur	-9.73605
▁seconde	-9.73651
▁chat	-9.73743
utiliser	-9.73749
▁mail	-9.73802
▁total	-9.74032
▁cartes	-9.7414
▁utilisant	-9.74409
entrée	-9.74488
▁piscine	-9.7463
ette	-9.74734
▁El	-9.74887
▁garantir	-9.74947
▁dix	-9.74995
▁porter	-9.75041
▁continue	-9.75099
▁utilisateur	-9.75122
▁magnifique	-9.75146
▁Bar	-9.7517
▁touche	-9.7522
▁mm	-9.75323
▁Selon	-9.7551
▁commencer	-9.7555
▁plans	-9.75708
▁peinture	-9.75734
▁partout	-9.75743
là	-9.75759
▁concerne	-9.75801
▁manger	-9.75869
▁goût	-9.75886
▁New	-9.75894
èrent	-9.75907
▁Etats	-9.76017
▁international	-9.76039
▁vit	-9.76059
▁surface	-9.76151
▁filles	-9.76173
accueil	-9.7621
▁es	-9.76695
▁compter	-9.76791
▁Mont	-9.76812
▁derrière	-9.7683
▁auto	-9.76843
euse	-9.76894
sur	-9.76909
▁tellement	-9.77076
▁animaux	-9.77209
▁mardi	-9.77275
▁course	-9.77277
▁or	-9.77306
▁auteurs	-9.77315
▁hauteur	-9.77385
▁Très	-9.77389
▁réalisation	-9.77693
▁200	-9.77759
▁profil	-9.77805
▁relations	-9.77817
▁sort	-9.77878
▁roman	-9.77885
offre	-9.77943
▁support	-9.7808
▁régulièrement	-9.78113
▁poids	-9.78181
▁sujets	-9.78273
environnement	-9.78276
▁mémoire	-9.78308
▁amour	-9.78317
▁mobile	-9.78327
▁guide	-9.78397
ha	-9.784
▁Jeux	-9.78422
▁penser	-9.78426
▁parfaitement	-9.78557
▁Mode	-9.78569
▁totalement	-9.78595
▁acheter	-9.7862
▁parties	-9.78693
vi	-9.78694
ouverture	-9.78708
tique	-9.78722
▁personnages	-9.78725
▁newsletter	-9.7878
▁Cependant	-9.7879
▁naturel	-9.78841
▁mondiale	-9.78863
▁adaptés	-9.79052
▁utilisées	-9.79108
▁intérieure	-9.79215
ale	-9.79373
▁comprend	-9.79395
▁compagnie	-9.79456
▁crise	-9.79469
▁rêve	-9.79471
▁calme	-9.79502
▁classique	-9.79607
▁Mar	-9.79618
▁électrique	-9.79665
▁v	-9.79787
mi	-9.7987
▁Lyon	-9.79925
▁François	-9.79961
▁aime	-9.80011
▁choisi	-9.80095
▁gaz	-9.80458
▁généralement	-9.80476
▁accessoires	-9.80528
▁lu	-9.80566
▁conception	-9.80582
▁week	-9.80589
▁fournir	-9.80782
▁trans	-9.80824
▁gérer	-9.80885
▁tendance	-9.80978
▁Pourquoi	-9.80986
▁télé	-9.81003
▁risques	-9.81012
▁sauf	-9.81077
▁01	-9.81093
▁lutte	-9.81096
▁types	-9.81224
▁parfait	-9.81234
▁fera	-9.81456
▁célèbre	-9.81589
▁connexion	-9.81597
▁davantage	-9.8167
▁bonheur	-9.81695
▁bouton	-9.81723
▁dispose	-9.81793
▁entier	-9.81811
▁portes	-9.81876
▁continuer	-9.81906
▁publics	-9.81943
▁découverte	-9.82019
▁Signaler	-9.82096
▁cliquant	-9.82121
▁cependant	-9.82204
▁bras	-9.82245
▁relative	-9.82289
▁document	-9.82333
▁passion	-9.82344
▁pouvons	-9.82368
▁bientôt	-9.82511
▁100%	-9.8268
▁sac	-9.8275
▁mêmes	-9.8279
▁Société	-9.82824
▁Ar	-9.82841
▁objets	-9.82906
▁spectacle	-9.82965
▁vitesse	-9.8306
▁paramètres	-9.83071
▁réception	-9.83128
ables	-9.83131
▁structure	-9.83275
▁Président	-9.8339
pa	-9.83402
▁belles	-9.8348
▁anglais	-9.8378
▁entièrement	-9.83829
▁permettra	-9.8387
▁accord	-9.83898
▁police	-9.83915
vis	-9.83972
▁information	-9.84036
▁artistes	-9.84124
▁présentation	-9.84188
▁poser	-9.84193
land	-9.84211
▁distance	-9.84366
▁directeur	-9.84413
▁clair	-9.84488
▁veuillez	-9.84516
▁idéal	-9.84528
▁attention	-9.84538
▁courant	-9.84545
ite	-9.84594
▁micro	-9.84642
▁médecin	-9.84699
▁machine	-9.84711
▁radio	-9.84719
ES	-9.84723
▁logement	-9.84788
▁Di	-9.84851
▁Michel	-9.85011
ig	-9.8504
▁ET	-9.85072
tion	-9.85081
avec	-9.85196
▁raisons	-9.85198
Je	-9.85209
analyse	-9.85218
▁régime	-9.85294
▁objectif	-9.85342
25	-9.85356
▁valeurs	-9.85403
▁voilà	-9.85419
▁bleu	-9.85442
▁regarder	-9.85466
▁parc	-9.85605
▁troisième	-9.85648
▁Ville	-9.85653
▁protéger	-9.85692
40	-9.8574
▁termes	-9.85833
▁joue	-9.85856
▁Ta	-9.85867
▁mètres	-9.85896
▁décoration	-9.85906
▁2018,	-9.85959
ba	-9.86034
▁repas	-9.86038
▁coin	-9.86048
▁verre	-9.86084
▁équipes	-9.86187
▁technologie	-9.86207
▁Suisse	-9.86339
▁compétences	-9.86368
▁Tour	-9.86381
▁k	-9.86424
▁voici	-9.86447
13	-9.86452
▁crédit	-9.86454
État	-9.8649
▁correspond	-9.86496
▁Accueil	-9.86503
▁garder	-9.86577
▁perdu	-9.86589
▁court	-9.8667
▁options	-9.86711
organisation	-9.86714
▁puisse	-9.86729
▁gratuits	-9.8689
Q	-9.86934
▁500	-9.86994
▁fichiers	-9.8718
▁maladie	-9.8722
▁carrière	-9.87249
12	-9.87255
▁change	-9.87327
▁fruits	-9.8737
▁visage	-9.87401
▁Mentions	-9.87482
▁vision	-9.87867
▁vendre	-9.87954
▁entendu	-9.87998
▁privé	-9.88002
▁al	-9.88021
▁plantes	-9.881
▁soin	-9.88156
lu	-9.88191
▁cadeau	-9.88205
ka	-9.88245
▁nord	-9.88245
▁Ha	-9.88265
▁70	-9.88292
▁faible	-9.88292
▁peuple	-9.88307
▁Belgique	-9.88346
▁air	-9.88385
▁réel	-9.8839
▁environnement	-9.8843
▁Bo	-9.88432
▁caractéristique	-9.88455
▁lettre	-9.88498
ise	-9.88562
▁montrer	-9.88681
▁restaurant	-9.8875
▁Même	-9.88893
▁habitants	-9.88905
▁pieds	-9.88953
rons	-9.88993
▁@	-9.89142
▁possède	-9.89172
pour	-9.89205
▁pouvait	-9.89252
▁patrimoine	-9.89295
▁bénéficier	-9.893
▁Vos	-9.89385
▁(5)	-9.89546
▁étudiants	-9.89555
pi	-9.89594
▁Chine	-9.89598
▁https	-9.89631
▁payer	-9.89678
tes	-9.89764
▁riche	-9.89766
oublie	-9.89839
▁TV	-9.89873
min	-9.89942
▁Nouvelle	-9.89953
▁systèmes	-9.89956
res	-9.89967
▁déc	-9.89999
▁acteurs	-9.90155
▁sang	-9.90215
▁fonctions	-9.90257
▁LE	-9.90334
▁appareil	-9.90356
▁with	-9.90384
▁sociétés	-9.90587
▁six	-9.90616
cher	-9.90643
▁partenaire	-9.90682
▁croissance	-9.90739
▁défaut	-9.90761
▁locaux	-9.90775
▁preuve	-9.90846
▁prochaine	-9.90856
▁conscience	-9.90999
▁principe	-9.91096
▁Terre	-9.91103
▁milliers	-9.91286
▁Art	-9.91319
▁quant	-9.9136
▁demandé	-9.91394
▁chaud	-9.91437
▁historique	-9.91477
▁Val	-9.91486
▁Grâce	-9.91577
▁meilleures	-9.91587
fi	-9.91711
▁second	-9.9172
▁bébé	-9.91742
aller	-9.91764
▁signifie	-9.91835
▁2000	-9.91883
▁=	-9.91892
▁publication	-9.91945
▁2005	-9.91982
▁Afin	-9.92055
▁familles	-9.92099
▁utilisés	-9.92303
▁finalement	-9.92312
▁fer	-9.92418
▁passant	-9.92666
▁ferme	-9.92699
économie	-9.92723
lin	-9.92728
▁top	-9.92729
aï	-9.92733
▁justice	-9.92767
▁tenir	-9.92822
▁plage	-9.92857
▁Cookies	-9.92895
▁mini	-9.92909
oc	-9.92949
ient	-9.92975
▁su	-9.92984
▁immédiatement	-9.92998
▁Santé	-9.93
▁action	-9.93005
▁Femmes	-9.93014
▁Histoire	-9.93032
▁Paul	-9.93202
▁continuant	-9.9337
▁35	-9.93376
▁Monde	-9.93473
▁demi	-9.93494
▁Mo	-9.93504
▁premières	-9.93513
▁vent	-9.93524
▁technologies	-9.93532
▁proches	-9.93533
▁durable	-9.9364
80	-9.93684
▁chercher	-9.93753
▁réduction	-9.9383
▁combat	-9.93933
va	-9.93984
▁test	-9.94171
▁endroit	-9.94197
▁mari	-9.94217
▁classement	-9.9427
tant	-9.94427
▁affaires	-9.94463
époque	-9.94559
▁Cuisine	-9.9459
▁préparation	-9.94604
▁bande	-9.94616
▁formes	-9.94625
▁présents	-9.9468
▁méthode	-9.94798
▁maisons	-9.94809
mon	-9.9481
▁tenu	-9.94831
ologie	-9.94924
mé	-9.9501
dire	-9.95145
▁Cour	-9.95151
ap	-9.95177
."	-9.95334
▁Tri	-9.95358
▁heureux	-9.95429
▁mur	-9.95491
▁interdits	-9.955
è	-9.95511
â	-9.95551
ko	-9.95651
▁répond	-9.95681
▁Deux	-9.95688
▁Sac	-9.95717
24	-9.95804
14	-9.95891
▁o	-9.95951
▁Groupe	-9.95954
▁propriétaire	-9.96024
ienne	-9.96035
▁effets	-9.96055
▁événements	-9.96088
▁établissements	-9.96197
▁condition	-9.96212
line	-9.96215
▁personnage	-9.96269
45	-9.96273
▁inscription	-9.96376
▁DU	-9.9639
ttes	-9.96406
▁fabrication	-9.96512
▁Soleil	-9.96552
hôtel	-9.96568
Il	-9.9667
▁Index	-9.96678
ana	-9.96713
▁complètement	-9.9672
▁note	-9.96724
▁perdre	-9.96746
▁différence	-9.96746
▁section	-9.96798
▁pierre	-9.96801
tra	-9.96812
▁fenêtre	-9.96828
▁café	-9.96835
autant	-9.96859
▁dû	-9.9695
▁Cours	-9.96952
▁occasion	-9.9707
▁associations	-9.97145
▁majorité	-9.97184
▁Femme	-9.97195
ak	-9.97227
18	-9.97259
▁réussi	-9.97266
▁vérité	-9.97344
▁intérieur	-9.97386
▁Donc	-9.974
▁froid	-9.97485
▁vert	-9.97496
▁réservation	-9.97748
▁for	-9.97771
▁revient	-9.97775
▁Afrique	-9.97813
Union	-9.97861
▁Toute	-9.97898
▁apprendre	-9.97923
▁déco	-9.97934
ix	-9.97969
▁scolaire	-9.98005
▁Skyrock	-9.98039
=	-9.98258
▁siège	-9.98268
▁90	-9.98303
▁vois	-9.98324
io	-9.98327
▁devenu	-9.98458
▁faite	-9.98496
pro	-9.98547
▁tableau	-9.98625
▁vieux	-9.9869
ière	-9.98735
▁i	-9.98768
mar	-9.9878
▁agence	-9.98877
▁voire	-9.98902
▁neuf	-9.99004
ger	-9.99018
▁publicité	-9.9915
▁faisait	-9.99226
▁utilisée	-9.99339
ue	-9.99394
▁racistes	-9.99426
▁panier	-9.99448
ck	-9.99581
▁Go	-9.9964
▁forums	-9.99686
▁supérieur	-9.99743
▁licence	-9.99881
▁Pi	-9.99978
▁pourront	-10.0009
▁contient	-10.0013
▁recette	-10.0017
▁terrasse	-10.0027
▁commencé	-10.0039
▁quantité	-10.004
▁bi	-10.0042
▁fleurs	-10.0045
▁champ	-10.0047
iser	-10.0052
▁métier	-10.0056
▁correctement	-10.0057
▁connecter	-10.006
▁résidence	-10.0062
ron	-10.0065
90	-10.0065
▁diverses	-10.0066
▁multi	-10.0071
▁villes	-10.0083
iens	-10.0085
▁eau	-10.0092
▁certaine	-10.0092
▁rendu	-10.0093
▁min	-10.0098
▁fonctionne	-10.0099
▁II	-10.0101
▁explique	-10.0105
19	-10.0107
▁contexte	-10.011
▁théâtre	-10.0117
▁communes	-10.0117
installation	-10.0134
▁sérieux	-10.0139
▁No	-10.014
▁local	-10.0142
▁perte	-10.0146
▁devis	-10.0152
enseignement	-10.0163
son	-10.0165
▁outil	-10.0168
▁connaissances	-10.0173
▁proposons	-10.0177
▁maître	-10.0185
▁tandis	-10.0191
▁Puis	-10.0205
aise	-10.0207
▁art	-10.0211
▁intéressant	-10.0223
▁visiter	-10.0223
assurance	-10.0232
▁liés	-10.0233
▁Ch	-10.0242
▁Anti	-10.0246
▁outre	-10.0253
[	-10.0253
▁humaine	-10.0261
exposition	-10.0266
étude	-10.0268
▁appartement	-10.0269
IN	-10.027
▁(6)	-10.0272
ien	-10.0272
éducation	-10.0275
▁Ex	-10.0281
ois	-10.0285
ja	-10.0286
▁ouverte	-10.0292
▁vin	-10.0294
▁visites	-10.0299
▁minimum	-10.0304
▁ajouter	-10.0308
▁45	-10.0311
▁beaux	-10.0314
▁Ben	-10.0316
▁personnalité	-10.0318
univers	-10.0326
▁mises	-10.0326
▁JavaScript	-10.0338
espère	-10.0345
▁TripAdvisor	-10.0348
▁Code	-10.0361
▁américain	-10.0363
▁pression	-10.0369
▁veulent	-10.0378
artiste	-10.0385
▁suivants	-10.0386
huile	-10.039
▁injurieux	-10.0392
▁dehors	-10.0394
iv	-10.0397
inscription	-10.0398
▁ministère	-10.0398
▁participation	-10.0399
▁mélange	-10.0402
ans	-10.0408
▁forces	-10.0411
ants	-10.0413
▁final	-10.0418
▁particuliers	-10.0419
»,	-10.0423
ab	-10.0428
▁bouche	-10.0431
▁télécharger	-10.0433
▁pi	-10.0436
Afrique	-10.0437
▁préparer	-10.0439
▁Autres	-10.0444
▁coût	-10.0451
▁principal	-10.0458
▁tient	-10.0461
▁Louis	-10.0464
existence	-10.047
▁Po	-10.0475
▁revenir	-10.0479
▁courrier	-10.048
▁So	-10.0481
21	-10.0485
▁ait	-10.0485
▁règlement	-10.0486
▁vérifier	-10.0495
▁cuir	-10.0498
ive	-10.0504
▁Rouge	-10.0505
▁désir	-10.0518
▁noter	-10.0518
appel	-10.0525
▁plateforme	-10.0527
▁col	-10.0536
▁viens	-10.0539
▁po	-10.0544
60	-10.0551
▁Commenter	-10.0554
▁fonds	-10.0555
▁défense	-10.056
▁Trier	-10.0567
em	-10.0567
ty	-10.0586
▁critique	-10.059
ques	-10.0593
▁marketing	-10.0604
▁coupe	-10.0605
▁Mars	-10.0606
▁Droit	-10.0608
▁véhicules	-10.0608
arrivée	-10.0611
ag	-10.0616
▁Grande	-10.0619
▁vaut	-10.0622
▁supprimer	-10.0626
▁étude	-10.064
▁prévu	-10.0645
▁financement	-10.0647
▁performances	-10.0667
▁annoncé	-10.0674
▁performance	-10.0675
▁chaleur	-10.0683
fa	-10.0683
▁paix	-10.0684
▁destination	-10.0684
▁Certains	-10.0693
▁usage	-10.07
cha	-10.0717
delà	-10.072
▁accéder	-10.0726
▁tarifs	-10.0732
▁extérieure	-10.0733
ang	-10.0733
org	-10.0742
▁croire	-10.0745
11	-10.0746
▁visiteurs	-10.0751
▁tenue	-10.0751
▁stratégie	-10.0764
tin	-10.0768
▁vide	-10.0778
▁réponses	-10.0788
▁européen	-10.0788
▁festival	-10.079
▁suivante	-10.0792
▁donnent	-10.0796
▁Ni	-10.0798
▁objectifs	-10.0799
▁conseiller	-10.0806
▁critères	-10.0814
ven	-10.0831
avant	-10.0831
▁DES	-10.0839
▁température	-10.0843
▁située	-10.0847
▁oublier	-10.0852
▁pr	-10.0862
▁planètes	-10.0869
▁bâtiment	-10.088
▁porno	-10.0882
▁Entre	-10.0886
▁mondial	-10.0921
▁organisé	-10.0926
▁profit	-10.093
▁finale	-10.0931
▁recettes	-10.0934
▁commandes	-10.0935
▁Recherche	-10.0946
▁futur	-10.0953
▁apporter	-10.0955
▁ciel	-10.0959
▁capitale	-10.0975
▁Be	-10.0975
▁emploi	-10.0979
▁achat	-10.098
usage	-10.0983
▁budget	-10.0983
▁Ka	-10.0984
évolution	-10.0985
▁2018.	-10.0988
honneur	-10.0988
avenir	-10.099
hi	-10.0995
AC	-10.1016
▁né	-10.1019
16	-10.1027
ade	-10.1035
bi	-10.1038
▁appelle	-10.1051
▁(19	-10.1054
▁servir	-10.1057
▁Ses	-10.1058
▁retraite	-10.1064
▁défi	-10.1064
▁prises	-10.1065
▁automatiquement	-10.1072
▁applications	-10.1087
▁résistance	-10.1093
mes	-10.1102
▁voulu	-10.1104
▁partenariat	-10.1109
▁dynamique	-10.1124
op	-10.1125
ens	-10.1132
▁dispositions	-10.1133
▁pouvant	-10.1135
▁scientifique	-10.1136
▁association	-10.1139
▁capable	-10.1141
▁Mes	-10.1148
▁procédure	-10.1156
▁abus	-10.1157
▁contrôler	-10.1159
▁Archives	-10.1167
▁Petit	-10.1167
▁Retrouvez	-10.1178
▁frère	-10.1192
▁cour	-10.1194
▁PC	-10.1201
▁sept	-10.1207
▁métiers	-10.1213
▁exposition	-10.1223
ER	-10.1223
iez	-10.1238
▁violence	-10.126
▁zones	-10.1261
▁impossible	-10.1266
vin	-10.1276
ancien	-10.1277
▁moments	-10.128
ina	-10.1285
opposition	-10.1286
▁Club	-10.1295
▁jeunesse	-10.1295
▁Na	-10.1303
▁fini	-10.1311
▁Présentation	-10.1311
▁Air	-10.1314
▁voyages	-10.1316
▁renseignements	-10.1325
▁Afficher	-10.133
▁clé	-10.1333
▁essayer	-10.1335
écran	-10.1336
▁humain	-10.1336
▁comportement	-10.134
ate	-10.1343
ns	-10.1346
▁milliards	-10.1347
▁rejoindre	-10.1347
▁2004	-10.1361
▁Lors	-10.1363
▁aurez	-10.1377
▁accessible	-10.138
objectif	-10.1388
▁Montréal	-10.1393
établissement	-10.1395
▁forcément	-10.1398
▁âge	-10.1405
▁vraie	-10.1405
▁serez	-10.1406
▁chocolat	-10.1407
▁secret	-10.1408
▁tenter	-10.1426
▁Attention	-10.1431
▁organisation	-10.1433
ché	-10.1435
17	-10.144
▁attendre	-10.144
▁immobilier	-10.1441
▁(8)	-10.1455
▁précise	-10.1466
Art	-10.1473
▁300	-10.1479
▁convient	-10.1479
▁Auto	-10.1489
▁suppression	-10.1491
non	-10.1492
ff	-10.1492
▁supérieure	-10.1494
▁objet	-10.1494
▁lignes	-10.1501
▁proposé	-10.1502
▁lesquels	-10.1502
▁veille	-10.1506
▁distribution	-10.1506
▁découvre	-10.1508
UE	-10.151
née	-10.1514
▁voyageurs	-10.1518
▁Musique	-10.1525
od	-10.1526
entretien	-10.1526
▁journal	-10.153
avons	-10.153
▁domaines	-10.1533
cu	-10.1533
▁consentement	-10.1539
▁banque	-10.1548
▁Dr	-10.1548
▁dois	-10.1549
▁excellent	-10.155
▁foi	-10.1553
cé	-10.1559
▁époque	-10.1563
chi	-10.1566
▁pire	-10.1572
▁vigueur	-10.1572
▁professeur	-10.1574
ay	-10.1578
nel	-10.1579
▁roi	-10.1579
▁moitié	-10.1588
▁telles	-10.1591
▁Commission	-10.1594
▁chien	-10.1594
▁chaîne	-10.1596
moi	-10.1596
▁arriver	-10.1598
▁concept	-10.1598
▁naturelle	-10.16
▁tombe	-10.1602
▁programmes	-10.1609
ts	-10.161
▁activé	-10.1617
extérieur	-10.162
▁utile	-10.1625
val	-10.1628
▁savez	-10.1629
▁modification	-10.1635
ire	-10.164
bo	-10.1642
▁viennent	-10.1647
▁recherches	-10.1648
▁collaboration	-10.1652
▁Super	-10.1652
▁boîte	-10.1654
▁matériaux	-10.1655
▁esprit	-10.1659
▁Ver	-10.166
▁dépôt	-10.1661
▁élevé	-10.1664
▁maîtrise	-10.1668
▁débat	-10.1672
▁anciens	-10.1682
île	-10.1684
▁réussite	-10.169
▁signes	-10.169
▁notes	-10.1693
auto	-10.1693
▁espaces	-10.1699
▁vote	-10.1704
▁moindre	-10.1707
▁Confidentialité	-10.1714
▁énergie	-10.1717
▁démarche	-10.1717
▁plat	-10.1729
In	-10.1732
▁travaille	-10.1733
▁musée	-10.1738
▁autorités	-10.1743
▁mauvais	-10.1755
▁présenté	-10.1762
▁couverture	-10.1763
Re	-10.177
▁récent	-10.1775
▁charme	-10.1776
ateurs	-10.1779
▁commercial	-10.178
▁grosse	-10.1782
▁pourraient	-10.1783
▁hier	-10.1785
▁EN	-10.1792
pé	-10.1799
▁totale	-10.18
▁Q	-10.1803
▁toutefois	-10.1804
▁ventes	-10.1806
▁Vidéo	-10.1809
AL	-10.1816
▁pensée	-10.1817
▁rose	-10.1831
▁lancer	-10.1833
améliorer	-10.1834
▁sociales	-10.1838
▁communiquer	-10.184
▁Gi	-10.1842
▁Cliquez	-10.1843
▁auteur	-10.1844
▁->	-10.1845
▁Sous	-10.1847
▁multiples	-10.1847
▁Musée	-10.185
gé	-10.1851
▁anniversaire	-10.1855
▁conduite	-10.1855
▁Milieu	-10.186
▁PS	-10.1863
▁Ad	-10.1868
US	-10.1871
▁discours	-10.1874
▁construire	-10.1881
▁constitue	-10.1887
ob	-10.1918
▁1.	-10.1919
▁vivant	-10.1925
adore	-10.1927
▁évidemment	-10.1929
▁tôt	-10.1929
▁certainement	-10.193
and	-10.193
▁étape	-10.1935
▁fan	-10.1944
France	-10.1945
▁robe	-10.1945
▁exercer	-10.1949
▁devait	-10.1951
▁indiqué	-10.1965
▁Moi	-10.1965
mont	-10.197
▁sympa	-10.1972
▁apporte	-10.1982
▁hôtel	-10.1982
ray	-10.1983
▁Philippe	-10.1983
▁respecter	-10.1985
▁école	-10.1986
▁Vie	-10.1989
Université	-10.199
ist	-10.1996
▁somme	-10.1998
ster	-10.2001
administrateur	-10.2002
▁sourire	-10.2004
ub	-10.2005
▁joie	-10.2015
▁Jésus	-10.2022
pas	-10.2031
▁faudra	-10.2033
▁ceci	-10.2043
▁retard	-10.2044
▁opérations	-10.2047
▁concert	-10.2059
▁relatives	-10.206
▁principalement	-10.2065
▁Conformément	-10.207
▁Jour	-10.2074
▁fiche	-10.2086
erie	-10.2092
eu	-10.2094
▁obligatoire	-10.2104
▁sert	-10.2104
▁lettres	-10.2111
▁logiciels	-10.2114
▁gratuites	-10.212
▁David	-10.2124
ers	-10.2125
tel	-10.2125
▁tente	-10.2128
où	-10.2128
industrie	-10.2133
▁conférence	-10.2137
▁places	-10.2138
▁surprise	-10.214
▁Contact	-10.214
▁Quel	-10.2142
▁victoire	-10.2143
▁Coupe	-10.2148
nant	-10.2151
▁connecté	-10.2151
▁degrés	-10.2152
▁montagne	-10.2156
▁attend	-10.2156
▁Maroc	-10.2158
▁Bonne	-10.2164
▁longueur	-10.2169
▁déclaré	-10.2171
▁décide	-10.2176
agence	-10.2181
ign	-10.2182
▁réunion	-10.2182
▁dessin	-10.2183
▁difficultés	-10.2185
▁arrière	-10.2187
▁promotion	-10.219
isse	-10.2196
▁sinon	-10.2199
▁album	-10.22
ris	-10.2203
onne	-10.2204
êtes	-10.2207
▁capital	-10.2208
▁06	-10.2211
▁élément	-10.2213
▁menu	-10.2216
▁univers	-10.2223
▁détail	-10.2227
▁option	-10.2228
▁Cap	-10.223
ho	-10.2234
gi	-10.2244
aires	-10.2244
▁écran	-10.2246
accepte	-10.2253
▁joueur	-10.2253
▁remise	-10.2255
▁rythme	-10.2256
▁ad	-10.2266
▁effectuer	-10.2267
▁envoyé	-10.2269
▁invite	-10.2272
▁05	-10.2272
lle	-10.2275
▁vêtements	-10.2276
▁sorties	-10.2277
▁réflexion	-10.2278
▁Carte	-10.2285
▁artistique	-10.2288
▁récemment	-10.2288
▁reconnu	-10.2289
▁To	-10.229
hiver	-10.2299
ec	-10.2299
▁victimes	-10.23
▁événement	-10.2301
TM	-10.2303
▁largement	-10.2308
▁Parce	-10.2314
▁utilisez	-10.2314
▁batterie	-10.232
▁Salle	-10.232
▁vélo	-10.2321
▁entrée	-10.2322
annonce	-10.2325
▁blanche	-10.2338
▁commerciale	-10.2339
▁consiste	-10.234
▁by	-10.2342
▁adultes	-10.2342
▁Sauter	-10.2342
œuvre	-10.2352
▁Man	-10.2354
▁serveur	-10.2363
ène	-10.2363
▁lance	-10.2373
▁inscrit	-10.2375
▁statut	-10.2377
▁masse	-10.2378
▁appareils	-10.2383
▁grave	-10.2384
affaires	-10.239
exploitation	-10.2393
▁Pendant	-10.2398
▁probablement	-10.2399
ah	-10.2402
▁chaussures	-10.2404
▁populaire	-10.2404
▁accepter	-10.2406
▁écoles	-10.2409
▁avantages	-10.2411
iers	-10.2412
▁parfaite	-10.2414
aider	-10.242
▁four	-10.2421
▁principaux	-10.2423
ures	-10.2427
▁Cha	-10.2432
Est	-10.2433
▁adapté	-10.2433
▁48	-10.2437
▁ordre	-10.2437
▁cadeaux	-10.2439
▁ch	-10.2453
▁devoir	-10.2458
▁(7)	-10.2459
euros	-10.2459
▁Date	-10.246
faire	-10.2464
▁niveaux	-10.247
▁précis	-10.247
▁32	-10.2477
▁Bou	-10.2482
▁Monsieur	-10.2485
▁financière	-10.249
▁portée	-10.2494
▁Pré	-10.2495
▁hébergé	-10.2499
▁préalable	-10.2501
▁composé	-10.2502
▁intérêt	-10.2512
ide	-10.2512
▁absolument	-10.2519
▁sources	-10.252
vé	-10.2522
▁déclaration	-10.2528
environ	-10.2532
▁puisqu	-10.2535
ille	-10.254
▁salariés	-10.254
port	-10.254
▁diffusion	-10.2549
ies	-10.2549
▁vouloir	-10.2554
▁douce	-10.2555
▁Client	-10.2555
▁analyse	-10.2558
▁logique	-10.2558
▁responsables	-10.2572
obtenir	-10.2588
▁aimé	-10.2588
▁spécifique	-10.2589
▁supplémentaires	-10.2594
▁présentes	-10.2603
▁ancienne	-10.2606
▁gris	-10.2611
▁sciences	-10.2613
▁soumis	-10.2613
▁appelé	-10.2617
▁--	-10.262
lot	-10.2628
▁marchés	-10.2633
br	-10.2634
let	-10.2635
▁phase	-10.2638
mais	-10.2641
▁centrale	-10.2655
▁mille	-10.2664
▁personnelle	-10.2671
▁clés	-10.2672
▁Ga	-10.2678
▁juge	-10.2678
▁baisse	-10.2683
absence	-10.2687
▁consultation	-10.2688
avance	-10.2689
----------------	-10.2696
22	-10.2703
▁tres	-10.2705
▁lendemain	-10.2706
▁conformément	-10.2711
▁Dès	-10.2726
écriture	-10.2727
▁sucre	-10.2729
▁violation	-10.2734
identité	-10.2737
Lire	-10.2738
▁prison	-10.2741
don	-10.2742
▁Japon	-10.2748
▁basse	-10.2749
▁oeuvre	-10.2755
▁spécialiste	-10.2758
▁w	-10.2761
intérêts	-10.2761
▁télévision	-10.2761
▁station	-10.2762
can	-10.2765
étranger	-10.2765
▁écrire	-10.2766
▁demeure	-10.2766
ence	-10.2767
».	-10.2769
▁Jacques	-10.277
▁revue	-10.277
▁com	-10.2772
▁militaire	-10.2773
▁rappelle	-10.2774
▁approche	-10.2779
▁publicités	-10.2779
▁secondes	-10.2782
▁amoureux	-10.2784
Or	-10.2788
▁suit	-10.279
▁Jardin	-10.2799
▁::	-10.2799
▁mauvaise	-10.28
▁Marseille	-10.2804
!!	-10.281
▁élections	-10.2813
▁Nicolas	-10.2837
▁délais	-10.2843
▁comptes	-10.2845
AM	-10.2845
▁juridique	-10.2847
▁tri	-10.2849
▁suivantes	-10.285
▁sent	-10.2854
▁crème	-10.2855
▁Ri	-10.2856
▁reproduction	-10.2861
rent	-10.2866
▁humains	-10.2869
▁Côte	-10.2869
70	-10.2873
▁complexe	-10.2876
▁Peut	-10.2877
▁Bienvenue	-10.2879
99	-10.2882
▁collectif	-10.2884
▁Ceci	-10.2885
▁établissement	-10.2887
▁demandes	-10.2893
▁meuble	-10.2894
▁tarif	-10.29
Ma	-10.29
▁San	-10.2901
▁disposez	-10.2909
▁Windows	-10.291
▁Services	-10.2912
midi	-10.2917
▁américaine	-10.2921
06	-10.2921
ber	-10.2921
▁séance	-10.2921
ments	-10.2923
▁Livraison	-10.2923
entraide	-10.2924
▁atteint	-10.2925
35	-10.2926
▁finir	-10.2927
▁original	-10.2929
ages	-10.2931
▁Festival	-10.2933
▁neige	-10.2935
▁soyez	-10.2937
▁activer	-10.2937
tt	-10.294
▁Chambre	-10.2941
▁(1	-10.2948
▁crée	-10.2956
29	-10.296
▁rubrique	-10.2966
▁forêt	-10.2972
appareil	-10.298
▁chauffage	-10.2986
▁lancé	-10.2987
▁Inc	-10.2987
▁Bref	-10.299
▁demain	-10.2991
▁réparation	-10.2993
▁civile	-10.2994
▁rectification	-10.2994
▁2003	-10.2996
▁génération	-10.3003
▁erreur	-10.3005
assurer	-10.3009
▁faciliter	-10.301
▁principale	-10.3014
▁jolie	-10.3014
ations	-10.3014
▁be	-10.3021
Al	-10.3026
▁International	-10.3031
atif	-10.3033
▁boite	-10.3037
▁Russie	-10.3041
▁raconte	-10.3042
▁pur	-10.3042
▁(9)	-10.3043
▁devra	-10.3045
▁noire	-10.3047
▁tests	-10.3048
pin	-10.3051
▁représentant	-10.3051
out	-10.3052
ose	-10.3059
▁catégories	-10.3064
▁scientifiques	-10.307
▁arrivée	-10.307
▁02	-10.3071
▁sentir	-10.3076
LE	-10.3078
aurais	-10.3079
01	-10.3091
ong	-10.3094
▁littérature	-10.3094
▁dédié	-10.3096
▁pointe	-10.3096
RE	-10.3101
cm	-10.3107
▁2002	-10.3108
▁sentiment	-10.3109
appelle	-10.3114
▁méthodes	-10.3116
avis	-10.3119
▁vécu	-10.313
▁33	-10.3132
▁arts	-10.3135
▁gr	-10.3135
▁conséquences	-10.3136
▁changements	-10.3137
▁Article	-10.3137
▁coups	-10.3142
▁tomber	-10.3154
▁indispensable	-10.3154
▁fi	-10.3158
▁quête	-10.3161
▁extérieur	-10.3167
▁Voilà	-10.3168
AS	-10.3171
▁figure	-10.3175
▁prestations	-10.3179
ill	-10.3182
▁Noir	-10.3182
▁Annuaire	-10.3186
▁limites	-10.3186
▁(10)	-10.3191
▁Mal	-10.3196
the	-10.3198
▁portrait	-10.3199
▁stock	-10.3202
isé	-10.3203
cul	-10.3211
ane	-10.3223
▁vaste	-10.3227
▁parole	-10.3228
▁Publié	-10.3228
▁inscrire	-10.323
▁principales	-10.3231
▁chiffres	-10.3232
▁cherchez	-10.3241
expression	-10.3257
▁découvert	-10.3259
▁catalogue	-10.3261
AN	-10.3262
▁lecteurs	-10.327
▁patients	-10.3271
▁lois	-10.3274
▁assure	-10.3276
23	-10.3284
▁Haute	-10.3285
▁officiel	-10.3289
▁ateliers	-10.329
▁courriel	-10.3291
gue	-10.3297
▁chargé	-10.3298
▁faux	-10.3302
▁dispositif	-10.3303
▁plastique	-10.3305
▁Port	-10.3305
ssant	-10.3314
▁récit	-10.3314
▁magazine	-10.3315
ru	-10.3317
▁bac	-10.3318
▁bel	-10.3326
▁superbe	-10.3327
▁économiques	-10.3329
▁09	-10.3329
tor	-10.333
▁solaire	-10.3331
uses	-10.3336
26	-10.3343
illon	-10.3348
▁fa	-10.3352
ser	-10.3355
▁portant	-10.3361
▁Description	-10.3364
&#39;	-10.3366
▁achats	-10.3367
▁36	-10.3368
▁locale	-10.337
ines	-10.337
▁décor	-10.337
▁46	-10.337
▁lecteur	-10.3371
▁43	-10.3371
▁logo	-10.3379
▁conçu	-10.3381
rou	-10.3381
31	-10.3382
ley	-10.3389
▁naviguer	-10.3391
▁continuez	-10.3393
iques	-10.3396
▁rédaction	-10.3397
000	-10.3398
nage	-10.3401
▁dollars	-10.3408
▁York	-10.341
EN	-10.3413
he	-10.3418
▁installation	-10.3419
▁Com	-10.3429
▁conduit	-10.343
sion	-10.3433
▁Ho	-10.3433
▁bancaire	-10.3434
▁graphique	-10.3436
ture	-10.3439
▁description	-10.344
exercice	-10.3441
▁candidats	-10.345
antes	-10.3454
effet	-10.3459
▁spécifiques	-10.3462
ek	-10.3469
▁fixe	-10.347
ip	-10.3477
▁Photo	-10.3479
▁traiter	-10.3483
▁portable	-10.3494
Un	-10.3495
▁pêche	-10.3504
by	-10.3505
âme	-10.3508
▁fortement	-10.3514
▁tradition	-10.3516
▁eaux	-10.3516
▁allait	-10.3525
▁situations	-10.3528
▁rapports	-10.3529
▁métal	-10.3529
▁loisirs	-10.3534
OS	-10.3537
▁confortable	-10.3538
▁Da	-10.3549
▁seuls	-10.355
▁cap	-10.3552
importance	-10.3557
▁Gu	-10.3558
▁langage	-10.3571
édition	-10.3572
▁réellement	-10.3579
▁définir	-10.3585
▁énergétique	-10.3587
▁préférences	-10.3589
AT	-10.3591
aventure	-10.36
rin	-10.3623
▁Christ	-10.3626
▁ha	-10.3632
▁légumes	-10.3635
men	-10.3639
▁Am	-10.3642
▁comité	-10.3647
▁entretien	-10.365
04	-10.3652
bon	-10.3652
▁inclus	-10.3657
▁Premier	-10.3658
ran	-10.3665
TE	-10.3676
▁remettre	-10.3678
▁formations	-10.3679
▁ski	-10.368
af	-10.368
tic	-10.3686
▁Li	-10.3692
▁normal	-10.3696
▁Faites	-10.37
▁Inter	-10.37
▁laissé	-10.3706
intervention	-10.3712
▁astuces	-10.3716
▁fallait	-10.3717
▁bilan	-10.3721
cal	-10.3725
ification	-10.3726
▁lait	-10.373
▁proposés	-10.373
▁retourner	-10.3737
▁gay	-10.3739
▁échange	-10.3739
vent	-10.3743
▁Char	-10.3745
▁net	-10.3745
▁agents	-10.3747
▁Presse	-10.3748
▁remboursement	-10.3749
▁Aide	-10.3754
ole	-10.3756
▁allons	-10.3757
▁propriétaires	-10.3758
plus	-10.3762
▁définition	-10.3766
▁restent	-10.3767
▁participants	-10.3767
▁cité	-10.3769
▁régions	-10.3773
▁accueille	-10.3774
▁particulière	-10.3778
▁doux	-10.378
▁équipements	-10.3781
▁règle	-10.3782
▁tourisme	-10.3785
▁printemps	-10.38
▁^^	-10.3801
▁chiffre	-10.3802
▁Martin	-10.3802
▁rare	-10.3806
▁douche	-10.3808
▁bus	-10.3809
▁médicaments	-10.3811
▁Col	-10.3815
ps	-10.3816
▁intérêts	-10.3816
▁pain	-10.3818
▁révolution	-10.3819
▁Fi	-10.383
teur	-10.3831
▁erreurs	-10.3833
▁Ba	-10.3835
tons	-10.3839
ât	-10.3839
armée	-10.3844
▁per	-10.3857
▁Pourtant	-10.3864
▁étoiles	-10.3867
▁di	-10.3868
▁ultra	-10.3871
▁interne	-10.3871
▁Ici	-10.3872
▁changé	-10.3873
▁Apple	-10.3876
▁intellectuelle	-10.3878
▁volume	-10.3883
28	-10.3887
▁enquête	-10.3897
▁dialogue	-10.3898
enregistrement	-10.3906
▁Londres	-10.3907
▁artiste	-10.3914
▁atteindre	-10.3917
ssent	-10.3924
ow	-10.3927
▁cliquer	-10.3927
▁entrer	-10.3941
▁nouveautés	-10.3941
▁collecte	-10.3948
▁poster	-10.3948
▁locales	-10.3948
▁Formation	-10.3949
▁08	-10.3951
▁arrivé	-10.3953
▁moto	-10.3958
▁150	-10.3959
▁All	-10.396
▁Allemagne	-10.3965
▁aventure	-10.3969
▁fêtes	-10.3975
▁luxe	-10.3976
▁danger	-10.3977
▁montage	-10.3978
▁ambiance	-10.3978
▁perd	-10.3979
bas	-10.398
▁enjeux	-10.3982
▁normes	-10.3985
▁bo	-10.3988
▁effectué	-10.399
nd	-10.3998
▁Sciences	-10.3998
▁simples	-10.4005
-19	-10.4008
32	-10.4009
▁fou	-10.4014
▁lesquelles	-10.4015
▁calendrier	-10.4016
▁pleinement	-10.4019
▁barre	-10.4023
ouvre	-10.4025
▁langues	-10.4031
▁Mme	-10.4036
▁Belle	-10.4038
▁meubles	-10.4039
...).	-10.4042
▁connaît	-10.4043
▁expériences	-10.4044
tent	-10.4045
▁dépend	-10.4047
atelier	-10.4052
▁Quelques	-10.4053
▁monter	-10.4054
▁hasard	-10.4054
▁possibilités	-10.4058
lic	-10.406
▁75	-10.4062
▁citoyens	-10.4064
▁Lune	-10.4065
lier	-10.4068
instant	-10.407
option	-10.4073
▁Novembre	-10.4074
▁connais	-10.4076
▁Ro	-10.4084
▁Pa	-10.4086
▁commission	-10.4092
affaire	-10.4094
▁central	-10.4096
▁spécial	-10.4096
▁dur	-10.4099
▁personnels	-10.4105
lan	-10.4105
▁Mor	-10.4106
▁évolution	-10.4107
#	-10.4108
▁compétition	-10.4108
▁rire	-10.4109
▁attentes	-10.4111
▁recours	-10.4117
▁mé	-10.4122
▁disponibilité	-10.4124
▁titres	-10.4125
ino	-10.4129
!!!	-10.4143
▁indique	-10.4143
info	-10.4145
envoi	-10.4152
▁chaude	-10.4153
▁château	-10.4156
uc	-10.4157
▁météo	-10.4159
tro	-10.4161
eme	-10.4161
▁Salon	-10.4161
apprentissage	-10.4167
▁actuelle	-10.4168
05	-10.417
ki	-10.4173
▁automatique	-10.4177
▁Javascript	-10.418
▁Culture	-10.4181
▁développé	-10.4183
▁cancer	-10.4183
tan	-10.4184
▁Toutefois	-10.4187
▁correspondant	-10.4192
lement	-10.4192
▁venu	-10.4193
▁Accessoires	-10.4193
▁hausse	-10.4195
▁envers	-10.4206
écroissant	-10.421
▁Charles	-10.4213
▁climat	-10.4213
▁Nouveaux	-10.4227
ke	-10.4229
▁bateau	-10.423
▁Malgré	-10.4232
▁Ko	-10.4241
▁Lo	-10.4245
▁publiques	-10.4246
▁disque	-10.4246
▁rentrée	-10.4249
▁Copyright	-10.4249
▁souvenir	-10.4251
éré	-10.4256
▁kilomètres	-10.4256
▁revenus	-10.4257
▁tissu	-10.4257
▁jaune	-10.426
attention	-10.4265
OL	-10.4273
audience	-10.4275
▁recommande	-10.4276
▁fr	-10.4278
07	-10.4283
▁science	-10.4284
▁entend	-10.4285
▁candidat	-10.4285
▁revenu	-10.4285
▁faveur	-10.4288
▁DVD	-10.4291
▁meme	-10.4292
chant	-10.4294
Ar	-10.4297
▁Design	-10.4316
▁dates	-10.432
▁cabinet	-10.4324
▁quitter	-10.4327
ami	-10.4331
▁chasse	-10.4336
ya	-10.4337
▁exactement	-10.4342
▁trouvent	-10.4343
▁Produits	-10.4347
▁chute	-10.4349
yn	-10.435
om	-10.4351
▁traduction	-10.4352
▁quotidienne	-10.4356
▁cycle	-10.4362
▁vingt	-10.4362
▁reprendre	-10.4364
▁My	-10.4369
▁Guide	-10.4373
▁LES	-10.4375
▁Bruxelles	-10.438
▁Sainte	-10.4386
▁intégré	-10.4386
▁précédent	-10.4386
▁colis	-10.4386
▁facture	-10.4387
exception	-10.439
▁Mac	-10.4395
▁Faire	-10.4398
▁cesse	-10.4402
▁voitures	-10.4402
▁formule	-10.4408
▁signé	-10.4414
▁Nom	-10.4416
one	-10.4422
▁centaines	-10.4425
arrive	-10.4428
▁douleur	-10.4432
▁conserver	-10.4433
▁thé	-10.4434
▁sub	-10.4434
▁permanent	-10.4435
▁coordonnées	-10.4444
ès	-10.4446
▁machines	-10.4449
▁maire	-10.445
▁Leur	-10.4454
▁lycée	-10.4454
▁aspects	-10.4455
▁leader	-10.4455
▁stress	-10.4456
▁fit	-10.4463
tier	-10.4463
▁Royaume	-10.4464
▁destinées	-10.4464
▁clientèle	-10.4465
▁sélectionner	-10.4467
▁argent	-10.4472
▁appartient	-10.4475
▁actuel	-10.4475
tal	-10.4475
▁construit	-10.4477
▁prénom	-10.448
ches	-10.4482
▁célibataires	-10.4488
▁experts	-10.4488
▁revanche	-10.4489
▁morts	-10.4489
duc	-10.4489
▁liées	-10.449
▁39	-10.4501
engage	-10.4501
▁38	-10.4503
▁déjeuner	-10.4507
▁feuilles	-10.451
▁calcul	-10.4515
▁contemporain	-10.4517
ze	-10.4522
▁Blanc	-10.4524
▁affaire	-10.4525
▁Contacter	-10.4527
▁Ministre	-10.4531
▁Ensuite	-10.4535
▁gare	-10.4535
27	-10.4546
▁garçon	-10.4562
bert	-10.4565
▁mérite	-10.4567
▁tester	-10.4574
ud	-10.4575
▁34	-10.4577
▁noms	-10.4581
55	-10.4581
so	-10.4584
▁faits	-10.4589
AD	-10.4591
▁difficulté	-10.4592
▁Retour	-10.4594
▁clairement	-10.4595
▁Hu	-10.4601
▁Fa	-10.4608
gr	-10.4608
▁échanges	-10.4624
95	-10.4626
▁Robert	-10.4627
▁actes	-10.4629
▁CroissantD	-10.463
▁National	-10.4632
▁truc	-10.4637
▁pluie	-10.4638
▁côtés	-10.4645
▁personnaliser	-10.465
pt	-10.4652
dy	-10.4652
▁rénovation	-10.4655
▁pont	-10.4664
▁originale	-10.4666
rez	-10.4667
▁magasins	-10.4667
▁différent	-10.467
▁Marc	-10.4677
▁Rien	-10.4678
▁souci	-10.4679
▁spéciale	-10.468
nelle	-10.4683
▁réalisée	-10.4685
▁2001	-10.4686
▁donnée	-10.4687
44	-10.4689
▁Top	-10.4698
▁discussion	-10.4701
int	-10.4702
▁Banque	-10.4709
▁maman	-10.4713
▁Table	-10.4715
▁football	-10.4716
▁engagement	-10.4717
▁Twitter	-10.4718
▁camp	-10.4719
▁garage	-10.4722
▁nettoyage	-10.4723
▁audio	-10.4729
▁murs	-10.4729
▁Laurent	-10.4733
▁avions	-10.4733
▁Ju	-10.4734
▁revoir	-10.4738
▁Ru	-10.4741
IE	-10.4743
39	-10.475
▁PDF	-10.4751
▁cru	-10.4751
▁publicitaires	-10.4753
▁CO	-10.4757
▁longues	-10.4759
▁lac	-10.4759
ste	-10.4762
bre	-10.4767
oir	-10.4769
▁Bernard	-10.4774
▁Aussi	-10.4776
▁Guerre	-10.4777
▁rec	-10.4781
▁chanson	-10.479
▁coté	-10.4791
▁salles	-10.4797
▁ver	-10.48
▁configuration	-10.4805
▁Star	-10.4808
▁récupérer	-10.4814
▁Ligue	-10.4815
▁(2	-10.4818
▁Vi	-10.4826
▁prennent	-10.4829
sol	-10.4829
▁potentiel	-10.4831
dia	-10.4837
▁idéale	-10.4838
▁combien	-10.4846
CE	-10.4853
▁tirer	-10.4856
▁signature	-10.4858
▁nommé	-10.4863
▁importants	-10.4864
écoute	-10.4866
▁possibles	-10.4867
▁conséquent	-10.4869
▁atelier	-10.487
euses	-10.487
▁communiqué	-10.4872
▁accompagner	-10.4874
▁ouvrage	-10.4877
▁stage	-10.4893
▁supplémentaire	-10.4896
▁utiles	-10.4896
▁Toulouse	-10.49
Ok	-10.49
▁IP	-10.4902
▁active	-10.4905
▁voile	-10.4912
▁stade	-10.4914
▁réforme	-10.4916
▁champs	-10.4917
▁destiné	-10.4919
|--	-10.4926
▁chant	-10.4927
▁spécialisé	-10.4932
▁bataille	-10.4933
75	-10.4934
▁toile	-10.4936
▁<	-10.4937
▁portail	-10.4939
▁effectivement	-10.4941
▁Rencontres	-10.4947
▁Mer	-10.4947
▁tourner	-10.4949
oeuvre	-10.4949
▁efforts	-10.4949
▁Plusieurs	-10.495
▁plaît	-10.4955
▁légèrement	-10.4959
▁restauration	-10.496
▁dirigeants	-10.496
Uni	-10.4962
bus	-10.4964
▁Jo	-10.4964
▁pa	-10.4972
▁03	-10.4973
▁sable	-10.4977
▁spécialisée	-10.4978
▁voulait	-10.4978
IF	-10.4978
▁Loi	-10.4983
▁04	-10.4986
ano	-10.4987
▁Création	-10.4988
▁Loire	-10.4989
▁léger	-10.4992
▁françaises	-10.4994
▁histoires	-10.4996
Ouest	-10.4998
▁Sport	-10.4998
▁capacités	-10.5
▁Parc	-10.5005
▁copie	-10.5014
▁Italie	-10.5015
▁oublié	-10.5015
▁culturel	-10.5017
ep	-10.5017
▁france	-10.5019
▁Cor	-10.5023
34	-10.5024
▁dessous	-10.5029
▁soutenir	-10.503
▁bal	-10.5031
▁Quelle	-10.5031
▁médecine	-10.5033
▁Conférence	-10.5036
▁rencontré	-10.5038
ile	-10.5039
▁Te	-10.5039
▁42	-10.504
▁Général	-10.5041
03	-10.5042
▁accueil	-10.5049
▁biais	-10.5052
▁étapes	-10.5053
isant	-10.5053
▁joli	-10.5054
nés	-10.506
lon	-10.5065
mp	-10.5065
▁décès	-10.5067
▁œuvres	-10.507
▁taxes	-10.5077
▁traditionnelle	-10.5089
▁libertés	-10.5091
▁Sou	-10.5093
▁restaurants	-10.5101
▁Bois	-10.5101
▁imp	-10.5105
▁importantes	-10.5109
▁indépendant	-10.5111
▁mandat	-10.5124
▁saint	-10.5127
▁Gestion	-10.5127
▁patron	-10.5129
ON	-10.5132
▁basé	-10.5133
tri	-10.5137
▁victime	-10.5139
cre	-10.5145
▁Informatique	-10.5145
mat	-10.5146
▁voulais	-10.5149
▁He	-10.5152
AP	-10.5164
ombre	-10.5168
ières	-10.5169
nique	-10.5172
atrice	-10.5172
oli	-10.5184
▁vendeur	-10.5184
▁retirer	-10.5185
mêmes	-10.5186
▁1000	-10.5186
▁faute	-10.5188
▁mouvements	-10.5188
▁puissant	-10.5189
▁courage	-10.519
den	-10.5191
za	-10.5198
▁(3	-10.5198
▁no	-10.5201
▁amie	-10.5207
▁Nationale	-10.5207
▁retrait	-10.5208
▁porté	-10.5209
▁Beau	-10.5212
▁Quant	-10.5213
opération	-10.5215
▁accepté	-10.5218
▁matières	-10.5219
cho	-10.5222
▁consacré	-10.5224
▁remplir	-10.5227
▁sou	-10.5228
naire	-10.5229
▁entière	-10.5234
▁Daniel	-10.5234
ll	-10.5236
▁connue	-10.5236
▁familiale	-10.5236
▁bains	-10.5237
▁Disponible	-10.5242
▁directe	-10.5245
▁midi	-10.5245
▁camping	-10.5261
▁humaines	-10.5261
▁médicament	-10.5262
▁Macron	-10.5269
dans	-10.5271
▁pensez	-10.5271
▁journaliste	-10.5271
▁maintenir	-10.5276
éri	-10.5281
33	-10.5286
sous	-10.5287
▁produire	-10.529
▁trouvez	-10.5292
▁énorme	-10.5303
gie	-10.5306
▁cheval	-10.5307
▁Parmi	-10.5308
alité	-10.5308
▁Ti	-10.5309
▁financier	-10.5311
100	-10.5312
▁CanalBlog	-10.5312
▁appris	-10.5317
▁comp	-10.5325
ATION	-10.5325
▁circulation	-10.5326
▁destin	-10.5326
ham	-10.5327
Nous	-10.5327
▁précision	-10.5333
ara	-10.5335
▁fermeture	-10.5342
▁profondeur	-10.5343
gu	-10.5344
bar	-10.5347
▁servi	-10.5352
échange	-10.5353
UR	-10.5357
▁culturelle	-10.536
▁Direction	-10.5362
▁spécialement	-10.5363
▁invités	-10.5364
▁impression	-10.5369
▁saisir	-10.5369
▁adaptée	-10.537
▁enregistré	-10.5371
ker	-10.5372
2)	-10.5373
ita	-10.5374
ini	-10.5374
▁HD	-10.5387
▁électriques	-10.5388
IT	-10.5396
▁400	-10.5397
▁bref	-10.5398
▁religion	-10.54
De	-10.5404
▁continu	-10.5405
▁surveillance	-10.5406
▁offrent	-10.5408
▁transfert	-10.5411
▁streaming	-10.5415
habitude	-10.5416
ik	-10.5416
ras	-10.5422
jo	-10.5427
inter	-10.5434
▁menace	-10.5438
▁décrit	-10.5439
▁sauver	-10.5446
▁remplacer	-10.5447
▁ouvrir	-10.5448
enquête	-10.5453
▁étrangères	-10.5453
▁AuteurDate	-10.5459
▁contenant	-10.5472
lie	-10.5473
▁chacune	-10.5476
▁proposition	-10.5477
▁laissez	-10.5478
▁exigences	-10.5483
▁réalise	-10.5484
▁Mai	-10.5487
▁fournisseur	-10.5487
▁thèmes	-10.5487
ouvrir	-10.5491
▁commerciales	-10.5495
▁découvrez	-10.5501
▁Contactez	-10.5502
▁patient	-10.5502
nie	-10.5505
▁consultez	-10.5505
tage	-10.551
aille	-10.5512
Association	-10.5512
▁reconnaissance	-10.5515
▁accueillir	-10.5515
▁allant	-10.5521
▁dimension	-10.5522
▁session	-10.5527
nu	-10.5532
▁recrutement	-10.5535
investissement	-10.5536
▁Black	-10.5537
ange	-10.5541
▁Compte	-10.5542
Vous	-10.5546
▁CD	-10.5546
▁Comité	-10.5549
▁trafic	-10.555
▁coton	-10.555
▁Nouveau	-10.5551
▁arbres	-10.5555
▁auquel	-10.5556
▁sexy	-10.5558
▁déchets	-10.5558
▁réservé	-10.556
38	-10.5561
▁Suite	-10.5568
▁parking	-10.5569
▁importe	-10.558
arrêt	-10.5582
▁rêves	-10.5587
▁installé	-10.5592
▁Bretagne	-10.5593
▁numériques	-10.5593
▁résolution	-10.5594
▁tapis	-10.5594
fe	-10.5607
▁don	-10.561
▁photographie	-10.5619
▁Home	-10.5624
▁Venez	-10.5627
▁principes	-10.5628
▁opération	-10.563
▁russe	-10.5631
▁bruit	-10.5632
▁rares	-10.5639
▁Celui	-10.564
09	-10.5644
QI	-10.5644
▁venue	-10.5647
▁ro	-10.5649
cle	-10.5653
▁st	-10.5656
▁standard	-10.5656
urgence	-10.5661
▁nécessite	-10.5661
▁alimentaire	-10.5665
▁situe	-10.5665
▁attendant	-10.5666
▁logements	-10.5675
ten	-10.5678
48	-10.5682
éviter	-10.5682
illage	-10.5686
mère	-10.5687
▁maladies	-10.5687
▁obtenu	-10.5694
ule	-10.5694
On	-10.5695
▁entendre	-10.5696
ame	-10.5697
▁Directeur	-10.5699
▁similaires	-10.5704
▁décisions	-10.5705
▁ouvre	-10.5705
59	-10.5708
▁héros	-10.5711
▁vise	-10.5715
▁Journal	-10.5715
▁publicitaire	-10.5715
émi	-10.5718
émission	-10.5718
ian	-10.572
▁amateurs	-10.5721
Institut	-10.5723
▁désirez	-10.5727
▁pre	-10.5728
▁Wi	-10.5731
▁(11)	-10.5732
▁regarde	-10.5732
▁huit	-10.5735
▁accident	-10.5736
lit	-10.5739
▁joué	-10.5741
▁actif	-10.5741
ales	-10.5743
▁Vente	-10.5745
▁prévue	-10.575
gre	-10.5752
▁prévues	-10.5756
▁transformation	-10.5756
▁Espace	-10.5762
▁mener	-10.5763
▁Mou	-10.5764
▁silence	-10.5766
▁paysage	-10.5769
IA	-10.5769
▁Luc	-10.5775
▁branche	-10.578
eaux	-10.5782
▁arrêt	-10.5784
vant	-10.5784
▁Bal	-10.5793
élection	-10.5793
gen	-10.5794
▁financiers	-10.5797
▁hiver	-10.58
ani	-10.5801
université	-10.5804
ô	-10.5804
▁Consultez	-10.5806
▁cou	-10.581
km	-10.581
▁assurance	-10.5816
IP	-10.5816
▁immense	-10.582
▁cerveau	-10.5822
▁Android	-10.5824
▁seraient	-10.5828
▁missions	-10.5828
▁informé	-10.583
▁Sal	-10.583
Pro	-10.5832
▁Note	-10.5832
36	-10.5835
▁nécessité	-10.5837
▁chinois	-10.584
Bas	-10.5841
▁Parti	-10.5842
▁magie	-10.5843
▁représentation	-10.5845
fort	-10.5851
▁Pe	-10.5855
ieux	-10.586
65	-10.5863
2.	-10.5866
ice	-10.5868
▁pot	-10.5869
▁philosophie	-10.5871
▁pâte	-10.5873
▁fournisseurs	-10.5874
▁Jusqu	-10.5874
▁réussir	-10.588
ell	-10.5881
▁publier	-10.5885
▁justement	-10.5885
▁auront	-10.5886
▁indésirables	-10.5888
▁cent	-10.5888
▁ouverture	-10.5891
▁Fédération	-10.5893
▁diversité	-10.5895
▁sec	-10.59
issant	-10.5901
▁Beaucoup	-10.5903
▁proposent	-10.5903
▁conséquence	-10.5904
▁contrats	-10.5908
attaque	-10.5909
▁Première	-10.5909
▁prévention	-10.5913
tation	-10.5919
EL	-10.5923
▁ba	-10.5927
▁couche	-10.5938
▁Seigneur	-10.5938
fer	-10.5946
▁souvenirs	-10.5947
xw	-10.5948
▁pan	-10.5955
▁conduire	-10.5959
▁III	-10.5963
ey	-10.5963
▁accompagné	-10.5964
▁sympathique	-10.5964
▁cache	-10.5967
▁Min	-10.597
église	-10.5971
ny	-10.5977
▁mec	-10.5978
▁Chi	-10.5979
▁visant	-10.598
▁organisations	-10.5983
▁tableaux	-10.5984
▁rappel	-10.5985
▁armes	-10.5991
▁rond	-10.5991
comme	-10.5993
▁Couleur	-10.5993
aujourd	-10.5993
efficacité	-10.5996
▁collections	-10.6
ria	-10.6001
▁acheté	-10.6002
▁médical	-10.6004
Dé	-10.6015
▁malheureusement	-10.6017
▁collège	-10.6023
▁37	-10.6023
ros	-10.6025
▁reprise	-10.6028
▁extrêmement	-10.6029
ration	-10.603
inscrire	-10.6031
▁devenue	-10.6031
▁Bureau	-10.6033
▁présidentielle	-10.6035
▁troubles	-10.6036
▁infos	-10.6037
▁refus	-10.6041
▁exceptionnelle	-10.6042
▁fleur	-10.6042
▁dure	-10.6042
▁degré	-10.6053
▁is	-10.6057
▁Chez	-10.6061
▁Panneau	-10.6062
▁Programme	-10.6062
▁rangement	-10.6063
▁Pantoufles	-10.607
expédition	-10.6073
▁modifiée	-10.6074
études	-10.6075
influence	-10.6079
alimentation	-10.6079
vie	-10.6086
02	-10.6086
▁téléchargement	-10.6088
cer	-10.6089
▁réelle	-10.609
exemple	-10.6094
▁enfance	-10.6097
▁sensible	-10.61
▁structures	-10.6101
▁séries	-10.6107
▁Ra	-10.6108
▁bibliothèque	-10.6108
▁transformer	-10.6108
▁Catégories	-10.6109
▁DQ	-10.6111
nais	-10.6111
▁prenant	-10.6118
▁chercheurs	-10.6122
▁Trouver	-10.6124
▁Lu	-10.6125
évaluation	-10.6129
enfants	-10.6131
▁sentiments	-10.6134
▁côte	-10.6135
▁piste	-10.6139
▁Développement	-10.6141
▁tr	-10.6141
▁concurrence	-10.6146
▁Mini	-10.6149
▁Aucun	-10.6151
▁44	-10.6153
▁créations	-10.6154
▁reçoit	-10.6156
▁Autre	-10.6157
▁Anne	-10.6163
uff	-10.617
▁mention	-10.6173
dis	-10.6174
▁°	-10.6174
▁Protection	-10.6176
architecture	-10.618
IR	-10.6183
forme	-10.6184
▁fidèle	-10.6185
▁Porte	-10.6186
▁Rome	-10.619
▁douceur	-10.6193
iel	-10.6193
dou	-10.6198
▁Can	-10.6199
49	-10.62
▁spécialistes	-10.6206
ama	-10.6212
ets	-10.6212
▁dessins	-10.6213
▁cor	-10.6213
▁glace	-10.6214
▁dites	-10.6214
▁identifier	-10.6223
▁collective	-10.6231
▁installer	-10.6235
ative	-10.6236
▁discuter	-10.6236
▁Hi	-10.6237
▁confirmation	-10.6237
▁fourni	-10.6238
▁Arts	-10.6245
▁classiques	-10.6245
agir	-10.6245
cour	-10.6246
▁croissant	-10.6249
étaient	-10.6249
▁associé	-10.625
▁Su	-10.6252
▁billet	-10.6255
▁solidarité	-10.6255
ach	-10.6257
▁poursuivre	-10.6259
].	-10.6261
▁organise	-10.6264
▁conseille	-10.6264
▁phénomène	-10.6269
▁drôle	-10.6272
▁globale	-10.6274
oise	-10.6276
▁CE	-10.6277
▁comporte	-10.6277
▁Place	-10.6281
▁coucher	-10.6283
▁réduit	-10.6283
▁Comp	-10.6287
ari	-10.6288
oubliez	-10.6288
▁info	-10.6296
▁cal	-10.6298
▁qualités	-10.6302
▁Jours	-10.6306
42	-10.631
Au	-10.6314
▁instant	-10.6327
vers	-10.6328
▁mar	-10.6329
▁Affaires	-10.6329
wa	-10.6333
▁Choisissez	-10.6334
▁Jeudi	-10.6334
▁Sécurité	-10.6334
▁vend	-10.6335
gan	-10.6336
▁sommet	-10.634
▁Espagne	-10.6349
▁diagnostic	-10.6349
▁can	-10.6353
▁Bas	-10.6355
▁cérémonie	-10.6355
MA	-10.6356
ér	-10.6357
▁devraient	-10.6359
▁susceptibles	-10.6359
bit	-10.6361
▁secrétaire	-10.6364
▁dommage	-10.6364
▁smartphone	-10.6365
▁prête	-10.6368
▁malade	-10.6369
▁dangereux	-10.6373
aimerais	-10.6373
tine	-10.6378
▁Homme	-10.6379
▁plateau	-10.638
▁enregistrer	-10.6382
▁considéré	-10.6384
▁Gra	-10.6385
▁valable	-10.6386
▁Radio	-10.6386
▁Har	-10.6386
▁secteurs	-10.6389
▁rappeler	-10.639
▁déterminer	-10.6392
ble	-10.6396
éd	-10.6401
08	-10.6403
ET	-10.6404
▁personnalisé	-10.6405
▁compréhension	-10.6406
og	-10.6411
anne	-10.6415
37	-10.642
▁toucher	-10.6421
nom	-10.6421
Allemagne	-10.6422
▁acte	-10.6422
▁solide	-10.6422
ayant	-10.6423
▁parlé	-10.6425
Pierre	-10.6426
▁modes	-10.6426
▁démocratie	-10.6434
▁messagerie	-10.6438
▁tablette	-10.6438
▁sorti	-10.6439
▁120	-10.6444
▁émotions	-10.6447
abilité	-10.645
han	-10.6451
▁SA	-10.6452
▁épisode	-10.6455
▁paris	-10.6461
▁japonais	-10.6462
▁Trois	-10.6463
▁offert	-10.6466
▁écoute	-10.6468
▁séances	-10.6471
▁étage	-10.6477
▁cri	-10.6478
▁scolaires	-10.648
▁prestation	-10.6481
▁notion	-10.6485
▁officielle	-10.6486
▁manquer	-10.6486
▁contactez	-10.6487
▁tourne	-10.6489
▁faudrait	-10.6493
▁motifs	-10.6493
▁privés	-10.6494
▁Décembre	-10.6502
▁enseignants	-10.6503
▁reconnaître	-10.6504
▁venez	-10.6506
▁bases	-10.6513
▁transmission	-10.6513
▁nu	-10.6513
▁expert	-10.6514
off	-10.6514
▁préfère	-10.652
Sujet	-10.652
▁Cher	-10.6522
▁esthétique	-10.6523
▁expliquer	-10.6523
▁55	-10.6525
▁médecins	-10.6527
Fi	-10.6528
4)	-10.6531
humanité	-10.6531
▁Bio	-10.6536
▁lié	-10.6536
▁dossiers	-10.654
▁frères	-10.6544
▁Bohème	-10.6544
av	-10.6548
lage	-10.6549
ète	-10.6551
ov	-10.6553
version	-10.6554
▁continent	-10.6556
▁déplacer	-10.6562
ju	-10.6565
▁désert	-10.6568
CA	-10.6571
▁organisée	-10.6571
▁naturellement	-10.6572
▁recevez	-10.6573
▁mesurer	-10.6575
sé	-10.6576
all	-10.6581
▁arrêté	-10.6581
▁adulte	-10.6582
nier	-10.6583
endroit	-10.6583
▁Alain	-10.6588
▁disparu	-10.659
▁rivière	-10.6592
CC	-10.6594
▁Bleu	-10.6596
bel	-10.6603
▁Informations	-10.6606
ting	-10.6608
▁charges	-10.6608
▁mou	-10.6615
Assemblée	-10.6615
▁John	-10.6616
▁libres	-10.6616
▁préféré	-10.6622
▁Taille	-10.6629
▁reprend	-10.6629
▁Seine	-10.6629
▁amoureuse	-10.6629
▁Française	-10.6632
▁content	-10.6635
▁apprécié	-10.6636
▁Littérature	-10.6636
▁USB	-10.6638
▁invitons	-10.6639
affichage	-10.6641
PA	-10.6641
▁remarqué	-10.6643
▁arabe	-10.6644
ancienne	-10.6646
▁courte	-10.6647
▁07	-10.6649
▁travaillé	-10.665
vo	-10.665
▁Peignoirs	-10.6654
era	-10.6655
▁courses	-10.6655
▁tome	-10.6657
▁..	-10.6657
offrir	-10.6663
▁visible	-10.6665
ît	-10.6667
▁optimale	-10.6668
tr	-10.667
▁placé	-10.6673
-2	-10.6675
▁interdit	-10.6676
▁militaires	-10.6685
▁limiter	-10.6686
▁Là	-10.6687
lant	-10.6688
we	-10.6689
▁Chef	-10.669
wqY	-10.6691
▁recueillies	-10.6698
3)	-10.6699
▁satisfaction	-10.6702
▁tension	-10.6703
asse	-10.6703
vel	-10.6707
gAv	-10.6707
▁XIAO	-10.6708
▁avance	-10.6711
▁nul	-10.6717
▁rang	-10.6718
▁sportif	-10.6719
dit	-10.6719
▁Région	-10.6719
▁Dérapant	-10.672
rais	-10.6724
▁Lunettes	-10.6727
▁Dis	-10.6728
▁mairie	-10.6728
▁Bel	-10.6731
▁Encore	-10.6737
▁traduit	-10.6739
▁informer	-10.6739
ft	-10.6744
▁Perlée	-10.6745
▁im	-10.6746
my	-10.6746
▁massage	-10.6747
jour	-10.6747
▁peint	-10.6748
▁tournée	-10.6749
▁composée	-10.675
▁chapitre	-10.6751
http	-10.6752
▁Journée	-10.6761
▁chiens	-10.6764
▁bou	-10.6767
avantage	-10.6769
▁incroyable	-10.6771
▁Rose	-10.6773
▁recommandé	-10.6774
▁pompe	-10.6778
▁bénéficiez	-10.6779
ries	-10.678
▁viande	-10.6781
▁lancement	-10.6785
tout	-10.6788
anglais	-10.6789
lay	-10.679
▁aspect	-10.6791
▁riches	-10.6793
oire	-10.6796
▁chantier	-10.6797
▁Sénégal	-10.6797
gne	-10.68
▁Ah	-10.6802
▁importance	-10.6802
▁acier	-10.6806
ouvrage	-10.6808
▁rentrer	-10.6811
▁talent	-10.6812
▁flux	-10.6816
▁remis	-10.6816
▁Mi	-10.6817
▁donnant	-10.6821
▁Point	-10.6826
▁espèces	-10.6826
▁épouse	-10.6827
part	-10.6829
▁richesse	-10.6832
Italie	-10.6833
▁kit	-10.6838
▁Do	-10.6839
▁fans	-10.684
▁souffle	-10.6842
AR	-10.6843
▁Sch	-10.6844
▁pensé	-10.6844
▁mécanique	-10.6845
▁italien	-10.6846
▁consommateurs	-10.6848
▁poudre	-10.6849
▁autrement	-10.6851
▁traité	-10.6853
tiques	-10.6854
▁2019.	-10.6856
anti	-10.686
▁institutions	-10.686
▁For	-10.6866
▁z	-10.6867
85	-10.6869
▁étrangers	-10.6875
ph	-10.6876
▁galerie	-10.688
▁valide	-10.688
quet	-10.6884
IM	-10.6886
innovation	-10.6887
▁néanmoins	-10.6888
esse	-10.6889
78	-10.6891
ui	-10.6895
her	-10.6901
▁précisément	-10.6904
▁augmenter	-10.6907
▁collectivités	-10.691
ata	-10.691
▁renforcer	-10.691
▁Rou	-10.6911
▁Fin	-10.6912
▁Commentaires	-10.6913
OR	-10.6914
▁sensibilité	-10.6916
AF	-10.6916
▁disposer	-10.6917
▁nourriture	-10.6917
▁We	-10.6918
▁prêts	-10.6918
▁défendre	-10.6919
▁légère	-10.6919
▁rues	-10.692
installer	-10.6921
▁vice	-10.6921
▁char	-10.6922
images	-10.6922
▁toit	-10.6922
▁impact	-10.6924
court	-10.6926
▁employés	-10.6928
▁modalités	-10.6932
▁Loisirs	-10.6934
UN	-10.6936
▁hommage	-10.6937
▁semblent	-10.6938
▁classes	-10.6941
▁panne	-10.6943
OC	-10.6943
▁ren	-10.6945
▁dominantes	-10.6946
||--	-10.6947
▁mobilité	-10.6953
Pour	-10.6953
▁circuit	-10.6954
ï	-10.6954
▁travailleurs	-10.6955
▁1978	-10.6957
▁apparaît	-10.6961
berg	-10.6963
▁anciennes	-10.6964
58	-10.6965
▁essayé	-10.697
▁Samedi	-10.6977
▁Annonce	-10.6978
”,	-10.6979
CO	-10.6981
bou	-10.6983
▁extra	-10.6984
▁conférences	-10.6987
ifier	-10.6988
▁religieux	-10.699
▁boutons	-10.6991
▁références	-10.6994
▁mettant	-10.6998
-1	-10.7
▁visiteur	-10.7003
▁Pan	-10.7008
▁révèle	-10.7008
▁participe	-10.7011
▁minute	-10.7012
▁évènements	-10.7013
▁transports	-10.7014
acheter	-10.7014
▁jugement	-10.7014
▁Maintenant	-10.7015
▁assurent	-10.7016
gar	-10.7016
SE	-10.7016
▁candidature	-10.7016
▁Petite	-10.702
▁fiable	-10.7021
▁repos	-10.7024
▁prudence	-10.7026
autorité	-10.7027
bé	-10.703
▁internationales	-10.7033
▁ra	-10.7034
st	-10.704
van	-10.7041
▁élus	-10.7051
▁Sinon	-10.7051
▁stockage	-10.7053
▁facteurs	-10.7055
▁suisse	-10.7057
▁Père	-10.7058
LA	-10.7062
▁Château	-10.7063
▁primaire	-10.7079
2,	-10.708
▁créée	-10.7084
aménagement	-10.7088
▁sommeil	-10.7088
▁composition	-10.7092
▁colère	-10.7099
▁suffisamment	-10.7099
▁astrologique	-10.7103
▁remplacement	-10.7107
▁excellente	-10.7108
▁horaires	-10.7109
▁250	-10.711
▁soucis	-10.7113
▁accessibles	-10.7113
met	-10.7114
ball	-10.7119
▁vieille	-10.7121
▁aimez	-10.7122
▁case	-10.7123
étend	-10.7124
ça	-10.7127
▁naturels	-10.7131
▁Profitez	-10.7133
envoyer	-10.7135
▁soeur	-10.7139
▁détente	-10.7146
▁bâtiments	-10.7149
▁Livre	-10.7151
ling	-10.7151
▁Van	-10.7153
▁rouges	-10.7155
ado	-10.7159
▁organismes	-10.7162
▁mu	-10.7165
▁pierres	-10.7166
▁plaque	-10.7166
▁Provence	-10.7169
▁Pen	-10.7173
▁Auteur	-10.7174
▁compléter	-10.7177
▁grossesse	-10.7178
▁média	-10.7179
▁Actualités	-10.718
ack	-10.718
▁Théâtre	-10.7182
▁VI	-10.7192
▁bijoux	-10.7196
▁remercie	-10.7198
▁européens	-10.72
▁interdite	-10.72
▁raisonnable	-10.7204
▁procéder	-10.7205
▁montré	-10.7205
▁installations	-10.7207
Espagne	-10.7208
essentiel	-10.7208
▁identité	-10.7209
SA	-10.7213
▁jus	-10.7215
▁recevrez	-10.7217
▁handicap	-10.7217
aud	-10.722
▁Aux	-10.722
uv	-10.7223
▁endroits	-10.7223
▁alimentation	-10.7226
▁Chat	-10.7228
▁civil	-10.723
▁limité	-10.723
▁apprend	-10.7231
▁réaction	-10.7233
▁Sé	-10.7234
▁prenez	-10.7234
▁Ab	-10.7234
▁maintien	-10.7236
▁considérerons	-10.7243
▁Thiès	-10.7245
UL	-10.7246
▁chefs	-10.725
électricité	-10.7251
acte	-10.7253
informatique	-10.7254
oui	-10.7254
rant	-10.7258
nent	-10.7259
qué	-10.7263
éro	-10.7266
▁quasi	-10.7269
▁furent	-10.7272
EC	-10.7275
▁partis	-10.7277
▁rock	-10.7278
▁Réunion	-10.7279
existe	-10.7282
▁paroles	-10.7283
▁man	-10.7286
▁élève	-10.729
▁Sports	-10.7291
ica	-10.7292
▁Pri	-10.7293
41	-10.7296
▁démocratique	-10.7297
▁Tunisie	-10.73
▁intervention	-10.7301
ouest	-10.7301
▁vivent	-10.7308
▁douze	-10.7312
▁choisissez	-10.7312
▁secrets	-10.7312
▁acteur	-10.7312
▁propositions	-10.7319
▁65	-10.732
▁automobile	-10.732
tif	-10.7322
ENT	-10.733
▁lot	-10.733
▁manifestations	-10.733
rage	-10.7334
▁plats	-10.7336
▁offrant	-10.7337
▁proposées	-10.7344
ost	-10.7344
▁augmente	-10.7349
▁Moyen	-10.7351
An	-10.7351
CI	-10.7354
CH	-10.7359
▁essentiel	-10.7362
gon	-10.7363
▁coopération	-10.7365
amélioration	-10.7366
▁Poste	-10.7368
▁Ministère	-10.7369
ali	-10.7369
▁bassin	-10.737
▁studio	-10.7371
88	-10.7371
nne	-10.7373
▁Trump	-10.7375
▁Mag	-10.7375
Con	-10.7376
kin	-10.7377
exécution	-10.7382
▁Lille	-10.7383
▁conservation	-10.7384
▁ve	-10.7384
▁destinée	-10.7386
▁mod	-10.7387
▁certes	-10.7388
▁coûts	-10.7388
rer	-10.7393
▁disent	-10.7397
▁mobilier	-10.7399
▁sportifs	-10.7402
amp	-10.7403
▁internautes	-10.7404
▁Is	-10.7422
▁publiés	-10.7423
▁bureaux	-10.7425
▁billets	-10.7425
▁actifs	-10.7426
▁Ve	-10.7428
▁strictement	-10.7428
▁panneau	-10.7429
▁lutter	-10.7429
▁mettent	-10.7435
▁fondateur	-10.7441
▁régional	-10.7442
▁fabricant	-10.7446
▁Photos	-10.7446
▁Bu	-10.7448
▁cha	-10.7448
▁escort	-10.745
▁agir	-10.7453
▁Pluton	-10.7453
Madeleine	-10.7459
▁ST	-10.7466
▁vallée	-10.7467
▁natal	-10.7467
▁marqué	-10.7468
▁gagné	-10.7469
▁Choisir	-10.7472
▁référencement	-10.7474
▁susceptible	-10.7475
▁fonctionner	-10.7476
▁décider	-10.7478
▁relativement	-10.7481
▁Aller	-10.7481
▁indépendante	-10.7483
▁exclusivement	-10.7492
▁documentation	-10.7494
hôpital	-10.7506
▁front	-10.7506
▁majeur	-10.7507
alisation	-10.7512
▁look	-10.7513
▁sel	-10.7516
abri	-10.7519
▁Haut	-10.752
▁BD	-10.7523
▁pilote	-10.7526
▁résoudre	-10.7526
▁conflit	-10.7526
▁auraient	-10.7527
▁doigts	-10.7541
▁Palais	-10.7543
▁programmation	-10.7543
▁populations	-10.7546
hu	-10.7548
▁signification	-10.7551
▁kg	-10.7554
▁fruit	-10.7556
▁physiques	-10.7556
▁favoris	-10.7557
▁Vénus	-10.7557
mb	-10.7558
over	-10.7558
▁retrouvez	-10.7567
▁(12)	-10.7567
▁montée	-10.7569
▁jardins	-10.7573
▁Trans	-10.7573
▁pic	-10.7577
animation	-10.7581
▁600	-10.7581
▁vins	-10.7584
▁rupture	-10.759
▁allemand	-10.7598
▁adaptées	-10.7598
raient	-10.76
▁grève	-10.7601
▁morale	-10.7603
▁animal	-10.7605
▁phrase	-10.7606
Amérique	-10.7606
▁équipée	-10.7612
▁fournies	-10.7615
▁Syrie	-10.7617
bes	-10.7622
▁Porno	-10.7627
▁(13)	-10.7628
▁débit	-10.7629
«	-10.7639
▁terminé	-10.7643
▁participé	-10.7644
▁Fondation	-10.7645
▁pousse	-10.7648
▁savent	-10.7648
▁mange	-10.765
oo	-10.765
▁Épisode	-10.7653
43	-10.7654
▁Saturne	-10.7657
▁instructions	-10.7659
▁Nantes	-10.7662
▁Israël	-10.7662
▁déménagement	-10.7663
▁tendances	-10.7665
▁Christophe	-10.7669
▁commerciaux	-10.7669
▁41	-10.767
tée	-10.7671
▁fe	-10.7671
▁motif	-10.7672
▁acquis	-10.7676
▁USA	-10.7677
▁Algérie	-10.7682
▁récente	-10.7684
▁adresses	-10.7687
▁relève	-10.7688
▁!)	-10.7688
▁quasiment	-10.769
arrière	-10.7691
▁représentants	-10.7692
▁modifications	-10.7698
astrologie	-10.7699
▁essentiellement	-10.7703
▁posé	-10.7704
▁maintenance	-10.7705
▁souhaitent	-10.7706
▁postes	-10.7711
▁appartiennent	-10.7713
▁passée	-10.7718
▁SE	-10.7721
67	-10.7722
mis	-10.7722
▁disparition	-10.7723
▁fuite	-10.7725
égalité	-10.7728
issement	-10.7732
▁répondu	-10.7734
EP	-10.7734
▁rejoint	-10.7736
▁Ser	-10.7736
ave	-10.7737
▁Wa	-10.7739
ight	-10.7743
▁Montrer	-10.7746
▁médicale	-10.7748
▁Genève	-10.7751
impôt	-10.7755
▁Madame	-10.7759
▁rempli	-10.7762
unité	-10.7771
46	-10.7776
▁écologique	-10.7776
▁féminin	-10.7777
▁cellules	-10.7778
ordinateur	-10.7779
▁Université	-10.7781
▁prime	-10.7782
▁magique	-10.7785
▁IN	-10.7786
▁bienvenue	-10.779
▁paraît	-10.7797
old	-10.7798
tech	-10.7799
rier	-10.7802
oud	-10.7804
▁Bi	-10.7804
IS	-10.7804
▁permanente	-10.7808
aurait	-10.7809
Ce	-10.781
IC	-10.7813
▁influence	-10.7814
▁âme	-10.7815
AGE	-10.7818
▁sérieuse	-10.7818
▁plante	-10.7823
PS	-10.7826
▁paysages	-10.7827
nn	-10.7828
▁ga	-10.7833
▁virus	-10.7834
▁global	-10.7836
èle	-10.7843
▁contribution	-10.7844
▁Pre	-10.7845
▁Certaines	-10.7851
cy	-10.7852
▁voyez	-10.7853
▁laissant	-10.7854
▁poésie	-10.7855
▁quelles	-10.7855
47	-10.7857
▁discussions	-10.7868
ges	-10.7869
lou	-10.7874
bra	-10.7875
trice	-10.7878
▁biens	-10.7878
uel	-10.7879
intégration	-10.7879
▁élu	-10.788
log	-10.7883
▁Sol	-10.7883
▁désactivé	-10.7888
PE	-10.7891
▁Aucune	-10.7897
▁banques	-10.7904
▁morceaux	-10.7904
pot	-10.7906
▁cuisson	-10.7909
▁Pont	-10.791
▁dédiée	-10.7911
▁Mise	-10.7913
▁premierLe	-10.7914
▁différente	-10.7919
▁Ciel	-10.792
adapter	-10.7924
▁conseillé	-10.7934
▁(14)	-10.7934
▁constituent	-10.7935
ors	-10.7935
▁triste	-10.7935
▁terrible	-10.7937
▁écouter	-10.794
▁Ja	-10.7941
▁fréquence	-10.7943
isée	-10.7943
▁Thomas	-10.7946
▁Free	-10.7948
▁Semaines	-10.7951
▁procès	-10.7952
▁titulaire	-10.7956
▁inscrits	-10.7959
▁historiques	-10.7961
▁manifestation	-10.7963
bu	-10.7963
ning	-10.7966
▁pe	-10.7969
▁clavier	-10.7975
ef	-10.7977
▁tâche	-10.7978
▁promotions	-10.7981
▁Modèle	-10.7982
▁positif	-10.7987
▁constitué	-10.7987
▁mo	-10.7993
enne	-10.8
▁utilisent	-10.8001
organisme	-10.8004
▁économie	-10.8005
▁ben	-10.8007
ada	-10.8007
▁hôtels	-10.8007
▁TVA	-10.8009
ug	-10.8011
▁ri	-10.8013
▁circonstances	-10.8013
▁poche	-10.8017
▁collaborateurs	-10.8018
▁Sam	-10.8024
▁traditionnel	-10.8026
▁décret	-10.8026
▁moteurs	-10.8028
▁Lien	-10.8029
▁Dimanche	-10.8029
▁Tom	-10.8032
▁matchs	-10.8033
▁autorisation	-10.8034
▁plages	-10.8036
▁actualités	-10.804
▁Ci	-10.804
engagement	-10.8041
▁journalistes	-10.8044
▁évoluer	-10.8044
▁go	-10.8045
▁théorie	-10.805
▁mobiles	-10.805
SI	-10.8057
▁Garantie	-10.8062
▁représentent	-10.8064
66	-10.8069
▁dents	-10.807
▁Lorsqu	-10.8073
▁Claude	-10.8073
alcool	-10.8077
ori	-10.8077
OU	-10.8078
har	-10.8079
nement	-10.8081
▁etre	-10.8083
▁Pat	-10.8083
▁pouvoirs	-10.8084
▁Inscrivez	-10.8086
▁convention	-10.8091
▁Men	-10.8093
▁étrange	-10.8097
▁contemporaine	-10.8099
2016	-10.81
▁déplacement	-10.81
▁conversation	-10.8102
▁quart	-10.8102
▁pop	-10.8103
▁dimensions	-10.8104
▁Référence	-10.8104
▁sombre	-10.8111
inc	-10.8112
▁Brésil	-10.8113
pha	-10.8114
▁score	-10.812
▁Th	-10.8125
▁1999	-10.8126
▁sensation	-10.8133
68	-10.8133
▁confirmer	-10.8136
▁affiche	-10.8137
▁associés	-10.8142
▁heureuse	-10.8143
▁tir	-10.8143
▁semi	-10.8143
▁musicale	-10.8148
▁Vincent	-10.8149
▁feuille	-10.8168
▁bat	-10.8172
▁mourir	-10.8172
▁Georges	-10.8173
▁téléphonique	-10.8177
▁Corée	-10.8177
▁siècles	-10.818
abonnement	-10.8183
activités	-10.8183
▁tiens	-10.8183
▁réservée	-10.8187
▁sports	-10.8189
lis	-10.8191
▁Grèce	-10.8193
▁faisons	-10.8196
▁pistes	-10.8196
▁dépannage	-10.8198
▁dép	-10.8199
ng	-10.82
▁foyer	-10.82
▁comprends	-10.8201
▁digne	-10.8202
▁expliqué	-10.8205
tait	-10.8206
wi	-10.8208
▁(18	-10.8212
▁quitte	-10.8213
▁caisse	-10.8215
iz	-10.822
ok	-10.822
mie	-10.8223
ED	-10.8223
▁Christian	-10.8224
thé	-10.8227
▁Réseau	-10.823
▁constater	-10.8232
▁Ki	-10.8232
▁quartiers	-10.8234
▁girl	-10.8234
▁mousse	-10.8235
▁fiches	-10.8239
▁quelconque	-10.8239
aura	-10.8243
▁Gr	-10.8247
érer	-10.8249
▁am	-10.8249
▁Luxembourg	-10.825
ouche	-10.825
quin	-10.8256
▁Travail	-10.8257
▁Master	-10.8261
▁Va	-10.8263
92	-10.8265
▁ressemble	-10.8268
▁contacts	-10.8274
▁pause	-10.8275
▁tribunal	-10.8275
▁partagé	-10.8279
RO	-10.8279
▁recul	-10.828
▁fasse	-10.8284
▁progrès	-10.8285
espoir	-10.8288
Saint	-10.8289
▁commander	-10.8292
▁sauvage	-10.8293
▁transition	-10.8293
▁établi	-10.8294
▁terminal	-10.8296
▁issus	-10.8298
▁province	-10.8307
▁organiser	-10.8308
▁chansons	-10.8311
impact	-10.8311
▁détaillé	-10.8312
logie	-10.8314
▁satisfaire	-10.8315
▁sondage	-10.8319
▁documentaire	-10.8319
▁naturelles	-10.8319
▁ado	-10.8321
EM	-10.8322
teurs	-10.8324
▁Cal	-10.8324
▁caméra	-10.8327
▁proposant	-10.8329
▁équipé	-10.8332
▁abonnement	-10.8335
ind	-10.8335
▁Sp	-10.8336
▁chances	-10.8339
▁réserver	-10.8342
▁disait	-10.835
▁Bri	-10.8351
▁arabes	-10.8351
▁tâches	-10.8353
ç	-10.8358
▁carnet	-10.8362
▁Règlement	-10.8362
▁rayon	-10.8363
▁devons	-10.8364
ida	-10.8367
ret	-10.8373
▁priorité	-10.8375
▁US	-10.8375
Si	-10.838
▁vertu	-10.8381
▁modifié	-10.8381
▁venus	-10.8384
▁frontière	-10.8389
erreur	-10.8392
Eglise	-10.8394
ox	-10.8396
▁parvenir	-10.84
▁légale	-10.8402
nc	-10.8403
▁recherchez	-10.8404
nis	-10.8404
56	-10.8405
▁prÃ	-10.8407
approche	-10.8408
Une	-10.8409
▁graphiques	-10.841
Histoire	-10.8413
tru	-10.8417
▁rapides	-10.8419
ID	-10.8422
way	-10.8423
envie	-10.8423
éni	-10.8427
▁liquide	-10.8428
▁fortes	-10.8429
ature	-10.843
2018	-10.8434
▁personnalisés	-10.8441
ock	-10.8444
tis	-10.8445
▁dépenses	-10.8447
▁guitare	-10.8447
▁équipement	-10.8448
utilise	-10.8449
Orient	-10.8451
▁Avis	-10.8452
▁cible	-10.8453
▁édité	-10.8454
▁populaires	-10.8457
▁Parlement	-10.8457
ième	-10.8458
autorisation	-10.8459
69	-10.846
▁parfum	-10.8461
▁pé	-10.8461
▁fidélité	-10.8468
▁Bra	-10.8468
54	-10.8468
▁estime	-10.8468
avion	-10.8474
▁OK	-10.8475
▁allemande	-10.8478
▁former	-10.8479
▁dizaines	-10.8479
ét	-10.8479
album	-10.8483
▁poisson	-10.8483
tom	-10.8487
our	-10.8489
▁vocation	-10.8494
.....	-10.8496
agriculture	-10.8496
▁financières	-10.8499
▁oeuvres	-10.8502
77	-10.8506
lim	-10.8506
années	-10.8508
enfance	-10.8508
OP	-10.8509
ati	-10.8511
▁hyper	-10.8512
▁nez	-10.8518
▁Pr	-10.8528
▁obligations	-10.8528
ban	-10.854
▁Rue	-10.854
▁boulot	-10.8547
96	-10.855
ote	-10.8551
▁liée	-10.8557
▁profession	-10.856
▁Her	-10.8562
▁aliments	-10.8562
▁rou	-10.8564
ces	-10.8564
▁Produit	-10.8566
▁traitements	-10.8566
▁Show	-10.8567
quer	-10.8567
▁amateur	-10.8571
–	-10.8572
▁62	-10.8575
▁maximale	-10.8577
▁Ceux	-10.8577
▁favoriser	-10.8581
▁folie	-10.8582
▁éventuellement	-10.8583
▁écrite	-10.8584
▁ar	-10.8585
▁Vol	-10.8588
▁tranquille	-10.859
▁chaise	-10.8591
œil	-10.8594
▁fameux	-10.8596
lation	-10.8597
▁Bain	-10.8598
▁49	-10.86
▁critiques	-10.8603
▁plafond	-10.8608
▁évident	-10.8608
▁élégant	-10.8609
▁alimentaires	-10.8613
▁extrait	-10.8615
▁préserver	-10.8616
▁PRO	-10.8617
▁lèvres	-10.8618
articles	-10.862
mann	-10.8623
vol	-10.8625
▁forfait	-10.8626
ssement	-10.8627
▁tuer	-10.8631
▁RE	-10.8632
▁acc	-10.8633
▁foot	-10.8633
lette	-10.8634
▁complément	-10.8634
▁collègues	-10.8637
▁Inde	-10.8641
▁Association	-10.8642
horizon	-10.8643
▁promo	-10.8644
▁défis	-10.8646
▁accompagne	-10.8647
▁Don	-10.8647
▁journées	-10.8648
▁animations	-10.8648
▁authentique	-10.8651
lée	-10.8652
▁agences	-10.8653
▁Né	-10.8656
▁Red	-10.8656
▁Strasbourg	-10.8662
▁exceptionnel	-10.8664
/10	-10.8667
ache	-10.8672
nat	-10.8673
ome	-10.8678
▁traditionnelles	-10.8679
événement	-10.8679
▁intense	-10.8681
▁pédagogique	-10.8682
OT	-10.8685
89	-10.8685
dra	-10.8688
▁difficiles	-10.869
▁préciser	-10.869
▁charte	-10.8691
ambiance	-10.8692
▁massif	-10.8692
▁Demande	-10.8693
▁transmettre	-10.8694
arbre	-10.8694
57	-10.8694
▁64	-10.8696
ity	-10.8698
▁mont	-10.8703
▁ressort	-10.8706
▁invité	-10.8706
▁régler	-10.8708
ME	-10.8709
▁individus	-10.8714
qua	-10.8715
▁Chaussures	-10.8715
▁Données	-10.8717
lib	-10.8717
top	-10.8718
▁réalisés	-10.8719
▁vi	-10.8726
▁Nice	-10.8729
▁conforme	-10.8731
▁Agence	-10.8734
nez	-10.8734
û	-10.8736
▁800	-10.8736
▁profond	-10.8739
table	-10.8739
▁relatif	-10.8741
76	-10.8745
▁video	-10.8748
las	-10.8751
doc	-10.8751
▁refuser	-10.8759
▁filtre	-10.8759
▁Birchbox	-10.876
▁Charte	-10.8762
▁concerts	-10.8762
IER	-10.8765
▁:)	-10.8767
6)	-10.8767
▁implique	-10.877
▁bonus	-10.8771
▁perspective	-10.8771
yl	-10.8772
assistance	-10.8774
tés	-10.8774
▁Montpellier	-10.8777
)|	-10.8783
▁voies	-10.879
▁équilibre	-10.8791
rai	-10.8792
▁Patrick	-10.8793
▁Dépêches	-10.8796
main	-10.88
▁existence	-10.8801
humour	-10.8801
▁développe	-10.8802
0)	-10.8802
▁éco	-10.8804
▁retrouvé	-10.8806
Ré	-10.8806
▁repris	-10.8809
▁record	-10.881
▁traces	-10.8811
▁éditions	-10.8813
▁permanence	-10.8814
▁conclu	-10.8814
▁Liste	-10.8816
▁villa	-10.8817
▁1998	-10.8819
▁Maurice	-10.8822
ira	-10.8823
▁poursuit	-10.8824
rés	-10.8828
▁louer	-10.883
▁bandes	-10.8832
▁concasseur	-10.8833
▁déposer	-10.8837
automne	-10.884
initiative	-10.8842
▁composants	-10.8847
▁fonctionnalité	-10.8847
ifié	-10.8848
▁Livres	-10.8849
▁métro	-10.8849
▁augmentation	-10.8851
▁scénario	-10.8854
ast	-10.8854
▁Ber	-10.886
▁division	-10.8861
ologue	-10.8863
gin	-10.8864
tar	-10.8865
▁blancs	-10.8869
▁concentration	-10.8869
-10	-10.887
5%	-10.887
▁virtuelle	-10.8876
rac	-10.8878
▁Tags	-10.8878
▁Face	-10.8879
▁territoires	-10.888
▁Gar	-10.888
infos	-10.8885
ible	-10.8888
▁signaler	-10.8894
▁réglementation	-10.8894
▁extraordinaire	-10.8899
▁avenir	-10.8899
▁reprises	-10.8901
▁normale	-10.8908
▁sécurisé	-10.8909
▁terres	-10.8909
▁satisfait	-10.8913
▁laboratoire	-10.8919
▁cool	-10.8921
74	-10.8921
▁notification	-10.8923
64	-10.8926
97	-10.8927
▁pub	-10.8927
▁fauteuil	-10.8929
▁live	-10.8929
▁fusion	-10.8929
▁chic	-10.893
▁Mercure	-10.8931
▁procédé	-10.8932
▁fur	-10.8933
▁individuelle	-10.8936
▁Source	-10.8936
TI	-10.8939
▁Fort	-10.894
▁classé	-10.8941
▁marge	-10.8943
▁royaume	-10.8945
▁puissent	-10.8945
▁Jack	-10.8945
▁inspiré	-10.8947
▁aimer	-10.8948
▁May	-10.8951
▁comprenant	-10.8952
▁CGU	-10.8953
▁annuelle	-10.8955
ographie	-10.8958
▁Lui	-10.8961
ren	-10.8967
nal	-10.897
▁validation	-10.8971
▁Communauté	-10.8973
ail	-10.8973
▁Situé	-10.8973
94	-10.8973
mas	-10.8977
ats	-10.8984
uf	-10.8985
▁débats	-10.8987
▁dirige	-10.8989
▁claire	-10.899
étant	-10.8992
.»	-10.8992
océan	-10.8992
Ex	-10.8993
▁finit	-10.8994
▁connaitre	-10.8996
▁voudrais	-10.8996
▁présentés	-10.8997
échelle	-10.8999
▁sex	-10.9
▁auparavant	-10.9
tour	-10.9003
▁cookie	-10.9003
▁Vendredi	-10.9003
gène	-10.9007
ARD	-10.9008
▁judiciaire	-10.9009
93	-10.9012
▁britannique	-10.9012
appartement	-10.9012
▁ajouté	-10.9013
▁précieux	-10.9014
▁Mercredi	-10.9015
MC	-10.9016
▁Mu	-10.9018
▁canapé	-10.9019
▁gentil	-10.9027
▁offerts	-10.9028
▁permettront	-10.9031
king	-10.9033
▁agit	-10.9035
▁voisins	-10.9036
▁industrielle	-10.9041
▁froide	-10.9042
▁producteurs	-10.9042
▁Type	-10.9043
▁canton	-10.9044
▁accepte	-10.9044
effort	-10.9045
▁salarié	-10.9045
Hôtel	-10.9045
▁puissiez	-10.9047
▁Lou	-10.9049
▁paragraphe	-10.9049
ajouter	-10.905
▁totalité	-10.9054
▁47	-10.9057
DI	-10.9058
▁verte	-10.9061
98	-10.9062
▁variété	-10.9062
▁empêcher	-10.9066
▁Météo	-10.9066
▁taxe	-10.9068
▁connus	-10.9068
immobilier	-10.9069
▁versions	-10.9069
ente	-10.907
▁geste	-10.9071
entreprises	-10.9075
▁bu	-10.9075
▁Eric	-10.9075
▁sexuelle	-10.9077
ères	-10.9078
▁vendu	-10.9081
cré	-10.9082
▁Animaux	-10.9082
▁prévenir	-10.9084
▁sportive	-10.9085
▁précédente	-10.9088
▁Juin	-10.9089
▁Emmanuel	-10.909
phone	-10.9091
▁monte	-10.9092
mal	-10.9093
▁échéant	-10.9094
▁beurre	-10.9098
▁électroniques	-10.9101
▁regroupe	-10.9104
▁manuel	-10.9105
▁golf	-10.9106
▁disant	-10.9107
▁diabète	-10.9111
uer	-10.9114
-2018	-10.9115
▁coûte	-10.9115
▁Bla	-10.9116
▁ajoute	-10.9116
▁Tra	-10.9126
▁réfléchir	-10.9126
▁afficher	-10.9127
-4	-10.9127
▁gras	-10.9127
▁q	-10.9138
Ivoire	-10.914
▁Pascal	-10.9141
tz	-10.9144
aéroport	-10.9147
▁américains	-10.9148
▁jambes	-10.9149
▁Main	-10.915
gré	-10.9151
▁Mexique	-10.9154
▁secours	-10.9156
▁Divers	-10.9158
▁destinés	-10.9161
▁Amazon	-10.9161
▁cre	-10.9162
▁humeur	-10.9162
▁publiée	-10.9162
▁ouvrages	-10.9163
▁tendre	-10.9163
▁André	-10.9175
▁Film	-10.9175
▁placer	-10.9176
▁Toujours	-10.9178
ib	-10.9178
▁fournit	-10.9181
▁Annonces	-10.9183
▁colle	-10.9188
attente	-10.919
▁souffrance	-10.9191
éra	-10.9193
▁Commerce	-10.9195
▁Trouvez	-10.9196
▁grille	-10.9196
52	-10.9198
dre	-10.92
▁termine	-10.92
▁gel	-10.92
▁plate	-10.9201
▁Mé	-10.9201
▁passent	-10.9204
▁foule	-10.9205
IG	-10.9207
▁synthèse	-10.921
▁refuse	-10.9214
▁planétaires	-10.9214
▁profils	-10.9217
▁Cu	-10.9217
▁découvertes	-10.9218
▁Max	-10.9229
▁profitez	-10.9229
87	-10.9229
5)	-10.923
▁présentent	-10.923
▁modernes	-10.9231
▁agricole	-10.9233
ima	-10.9233
▁iPhone	-10.9234
▁née	-10.9236
▁envies	-10.9238
apprendre	-10.9241
▁familial	-10.9243
▁sélectionné	-10.9251
▁Saison	-10.9252
▁passionné	-10.9253
▁carton	-10.926
appliquer	-10.926
▁pensées	-10.926
ola	-10.9261
illa	-10.9262
▁feront	-10.9262
51	-10.9264
▁ménage	-10.9265
▁lunettes	-10.9271
équilibre	-10.9271
▁quels	-10.9272
agne	-10.9275
Mo	-10.9275
53	-10.9276
entend	-10.9277
▁propriétés	-10.9277
▁indi	-10.9278
▁compatible	-10.9281
▁cra	-10.9282
▁correspondent	-10.9283
▁prochaines	-10.9283
▁notice	-10.9285
TS	-10.9288
▁compliqué	-10.9288
▁Celle	-10.9289
▁étudiant	-10.9289
▁chauffe	-10.9293
▁miroir	-10.9294
éli	-10.9295
▁rarement	-10.9297
▁Vers	-10.9297
ore	-10.9298
▁annuel	-10.9298
▁norme	-10.9298
▁internationaux	-10.9303
▁créativité	-10.9303
▁romantique	-10.9305
▁prépare	-10.9307
animaux	-10.9309
▁croit	-10.931
▁âgées	-10.9311
▁confirme	-10.9312
72	-10.9313
▁Ph	-10.9313
▁venait	-10.9315
▁lourd	-10.9315
accompagnement	-10.9316
arrêter	-10.9316
”.	-10.9317
▁Croix	-10.9317
▁cam	-10.9317
▁visité	-10.9317
intéresse	-10.9318
DE	-10.9318
▁randonnée	-10.9321
▁championnat	-10.9321
▁Peu	-10.9325
ric	-10.9326
lat	-10.9328
▁testé	-10.9329
▁entourage	-10.933
▁fallu	-10.9332
▁peintre	-10.9334
86	-10.9337
▁traite	-10.9341
▁Communication	-10.9347
▁Corse	-10.9347
êt	-10.9348
INE	-10.9353
▁Rapport	-10.9355
app	-10.9361
ives	-10.9361
ji	-10.9362
▁rep	-10.9363
▁ronde	-10.9364
▁folle	-10.9364
▁Big	-10.937
▁chargée	-10.9371
igny	-10.938
▁mentale	-10.938
▁(«	-10.9381
▁semblait	-10.9383
affiche	-10.9385
▁diplôme	-10.9388
▁module	-10.9389
▁Projet	-10.9391
tions	-10.9391
▁éclat	-10.9392
▁applicables	-10.9392
▁cercle	-10.9392
▁cave	-10.9393
prix	-10.9393
▁repose	-10.9393
▁Rhône	-10.9393
▁(15)	-10.9396
▁salaire	-10.9396
▁Roi	-10.9402
▁commis	-10.9403
▁fine	-10.9404
▁visualiser	-10.9405
▁subi	-10.9407
▁culturelles	-10.9409
▁trait	-10.9411
▁Br	-10.9416
▁bloc	-10.9416
▁Marine	-10.9417
▁contente	-10.942
▁passionnés	-10.9423
▁îles	-10.9424
▁Cinéma	-10.9426
▁pauvre	-10.9426
ert	-10.9426
▁profonde	-10.9426
▁Antoine	-10.9427
▁quitté	-10.9427
▁assuré	-10.9433
▁remarquable	-10.9437
▁tombé	-10.9438
actions	-10.9438
▁photographies	-10.9439
▁queue	-10.9441
form	-10.9441
▁immobilière	-10.9444
▁couples	-10.9444
▁Vert	-10.9445
▁comportements	-10.9446
Plus	-10.9447
▁couper	-10.945
spect	-10.9452
▁promouvoir	-10.9453
site	-10.9455
cor	-10.9458
temps	-10.946
-18	-10.9462
▁Appel	-10.9464
▁émissions	-10.9466
bin	-10.9467
▁privées	-10.9469
▁trucs	-10.9469
applique	-10.947
riez	-10.9472
▁thermique	-10.9473
▁marine	-10.9473
▁inc	-10.9477
▁attaque	-10.9477
▁basée	-10.9478
Église	-10.9478
▁Rendez	-10.9479
▁ciblage	-10.9481
▁savait	-10.9484
accéder	-10.9484
▁restant	-10.9485
▁saut	-10.9487
▁cheminée	-10.9488
▁parallèle	-10.9489
▁allé	-10.949
▁incontournable	-10.949
▁nucléaire	-10.9492
▁gagne	-10.9496
ator	-10.9499
▁(16)	-10.95
[...]	-10.9501
▁personnalisée	-10.9503
bri	-10.9504
▁Mauritanie	-10.9505
▁Newsletter	-10.9507
▁convaincu	-10.9509
▁Nombre	-10.9512
▁robots	-10.9512
▁Pu	-10.9516
cent	-10.9516
▁Open	-10.9518
▁déposée	-10.9519
▁condamné	-10.952
▁grosses	-10.9527
▁dite	-10.9527
▁vague	-10.9528
▁Envie	-10.9529
fin	-10.9529
▁deviennent	-10.9534
▁stable	-10.9535
▁béton	-10.9535
▁chevaux	-10.9536
▁chèque	-10.9537
▁res	-10.9538
▁na	-10.9544
▁profite	-10.9546
del	-10.9547
▁serrure	-10.9551
▁nationales	-10.9551
1)	-10.9552
▁Maître	-10.9553
ord	-10.9556
▁Four	-10.9558
▁trente	-10.9559
▁Turquie	-10.9561
▁Vidéos	-10.9565
▁choc	-10.9566
▁dommages	-10.9567
▁Vo	-10.9573
aspect	-10.9574
-5	-10.9576
vision	-10.9578
ax	-10.9579
▁codes	-10.958
RA	-10.9581
acquisition	-10.9582
▁défini	-10.9583
vit	-10.9585
ym	-10.9589
▁sortes	-10.9589
▁Henri	-10.959
▁collectées	-10.959
▁limitée	-10.9591
▁symbole	-10.9594
▁Portugal	-10.9596
▁Microsoft	-10.9599
▁réputation	-10.9599
▁industriel	-10.9602
▁Olivier	-10.9602
▁ab	-10.9605
oy	-10.9608
▁artisans	-10.9616
graphie	-10.9617
▁quatrième	-10.9619
▁ingrédients	-10.962
▁spéciales	-10.9621
▁routes	-10.9621
▁remarque	-10.9623
▁Guillaume	-10.9625
issent	-10.9625
▁tentative	-10.9629
▁Salut	-10.9632
▁géant	-10.9644
Po	-10.9647
▁dizaine	-10.9651
▁contribuer	-10.9652
▁disponibilités	-10.9654
▁souris	-10.9656
die	-10.9657
bb	-10.9659
▁...)	-10.966
rap	-10.966
▁Voyage	-10.9661
▁bleue	-10.9662
▁comparaison	-10.9663
resse	-10.9664
url	-10.9665
▁52	-10.9666
▁tube	-10.9669
▁vues	-10.967
nées	-10.9673
°1	-10.9674
▁Ed	-10.9679
▁nov	-10.9679
▁tend	-10.968
▁partielle	-10.968
yer	-10.9688
▁Questions	-10.969
▁fenêtres	-10.9691
▁législation	-10.9691
COM	-10.9693
▁clubs	-10.9697
▁sèche	-10.9697
▁indiquer	-10.9699
▁tenté	-10.9699
▁temporaire	-10.9699
▁traitées	-10.9702
bien	-10.9705
▁sacs	-10.9706
▁Mr	-10.9707
plan	-10.9711
omb	-10.9712
▁provenant	-10.9713
▁adopté	-10.9714
▁magnifiques	-10.9715
Espace	-10.9716
▁PO	-10.9719
▁lave	-10.9721
▁paire	-10.9721
▁Att	-10.9723
84	-10.9724
▁gain	-10.9726
▁bol	-10.9727
▁sœur	-10.9729
ial	-10.9732
utilisateurs	-10.9739
▁thèse	-10.9745
▁Er	-10.9746
▁pure	-10.975
oeil	-10.9752
▁chômage	-10.9752
rit	-10.9755
▁trace	-10.9756
▁urgence	-10.9759
▁trou	-10.976
▁54	-10.9762
▁définitivement	-10.9763
▁Ram	-10.9763
box	-10.9763
▁investissement	-10.9765
▁boule	-10.9765
▁soldats	-10.9769
▁brillant	-10.977
▁Za	-10.9771
▁UN	-10.9774
▁éducation	-10.9775
▁discipline	-10.9776
IL	-10.9777
▁réalisateur	-10.9779
intention	-10.9781
▁frontières	-10.9781
▁piano	-10.9782
▁Titre	-10.9787
RES	-10.9788
▁secondaires	-10.9793
▁Septembre	-10.9797
inspiration	-10.9798
Et	-10.9798
▁terminer	-10.9798
▁Système	-10.9799
▁coiffure	-10.98
▁Ajouter	-10.98
▁belge	-10.9801
euil	-10.9802
▁boire	-10.9803
▁IV	-10.9807
▁remet	-10.9809
▁Bre	-10.9812
▁musiciens	-10.9812
ING	-10.9815
▁label	-10.9816
▁00	-10.9816
▁poissons	-10.9817
▁ét	-10.9818
▁exercice	-10.9819
▁haine	-10.982
▁stars	-10.9821
▁euro	-10.9824
Par	-10.9825
acheteur	-10.9826
▁optimisé	-10.9826
▁volant	-10.9829
▁nuits	-10.983
DA	-10.9833
▁os	-10.9833
pre	-10.9833
▁révolutionnaire	-10.9834
▁salut	-10.9838
▁Neptune	-10.9844
uve	-10.9846
▁promet	-10.9847
▁aventures	-10.9847
rom	-10.9849
duit	-10.9849
▁gars	-10.9851
▁villages	-10.9851
▁Nations	-10.9856
▁supports	-10.9862
▁assurez	-10.9864
Ascendant	-10.9866
▁île	-10.9866
▁Institut	-10.9867
▁procédures	-10.9867
▁témoignages	-10.987
adaptation	-10.987
lais	-10.9871
▁Pièces	-10.9873
▁député	-10.9874
iné	-10.9878
▁Congo	-10.9879
▁adore	-10.988
▁Visite	-10.988
▁décroissant	-10.9881
▁tissus	-10.9882
▁intervenir	-10.9884
Ecole	-10.9888
dor	-10.989
▁crédits	-10.9892
▁conformité	-10.9893
égard	-10.9894
▁citer	-10.9895
OM	-10.9895
▁européennes	-10.9896
ain	-10.9896
▁normalement	-10.9898
EUR	-10.9898
▁communications	-10.9898
emplacement	-10.9899
▁Utilisez	-10.99
▁complémentaires	-10.9911
▁considère	-10.9911
▁Location	-10.9912
▁scènes	-10.9914
▁futurs	-10.9916
▁indispensables	-10.9917
▁inférieur	-10.9921
▁appelée	-10.9921
▁répertoire	-10.9921
▁Emploi	-10.9921
▁contraintes	-10.9925
Mai	-10.9927
▁sûrement	-10.9929
oul	-10.993
tez	-10.9931
▁socio	-10.9931
niste	-10.9934
▁LED	-10.9935
pré	-10.9935
▁Mali	-10.9935
▁raconter	-10.9936
▁Thi	-10.9937
▁Che	-10.9938
▁efficaces	-10.994
hommes	-10.9945
▁constat	-10.9945
hébergement	-10.9947
▁protégée	-10.9948
▁spécialisés	-10.9949
▁bonjour	-10.995
▁Group	-10.9952
PI	-10.9952
intelligence	-10.9954
▁souligne	-10.9955
toi	-10.9956
sée	-10.9956
▁Del	-10.9956
▁relevé	-10.9958
▁Var	-10.9959
individu	-10.9959
▁couture	-10.9962
!)	-10.9963
▁économies	-10.9964
▁origines	-10.9964
ôme	-10.9965
0.000	-10.9969
▁devriez	-10.9972
écrire	-10.9975
Ch	-10.9977
▁lever	-10.998
lar	-10.9981
▁efficacité	-10.9982
▁généraux	-10.9985
▁autorisé	-10.9987
▁my	-10.9988
▁recommandons	-10.999
▁(21)	-10.999
▁GMT	-10.9992
▁talents	-10.9993
▁Mel	-10.9994
▁jouets	-10.9994
▁facebook	-10.9996
▁soirées	-10.9999
91	-11.0001
▁Jeu	-11.0002
▁dose	-11.0003
▁contrairement	-11.0006
sans	-11.0007
▁énormément	-11.0009
▁certificat	-11.0009
62	-11.0009
▁Test	-11.0009
▁coffre	-11.0011
▁cadres	-11.0013
▁Uranus	-11.0015
▁Qualité	-11.0016
personnalisation	-11.0017
vez	-11.0017
▁facilité	-11.0018
▁connaissent	-11.002
▁Ke	-11.002
▁industriels	-11.0022
82	-11.0022
▁oiseaux	-11.0025
▁Dernières	-11.0028
-3	-11.0029
▁sauce	-11.0031
▁Gratuit	-11.0035
offres	-11.0037
▁simplicité	-11.0038
▁Outre	-11.0039
▁atteinte	-11.0044
▁Bourse	-11.0044
▁fiscal	-11.0045
▁poly	-11.0047
▁sportives	-11.005
▁génie	-11.005
▁tire	-11.0055
▁progressivement	-11.006
▁mobilisation	-11.0062
▁World	-11.0064
▁ressenti	-11.0065
équipement	-11.0066
Ca	-11.0066
dd	-11.0068
▁positive	-11.0069
usine	-11.0072
▁varier	-11.0074
▁trimestre	-11.0075
▁Akismet	-11.0077
▁garantit	-11.0081
▁mène	-11.0084
▁échanger	-11.0085
▁fondé	-11.0087
▁Prenez	-11.0089
▁touché	-11.009
2013	-11.0091
▁Lot	-11.0092
▁95	-11.0094
▁casse	-11.0099
▁72	-11.0102
▁2020	-11.0103
▁coque	-11.0103
gues	-11.0105
▁James	-11.0109
udi	-11.011
▁savons	-11.0111
▁Em	-11.0111
ition	-11.0113
▁rechercher	-11.0113
▁fondée	-11.0113
emp	-11.0114
▁LLC	-11.0117
▁Public	-11.0118
▁chinoise	-11.0119
lip	-11.0122
ject	-11.0123
▁dessert	-11.0125
Homme	-11.0127
ect	-11.0127
▁marcher	-11.0135
▁panneaux	-11.0139
▁1995	-11.0146
▁bénéficie	-11.0146
▁u	-11.0147
▁navigateurs	-11.0151
▁montagnes	-11.0152
▁fournis	-11.0153
issue	-11.0153
▁Durant	-11.0156
sive	-11.0159
téri	-11.0159
▁Octobre	-11.016
▁archives	-11.0164
▁destruction	-11.0164
▁tables	-11.0167
▁avocat	-11.0167
▁You	-11.0169
atoire	-11.017
▁résistant	-11.0173
▁pseudo	-11.0175
▁soupe	-11.0176
▁battre	-11.0177
▁gueule	-11.0177
ettes	-11.0178
▁expositions	-11.0178
▁pharmacie	-11.0179
▁FR	-11.0179
▁expertise	-11.0182
▁frappe	-11.0184
▁traits	-11.0186
zo	-11.0188
agent	-11.0189
Co	-11.0191
▁enregistrés	-11.0192
▁publie	-11.0193
▁sensibles	-11.0194
▁Fil	-11.0199
▁légal	-11.0201
▁prière	-11.0202
▁serveurs	-11.0203
tch	-11.0203
▁Ali	-11.0204
▁Marque	-11.0209
▁suivent	-11.021
▁témoignage	-11.0211
▁donnera	-11.0212
▁mené	-11.0213
rain	-11.0215
▁perso	-11.0217
▁publications	-11.0219
▁Jupiter	-11.022
▁honnête	-11.0221
▁sûre	-11.0222
▁flash	-11.0227
▁zéro	-11.0229
▁casino	-11.0229
ev	-11.023
▁optique	-11.023
tit	-11.0231
nait	-11.0233
▁gardien	-11.0234
▁gra	-11.0236
▁progression	-11.0237
NE	-11.0242
rig	-11.0246
▁joindre	-11.0249
▁arrêter	-11.0249
▁répartition	-11.025
▁Européenne	-11.025
▁producteur	-11.0253
2014	-11.0254
ANT	-11.026
▁Télé	-11.0261
▁refaire	-11.0264
▁Dominique	-11.0268
Pas	-11.027
▁correct	-11.0271
▁huile	-11.0271
▁poète	-11.0273
▁tra	-11.0275
▁fiscale	-11.0277
▁largeur	-11.0279
▁1990	-11.028
extrême	-11.0283
▁Département	-11.0284
▁ravi	-11.0285
effectuer	-11.0289
▁livrer	-11.0292
élé	-11.0294
▁Ya	-11.0297
▁agent	-11.0298
▁musulmans	-11.0299
hésite	-11.03
▁discret	-11.0301
bout	-11.0302
ky	-11.0303
▁souplesse	-11.0303
▁limitation	-11.0304
pon	-11.0306
voy	-11.0312
▁mets	-11.0315
▁comprennent	-11.0317
▁FC	-11.0321
▁Kit	-11.0322
▁prévoir	-11.0324
▁News	-11.0327
ula	-11.033
▁verra	-11.0335
▁réalisées	-11.0336
▁frein	-11.0337
FR	-11.0337
▁Sauf	-11.0339
▁amitié	-11.0341
ld	-11.0341
▁motivation	-11.0347
Se	-11.035
▁curieux	-11.0351
▁reconnaît	-11.0354
▁peuples	-11.0354
gy	-11.0357
??	-11.0359
▁intitulé	-11.0359
▁dépasser	-11.0361
▁féminine	-11.0361
ités	-11.0362
▁One	-11.0364
rée	-11.0366
▁mariée	-11.0372
not	-11.0374
len	-11.0375
▁fermé	-11.0377
▁renseigner	-11.0377
ary	-11.038
▁poli	-11.0385
effacement	-11.0385
▁pauvres	-11.0386
▁recommandations	-11.0388
▁biologique	-11.039
of	-11.039
▁devrez	-11.0392
▁papa	-11.0393
▁ras	-11.0398
):	-11.04
▁paquet	-11.04
▁considérer	-11.0402
▁comparer	-11.0403
▁Avril	-11.0404
position	-11.0405
logue	-11.0407
▁Mur	-11.0411
▁compétence	-11.0412
ites	-11.0414
aine	-11.0416
▁onglet	-11.0416
▁wa	-11.0417
▁(4	-11.0417
idées	-11.0418
▁instrument	-11.0421
▁clôture	-11.0422
▁doté	-11.0422
▁légende	-11.0428
▁pommes	-11.0429
▁volet	-11.043
▁salope	-11.0431
bul	-11.0432
▁Richard	-11.0433
fu	-11.0433
ENS	-11.0434
▁you	-11.0435
▁promis	-11.0436
▁apparence	-11.0437
commerce	-11.0441
▁espagnol	-11.0441
▁Gui	-11.0443
▁PME	-11.0449
roy	-11.0453
▁prince	-11.0453
▁essentielles	-11.0453
▁Amérique	-11.0454
gg	-11.0455
NA	-11.0456
63	-11.0456
▁jusque	-11.0459
▁analyses	-11.0461
xi	-11.0463
▁intégrée	-11.0464
▁devront	-11.0465
▁Multi	-11.0466
▁cahier	-11.0468
▁consacrée	-11.0468
examen	-11.0469
ève	-11.0471
mission	-11.0471
▁trÃ	-11.0472
▁85	-11.0473
▁gal	-11.0473
ake	-11.0474
ct	-11.0474
▁exclusive	-11.0475
ish	-11.0475
avaient	-11.0475
tÃ	-11.0476
▁bite	-11.0476
▁pourrais	-11.0479
élève	-11.048
illé	-11.048
ski	-11.0482
axe	-11.0488
▁applicable	-11.0488
rat	-11.0491
els	-11.0491
▁Julien	-11.0491
posé	-11.0495
▁bé	-11.0497
▁spectacles	-11.0499
°2	-11.0503
▁arrivent	-11.0504
▁conservées	-11.0505
▁complexes	-11.0507
écart	-11.0507
71	-11.0507
mois	-11.0509
▁Disney	-11.051
AB	-11.051
▁data	-11.0511
▁Fiche	-11.0511
vier	-11.0512
hal	-11.0516
▁Cho	-11.0521
▁espèce	-11.0523
fo	-11.0524
èvre	-11.0524
▁liaison	-11.0526
sis	-11.0528
tres	-11.0532
▁dévoile	-11.0537
▁musical	-11.0539
▁stratégique	-11.0541
mique	-11.0541
▁parisienne	-11.0544
agisse	-11.0544
▁palette	-11.0544
▁prestataires	-11.0546
▁Bibliothèque	-11.0547
rice	-11.0548
▁culte	-11.0548
▁Hommes	-11.055
▁entraîne	-11.0553
▁SP	-11.0553
▁pousser	-11.0555
alis	-11.0557
▁palais	-11.0557
▁poignée	-11.0557
▁fromage	-11.0558
▁protocole	-11.0566
▁suivez	-11.0568
▁Peinture	-11.0568
▁roues	-11.0568
▁War	-11.0569
▁aiment	-11.0571
▁moral	-11.0572
▁accorder	-11.0572
▁box	-11.0575
▁livré	-11.0576
▁célibataire	-11.0577
▁chers	-11.0579
Vos	-11.058
▁illustre	-11.0583
▁ballon	-11.0585
▁cultures	-11.0587
gro	-11.0587
▁démarches	-11.0588
TO	-11.0588
▁administrative	-11.0589
▁consacre	-11.0592
rite	-11.0592
▁Bac	-11.0593
▁Malheureusement	-11.0595
▁auxquels	-11.0595
▁épreuves	-11.0596
El	-11.0597
▁présentant	-11.0597
Internet	-11.0599
▁Commande	-11.06
▁conseillers	-11.0601
▁alternative	-11.0601
▁sachant	-11.0602
▁italienne	-11.0603
activer	-11.0604
▁Sc	-11.0604
▁avantage	-11.0609
uche	-11.0611
outil	-11.0612
▁finition	-11.0613
2012	-11.0618
▁intéresse	-11.0618
▁(17)	-11.062
▁citron	-11.0624
▁rat	-11.0625
anda	-11.0627
Utilisateur	-11.0628
▁canal	-11.063
▁CH	-11.0632
▁star	-11.0635
▁Ge	-11.0635
▁générations	-11.0638
SP	-11.064
lor	-11.0641
▁exercices	-11.0643
DR	-11.0645
▁Galerie	-11.0647
▁million	-11.0648
▁dormir	-11.0651
▁garçons	-11.0654
▁Libre	-11.0655
▁convaincre	-11.0657
▁absence	-11.066
▁tenant	-11.0661
▁venant	-11.0664
▁Temps	-11.0664
73	-11.0665
▁règne	-11.0669
▁Front	-11.067
▁exprime	-11.0671
▁mg	-11.0671
▁concernés	-11.0672
▁bisous	-11.0673
▁majeure	-11.0677
▁56	-11.0677
▁exclusif	-11.0683
▁couvre	-11.0684
▁vrais	-11.0686
▁(20)	-11.0687
▁tué	-11.0693
rot	-11.0693
inte	-11.0695
onde	-11.0695
▁informe	-11.0696
book	-11.0699
▁Pou	-11.0699
zi	-11.07
▁voyant	-11.0701
▁Tourisme	-11.0702
▁Stéphane	-11.0703
▁sacré	-11.0703
▁ceinture	-11.0705
ize	-11.0705
▁chats	-11.0706
▁caractères	-11.0706
▁littéraire	-11.0706
▁prends	-11.0709
▁180	-11.0713
hor	-11.0716
▁AU	-11.0718
▁significations	-11.0719
▁voter	-11.0721
▁51	-11.0721
ala	-11.0722
▁monnaie	-11.0723
▁Im	-11.0723
Présentation	-11.0725
▁franchise	-11.0725
▁croisière	-11.0726
▁pareil	-11.073
▁bourse	-11.0731
▁fiction	-11.0732
▁fraude	-11.0733
gri	-11.0733
indépendance	-11.0734
▁concernent	-11.0735
▁eut	-11.0736
▁servent	-11.0737
▁Fe	-11.0738
▁curiosité	-11.0741
▁individuel	-11.0742
▁préférés	-11.0743
▁climatique	-11.0743
▁causes	-11.0745
ê	-11.0746
▁tours	-11.0748
▁arbre	-11.0752
▁animé	-11.0752
▁échelle	-11.0753
▁Eco	-11.0754
olo	-11.0755
▁fédéral	-11.0755
ouille	-11.0755
▁morceau	-11.0755
day	-11.0757
▁visibilité	-11.0758
▁detail	-11.0759
▁matériels	-11.0761
▁tournoi	-11.0762
▁ob	-11.0763
▁mono	-11.0764
▁promotionnelles	-11.0766
▁mor	-11.0767
▁intéressante	-11.0767
rine	-11.0769
▁thématiques	-11.0774
angle	-11.0774
▁Gérard	-11.0775
▁présentées	-11.0777
▁déb	-11.0777
gée	-11.0784
▁personnellement	-11.0788
▁clic	-11.079
▁initiale	-11.079
▁aperçu	-11.0794
▁vivement	-11.0796
▁évidence	-11.0796
▁École	-11.0797
▁ventre	-11.0797
▁catholique	-11.0797
▁balade	-11.0798
▁reconnue	-11.0799
cl	-11.08
▁appels	-11.08
acteur	-11.0801
▁privilégié	-11.0801
▁dispositifs	-11.0802
▁connaissez	-11.0803
▁complémentaire	-11.0804
▁Mass	-11.0805
▁doigt	-11.0805
▁photographe	-11.0806
▁92	-11.081
vert	-11.0811
ots	-11.0812
▁Janvier	-11.0812
gh	-11.0813
▁//	-11.0813
eo	-11.0814
▁ème	-11.0814
▁intégrer	-11.0814
▁Où	-11.0815
▁ressource	-11.0815
▁hi	-11.0823
ié	-11.0824
▁aident	-11.0824
▁Joseph	-11.0824
▁rendement	-11.0828
▁Générales	-11.0829
St	-11.0829
▁78	-11.0831
▁Atelier	-11.0832
▁relever	-11.0832
▁apprécier	-11.0839
▁farine	-11.0844
oi	-11.0844
OUR	-11.0847
▁Lundi	-11.0847
▁Thierry	-11.0849
▁Feu	-11.085
▁vérification	-11.0853
▁forts	-11.0854
▁habitudes	-11.0855
▁croissante	-11.0862
▁secondaire	-11.0863
▁boutiques	-11.0869
▁seins	-11.0869
▁remboursé	-11.087
su	-11.0873
▁évaluation	-11.0875
Octobre	-11.0877
▁EUR	-11.0878
▁City	-11.0881
▁reine	-11.0882
Cha	-11.0884
▁externe	-11.0885
▁black	-11.0885
Jean	-11.0886
▁conversion	-11.0886
▁postés	-11.0888
▁comédie	-11.0889
▁commerces	-11.0891
hé	-11.0894
Mars	-11.0894
orientation	-11.0895
nière	-11.0897
▁résumé	-11.0897
▁chaleureux	-11.0907
▁organisme	-11.091
▁couvert	-11.091
▁assister	-11.0913
▁états	-11.0915
▁77	-11.0915
▁établir	-11.0916
ements	-11.0917
▁show	-11.0919
▁balades	-11.0923
▁dictionnaire	-11.0923
essai	-11.0925
▁offrons	-11.0926
▁symptômes	-11.0927
iner	-11.0932
Ad	-11.0933
▁MP	-11.0933
▁périodes	-11.0939
▁suivie	-11.0942
▁aluminium	-11.0944
▁(10	-11.0945
▁trompe	-11.0945
identifier	-11.0946
én	-11.0948
cus	-11.0949
▁solidaire	-11.0949
oux	-11.0955
200	-11.0961
▁proposée	-11.0962
▁affirme	-11.0965
▁citoyen	-11.0967
▁coach	-11.097
pan	-11.0971
▁écrans	-11.0974
▁ordinaire	-11.0978
père	-11.098
▁lancée	-11.0981
imp	-11.0981
aurai	-11.0981
▁milieux	-11.0982
▁créateur	-11.0982
▁avais	-11.0986
▁Offre	-11.0989
▁communautés	-11.0993
▁donnez	-11.0996
actu	-11.0998
▁poitrine	-11.0999
▁serais	-11.1002
▁optimiser	-11.1003
émotion	-11.1003
▁1980	-11.1006
▁précisé	-11.1008
chet	-11.1008
▁promenade	-11.1014
▁news	-11.1015
▁probable	-11.1017
▁Etat	-11.1017
▁TTC	-11.1019
uri	-11.1023
▁Ger	-11.1024
inscrit	-11.1024
▁tchat	-11.1031
▁Juillet	-11.1036
▁Pal	-11.1036
▁touristique	-11.1038
▁stand	-11.1039
▁géographique	-11.104
aga	-11.1042
éné	-11.1042
afficher	-11.1044
▁Cro	-11.1045
▁future	-11.1046
tag	-11.1048
▁exclusives	-11.1048
▁bis	-11.105
▁chronique	-11.1055
laire	-11.1056
istique	-11.1056
▁franc	-11.1056
pp	-11.1057
▁constante	-11.1057
▁professeurs	-11.1057
▁plu	-11.1058
▁Albert	-11.1059
▁réduite	-11.1062
▁fabricants	-11.1063
▁francophone	-11.1064
PL	-11.1065
▁rétro	-11.1069
IV	-11.1069
▁boucle	-11.107
▁(18)	-11.1076
79	-11.1077
▁Cuir	-11.1084
▁stratégies	-11.1085
▁Park	-11.1087
▁régionale	-11.1087
▁fatigue	-11.109
▁balcon	-11.109
▁psychologique	-11.1091
▁pique	-11.11
▁horaire	-11.1101
ault	-11.1101
Vi	-11.1101
pr	-11.1104
▁déroule	-11.1108
ung	-11.1108
hou	-11.1109
exprimer	-11.1113
▁Hollande	-11.1114
61	-11.1115
iennes	-11.1115
illes	-11.1116
▁inférieure	-11.1117
▁protège	-11.1117
▁travaillent	-11.1118
entraînement	-11.1118
▁rÃ	-11.1119
▁saisons	-11.112
▁Bé	-11.1123
▁finances	-11.1123
▁Villa	-11.1126
▁so	-11.1126
▁contiennent	-11.1127
▁significative	-11.1127
▁prévoit	-11.1127
▁69	-11.1129
▁unités	-11.1129
▁positions	-11.1132
installe	-11.1133
▁bizarre	-11.1133
ick	-11.1137
▁signal	-11.1139
▁mauvaises	-11.1141
▁engagé	-11.1142
▁chatte	-11.1143
isés	-11.1143
occuper	-11.1144
▁Pé	-11.1147
▁franchement	-11.1148
▁accompagnement	-11.1151
▁ouvertes	-11.1154
▁Juste	-11.1157
▁Info	-11.1158
/7	-11.1159
▁int	-11.116
▁CV	-11.1161
▁William	-11.1162
▁Matériel	-11.1167
▁Fr	-11.1169
▁égale	-11.117
▁explications	-11.1171
▁Hôtel	-11.1171
▁refusé	-11.1172
▁récompense	-11.1172
jou	-11.1172
TV	-11.1173
▁conseillons	-11.1173
▁Michael	-11.1175
▁participant	-11.1176
▁administrateur	-11.1176
board	-11.118
▁(22)	-11.1184
UM	-11.1184
AG	-11.1186
▁supporter	-11.1188
▁précédentes	-11.1191
▁visuelle	-11.1192
▁compose	-11.1192
▁Euro	-11.1193
▁interview	-11.1193
▁CR	-11.1196
olive	-11.1196
▁dame	-11.1197
asser	-11.1199
accepter	-11.1199
DS	-11.1199
▁adapter	-11.12
▁canon	-11.12
▁étions	-11.1203
▁Alpes	-11.1205
endre	-11.1206
▁abordable	-11.1206
▁remplacé	-11.1206
▁désigné	-11.1208
▁religieuse	-11.1208
▁librement	-11.121
pat	-11.121
▁municipal	-11.121
attend	-11.1211
▁el	-11.1213
▁combinaison	-11.1213
Agence	-11.1216
activation	-11.1216
cro	-11.122
...),	-11.122
▁noirs	-11.1222
▁culturels	-11.1224
épreuve	-11.1227
“	-11.1228
▁apporté	-11.1228
▁Romain	-11.1228
rel	-11.1228
▁désigne	-11.1229
83	-11.1231
▁rendent	-11.1231
▁unité	-11.1232
▁vo	-11.1233
▁Nature	-11.1234
▁saurait	-11.1235
▁Pratique	-11.1235
arrête	-11.1235
▁Hier	-11.1236
▁transforme	-11.1237
▁Telecharger	-11.1239
▁Guinée	-11.1241
▁Déclaration	-11.1242
▁universitaire	-11.1244
▁constitution	-11.1246
▁57	-11.1247
▁Marché	-11.1251
▁Post	-11.1261
▁voyager	-11.1261
amitié	-11.1263
▁fondation	-11.1263
din	-11.1264
▁tuto	-11.1264
▁cote	-11.1265
uit	-11.1266
ides	-11.1272
▁Mardi	-11.1273
iller	-11.1274
▁conscient	-11.1275
▁éclair	-11.1275
▁touristiques	-11.1276
▁payé	-11.1277
▁Tor	-11.1279
▁Actualité	-11.1279
▁paraître	-11.1282
cc	-11.1284
▁stabilité	-11.1286
▁connait	-11.1289
obligation	-11.129
-12	-11.129
sk	-11.1291
bour	-11.1291
bourg	-11.1292
▁ennemis	-11.1294
▁investissements	-11.1296
▁temple	-11.1297
▁Mod	-11.1299
▁enceinte	-11.1299
fl	-11.13
▁manifeste	-11.1302
▁jeter	-11.1304
▁prendra	-11.1305
▁négatif	-11.1306
▁mensuel	-11.1307
▁réagir	-11.1308
▁paramétrer	-11.131
▁bénévoles	-11.1311
▁immédiate	-11.1314
▁Rennes	-11.1314
▁ravis	-11.1315
rique	-11.1316
▁Mus	-11.1318
opinion	-11.1319
Paul	-11.132
▁intéressé	-11.1321
▁requête	-11.1321
▁(19)	-11.1321
▁informatiques	-11.1322
optimisation	-11.1323
trait	-11.1326
▁orange	-11.1326
▁élevée	-11.1326
▁suspension	-11.1327
▁étranger	-11.1328
▁administrateurs	-11.1329
▁Normandie	-11.1331
▁conservé	-11.1334
▁Ecole	-11.1339
▁câble	-11.134
tisme	-11.1342
▁courir	-11.1343
▁loup	-11.1344
▁adresser	-11.1344
▁CA	-11.1347
▁Fonds	-11.1354
▁personnalisées	-11.1355
▁transformé	-11.1356
▁saura	-11.1357
▁99	-11.1357
union	-11.1361
▁avion	-11.1361
▁prof	-11.1364
▁surprises	-11.1366
▁épisodes	-11.1366
sta	-11.1369
▁valider	-11.1369
▁ciné	-11.137
▁payant	-11.1372
▁Entreprise	-11.1374
▁pauvreté	-11.1374
▁bouteille	-11.1377
▁apparaître	-11.1377
▁Saisissez	-11.1377
▁journaux	-11.138
▁Fleurs	-11.138
▁soutenu	-11.1381
▁accusé	-11.1381
▁console	-11.1383
▁monsieur	-11.1383
▁jury	-11.1384
▁températures	-11.1385
▁monté	-11.1386
▁Tre	-11.1387
président	-11.1387
▁transaction	-11.1389
▁urbain	-11.1389
▁interface	-11.1389
TT	-11.139
▁Connectez	-11.139
expertise	-11.1393
▁Cl	-11.1394
inverse	-11.1397
▁53	-11.1397
Marie	-11.1399
▁particulières	-11.1401
▁vapeur	-11.1401
▁attendu	-11.1402
▁gestes	-11.1403
▁59	-11.1403
▁Mc	-11.1403
▁Ordre	-11.1407
▁Dan	-11.1407
▁Idéal	-11.141
Algérie	-11.141
▁accompli	-11.1412
Avril	-11.1412
Alpes	-11.1413
activ	-11.1415
isent	-11.1416
▁br	-11.1419
▁constituer	-11.142
▁légitime	-11.1425
▁constructeur	-11.1425
▁croient	-11.1425
▁plongée	-11.1426
▁réclamation	-11.1427
emb	-11.1429
work	-11.1429
nette	-11.143
▁affiché	-11.1431
▁perception	-11.1434
▁interprétation	-11.1434
dont	-11.1436
zy	-11.1437
itaire	-11.1439
éditeur	-11.144
▁Domaine	-11.144
intégralité	-11.1441
▁fausse	-11.1443
élaboration	-11.1444
grand	-11.1445
▁Los	-11.1446
▁maîtriser	-11.1446
▁th	-11.1451
▁serre	-11.1452
▁épreuve	-11.1453
amis	-11.1456
▁Frais	-11.1456
▁figurant	-11.1456
▁goûts	-11.1456
▁lumineux	-11.1458
▁Cameroun	-11.146
ST	-11.1461
ath	-11.1461
▁issue	-11.1462
▁pin	-11.1466
▁conflits	-11.1467
▁management	-11.1467
▁éloigné	-11.1469
gel	-11.1473
▁attaques	-11.1474
gra	-11.1474
▁appeler	-11.1475
▁doucement	-11.1475
iff	-11.1475
▁conte	-11.148
▁dépendance	-11.1481
empêcher	-11.1483
chon	-11.1483
▁App	-11.1485
islam	-11.1485
▁députés	-11.1487
adi	-11.1488
lés	-11.1489
▁interventions	-11.1489
bro	-11.1489
▁souple	-11.149
▁PAR	-11.149
▁remercier	-11.149
▁Revue	-11.1494
▁passées	-11.1496
▁obligé	-11.1496
▁merveilleux	-11.1497
▁Mas	-11.1498
hors	-11.1498
▁humide	-11.1499
▁malades	-11.1505
▁2.0	-11.1505
▁lol	-11.1507
▁graines	-11.1507
▁tirage	-11.1508
▁présentée	-11.1508
▁écrivain	-11.1511
▁officiellement	-11.1511
avère	-11.1512
▁relais	-11.1513
▁souhaité	-11.1514
▁baiser	-11.1515
▁crainte	-11.1516
▁Gros	-11.1516
▁Défense	-11.1516
▁portent	-11.1517
▁Gouvernement	-11.1517
cf	-11.1519
▁rémunération	-11.1519
arc	-11.152
▁surpris	-11.152
▁casque	-11.1521
▁champion	-11.1523
mit	-11.1524
▁apprentissage	-11.1524
lia	-11.1525
▁68	-11.1525
▁emplacement	-11.1525
▁exemples	-11.1526
ding	-11.1529
mand	-11.153
mou	-11.153
▁Science	-11.1533
▁servant	-11.1538
▁Asie	-11.1541
▁célèbres	-11.1542
▁prévisions	-11.1546
▁pétrole	-11.1547
▁Guy	-11.155
▁Fond	-11.1551
▁garanties	-11.1552
▁chère	-11.1555
▁sé	-11.1556
▁certification	-11.1558
▁rap	-11.156
stra	-11.1561
energie	-11.1564
▁roulant	-11.1567
identification	-11.1568
struc	-11.1569
▁spectaculaire	-11.157
▁réside	-11.157
▁catastrophe	-11.1572
iale	-11.1573
▁pou	-11.1575
▁styles	-11.1577
▁boîtier	-11.1581
Septembre	-11.1582
▁chrétiens	-11.1583
yo	-11.1583
▁mat	-11.1584
▁cons	-11.1584
▁essais	-11.1584
▁Dar	-11.1584
▁essentielle	-11.1585
▁Berlin	-11.1588
ral	-11.1589
▁progresser	-11.1592
nay	-11.1594
▁riz	-11.1595
▁préférence	-11.1599
▁urbaine	-11.1599
▁Simon	-11.16
▁cré	-11.1601
▁voient	-11.1605
▁1997	-11.1606
▁Sha	-11.1608
▁alentours	-11.161
uré	-11.1611
ius	-11.1611
▁accueilli	-11.1612
▁indépendants	-11.1613
▁nationaux	-11.1615
▁apparaissent	-11.1615
▁mental	-11.1615
▁spirituelle	-11.1615
▁évoque	-11.1617
illant	-11.1617
organiser	-11.1619
▁Résidence	-11.1622
▁viol	-11.1623
établir	-11.1623
▁Ly	-11.1626
▁agricoles	-11.1626
▁retrouvent	-11.1628
UT	-11.1628
▁descend	-11.1628
▁mine	-11.1629
ple	-11.1633
▁fier	-11.1634
▁sauvegarde	-11.1634
nce	-11.1635
nch	-11.1635
▁seuil	-11.1635
▁Aquitaine	-11.1635
ium	-11.1636
▁Tel	-11.1636
▁emplois	-11.1639
olé	-11.1641
▁concerné	-11.1644
▁péri	-11.1645
▁commencent	-11.1647
ash	-11.1648
▁Anglais	-11.1648
ode	-11.1649
▁Ten	-11.1651
rus	-11.1655
AY	-11.1656
TC	-11.1657
▁contenir	-11.1657
▁responsabilités	-11.1658
▁sagesse	-11.1658
▁assis	-11.1659
▁défend	-11.1661
▁diamètre	-11.1662
▁»)	-11.1663
▁Tar	-11.1665
▁formidable	-11.1668
▁administratif	-11.1669
▁Far	-11.167
▁volontaire	-11.1674
▁égal	-11.1678
▁parlent	-11.1679
▁docteur	-11.1683
▁Cam	-11.1685
▁tort	-11.1687
for	-11.1687
▁habituellement	-11.1688
▁logistique	-11.169
▁fixé	-11.1691
81	-11.1692
▁mature	-11.1694
▁restos	-11.1696
▁restera	-11.1696
▁Année	-11.1698
▁Février	-11.1698
▁vif	-11.1698
Dans	-11.17
▁ouverts	-11.1701
hier	-11.1703
Juillet	-11.1705
▁conducteur	-11.1712
crit	-11.1713
▁Vu	-11.1713
chu	-11.1714
▁témoins	-11.1714
éga	-11.1717
adoption	-11.1719
▁Boutique	-11.1719
ART	-11.1719
▁Néanmoins	-11.1719
cap	-11.1719
▁Lac	-11.172
IQUE	-11.1721
▁adoré	-11.1721
▁retourne	-11.1722
▁instruments	-11.1724
▁pis	-11.1724
cri	-11.1725
Mon	-11.1725
▁graves	-11.1727
▁sp	-11.1727
▁Sexe	-11.1728
▁Litres	-11.1728
▁Ok	-11.1729
▁tranche	-11.1729
▁Série	-11.1729
▁performant	-11.173
▁abord	-11.1731
▁confirmé	-11.1733
▁pneus	-11.1735
▁maternelle	-11.1735
▁meurtre	-11.1736
▁Instagram	-11.1737
▁Famille	-11.174
▁Tr	-11.1742
▁Ag	-11.1745
▁Pologne	-11.1745
▁africaine	-11.1746
▁PE	-11.1748
▁similaire	-11.1751
GA	-11.1752
▁attente	-11.1754
▁favorable	-11.1754
▁correction	-11.1756
cas	-11.1756
Ro	-11.1757
▁obligation	-11.1759
▁1996	-11.1759
▁séparation	-11.1759
▁cherchent	-11.1763
▁Pl	-11.1764
gent	-11.1764
▁Data	-11.1765
ust	-11.1767
▁Action	-11.1772
▁gen	-11.1772
▁émission	-11.1772
Informatique	-11.1773
nard	-11.1774
▁ho	-11.1775
▁Denis	-11.1775
ération	-11.1775
▁Sophie	-11.1776
▁transporteur	-11.1779
▁MO	-11.178
▁manche	-11.178
▁clinique	-11.1786
▁considérée	-11.1789
▁Ensemble	-11.1791
▁mineurs	-11.1792
▁boissons	-11.1793
▁Adresse	-11.1794
▁facteur	-11.1796
▁best	-11.1798
▁Sélectionnez	-11.1799
ult	-11.1799
▁Liban	-11.1799
TA	-11.18
▁aff	-11.18
▁technologiques	-11.18
▁investi	-11.1802
▁épi	-11.1802
▁détachées	-11.1803
▁Batterie	-11.1805
cou	-11.1808
▁140	-11.1812
▁déplacements	-11.1817
point	-11.1818
▁conclusion	-11.1819
▁maîtres	-11.1821
▁marquée	-11.1822
-11	-11.1822
▁file	-11.1824
▁révision	-11.1829
pes	-11.183
▁Liens	-11.1832
nos	-11.1835
▁usine	-11.1838
▁juridiques	-11.1838
entendre	-11.1839
gui	-11.1841
▁pal	-11.1841
▁remonter	-11.1843
▁58	-11.1844
Notre	-11.1847
▁capitaine	-11.185
▁jugé	-11.1851
▁directrice	-11.1853
);	-11.1854
Sa	-11.1854
Académie	-11.1855
sia	-11.1862
▁associée	-11.1863
▁consommateur	-11.1863
▁Frédéric	-11.1864
▁arrondissement	-11.1864
▁possèdent	-11.1865
▁longs	-11.1867
▁FRANCE	-11.1869
▁directeurs	-11.187
▁Sujet	-11.1871
▁lectures	-11.1874
▁énergies	-11.1874
▁divorce	-11.1876
▁Constitution	-11.1876
▁free	-11.1876
▁;)	-11.1877
▁mit	-11.1879
▁Manuel	-11.188
▁vas	-11.188
▁chaînes	-11.1881
Juin	-11.1884
▁dedans	-11.1889
▁remarquer	-11.1891
dic	-11.1891
▁verts	-11.1895
CP	-11.1895
▁Fu	-11.1897
▁Sarkozy	-11.1897
▁tre	-11.1898
pul	-11.1899
▁Soyez	-11.1901
▁intime	-11.1903
▁attaché	-11.1905
▁astrologiques	-11.1905
mine	-11.1906
▁croix	-11.1908
Novembre	-11.1908
▁ajoutée	-11.1908
▁essai	-11.1909
▁ministres	-11.1909
sch	-11.1911
eng	-11.1911
▁Para	-11.1913
▁issu	-11.1915
leur	-11.1916
▁montres	-11.1916
▁affecté	-11.1917
▁abonnés	-11.1918
▁profondément	-11.1921
▁technologique	-11.1922
gère	-11.1925
▁indicatif	-11.1925
▁constaté	-11.1926
▁posté	-11.1926
ologique	-11.1927
▁Ton	-11.193
▁correspondance	-11.1932
-8	-11.1933
▁basket	-11.1938
MO	-11.1938
nder	-11.1939
▁conserve	-11.1941
▁provoquer	-11.1943
▁cacher	-11.1944
▁statue	-11.1944
▁indiquant	-11.1947
▁serai	-11.195
▁(5	-11.1951
▁multimédia	-11.1952
▁aidé	-11.1952
▁Vit	-11.1954
▁décrire	-11.1954
él	-11.1961
échec	-11.1961
▁fortune	-11.1964
tér	-11.1965
AI	-11.1965
▁sols	-11.197
▁buts	-11.1972
▁appliquer	-11.1973
▁Suivez	-11.1973
▁qualification	-11.1975
anniversaire	-11.198
▁menée	-11.1981
▁crime	-11.1982
▁pape	-11.1982
illy	-11.1985
▁tournant	-11.1986
▁rentre	-11.1987
hôtes	-11.1988
▁Hall	-11.199
▁pension	-11.1992
▁King	-11.1994
▁patience	-11.1995
hr	-11.1995
AU	-11.1995
tement	-11.1996
▁paru	-11.1996
▁Oh	-11.1998
▁ka	-11.2
▁Suède	-11.2003
photo	-11.2005
▁tonnes	-11.2005
▁Appartement	-11.2006
▁professionnalis	-11.2007
avoue	-11.2007
▁not	-11.2009
▁délégué	-11.2011
entrer	-11.2012
▁priori	-11.2017
▁all	-11.2017
lt	-11.2019
▁guère	-11.2019
dés	-11.202
apporter	-11.2021
▁provient	-11.2024
▁POUR	-11.2025
èche	-11.2026
▁van	-11.2028
▁plaques	-11.2028
▁av	-11.2029
▁protégé	-11.2029
▁fixer	-11.203
▁digitale	-11.203
cept	-11.2032
▁symboliques	-11.2033
éta	-11.2034
▁oct	-11.2034
rale	-11.2036
Li	-11.2038
▁exploitation	-11.2038
éti	-11.2038
coup	-11.2039
▁souhait	-11.204
▁Ep	-11.2042
écri	-11.2042
▁librairie	-11.2042
▁finance	-11.2043
▁FN	-11.2044
onna	-11.2044
▁chrétienne	-11.2045
▁respecte	-11.2047
▁identifiant	-11.2048
500	-11.2048
▁Vierge	-11.2049
▁ki	-11.2049
▁possession	-11.205
8)	-11.2055
▁virtuel	-11.2057
france	-11.2059
ONU	-11.206
▁Bruno	-11.2062
▁Concernant	-11.2064
▁libération	-11.2065
▁migrants	-11.2067
▁from	-11.2068
▁at	-11.2068
▁ru	-11.207
▁examen	-11.207
▁Parfois	-11.2072
▁inoubliable	-11.2076
emballage	-11.2077
▁différences	-11.2077
cs	-11.208
▁Beauté	-11.208
▁séjours	-11.2081
▁bibliothèques	-11.2082
tain	-11.2082
▁IT	-11.2083
phy	-11.2085
ago	-11.2085
▁fermer	-11.2085
▁pollution	-11.2086
émo	-11.2088
▁anonyme	-11.209
▁arme	-11.2091
▁bro	-11.2091
▁défaite	-11.2096
▁Coup	-11.2096
eg	-11.2097
Autres	-11.2097
▁navire	-11.2097
▁coquine	-11.2099
▁externes	-11.21
▁vingtaine	-11.21
▁évènement	-11.2104
▁retenir	-11.2105
col	-11.2108
▁VO	-11.2109
▁manipulation	-11.211
ête	-11.2113
oubli	-11.2113
▁paisible	-11.2114
▁vir	-11.2117
▁Justice	-11.2117
tern	-11.2118
Tout	-11.2119
▁toilette	-11.2119
appui	-11.2119
▁CON	-11.2119
cat	-11.212
▁compromis	-11.2122
<	-11.2122
▁pratiquer	-11.2123
▁Samsung	-11.2124
▁sanitaire	-11.2127
▁1994	-11.2127
▁désactiver	-11.2128
▁Fan	-11.2129
▁communautaire	-11.2129
▁carré	-11.2132
▁locations	-11.2136
▁consulté	-11.2137
mu	-11.2138
▁baise	-11.214
encre	-11.214
amuser	-11.2141
▁Actu	-11.2141
▁Fou	-11.2145
GE	-11.2145
▁dirigeant	-11.2145
▁Décoration	-11.2147
▁gré	-11.2148
▁efficacement	-11.2151
Comité	-11.2151
▁dÃ	-11.2152
▁universelle	-11.2152
▁électorale	-11.2152
▁répondent	-11.2152
▁témoin	-11.2154
▁google	-11.2154
▁Cre	-11.2155
▁pouvais	-11.2156
▁financer	-11.2156
▁blanches	-11.2156
▁musées	-11.2158
▁manches	-11.2161
html	-11.2161
▁montrent	-11.2164
▁Micro	-11.2164
▁robot	-11.2164
▁colonne	-11.2165
▁Installation	-11.2165
ves	-11.2166
>>	-11.2167
▁Machine	-11.2167
▁Fait	-11.2168
▁vive	-11.2169
LES	-11.2169
▁espoir	-11.2172
▁Août	-11.2172
▁Dou	-11.2173
▁représenter	-11.2173
▁ins	-11.2175
▁commandé	-11.2176
▁célébrer	-11.2178
▁coloris	-11.2183
The	-11.2183
▁transparence	-11.2185
engager	-11.2187
▁pratiquement	-11.2187
▁CC	-11.2188
page	-11.219
▁challenge	-11.219
▁Méditerranée	-11.2195
▁fluide	-11.2195
▁commissaire	-11.2195
▁nécessairement	-11.2196
▁BR	-11.2198
▁blonde	-11.2199
▁Av	-11.22
▁muni	-11.22
▁Fonction	-11.2202
▁Net	-11.2203
▁effort	-11.2205
▁us	-11.2207
▁Congrès	-11.2207
▁rêver	-11.2207
ances	-11.2208
PO	-11.2213
bal	-11.2213
kh	-11.2214
web	-11.2215
▁récentes	-11.2215
▁sévère	-11.2216
uk	-11.2217
▁libérer	-11.2218
▁Moto	-11.2219
▁Information	-11.222
2%	-11.2222
▁hauts	-11.2224
▁avancer	-11.2225
▁66	-11.2225
9)	-11.2225
▁Caractère	-11.2226
▁combats	-11.2227
▁Nuit	-11.2228
▁UV	-11.223
are	-11.223
▁nettoyer	-11.2231
▁inutile	-11.2232
▁stages	-11.2232
▁miel	-11.2233
▁mettons	-11.2234
▁phpBB	-11.2236
▁entraîner	-11.224
gué	-11.224
▁Certes	-11.2241
▁répondant	-11.2242
oph	-11.2242
nons	-11.2242
▁décennies	-11.2244
▁Roman	-11.2244
esclavage	-11.2246
▁vols	-11.2246
▁symbolique	-11.2248
ical	-11.2249
▁Ren	-11.2249
RS	-11.225
▁larmes	-11.2252
▁placement	-11.2253
▁fun	-11.2255
pu	-11.2257
ogne	-11.2258
▁techniciens	-11.2262
clés	-11.2262
▁Mobile	-11.2265
▁Washington	-11.2268
▁séduire	-11.2268
Août	-11.2268
▁joint	-11.2276
▁gagnant	-11.2278
Janvier	-11.2278
▁maquillage	-11.2279
immigration	-11.228
▁filet	-11.2288
▁max	-11.2289
▁mythique	-11.229
cia	-11.2292
▁bri	-11.2296
▁emp	-11.2298
CHE	-11.2299
AV	-11.23
▁supprimé	-11.2301
▁expression	-11.2307
▁MA	-11.2307
affichent	-11.231
▁Orient	-11.2311
ég	-11.2312
▁Dia	-11.2315
PH	-11.2316
▁voisin	-11.2317
▁éclairage	-11.2318
▁angle	-11.2318
▁tailles	-11.2319
observation	-11.2319
▁diffuser	-11.2321
▁effectuée	-11.2324
▁_	-11.2328
▁mystère	-11.2329
▁gîte	-11.2329
▁voté	-11.2331
dom	-11.2342
▁NC	-11.2343
▁linge	-11.2345
▁initiatives	-11.2345
nois	-11.2347
▁méchant	-11.2347
▁foncé	-11.2349
▁vitrines	-11.2351
▁chanteur	-11.2352
▁”	-11.2353
isson	-11.2356
▁Responsable	-11.2358
assi	-11.2362
▁pourriez	-11.2363
▁Fer	-11.2366
▁originaire	-11.2366
▁Rock	-11.2368
▁Donald	-11.2369
▁paie	-11.237
Michel	-11.2378
UC	-11.2379
aucun	-11.2379
bat	-11.2379
dent	-11.2384
▁drame	-11.2385
▁numéros	-11.2387
▁racines	-11.2388
▁parlant	-11.2388
dage	-11.2389
rd	-11.2393
▁Dame	-11.2394
▁amené	-11.2394
▁trajet	-11.2397
▁jaunes	-11.2398
▁voulons	-11.2399
Qu	-11.2399
évènement	-11.2402
▁allée	-11.2404
▁souffre	-11.2404
▁XIXe	-11.2405
▁exprimer	-11.2407
TRE	-11.241
intermédiaire	-11.241
▁app	-11.2412
▁attendent	-11.2414
▁trouble	-11.2414
▁immeuble	-11.2415
▁Immobilier	-11.2418
▁papiers	-11.2418
▁RT	-11.2423
sson	-11.2423
▁Sun	-11.2424
matique	-11.2425
▁Spa	-11.2429
ssait	-11.2429
▁descente	-11.2429
▁plombier	-11.243
▁Générale	-11.2432
▁médaille	-11.2432
imo	-11.2432
▁bâti	-11.2433
▁intervient	-11.2434
▁Bravo	-11.2434
aba	-11.2435
▁(15	-11.2437
▁inf	-11.2439
▁Mat	-11.2439
▁Fils	-11.2442
▁pack	-11.2442
sky	-11.2443
▁gorge	-11.2444
▁analyser	-11.2445
▁Ac	-11.2447
▁douleurs	-11.2448
▁chemins	-11.2448
serv	-11.245
▁régie	-11.2451
▁spa	-11.2452
▁réactions	-11.2453
▁fantastique	-11.2453
▁Marcel	-11.2454
PC	-11.2455
pent	-11.2456
▁Technique	-11.2458
▁Cité	-11.246
▁Images	-11.2461
▁pomme	-11.2461
▁déterminé	-11.2463
ige	-11.2463
▁HTML	-11.2464
▁considération	-11.2466
▁Entretien	-11.2471
▁accessoire	-11.2472
/24	-11.2472
▁chaudière	-11.2473
▁seules	-11.2474
▁sonore	-11.2475
▁pilotes	-11.2478
▁trouvait	-11.2481
▁souhaiter	-11.2482
▁Ste	-11.2482
VA	-11.2484
▁TF	-11.2485
▁maillot	-11.2487
▁Orange	-11.2489
▁nettement	-11.2491
▁carbone	-11.2494
▁moulin	-11.2496
Février	-11.2496
▁subir	-11.2497
▁artistiques	-11.2497
agé	-11.2499
▁her	-11.2499
▁puissante	-11.2499
▁installée	-11.25
▁dirigé	-11.2501
▁affichés	-11.2503
agissait	-11.2503
▁bénéfice	-11.2503
instruction	-11.2504
▁Achat	-11.2507
hol	-11.2507
▁prit	-11.2508
EST	-11.2508
▁gu	-11.2508
▁averti	-11.251
▁déclare	-11.2514
▁Texte	-11.2515
▁Fête	-11.2519
▁Catégorie	-11.252
▁japonaise	-11.2523
▁portefeuille	-11.2524
▁listes	-11.2527
▁Dom	-11.2528
▁honte	-11.253
▁supplément	-11.253
▁surfaces	-11.2533
isolation	-11.2534
▁recueil	-11.2534
▁psycho	-11.2535
▁délégation	-11.2536
▁autorité	-11.2537
sie	-11.2538
mant	-11.2539
ifs	-11.2541
▁masque	-11.2546
▁rayons	-11.2547
▁Collection	-11.2549
▁touristes	-11.2549
▁Catherine	-11.2549
▁700	-11.2551
rien	-11.2551
▁Royal	-11.2553
▁Monaco	-11.2555
ram	-11.2556
▁Quels	-11.2558
▁mixte	-11.256
ction	-11.2561
ë	-11.2568
fic	-11.2573
▁fonctionnent	-11.2574
via	-11.2575
▁animée	-11.2576
▁réunions	-11.2577
▁plaire	-11.2577
▁bombe	-11.2578
▁business	-11.2583
▁SUR	-11.2583
▁serrurier	-11.2584
ulaire	-11.2585
Car	-11.2586
attends	-11.2587
▁Nor	-11.2592
CR	-11.2592
▁visitez	-11.2593
▁Jou	-11.2594
RP	-11.2597
▁minéral	-11.2602
▁canadienne	-11.2602
°3	-11.2602
▁négative	-11.2604
altitude	-11.2605
humidité	-11.2607
▁RO	-11.2607
▁pertes	-11.2607
▁Meuble	-11.2607
▁roue	-11.2608
▁AG	-11.2608
▁Laissez	-11.261
▁dégage	-11.2612
▁Flo	-11.2613
▁existent	-11.2615
▁adhérents	-11.2616
▁préparé	-11.2616
▁combattre	-11.2618
rement	-11.2618
▁Sites	-11.2619
▁imprimé	-11.262
▁Personne	-11.262
▁perspectives	-11.2621
rencontre	-11.2627
▁tablettes	-11.2627
▁rigueur	-11.2627
▁Collège	-11.2627
▁Concours	-11.2629
Louis	-11.2631
▁Magasin	-11.2632
mus	-11.2633
")	-11.2633
humain	-11.2634
▁Allez	-11.2635
▁comptable	-11.2636
▁oreilles	-11.2637
ei	-11.2638
▁130	-11.264
▁chi	-11.2642
▁poussière	-11.2642
▁Kar	-11.2643
▁aides	-11.2644
hen	-11.2644
▁Exemple	-11.2645
▁fraîche	-11.2648
▁Pol	-11.2648
▁race	-11.2652
▁Eh	-11.2653
▁parcs	-11.2653
▁op	-11.2654
▁ac	-11.2656
▁rejet	-11.2657
▁façade	-11.2664
thèque	-11.2666
▁porc	-11.2667
ignon	-11.2668
▁détruit	-11.2668
▁Quoi	-11.267
▁Déjà	-11.2673
▁suggestions	-11.2673
RI	-11.2674
▁incapable	-11.2676
▁fiabilité	-11.2679
▁disposent	-11.2679
▁alerte	-11.268
ande	-11.2682
▁Membre	-11.2682
▁personnalités	-11.2683
▁concentré	-11.2684
ancé	-11.2685
▁Nu	-11.2687
▁fabriquer	-11.2688
▁appelés	-11.2688
▁ruban	-11.2689
▁Ins	-11.2689
outils	-11.2691
shirt	-11.2691
▁suppose	-11.2691
▁recherché	-11.2692
▁Défenseur	-11.2692
▁Pyrénées	-11.2695
▁Marketing	-11.2696
▁concevoir	-11.2701
-6	-11.2702
▁bête	-11.2706
▁environs	-11.2707
gor	-11.2708
▁senti	-11.2708
NI	-11.2709
▁Arbres	-11.271
▁organique	-11.2711
▁initiative	-11.2713
▁départements	-11.2714
▁civilisation	-11.2715
change	-11.2715
▁tourné	-11.2715
▁géré	-11.2716
▁bloquer	-11.2716
▁trésor	-11.2716
▁Serge	-11.2717
▁sexuel	-11.2718
▁fameuse	-11.2724
▁Faut	-11.2726
rum	-11.2729
▁déf	-11.2729
çon	-11.2731
▁problématique	-11.2731
▁Environnement	-11.2731
▁représentations	-11.2734
▁humanitaire	-11.2735
▁ludique	-11.2735
▁Mairie	-11.2735
ute	-11.2742
▁veste	-11.2743
▁AL	-11.2743
omp	-11.2744
▁Ligne	-11.2745
▁éthique	-11.2747
Voir	-11.2748
▁créant	-11.2751
mètre	-11.2752
▁clan	-11.2754
▁habitation	-11.2758
▁Australie	-11.2758
▁conc	-11.2759
▁sexualité	-11.2759
▁manga	-11.2759
ace	-11.2761
▁traditions	-11.2761
Me	-11.2762
rance	-11.2762
but	-11.2763
gres	-11.2764
▁nourrir	-11.2765
▁Café	-11.2765
▁artificielle	-11.2766
▁élection	-11.2767
éclairage	-11.2768
▁brut	-11.277
▁Maria	-11.2771
▁récupération	-11.2774
▁160	-11.2775
▁violences	-11.2779
▁monuments	-11.2781
▁cuivre	-11.2781
avi	-11.2781
▁guider	-11.2782
▁requis	-11.2782
▁écart	-11.2785
▁avancée	-11.2788
gal	-11.2789
▁réfugiés	-11.2789
▁placée	-11.2791
▁troupes	-11.2794
lire	-11.2797
▁spéciaux	-11.2799
▁réveil	-11.2803
▁Transport	-11.2803
▁Analyse	-11.2805
MI	-11.2806
▁Kan	-11.2806
▁révélé	-11.2809
▁High	-11.281
▁Sacs	-11.2812
▁détruire	-11.2817
▁Madrid	-11.2817
iche	-11.2817
péri	-11.2818
▁%)	-11.2819
▁flotte	-11.282
BA	-11.282
▁Surtout	-11.2822
ffe	-11.2822
▁compagnon	-11.2824
▁diffusé	-11.2827
▁sélectionnés	-11.2833
▁pc	-11.2836
▁couronne	-11.2836
▁Mort	-11.2837
▁originaux	-11.2838
AIRE	-11.284
▁considérable	-11.2841
▁tombée	-11.2841
▁étrangère	-11.2842
▁architecture	-11.2843
iki	-11.2846
▁Harry	-11.2847
▁vé	-11.2849
▁brun	-11.2849
▁capables	-11.285
▁Commune	-11.2851
▁George	-11.2854
celle	-11.2854
ii	-11.2855
cra	-11.2858
▁drogue	-11.2859
attendre	-11.2859
ero	-11.2859
▁Dj	-11.286
▁Yves	-11.2862
▁provoque	-11.2865
lac	-11.2866
▁armée	-11.2871
▁policiers	-11.2871
▁discrimination	-11.2871
▁transmis	-11.2873
/1	-11.2873
▁romans	-11.2874
·	-11.2875
▁barbecue	-11.2877
▁parcourir	-11.2877
▁jazz	-11.2878
▁Classe	-11.2879
▁Vin	-11.288
▁impôts	-11.2881
▁ferait	-11.2881
▁écrits	-11.2882
▁régulière	-11.2884
▁Créer	-11.2884
▁balance	-11.2885
▁philosophe	-11.2888
Photo	-11.2889
▁intègre	-11.289
mor	-11.2892
▁contribue	-11.2892
▁nation	-11.2892
ella	-11.2896
▁gloire	-11.2898
▁congrès	-11.2898
▁ménages	-11.2899
▁qualifié	-11.2902
▁prochains	-11.2905
ssage	-11.2906
apparition	-11.2907
atur	-11.2908
▁Mark	-11.2908
▁Support	-11.291
▁balle	-11.291
venant	-11.2912
▁Cat	-11.2913
▁cougar	-11.2915
ava	-11.2917
▁savais	-11.2917
hy	-11.2917
▁violent	-11.2918
▁ultime	-11.2919
▁fidèles	-11.2919
prise	-11.2921
▁disques	-11.2922
▁effectuées	-11.2923
▁88	-11.2924
▁Victor	-11.2924
onglet	-11.2931
▁Ouest	-11.2931
venu	-11.2933
▁jean	-11.2934
▁Grenoble	-11.2934
▁Chacun	-11.2934
▁chimiques	-11.2938
back	-11.294
▁respectifs	-11.2941
▁pensent	-11.2942
Br	-11.2944
▁Zone	-11.2945
▁perles	-11.2945
nia	-11.2948
▁opinion	-11.2948
Com	-11.2952
▁planche	-11.2953
▁Alexandre	-11.2953
▁citation	-11.2955
▁réalisations	-11.2956
3%	-11.2959
▁pédagogiques	-11.2959
arriver	-11.296
6%	-11.2964
▁ayez	-11.2965
▁Video	-11.2966
▁fixation	-11.2972
▁form	-11.2973
interprétation	-11.2973
▁opposition	-11.2974
essayer	-11.2976
▁franco	-11.2981
▁Jeune	-11.2981
▁affirmé	-11.2981
nov	-11.2983
▁gla	-11.2984
▁FAQ	-11.2984
act	-11.2985
dan	-11.2987
▁voila	-11.2988
▁nouveauté	-11.2989
terie	-11.2989
▁Ze	-11.299
▁Astrotheme	-11.2997
▁René	-11.2998
▁(0)	-11.2998
▁État	-11.2999
▁Ob	-11.2999
▁bière	-11.3003
▁agréé	-11.3003
▁islamique	-11.3004
▁autonome	-11.3006
▁investir	-11.3006
habitation	-11.3008
▁bancaires	-11.3008
▁fé	-11.3008
aurez	-11.3011
▁princesse	-11.3012
▁résolu	-11.3013
▁génétique	-11.3013
▁régulier	-11.3014
lam	-11.3014
▁fréquent	-11.3018
augmenter	-11.3018
▁récits	-11.3019
▁mépris	-11.302
▁assemblée	-11.302
▁typique	-11.3022
▁PARIS	-11.3024
▁militants	-11.3024
▁gère	-11.3026
SC	-11.3027
ibilité	-11.3028
taient	-11.3028
▁Conseils	-11.3028
cier	-11.3028
▁ber	-11.3029
▁étonnant	-11.3029
▁750	-11.3031
▁visibles	-11.3031
▁ressent	-11.3035
pho	-11.3035
▁électro	-11.3037
▁dépasse	-11.3038
▁Alex	-11.3038
▁assurée	-11.3039
Inde	-11.304
▁passagers	-11.3041
▁fréquemment	-11.3042
▁HT	-11.3042
▁réaliste	-11.3044
DD	-11.3045
AND	-11.3045
▁1992	-11.3048
logique	-11.3051
▁développée	-11.3053
▁roche	-11.3055
▁coupable	-11.3056
nny	-11.3056
▁Network	-11.3058
▁paradis	-11.3059
▁rassemble	-11.306
▁Libertés	-11.306
▁bénéficient	-11.3061
▁noires	-11.3063
▁blocage	-11.3067
▁(6	-11.3067
▁retenue	-11.3068
▁verrez	-11.3068
▁refuge	-11.307
▁crimes	-11.307
nge	-11.307
▁Concert	-11.307
▁stations	-11.3072
▁vivante	-11.3073
▁plonge	-11.3077
▁cardiaque	-11.3077
dr	-11.3077
▁Gre	-11.3077
▁créateurs	-11.308
▁réunis	-11.3082
▁ya	-11.3082
augmentation	-11.3083
▁égard	-11.3084
▁bateaux	-11.3086
▁eff	-11.3087
▁faibles	-11.3087
chauff	-11.3089
▁Us	-11.309
▁Vietnam	-11.3091
▁scandale	-11.3095
▁caché	-11.3097
▁pourcentage	-11.3098
▁régionales	-11.31
▁constitutionnel	-11.31
▁marchandises	-11.3102
IX	-11.3102
▁entrepreneurs	-11.3103
▁Accès	-11.3103
anc	-11.3105
▁lampe	-11.3107
dant	-11.311
▁Heureusement	-11.3111
▁tiennent	-11.3112
▁affronter	-11.3114
▁couvrir	-11.3115
▁imaginer	-11.3115
▁uniques	-11.3116
▁consommer	-11.3116
▁SMS	-11.3116
▁pensais	-11.3117
▁Photographie	-11.3125
▁Professeur	-11.3125
roll	-11.3127
▁Mouvement	-11.3127
▁compagnies	-11.3128
▁étroite	-11.3131
ern	-11.3131
▁SI	-11.3135
▁Business	-11.3135
▁déterminée	-11.3138
▁absolue	-11.3138
lles	-11.3145
▁dette	-11.3145
▁63	-11.3146
▁décline	-11.3146
▁faim	-11.3148
▁adolescents	-11.3148
▁relatifs	-11.3149
éo	-11.3149
▁survie	-11.315
▁chair	-11.315
▁universel	-11.3151
▁définitive	-11.3151
▁dieu	-11.3154
▁indiquée	-11.3155
▁Secteur	-11.3156
▁pl	-11.3157
▁fataliste	-11.3162
▁détour	-11.3163
▁gar	-11.3163
EF	-11.3163
▁Assurance	-11.3163
fond	-11.3164
▁classés	-11.3165
▁goûter	-11.3165
▁RP	-11.3167
▁abonner	-11.3171
▁occidentale	-11.3172
▁polémique	-11.3173
▁enregistrées	-11.3175
▁Seul	-11.3175
▁juger	-11.3177
tho	-11.3179
8%	-11.3181
▁lits	-11.3181
uck	-11.3182
▁manager	-11.3184
ssez	-11.3184
vet	-11.3184
▁cro	-11.3185
▁terrains	-11.3188
▁faciles	-11.3189
lent	-11.319
▁psy	-11.3191
▁anglaise	-11.3192
▁postale	-11.3192
card	-11.3193
nisme	-11.3193
exactitude	-11.3194
vais	-11.3196
▁PA	-11.3197
▁appartements	-11.3198
▁gén	-11.3198
▁employé	-11.3198
▁Management	-11.3199
▁dérive	-11.3199
az	-11.32
▁ES	-11.3202
▁gentillesse	-11.3203
▁quinze	-11.3205
▁établie	-11.3206
▁team	-11.3207
▁justifier	-11.3208
tère	-11.3208
▁durer	-11.3208
▁élevés	-11.3209
écrit	-11.321
▁généreux	-11.321
▁Peter	-11.3211
▁rés	-11.3215
▁Remarque	-11.3217
▁Techniques	-11.3217
▁1,5	-11.3221
▁Ros	-11.3222
autonomie	-11.3226
▁écriture	-11.3227
▁adjoint	-11.3228
aka	-11.3229
▁opérateurs	-11.3229
▁Petites	-11.323
▁(17	-11.3233
▁fonctionnaires	-11.3234
▁thématique	-11.3234
accident	-11.3234
▁circulaire	-11.3235
▁Mission	-11.3235
▁originales	-11.3237
▁Garde	-11.3237
▁up	-11.3237
▁Résultats	-11.3239
▁spirituel	-11.3241
▁Inscription	-11.3241
sif	-11.3243
▁pouvaient	-11.3246
▁sièges	-11.3246
▁filière	-11.3246
los	-11.3246
▁Vienne	-11.3246
arme	-11.3248
▁albums	-11.3248
taire	-11.325
▁fermée	-11.3251
▁moule	-11.3251
▁incluant	-11.3251
▁construite	-11.3253
▁Meilleur	-11.3254
▁terminée	-11.3254
▁attitude	-11.3255
▁Reste	-11.3256
▁récents	-11.3259
▁Camp	-11.326
▁incendie	-11.326
mée	-11.3261
▁rem	-11.3263
impose	-11.3264
rich	-11.3266
▁Anna	-11.3266
▁adopter	-11.3266
EZ	-11.3269
▁Pla	-11.3273
ico	-11.3275
▁poussé	-11.3275
▁tournage	-11.3277
▁Portail	-11.3279
chain	-11.328
rn	-11.3282
arrange	-11.3283
naires	-11.3286
eacute	-11.3286
international	-11.3286
▁immobiliers	-11.3288
▁constate	-11.3293
ual	-11.3294
▁DI	-11.3295
▁vôtre	-11.3297
▁évaluer	-11.3298
ye	-11.3299
ifiant	-11.3299
pens	-11.33
▁conçue	-11.33
intégrer	-11.3301
▁auxquelles	-11.3303
analyser	-11.3303
▁perdue	-11.3303
▁paiements	-11.3305
▁terrorisme	-11.3305
▁carburant	-11.3306
▁variés	-11.3307
▁extérieurs	-11.331
▁enseigne	-11.3311
acceptation	-11.3312
sti	-11.3312
▁??	-11.3312
▁Lion	-11.3313
▁Révolution	-11.3314
EMENT	-11.3314
▁modération	-11.3316
▁estimé	-11.3318
▁And	-11.3318
▁Bourgogne	-11.3319
▁pantalon	-11.3321
Atelier	-11.3322
igue	-11.3323
▁Crédit	-11.3325
▁cabine	-11.3327
armes	-11.3329
▁prouver	-11.333
▁ge	-11.3331
▁saisi	-11.3332
▁Force	-11.3334
▁GPS	-11.3335
ich	-11.3335
eb	-11.3335
oï	-11.3336
▁poker	-11.3336
▁Blue	-11.3337
▁AS	-11.3337
▁débute	-11.334
ssy	-11.334
cité	-11.3343
▁Avertissement	-11.3343
▁Heures	-11.3345
▁formé	-11.3345
éco	-11.3348
▁Mad	-11.3348
ILL	-11.335
▁mécanismes	-11.3351
sauf	-11.3351
év	-11.3351
venir	-11.3351
▁psychologie	-11.3352
▁Fre	-11.3352
▁ados	-11.3352
mn	-11.3353
▁93	-11.3354
osse	-11.3357
low	-11.3358
EA	-11.3358
▁réglage	-11.3359
▁Psychologie	-11.336
MP	-11.3362
▁(+	-11.3364
▁fibre	-11.3365
▁autonomie	-11.3366
lev	-11.3368
▁opinions	-11.3369
▁appartenant	-11.3371
sseur	-11.3372
...|	-11.3373
sible	-11.3374
▁suspect	-11.3374
espèce	-11.3374
▁géo	-11.3374
BO	-11.3376
/10/	-11.3377
▁conjoint	-11.3377
4%	-11.3379
/01/	-11.3379
▁situés	-11.3379
▁Version	-11.3386
Esprit	-11.3391
▁mystérieux	-11.3393
ney	-11.3393
▁AM	-11.3397
blog	-11.3398
Tech	-11.3399
▁FA	-11.3403
▁script	-11.3405
▁courts	-11.3408
▁rembourser	-11.3409
▁Docteur	-11.3409
▁remporté	-11.3412
▁assisté	-11.3412
▁modérateur	-11.3414
▁Nov	-11.3414
▁off	-11.3415
▁génial	-11.3415
▁soldes	-11.3416
▁Hé	-11.3418
▁dég	-11.3418
▁couches	-11.3422
▁obtient	-11.3422
▁corriger	-11.3422
▁constamment	-11.3423
▁jouent	-11.3425
▁promesse	-11.3426
▁recommander	-11.3428
guer	-11.3428
aki	-11.3428
▁esprits	-11.3431
▁CNIL	-11.3431
▁diminuer	-11.3433
▁délicieux	-11.3434
▁détaillée	-11.3435
Ha	-11.3435
▁Han	-11.344
accent	-11.3441
▁salaires	-11.3446
▁fabrique	-11.3446
Aide	-11.3448
▁2010,	-11.3448
▁provisoire	-11.345
▁nulle	-11.3451
Gr	-11.3452
▁Droits	-11.3452
▁Music	-11.3452
▁laine	-11.3452
ligne	-11.3453
▁67	-11.3453
▁financé	-11.3456
▁Ban	-11.3458
▁ordonnance	-11.3459
▁internes	-11.3459
▁charmant	-11.346
DF	-11.3463
▁satellite	-11.3464
IB	-11.3466
▁Day	-11.3467
▁salade	-11.3467
▁déposé	-11.3468
appuie	-11.3469
▁complexité	-11.3472
▁Dossier	-11.3473
▁preuves	-11.3474
▁essentiels	-11.3476
▁traités	-11.3477
▁Miss	-11.3477
▁feux	-11.3478
amine	-11.3482
▁demandez	-11.3484
ifiée	-11.3484
▁intention	-11.3485
▁dévoilé	-11.3486
▁Construction	-11.3487
ith	-11.3487
▁proportion	-11.3488
▁déçu	-11.3488
2010	-11.3489
▁actuels	-11.3492
▁préavis	-11.3495
▁accordé	-11.3495
ifie	-11.3496
▁permissions	-11.3496
▁usages	-11.3498
▁enseignement	-11.35
▁Long	-11.3502
▁Shi	-11.3503
▁litige	-11.3504
▁Mondial	-11.3505
ESS	-11.3506
▁procurer	-11.3506
▁prétexte	-11.3506
▁socialiste	-11.3507
▁coordination	-11.3509
▁neutre	-11.3509
▁!!!!	-11.351
▁1970	-11.3512
▁relié	-11.3514
▁variable	-11.3517
▁nationalité	-11.3517
▁iPad	-11.3519
▁Maire	-11.3519
▁plateformes	-11.3521
▁Partie	-11.3521
▁CAP	-11.3524
00€	-11.3525
suiv	-11.3525
400	-11.3526
▁(23)	-11.3527
▁plomb	-11.3527
▁localisation	-11.3527
kg	-11.3528
Office	-11.3533
uy	-11.3539
▁administratives	-11.3541
▁démarrage	-11.3542
▁poétique	-11.3542
▁disparaître	-11.3544
▁attribué	-11.3544
IO	-11.3544
▁galeries	-11.3547
▁genres	-11.3547
▁Jan	-11.3548
hin	-11.3548
▁imposé	-11.3549
▁tro	-11.3549
▁CGV	-11.355
ssons	-11.3555
▁Will	-11.3555
bois	-11.3555
ANCE	-11.3556
▁Déco	-11.3556
vente	-11.3556
▁Game	-11.3557
rt	-11.3558
▁créatifs	-11.3558
nit	-11.3559
▁hautes	-11.3559
▁révéler	-11.3561
▁démonstration	-11.3561
▁50%	-11.3563
▁blogs	-11.3565
▁Offres	-11.3565
▁perfection	-11.3565
▁surf	-11.3568
▁rideaux	-11.3569
▁popularité	-11.357
▁Barcelone	-11.357
▁Nouvelles	-11.3575
ception	-11.3575
Luc	-11.3575
▁offensif	-11.3578
▁GR	-11.3578
▁West	-11.3578
▁visuel	-11.358
Bou	-11.3582
▁sublime	-11.3582
▁ennemi	-11.3583
tir	-11.3583
▁entré	-11.3584
▁miracle	-11.3584
aliser	-11.3585
Israël	-11.3586
aimer	-11.3586
▁Union	-11.3587
▁76	-11.3589
▁WC	-11.3591
▁espérons	-11.3592
▁multitude	-11.3592
UP	-11.3593
▁courtes	-11.3595
▁Dor	-11.3596
ura	-11.3597
▁oblige	-11.3597
▁placard	-11.3598
▁dîner	-11.3599
▁humour	-11.3601
▁thérapeutique	-11.3603
▁Pensez	-11.3603
▁fous	-11.3604
▁Mixte	-11.3604
rateur	-11.3607
sport	-11.3607
▁résister	-11.3608
▁CM	-11.361
▁Sénat	-11.3611
▁observer	-11.3611
▁mix	-11.3614
▁Villes	-11.3615
▁saisie	-11.3616
▁Green	-11.3617
▁occupe	-11.3618
UB	-11.3621
▁Plat	-11.3622
▁artisan	-11.3623
▁PL	-11.3624
▁infrastructures	-11.3627
élite	-11.3628
▁compteur	-11.3629
écris	-11.363
▁soumettre	-11.3632
▁Ressources	-11.3634
pic	-11.3635
ks	-11.3635
phon	-11.3635
▁Hors	-11.3636
▁Cri	-11.3636
FC	-11.3636
▁vendus	-11.3641
▁minimale	-11.3642
▁Angleterre	-11.3643
▁provenance	-11.3643
▁dégâts	-11.3643
▁Entrée	-11.3643
EX	-11.3643
empêche	-11.3644
▁alliance	-11.3644
▁tribu	-11.3647
▁hall	-11.3648
▁har	-11.3648
▁ph	-11.3651
mond	-11.3651
tou	-11.3655
▁débarque	-11.3657
elli	-11.3658
▁Audio	-11.3659
▁survivre	-11.3659
▁toiture	-11.366
▁AC	-11.3661
▁foie	-11.3662
▁viendra	-11.3663
▁inclut	-11.3663
▁campagnes	-11.3666
illi	-11.3666
nic	-11.3667
▁mn	-11.3669
▁étudiante	-11.3671
▁CN	-11.3671
▁rassemblement	-11.3672
▁certitude	-11.3674
▁tiendra	-11.3674
▁plancher	-11.3674
▁mani	-11.3675
▁Magazine	-11.3679
▁cellule	-11.3681
▁réunit	-11.3681
mir	-11.3682
▁sélectionnez	-11.3683
cip	-11.3684
zer	-11.3684
▁transmises	-11.3685
riel	-11.3686
▁Colombie	-11.3688
▁saine	-11.369
▁chanter	-11.369
▁réfléchi	-11.3692
▁ordres	-11.3692
▁marchand	-11.3694
▁arc	-11.3696
▁soutient	-11.3697
▁Rejoignez	-11.3699
▁peintures	-11.3699
▁suffisant	-11.3701
▁approprié	-11.3702
▁précédents	-11.3702
▁resté	-11.3705
voi	-11.3707
▁Pôle	-11.3707
▁issues	-11.3709
▁Bay	-11.371
rsquo	-11.371
▁Documentaires	-11.3711
▁inconnu	-11.3712
obtention	-11.3715
▁Quelles	-11.3715
▁avocats	-11.3717
alerte	-11.3718
▁poursuite	-11.3718
▁registre	-11.3719
▁mecs	-11.3721
▁(25)	-11.3721
▁sexuelles	-11.3722
explique	-11.3724
▁gâteau	-11.3725
▁cl	-11.3726
▁Studio	-11.3726
▁mentionné	-11.3729
▁Introduction	-11.3729
▁Style	-11.373
Des	-11.3732
▁angulaire	-11.3733
▁effectués	-11.3734
▁serons	-11.3735
mod	-11.3736
▁policier	-11.3736
Am	-11.3738
▁menaces	-11.3738
ITE	-11.374
▁aient	-11.3741
▁conf	-11.3742
ms	-11.3742
▁extraits	-11.3742
▁augmenté	-11.3742
▁identique	-11.3742
▁Isabelle	-11.3744
▁visuels	-11.3744
▁imprimer	-11.3745
▁Restaurant	-11.3748
▁Gris	-11.3749
Zélande	-11.375
▁renseignement	-11.3751
issi	-11.3752
uma	-11.3752
▁Ball	-11.3754
tat	-11.3754
▁900	-11.3757
emment	-11.3758
▁engager	-11.3759
▁coupé	-11.3762
▁solitude	-11.3762
artistes	-11.3763
▁dia	-11.3763
▁Win	-11.3764
▁sérénité	-11.3764
▁demandent	-11.3765
▁explorer	-11.377
uant	-11.3771
▁charbon	-11.3773
▁extrême	-11.3775
▁partiellement	-11.3775
▁émis	-11.3776
▁investisseurs	-11.3777
bla	-11.3777
▁offerte	-11.3781
▁Mohamed	-11.3781
vor	-11.3781
UV	-11.3782
VI	-11.3782
▁Ku	-11.3783
▁transactions	-11.3783
▁masculin	-11.3784
▁job	-11.3785
▁assistance	-11.3786
▁filtres	-11.3788
▁enlever	-11.3789
▁ke	-11.3789
▁collecter	-11.3789
▁crochet	-11.379
▁oeufs	-11.3791
FF	-11.3792
▁Mil	-11.3792
▁éd	-11.3793
/2018	-11.3795
tête	-11.3795
encontre	-11.3795
▁digital	-11.3796
▁adaptation	-11.3796
▁gardé	-11.3798
▁Sébastien	-11.3801
▁opportunités	-11.3804
atteindre	-11.3804
▁engagée	-11.3804
inquiétude	-11.3805
sante	-11.3808
▁étudier	-11.381
ieu	-11.3812
isser	-11.3813
▁ret	-11.3815
▁Media	-11.3815
▁Appuyez	-11.3818
▁passez	-11.382
alisme	-11.3821
▁simulation	-11.3822
VE	-11.3823
▁Ker	-11.3824
ards	-11.3825
▁Venise	-11.3827
rio	-11.3828
tie	-11.3828
▁lisse	-11.383
lez	-11.3831
▁Florence	-11.3833
▁HP	-11.3834
▁coco	-11.3834
▁plume	-11.3835
▁confié	-11.3838
▁pat	-11.384
pdf	-11.384
eries	-11.3841
▁vaccin	-11.3842
▁74	-11.3843
▁Base	-11.3844
▁Lecteur	-11.3844
▁abandonné	-11.3844
▁enregistre	-11.3846
Angleterre	-11.3847
occupe	-11.385
▁choisit	-11.385
▁plastiques	-11.3851
tive	-11.3851
▁grec	-11.3853
▁affection	-11.3855
▁apport	-11.3856
▁tennis	-11.3856
▁syndicats	-11.3856
aya	-11.3857
rg	-11.3858
▁(12	-11.3859
tré	-11.3864
bot	-11.3865
aval	-11.3865
▁huiles	-11.3866
▁animale	-11.3866
▁bouger	-11.3867
▁détermination	-11.3867
▁centaine	-11.3868
▁parquet	-11.3868
▁francs	-11.3869
▁fragile	-11.3871
▁prés	-11.3877
▁officiels	-11.3879
eff	-11.3881
octobre	-11.3885
aw	-11.3887
2011	-11.3887
▁entrées	-11.3887
iter	-11.3888
▁Cas	-11.3888
▁applique	-11.389
▁61	-11.3892
▁Champ	-11.3894
nou	-11.3895
▁massacre	-11.3896
FA	-11.3896
▁mécanisme	-11.3897
garde	-11.3897
▁CP	-11.39
tais	-11.3902
▁faculté	-11.3903
▁validité	-11.3905
9%	-11.3907
LO	-11.3907
▁debout	-11.3908
rick	-11.391
éléments	-11.391
Air	-11.391
▁RH	-11.3911
▁lumières	-11.3912
▁abri	-11.3912
▁censure	-11.3913
▁notaire	-11.3916
lien	-11.3922
▁extension	-11.3922
2009	-11.3924
▁rigide	-11.3925
▁Hôtels	-11.3926
▁jolies	-11.3927
ring	-11.3927
▁expos	-11.3928
▁confie	-11.3933
▁banlieue	-11.3934
FI	-11.3936
tien	-11.3937
▁aérien	-11.3939
graphe	-11.394
▁réductions	-11.3941
▁acquérir	-11.3941
▁dramatique	-11.3941
▁tiré	-11.3942
▁Village	-11.3942
▁jouet	-11.3944
▁vitre	-11.3944
▁colloque	-11.3945
▁gamin	-11.3947
▁rappelé	-11.3949
▁avancées	-11.3949
▁new	-11.3949
▁(16	-11.3951
▁transmet	-11.3952
▁Social	-11.3953
SM	-11.3958
get	-11.396
▁Bro	-11.3961
▁schéma	-11.3962
▁Ham	-11.3964
▁lentement	-11.3965
pla	-11.3965
▁economie	-11.3974
▁pouces	-11.3979
▁94	-11.3979
OI	-11.398
icule	-11.3981
rop	-11.3982
vou	-11.3984
source	-11.3985
▁10%	-11.3986
▁vernis	-11.3986
php	-11.3986
Jeux	-11.3987
▁retours	-11.3989
▁neufs	-11.3989
▁tactile	-11.3992
▁lourde	-11.3994
chez	-11.3994
▁Patrimoine	-11.3996
▁secs	-11.3997
▁corruption	-11.3998
▁forêts	-11.3998
▁espère	-11.4001
▁sauvages	-11.4004
▁Week	-11.4007
adapte	-11.4009
mag	-11.401
▁étudié	-11.4011
▁Nathalie	-11.4012
/11	-11.4013
▁Angeles	-11.4018
▁Niveau	-11.4019
élu	-11.402
▁Lieu	-11.402
dos	-11.4021
▁chaine	-11.4022
▁Lit	-11.4023
▁Mots	-11.4026
▁remplace	-11.4027
éno	-11.4028
élevage	-11.4029
▁américaines	-11.4031
ppe	-11.4032
▁Pin	-11.4032
▁évolué	-11.4036
▁passions	-11.4036
▁Football	-11.4039
▁Médecine	-11.404
▁BTS	-11.4041
▁sauter	-11.4042
▁réuni	-11.4042
▁solo	-11.4043
▁Ap	-11.4047
▁souviens	-11.4047
▁20%	-11.4053
▁supporte	-11.4053
▁traditionnels	-11.4055
▁taxi	-11.4055
▁Convention	-11.4056
▁empêche	-11.4057
service	-11.4059
▁DS	-11.4062
ove	-11.4062
▁médicaux	-11.4065
Asie	-11.4065
▁envoie	-11.4065
lique	-11.4066
▁respectant	-11.4067
▁planification	-11.4067
▁contes	-11.4067
épisode	-11.4073
ises	-11.4074
ika	-11.4076
▁duo	-11.4076
iti	-11.4078
édé	-11.4079
▁médiatique	-11.408
▁municipalité	-11.4081
▁broyeur	-11.4082
▁Versailles	-11.4083
oche	-11.4083
▁?)	-11.4089
por	-11.4089
▁Norvège	-11.4089
vu	-11.4091
Paris	-11.4091
▁Berges	-11.4094
pie	-11.4095
▁contactant	-11.4095
▁sensations	-11.4098
▁seigneur	-11.41
▁habite	-11.41
▁sexuels	-11.4102
œ	-11.4107
▁majeurs	-11.4109
▁trouvera	-11.4109
▁fournie	-11.411
▁traverse	-11.4117
▁Prince	-11.4118
▁flèche	-11.4118
▁analogie	-11.4121
▁hein	-11.4121
liers	-11.4121
▁Wall	-11.4122
▁résultant	-11.4124
▁chapelle	-11.4127
oter	-11.4128
▁lente	-11.4128
DU	-11.4129
▁exemplaires	-11.413
▁2012,	-11.4131
▁réparer	-11.4131
▁mathématiques	-11.4132
▁modérateurs	-11.4133
▁surveiller	-11.4137
▁DJ	-11.4138
▁bricolage	-11.4138
▁marin	-11.4139
▁consultant	-11.4142
▁bars	-11.4147
Euro	-11.4148
▁dépression	-11.4149
▁fût	-11.4151
▁bravo	-11.4151
lois	-11.4153
▁matériau	-11.4153
▁franchi	-11.4153
▁CI	-11.4155
imi	-11.4155
ELLE	-11.4156
▁suicide	-11.4156
▁noix	-11.416
imagine	-11.4162
▁Burkina	-11.4162
▁Trop	-11.4163
▁bouge	-11.4164
▁discrétion	-11.4165
▁précédemment	-11.4165
lance	-11.4166
▁AP	-11.4166
▁doré	-11.4166
gmail	-11.4166
▁occupé	-11.4168
lets	-11.4168
▁actuelles	-11.4169
▁indiqués	-11.4169
▁(7	-11.417
▁éditeurs	-11.4171
▁passés	-11.4172
exclusion	-11.4173
ort	-11.4177
usement	-11.4177
▁instants	-11.4177
▁reconnus	-11.418
▁javascript	-11.418
cen	-11.4182
▁ap	-11.4182
▁Côté	-11.4186
▁réunir	-11.4188
▁constituée	-11.4188
▁Avez	-11.4189
suite	-11.4189
▁secrète	-11.4192
▁voler	-11.4192
▁AR	-11.4193
▁forment	-11.4195
▁coins	-11.4195
▁Store	-11.4195
François	-11.4195
active	-11.4197
▁délicate	-11.4197
▁observé	-11.4199
▁Streaming	-11.4199
ège	-11.42
▁élégante	-11.4201
▁bague	-11.4201
oll	-11.4204
EG	-11.4204
ISS	-11.4205
▁prochainement	-11.4205
▁néo	-11.4211
▁parent	-11.4212
▁chaises	-11.4212
insertion	-11.4214
Go	-11.4215
▁Claire	-11.4215
gramme	-11.4216
▁nocturne	-11.4216
quée	-11.4217
FS	-11.4218
▁poches	-11.4218
ume	-11.4222
▁protégés	-11.4224
▁pente	-11.4227
▁hébergement	-11.4228
▁Blanche	-11.4229
▁Simple	-11.4229
▁brune	-11.4229
▁synonyme	-11.423
▁équipés	-11.4232
ime	-11.4235
▁Réalisation	-11.4235
tha	-11.4235
▁tolérance	-11.4236
TER	-11.4237
▁distingue	-11.424
▁Didier	-11.4243
▁Vue	-11.4243
mesure	-11.4247
▁Digital	-11.4247
▁négociations	-11.425
▁accompagnée	-11.4253
ules	-11.4255
▁sage	-11.4257
▁Tim	-11.426
▁accorde	-11.4261
▁Creative	-11.4264
▁Objet	-11.4265
▁Outils	-11.4265
▁traverser	-11.4266
▁Gilles	-11.4269
▁Internationale	-11.4271
▁Cadre	-11.4272
▁déclarations	-11.4273
▁duquel	-11.4274
ION	-11.4275
▁salons	-11.4277
▁opposé	-11.4278
▁individu	-11.4278
angoisse	-11.4281
ades	-11.4283
▁plait	-11.4283
▁communs	-11.4284
▁Mis	-11.4285
▁immédiat	-11.4289
▁apparition	-11.4291
▁conquête	-11.4293
och	-11.4294
CS	-11.4294
▁AD	-11.4296
effectue	-11.4296
▁soigner	-11.4296
▁heureusement	-11.4298
âtre	-11.43
▁solitaire	-11.43
2008	-11.4301
dal	-11.4303
lio	-11.4303
▁Hotel	-11.4303
▁110	-11.4307
LI	-11.4308
icité	-11.4309
▁(8	-11.4309
▁GT	-11.431
▁Bru	-11.4311
▁rendue	-11.4311
▁fondamentaux	-11.4311
cad	-11.4311
▁Dernière	-11.4311
▁baie	-11.4316
ao	-11.4316
▁monument	-11.4319
▁parisien	-11.432
▁(29)	-11.4321
▁entraînement	-11.4321
▁aussitôt	-11.4321
▁he	-11.4321
▁fabriqué	-11.4323
opportunité	-11.4325
▁soumise	-11.4325
ibi	-11.4326
▁souligner	-11.4326
▁flou	-11.4326
▁certifié	-11.4328
▁universités	-11.4329
▁(31)	-11.4333
▁avenue	-11.4335
issons	-11.4338
▁inscrivant	-11.4339
▁Danemark	-11.434
▁Longueur	-11.4341
▁frappé	-11.4342
▁latin	-11.4343
▁exigeant	-11.4343
duire	-11.4345
▁Sar	-11.4346
▁débuter	-11.4347
▁Jeunesse	-11.4347
▁hebdomadaire	-11.4347
▁exige	-11.4348
▁chantiers	-11.435
▁gêne	-11.4351
▁Acheter	-11.4351
▁Hol	-11.4351
ense	-11.4351
mber	-11.4351
risme	-11.4352
iva	-11.4354
riste	-11.4355
▁Live	-11.4356
▁rapproche	-11.4358
1%	-11.436
▁Op	-11.4361
tter	-11.4362
▁concepts	-11.4362
▁royale	-11.4364
▁individuelles	-11.4365
▁Industrie	-11.4366
▁webcam	-11.4367
phi	-11.4368
▁fermés	-11.4369
▁artisanale	-11.4369
▁gang	-11.4371
lem	-11.4371
otte	-11.4372
▁illustrations	-11.4375
▁Besoin	-11.4375
euro	-11.4378
nk	-11.4379
▁signalé	-11.4382
▁revit	-11.4383
▁effectue	-11.4384
MS	-11.4385
chage	-11.4385
▁budgets	-11.4386
reux	-11.4387
▁seniors	-11.4389
▁religions	-11.4389
École	-11.4389
cycl	-11.4391
aut	-11.4392
▁législatives	-11.4392
▁Univers	-11.4395
▁astrologues	-11.4396
alisé	-11.4398
▁essence	-11.4398
▁succession	-11.4399
▁ikea	-11.4399
▁coller	-11.4399
▁marron	-11.4402
UF	-11.4402
▁entouré	-11.4406
▁factures	-11.4406
▁choisie	-11.4406
▁Os	-11.4407
long	-11.4407
▁>>	-11.4407
▁vainqueur	-11.4408
IGN	-11.441
▁signée	-11.4412
bio	-11.4413
▁Compagnie	-11.4414
play	-11.4414
▁poivre	-11.4414
▁Adam	-11.4416
▁mythe	-11.4418
▁souhaitons	-11.4419
▁pénale	-11.442
▁pros	-11.4421
▁emb	-11.4422
▁Enfants	-11.4422
▁âgé	-11.4423
▁intervenants	-11.4424
▁relief	-11.4427
▁bra	-11.4428
▁Vé	-11.4431
▁admis	-11.4432
Atlantique	-11.4432
mment	-11.4435
▁Prêt	-11.4436
▁Tan	-11.4436
vic	-11.4436
internet	-11.4438
alors	-11.4438
▁apportent	-11.4439
▁neuve	-11.4442
▁pôle	-11.4443
▁clip	-11.4443
▁fantaisie	-11.4444
▁chauffeur	-11.4445
▁choisis	-11.4446
Man	-11.4448
ué	-11.4449
▁déguster	-11.4449
▁Coll	-11.4449
▁origine	-11.4453
▁recrute	-11.4454
▁entrain	-11.4455
▁Gal	-11.4456
▁abrite	-11.4456
écouter	-11.4458
▁ml	-11.4461
▁190	-11.4463
▁Aliments	-11.4464
objets	-11.4464
▁tabac	-11.4464
▁signer	-11.4464
▁parait	-11.4466
▁renforcement	-11.4466
éme	-11.4468
▁standards	-11.447
▁Seule	-11.4473
▁défauts	-11.4473
▁Rec	-11.4476
▁fêter	-11.4476
▁blessé	-11.4478
▁revers	-11.4478
▁Contrairement	-11.4478
▁parvient	-11.4479
▁2011,	-11.4482
▁concession	-11.4483
▁mystérieuse	-11.4484
▁deviendra	-11.4485
urier	-11.4485
chan	-11.4486
▁varie	-11.4487
▁fascinant	-11.449
▁chalet	-11.4492
▁trip	-11.4492
▁remercions	-11.4493
▁lève	-11.4494
▁Power	-11.4494
▁Durée	-11.4495
▁Fo	-11.4495
▁Station	-11.4496
▁hâte	-11.4497
fou	-11.4497
espér	-11.4498
▁Frank	-11.45
▁Assurez	-11.45
▁sanitaires	-11.4501
enseignant	-11.4503
tur	-11.4505
▁souffrir	-11.4509
str	-11.4511
▁Ay	-11.4513
amuse	-11.4513
▁contraste	-11.4514
▁évolutions	-11.4514
idi	-11.4514
tude	-11.4518
▁grise	-11.4521
▁poêle	-11.4521
▁chemise	-11.4521
▁chanteuse	-11.4521
▁office	-11.4523
▁honneur	-11.4523
▁péché	-11.4524
▁Julie	-11.4524
usse	-11.4524
▁PAS	-11.4526
DC	-11.4526
▁directives	-11.453
▁Arm	-11.453
contre	-11.4532
▁habit	-11.4533
▁cinquième	-11.4533
▁atouts	-11.4536
▁méditation	-11.4536
vue	-11.4537
▁Résultat	-11.4538
▁engagements	-11.4539
▁robuste	-11.4542
ship	-11.4543
▁!"	-11.4545
gas	-11.4546
vir	-11.4547
▁recueillir	-11.4548
/05/	-11.4549
▁ressentir	-11.4549
lettes	-11.4549
▁1993	-11.4552
▁Cast	-11.4552
▁continuent	-11.4556
▁Bat	-11.4559
▁Image	-11.4559
▁hotel	-11.456
▁taches	-11.4565
illard	-11.4565
▁séduit	-11.4567
▁Tur	-11.457
▁loisir	-11.457
▁chirurgie	-11.457
llier	-11.4572
▁86	-11.4574
▁OS	-11.4575
▁tige	-11.4575
FE	-11.4579
▁stationnement	-11.4581
ota	-11.4581
▁Cannes	-11.4582
▁vintage	-11.4585
▁Argent	-11.4588
▁calculé	-11.459
▁1)	-11.4591
▁bénéfices	-11.4592
▁Utilisation	-11.4592
▁Mary	-11.4593
bles	-11.4594
▁alternatives	-11.4594
uz	-11.4594
▁abonnements	-11.4595
AH	-11.46
▁fréquentation	-11.4601
▁souligné	-11.4601
expliquer	-11.4602
fiction	-11.4604
çant	-11.4604
▁bracelet	-11.4605
▁moyennes	-11.4606
▁sculptures	-11.4606
atis	-11.4606
▁accords	-11.4606
▁Lettre	-11.4608
▁Langue	-11.4609
▁prélèvement	-11.461
ambassadeur	-11.4612
PR	-11.4613
azi	-11.4613
▁PR	-11.4614
merci	-11.4614
▁lâcher	-11.4614
▁bouteilles	-11.4615
MENT	-11.4615
▁chaleureuse	-11.4617
▁réflexions	-11.4619
▁purement	-11.4621
▁rendant	-11.4623
parole	-11.4624
ora	-11.4625
▁débarrasser	-11.4626
▁projection	-11.4628
▁suspendu	-11.4629
▁sal	-11.4629
▁chaussure	-11.4629
hn	-11.4631
erre	-11.4634
nale	-11.4637
abandon	-11.4641
▁sondages	-11.4642
▁appr	-11.4642
▁phrases	-11.4644
bay	-11.4644
rab	-11.4645
▁FF	-11.4649
▁Blu	-11.4649
▁dotée	-11.4651
▁usagers	-11.4652
▁universitaires	-11.4653
Tu	-11.4654
▁volontiers	-11.4654
▁Bob	-11.4656
▁Jazz	-11.4657
oxy	-11.466
type	-11.4662
anger	-11.4663
▁commandant	-11.4663
▁Soirée	-11.4665
zen	-11.4665
▁master	-11.4667
▁Cré	-11.4668
▁Poissons	-11.4669
enfer	-11.4672
▁Fleur	-11.4672
▁Contemporain	-11.4673
▁Picture	-11.4673
▁meurt	-11.4676
icien	-11.4678
alo	-11.4681
▁compl	-11.4681
▁Not	-11.4682
▁étendue	-11.4682
▁bords	-11.4682
▁(30)	-11.4684
▁séminaire	-11.4684
▁apres	-11.4684
wo	-11.4685
▁it	-11.4688
osa	-11.469
▁découpe	-11.469
▁sérieusement	-11.4691
▁religieuses	-11.4692
▁trés	-11.4692
▁pleins	-11.4692
media	-11.4693
▁distinction	-11.4694
▁glisser	-11.4694
engagent	-11.4695
abo	-11.4695
▁échapper	-11.4695
300	-11.4699
▁jet	-11.47
aucune	-11.4702
▁Marche	-11.4705
Auto	-11.471
▁fédération	-11.471
xx	-11.471
ther	-11.4711
▁postal	-11.4712
interrogation	-11.4712
PP	-11.4714
▁soigneusement	-11.4716
ere	-11.4717
▁graisse	-11.4718
tron	-11.4719
▁Cass	-11.4719
lieu	-11.472
awa	-11.4721
▁Tant	-11.4722
▁femelle	-11.4723
▁modules	-11.4723
EAU	-11.4725
ajout	-11.4726
▁pizza	-11.4729
odo	-11.4729
▁Hy	-11.473
▁inconnue	-11.473
▁Play	-11.473
▁associées	-11.4732
▁réels	-11.4733
érez	-11.4734
index	-11.4735
▁attirer	-11.4736
ouf	-11.4736
ASS	-11.4738
▁(33)	-11.4739
▁éliminer	-11.474
▁bug	-11.474
ndre	-11.474
cell	-11.4742
dition	-11.4744
▁vedette	-11.4745
▁publiées	-11.4747
bl	-11.475
uvre	-11.4751
pit	-11.4753
▁puissants	-11.4753
▁habitat	-11.4754
▁institutionnel	-11.4755
éc	-11.4758
▁VF	-11.4759
systématiquement	-11.4762
interroger	-11.4763
▁assistant	-11.4765
▁syndicat	-11.4765
poli	-11.4766
▁validé	-11.4766
ull	-11.4767
▁fri	-11.4767
▁camion	-11.4768
▁Organisation	-11.4769
▁mentions	-11.4769
uni	-11.4771
▁express	-11.4771
▁BE	-11.4772
▁Napoléon	-11.4772
▁proviennent	-11.4773
▁fuir	-11.4773
▁détection	-11.4776
▁sentiers	-11.4776
▁métropole	-11.4776
▁coffret	-11.4777
▁bandoulière	-11.4779
▁plomberie	-11.478
▁surprenant	-11.478
▁gourmande	-11.4781
▁murale	-11.4783
Accessoires	-11.4786
▁amène	-11.4789
▁symbolise	-11.4789
vage	-11.479
bor	-11.4791
▁pair	-11.4793
▁démission	-11.4795
▁regardant	-11.4798
▁home	-11.4798
▁saveurs	-11.4799
▁cur	-11.4799
▁vitrine	-11.48
▁Combien	-11.4801
▁Team	-11.4803
▁73	-11.4806
blo	-11.4807
▁correcte	-11.4809
▁travaillant	-11.481
▁lis	-11.4811
▁matelas	-11.4811
pir	-11.4811
▁passif	-11.4813
▁fum	-11.4814
▁Télécharger	-11.4815
▁juil	-11.4815
▁Gen	-11.4817
▁collier	-11.482
▁commerçants	-11.4821
▁deuil	-11.4826
▁confusion	-11.4826
▁blé	-11.4826
▁Jérusalem	-11.4827
▁Travaux	-11.4828
▁branches	-11.4828
▁musiques	-11.4828
▁distinguer	-11.483
▁Sh	-11.4833
ido	-11.4833
▁blessures	-11.4834
▁spécifiquement	-11.4834
▁transparent	-11.4836
▁spammeurs	-11.4836
▁spectateurs	-11.4838
BE	-11.4839
▁accordée	-11.4841
▁Présidentielle	-11.4841
essence	-11.4842
▁collectifs	-11.4842
▁rapporte	-11.4844
▁ambitieux	-11.4846
TES	-11.4848
▁sain	-11.4849
▁(20	-11.4851
▁Ir	-11.4851
▁capture	-11.4854
▁Autant	-11.4856
▁smartphones	-11.4857
▁Articles	-11.4858
▁Seconde	-11.4861
▁anime	-11.4861
▁Découverte	-11.4861
▁obtenez	-11.4862
▁fleuve	-11.4865
▁décédé	-11.4869
▁variations	-11.487
-20	-11.487
▁meublé	-11.4871
cours	-11.4872
▁équivalent	-11.4873
time	-11.4874
liste	-11.4874
▁Abonnez	-11.4874
enseigne	-11.4874
▁amples	-11.4877
▁présidence	-11.4878
▁(26)	-11.4882
rité	-11.4884
▁Continuer	-11.4886
▁astrologie	-11.4886
▁russes	-11.4886
▁Eu	-11.4886
▁Commons	-11.4887
▁façons	-11.4887
▁locataire	-11.4888
▁continuité	-11.4889
▁(27)	-11.4891
▁consacrer	-11.4891
ssé	-11.4892
▁intelligent	-11.4892
croix	-11.4892
issé	-11.4894
▁notions	-11.4894
pos	-11.4896
▁rétractation	-11.4896
▁surement	-11.4897
urbanisme	-11.4897
issa	-11.4899
▁janv	-11.4899
▁aromates	-11.49
▁Ancien	-11.49
▁renouvellement	-11.49
voqu	-11.4902
femme	-11.4902
ennemi	-11.4904
▁dirait	-11.4908
▁musulman	-11.4909
SS	-11.491
▁Charlie	-11.491
2007	-11.4912
▁modeste	-11.4913
clé	-11.4914
▁Championnat	-11.4915
▁définit	-11.4917
▁Idées	-11.4917
°4	-11.4918
▁âgés	-11.4919
▁volumes	-11.492
▁climatisation	-11.4921
tos	-11.4921
iot	-11.4922
GO	-11.4923
▁produite	-11.4923
▁appliquée	-11.4925
▁Thé	-11.4925
▁remonte	-11.4927
▁att	-11.4928
▁laser	-11.4928
▁violente	-11.4931
▁céréales	-11.4932
▁espérer	-11.4932
▁tracé	-11.4932
800	-11.4932
animal	-11.4934
▁rez	-11.4934
▁litres	-11.4936
▁laissent	-11.4937
▁graphisme	-11.4938
▁panique	-11.4938
Martin	-11.4939
▁clin	-11.494
▁étoile	-11.4941
▁qualifiés	-11.4944
erry	-11.4944
▁synthétique	-11.4944
▁cigarette	-11.4946
▁Bill	-11.4948
accompagner	-11.4948
tées	-11.4952
assé	-11.4952
▁Iran	-11.4953
row	-11.4955
▁serré	-11.4956
▁ondes	-11.4956
▁connues	-11.4957
odeur	-11.4957
atives	-11.4961
▁Territoire	-11.4964
AO	-11.4965
quant	-11.4966
▁spécialité	-11.4967
▁renommée	-11.4967
▁pénal	-11.497
▁Canapé	-11.497
cast	-11.4971
▁impressionnant	-11.4972
duction	-11.4973
▁générique	-11.4973
▁soumises	-11.4974
lait	-11.4975
▁At	-11.4975
▁ID	-11.4977
▁oublie	-11.4977
tex	-11.498
▁concernées	-11.4981
▁Lecture	-11.4982
graph	-11.4982
Ho	-11.4987
▁itinéraire	-11.4987
▁adressée	-11.4987
▁Charge	-11.4988
▁candidatures	-11.4989
▁intelligence	-11.499
▁fumée	-11.4993
▁pari	-11.4994
vre	-11.4996
▁statistique	-11.4997
▁we	-11.4998
▁MAR	-11.4998
▁Love	-11.5
atte	-11.5001
▁banc	-11.5001
▁passages	-11.5001
▁merveilleuse	-11.5002
▁ordinateurs	-11.5003
▁évolue	-11.5003
▁exprimé	-11.5003
▁environnemental	-11.5004
▁Activités	-11.5005
▁RaceChip	-11.5005
▁apparemment	-11.5005
/5	-11.5007
▁Cadeaux	-11.5007
▁FI	-11.5008
▁essaie	-11.501
▁baignoire	-11.5012
▁1960	-11.5012
▁savon	-11.5015
▁technicien	-11.5015
▁reposer	-11.5015
▁trous	-11.5018
ecteur	-11.5019
▁cassé	-11.502
ars	-11.502
▁Monte	-11.5021
Mais	-11.5021
▁futures	-11.5021
▁Contre	-11.5025
▁Hello	-11.5027
▁intégration	-11.5027
ours	-11.5027
▁Mari	-11.5028
▁convivial	-11.5029
▁attiré	-11.503
▁PSG	-11.5031
▁démarrer	-11.5031
▁trentaine	-11.5031
▁thérapie	-11.5032
▁figures	-11.5035
▁cuire	-11.5037
▁reportage	-11.5038
interface	-11.5041
▁1989	-11.5041
▁Kat	-11.5042
▁guides	-11.5042
▁initial	-11.5042
▁Brun	-11.5043
▁YouTube	-11.5044
▁rédigé	-11.505
▁pen	-11.5052
▁véritables	-11.5053
▁exacte	-11.5053
chée	-11.5058
▁tou	-11.5058
▁rayonnement	-11.5058
▁obligatoires	-11.5058
ito	-11.5061
isez	-11.5062
rière	-11.5063
▁francophones	-11.5064
▁Wal	-11.5066
▁SO	-11.5066
▁Angel	-11.5068
▁parts	-11.5069
LS	-11.5071
▁Pop	-11.5072
informer	-11.5078
▁stocks	-11.5078
AIS	-11.5079
▁exemplaire	-11.5081
▁retiré	-11.5081
terre	-11.5083
▁Soit	-11.5083
▁Xavier	-11.5085
▁1991	-11.5086
▁Airbnb	-11.5086
▁Cru	-11.5087
▁observe	-11.5088
▁Mariage	-11.5089
atmosphère	-11.509
uti	-11.509
NET	-11.5091
Mar	-11.5093
▁clos	-11.5093
▁Dal	-11.5093
▁descendre	-11.5095
▁fausses	-11.5095
cade	-11.5096
▁Vacances	-11.5096
▁épais	-11.5103
▁Up	-11.5104
▁valorisation	-11.5106
▁Essayez	-11.5107
▁éditeur	-11.5108
▁vitesses	-11.511
asso	-11.5111
▁dominant	-11.5113
life	-11.5114
▁Cou	-11.5115
mel	-11.5115
oreille	-11.5115
▁musculaire	-11.5116
▁animation	-11.5117
▁circuits	-11.5117
▁participent	-11.5117
▁ambition	-11.5119
ben	-11.5123
▁cumul	-11.5123
▁poil	-11.5124
▁Finalement	-11.5125
érant	-11.5127
employeur	-11.5128
pression	-11.5128
immeuble	-11.5129
vienne	-11.5133
EE	-11.5133
onner	-11.5135
ware	-11.5135
▁convivialité	-11.5136
▁em	-11.5136
▁Sens	-11.5137
Garonne	-11.5139
ondes	-11.5141
▁Street	-11.5142
▁formats	-11.5142
▁initié	-11.5143
AFP	-11.5144
wer	-11.5144
▁claires	-11.5144
▁rotation	-11.5149
ancier	-11.5151
▁protéines	-11.5152
▁fréquentes	-11.5152
▁congé	-11.5156
▁ciblées	-11.5157
▁OU	-11.516
▁store	-11.516
▁imprimante	-11.5161
▁espagnole	-11.5165
▁Manche	-11.5166
▁antique	-11.5166
tifs	-11.5169
▁installés	-11.5172
bonne	-11.5174
▁émet	-11.5174
▁reconnais	-11.5175
▁poulet	-11.5176
▁juifs	-11.5178
2017	-11.5179
▁Dés	-11.5179
▁copine	-11.518
▁Yu	-11.5181
▁gravure	-11.5181
▁baisser	-11.5181
▁Local	-11.5182
▁Moscou	-11.5184
▁renforce	-11.5185
▁Zo	-11.5186
▁déclin	-11.5187
▁Classique	-11.5188
ase	-11.5188
▁vérifié	-11.519
▁SUD	-11.519
Claude	-11.5192
▁positionnement	-11.5192
▁prudent	-11.5193
▁blessés	-11.5194
infrastructure	-11.5195
nerie	-11.5195
stat	-11.5196
alliance	-11.5196
▁tenus	-11.5197
▁dépose	-11.52
▁gentille	-11.5203
▁Déc	-11.5204
▁contribuent	-11.5205
▁CHF	-11.5206
place	-11.5206
▁er	-11.5206
gle	-11.5207
▁cimetière	-11.5211
▁350	-11.5211
▁malheur	-11.5211
habite	-11.5212
Service	-11.5212
▁Mémoire	-11.5213
▁verbe	-11.5213
▁subvention	-11.5213
▁reproduit	-11.5215
▁évoqué	-11.5216
▁Accord	-11.5216
▁paye	-11.5217
▁Madagascar	-11.5217
▁cherchant	-11.5217
▁gouvernance	-11.5218
oni	-11.5218
▁sauvé	-11.5218
▁devenus	-11.522
▁bulletin	-11.522
AZ	-11.5221
▁id	-11.5222
ctor	-11.5222
▁prononcé	-11.5222
live	-11.5222
▁pattes	-11.5223
▁véritablement	-11.5223
▁remarques	-11.5226
cale	-11.523
▁spécialités	-11.5233
▁Quatre	-11.5234
▁chimie	-11.5237
imagination	-11.524
▁rage	-11.5241
▁chaudes	-11.5241
▁asiatique	-11.5242
lus	-11.5242
▁dégustation	-11.5244
▁Bor	-11.5245
▁toilettes	-11.5246
gnon	-11.5248
▁vagues	-11.5249
▁89	-11.5249
▁Savoir	-11.525
considérablement	-11.525
▁Langues	-11.525
▁complètes	-11.525
▁teinte	-11.5251
▁interprète	-11.5254
▁concret	-11.5254
gl	-11.5255
▁BMW	-11.5256
▁muscles	-11.5256
▁annuaire	-11.5257
▁Charente	-11.5258
▁récolte	-11.526
▁cessé	-11.5261
▁cuillère	-11.5263
▁bébés	-11.5264
▁charger	-11.5266
office	-11.5266
▁AN	-11.5266
▁nourri	-11.5268
gate	-11.5268
gard	-11.5269
▁contrainte	-11.527
chat	-11.5274
▁réserves	-11.5275
▁Numéro	-11.5277
▁canaux	-11.5278
ues	-11.5279
▁1/	-11.5281
▁devises	-11.5282
▁domination	-11.5284
▁ICI	-11.5284
▁intelligente	-11.5285
▁imaginé	-11.5288
▁diriger	-11.5288
▁batteries	-11.5292
▁ram	-11.5294
▁ongles	-11.5294
▁Coucou	-11.5295
posant	-11.5295
▁merveille	-11.5295
▁silhouette	-11.5296
▁remplie	-11.5297
▁Conception	-11.5298
▁gout	-11.5299
▁assise	-11.5299
[/	-11.5301
▁terroir	-11.5303
▁négociation	-11.5304
▁Roger	-11.5305
▁Robe	-11.5307
▁Wo	-11.5307
charge	-11.5308
▁concentrer	-11.5309
OIS	-11.5313
▁solides	-11.5314
▁Production	-11.5316
print	-11.5317
▁Expos	-11.5318
▁Read	-11.532
▁hectares	-11.532
▁saga	-11.5321
▁sortant	-11.5322
▁webmaster	-11.5324
ato	-11.5324
▁apparu	-11.5325
▁brosse	-11.5325
▁respectivement	-11.5327
four	-11.5329
▁Milan	-11.5329
▁intermédiaire	-11.533
ken	-11.533
▁superficie	-11.533
herbe	-11.5331
▁photographique	-11.5331
▁sculpture	-11.5331
▁adversaire	-11.5332
▁occuper	-11.5335
▁Heure	-11.5336
attache	-11.5337
OK	-11.5337
▁automne	-11.534
▁prêtre	-11.5342
▁fu	-11.5342
▁Début	-11.5344
métrique	-11.5344
▁fines	-11.5344
▁dons	-11.5345
▁Ouvert	-11.5345
▁texture	-11.5345
▁févr	-11.5345
▁Office	-11.5347
..."	-11.5347
▁présidente	-11.5347
▁Flash	-11.5348
deux	-11.5349
▁pneu	-11.5351
▁comparé	-11.5352
▁espérant	-11.5353
lisme	-11.5354
champ	-11.5354
bet	-11.5358
▁actualité	-11.5359
▁équitable	-11.536
▁invisible	-11.536
▁housse	-11.5361
▁opposer	-11.5361
guin	-11.5361
▁(24)	-11.5364
apport	-11.5364
▁Ami	-11.5367
QUE	-11.5367
▁collègue	-11.5368
▁mutuelle	-11.5369
▁phénomènes	-11.537
▁bail	-11.537
▁98	-11.537
▁avancé	-11.5372
éna	-11.5375
▁lumineuse	-11.5375
▁Arrêt	-11.5375
▁amant	-11.5376
▁red	-11.538
▁nés	-11.538
géné	-11.5383
▁clics	-11.5387
termin	-11.5392
▁Métaux	-11.5393
▁africains	-11.5395
espérance	-11.5396
tric	-11.5397
▁marquer	-11.5397
red	-11.5397
▁enseignant	-11.5397
▁matinée	-11.5398
▁Jeanne	-11.5399
▁encourage	-11.5399
▁sanctions	-11.54
▁évite	-11.54
▁veiller	-11.5404
II	-11.5405
ping	-11.5406
▁écho	-11.5407
uch	-11.5408
▁TR	-11.5408
pprovisionnement	-11.5408
▁imaginaire	-11.5409
ssa	-11.541
▁déroulement	-11.5411
lly	-11.5412
▁SAS	-11.5412
▁hydro	-11.5412
étage	-11.5413
▁Désolé	-11.5413
▁estimation	-11.5416
▁rôles	-11.5416
excellence	-11.5417
RC	-11.5417
▁Plein	-11.5418
▁littéraires	-11.5418
Alsace	-11.542
▁régal	-11.542
▁Mathieu	-11.5421
▁mettez	-11.5421
pose	-11.5422
ores	-11.5423
▁expédition	-11.5423
▁contraint	-11.5426
▁Réponse	-11.5427
▁Hor	-11.543
▁trio	-11.543
Forum	-11.5431
cule	-11.5434
▁impose	-11.5434
▁connectés	-11.5434
feu	-11.5434
▁Part	-11.5436
▁guilde	-11.5437
▁chimique	-11.5439
▁wc	-11.544
ride	-11.544
▁rapidité	-11.544
▁dét	-11.5441
ude	-11.5442
▁Dernier	-11.5445
▁Dessin	-11.5445
▁certifiée	-11.5447
▁vétérinaire	-11.5447
SO	-11.5447
▁couteau	-11.5447
▁hôtes	-11.5448
▁cyber	-11.5448
▁€.	-11.5448
install	-11.5449
rial	-11.5451
▁ME	-11.5452
▁portabilité	-11.5452
phé	-11.5453
▁rugby	-11.5454
oz	-11.5454
▁Jeunes	-11.5455
▁2)	-11.5456
▁Mère	-11.5456
▁timide	-11.5457
▁roses	-11.5458
▁électeurs	-11.5458
▁Herbes	-11.5459
▁Piscine	-11.5463
▁Pic	-11.5464
▁SNCF	-11.5465
▁noté	-11.5466
▁plonger	-11.5466
occupation	-11.547
▁Ferr	-11.5473
ONG	-11.5474
Bo	-11.5474
▁Assemblée	-11.5474
▁coutume	-11.5474
▁douane	-11.5474
ôt	-11.5476
▁ko	-11.5477
▁imagination	-11.5479
▁existant	-11.548
▁Pack	-11.5481
▁intéressantes	-11.5482
▁peindre	-11.5482
▁fla	-11.5486
ific	-11.5487
allais	-11.5489
▁84	-11.5492
iane	-11.5493
▁doublé	-11.5495
issez	-11.5496
neuse	-11.5497
▁faisaient	-11.5497
élimination	-11.5498
▁aîné	-11.5499
nelles	-11.55
▁Exposition	-11.55
▁recyclage	-11.5501
▁traduire	-11.5501
▁Sall	-11.5502
▁Phil	-11.5504
assainissement	-11.5504
▁shopping	-11.5506
▁Caisse	-11.5507
▁institut	-11.5508
▁biodiversité	-11.5508
aison	-11.5509
▁démon	-11.5509
assemblée	-11.5509
bli	-11.551
▁sup	-11.551
▁dragon	-11.551
▁Tél	-11.5511
dence	-11.5513
▁Mir	-11.5513
▁déni	-11.5514
▁Res	-11.5515
▁approuvé	-11.5517
▁Hongrie	-11.552
▁chouette	-11.5521
▁passionnée	-11.5521
▁mien	-11.5522
▁préoccupations	-11.5523
▁Pacifique	-11.5524
étape	-11.5524
▁ok	-11.5526
▁administration	-11.5527
▁prévus	-11.5527
▁dessinée	-11.5527
▁end	-11.5531
▁partiel	-11.5532
▁transparente	-11.5533
▁Vallée	-11.5533
zé	-11.5533
▁commenter	-11.5534
char	-11.5535
▁sentier	-11.5535
▁camarades	-11.5536
▁manqué	-11.5536
eck	-11.5537
▁dépendant	-11.5537
▁2008,	-11.5539
épaisseur	-11.554
DH	-11.5541
cur	-11.5541
tiste	-11.5542
▁réglable	-11.5543
échanges	-11.5544
▁Roche	-11.5546
horreur	-11.5546
▁dispo	-11.5546
instrument	-11.5547
▁leaders	-11.5548
▁pâtisserie	-11.5548
▁tarte	-11.5549
▁glisse	-11.5549
▁facettes	-11.555
▁Chant	-11.555
▁foire	-11.555
°5	-11.5551
▁marocain	-11.5551
▁quotidiennement	-11.5551
Ga	-11.5552
▁Infos	-11.5553
▁accent	-11.5554
▁marchands	-11.5556
sses	-11.556
win	-11.5561
▁accro	-11.5562
▁métallique	-11.5562
anime	-11.5563
Organisation	-11.5563
▁profité	-11.5565
▁lâche	-11.5565
▁problématiques	-11.5566
▁canadien	-11.5569
▁Irlande	-11.5569
▁refer	-11.5571
▁impressionnante	-11.5572
▁Dictionnaire	-11.5574
▁substances	-11.5575
avocat	-11.5576
▁élaboré	-11.5578
▁SC	-11.5578
▁Laval	-11.5579
▁Bélier	-11.558
cker	-11.5582
▁(13	-11.5582
éveil	-11.5583
▁carrelage	-11.5583
▁motivé	-11.5585
imposer	-11.5585
▁pochette	-11.5585
▁chou	-11.5586
▁Libye	-11.5587
osité	-11.5592
▁regret	-11.5592
▁Section	-11.5594
▁Question	-11.5596
internaute	-11.5599
▁tas	-11.56
mul	-11.56
▁priorités	-11.56
▁garanti	-11.5602
▁gou	-11.5602
▁isolation	-11.5602
▁Entreprises	-11.5603
▁Mot	-11.5603
▁Box	-11.5604
▁levier	-11.5606
▁africain	-11.5606
▁inspirée	-11.5606
Ou	-11.5608
▁éternelle	-11.561
▁transféré	-11.561
▁Tro	-11.5611
▁opérationnel	-11.5612
-17	-11.5613
▁communiste	-11.5614
▁poursuivi	-11.5615
▁NE	-11.5616
▁falloir	-11.5617
▁Recrutement	-11.5619
▁habitant	-11.562
▁révolte	-11.562
▁doué	-11.5621
▁tar	-11.5622
INS	-11.5622
▁Franc	-11.5624
▁échec	-11.5624
HE	-11.5625
▁ajout	-11.5626
▁engage	-11.5627
▁discrète	-11.5627
▁Hong	-11.5628
▁maritime	-11.5629
▁supérieures	-11.563
quette	-11.563
▁Bourg	-11.5635
habitat	-11.5635
▁juridiction	-11.5636
▁courants	-11.5636
▁valise	-11.5639
attraction	-11.564
▁monétaire	-11.564
trans	-11.5641
vois	-11.5641
fil	-11.5641
▁Voyages	-11.5643
▁ferroviaire	-11.5644
Elle	-11.5645
▁reconstruction	-11.5645
rag	-11.5646
AA	-11.5649
▁reproduire	-11.5651
▁2007,	-11.5651
▁(32)	-11.5652
▁79	-11.5652
▁rebond	-11.5655
▁Direct	-11.5656
bie	-11.5657
▁quantités	-11.5658
▁ramener	-11.5658
▁yoga	-11.5658
▁déplace	-11.5658
▁régionaux	-11.5659
▁**	-11.5661
▁chargés	-11.5662
▁allure	-11.5664
▁académique	-11.5665
▁Fab	-11.5666
▁Basse	-11.5668
▁aérienne	-11.5669
▁Thèmes	-11.567
▁illimité	-11.5671
▁PayPal	-11.5672
room	-11.5672
▁Publicité	-11.5674
cie	-11.5676
▁routier	-11.5676
▁fonctionnelle	-11.5676
architecte	-11.5677
▁Dimensions	-11.5679
▁audience	-11.568
▁Dragon	-11.5681
égal	-11.5683
▁intégral	-11.5685
▁Noire	-11.5688
réal	-11.5688
▁générer	-11.5689
pel	-11.5691
face	-11.5692
▁Roy	-11.5693
▁Entrez	-11.5694
tori	-11.5694
MER	-11.5695
▁Midi	-11.5698
▁Sor	-11.5699
aimerai	-11.5701
▁musicien	-11.5702
▁Californie	-11.5703
got	-11.5703
▁revêtement	-11.5707
▁témoigne	-11.571
▁Contenu	-11.571
▁Double	-11.5711
Mont	-11.5711
▁argument	-11.5712
▁(11	-11.5712
▁généreuse	-11.5713
▁TBE	-11.5713
▁maux	-11.5714
▁expérimenté	-11.5716
Empire	-11.5716
▁distribué	-11.5716
▁tv	-11.5719
▁start	-11.572
▁inscriptions	-11.572
Sur	-11.5721
ignant	-11.5721
▁organisées	-11.5722
▁absent	-11.5723
hygiène	-11.5723
para	-11.5726
apparence	-11.5726
▁puni	-11.5727
▁gluten	-11.5727
▁savant	-11.5727
NC	-11.5729
▁Sel	-11.5729
▁Thaïlande	-11.5732
▁bour	-11.5732
rand	-11.5732
▁croyant	-11.5734
▁rive	-11.5734
quel	-11.5736
▁Court	-11.5737
▁divertissement	-11.5737
Dame	-11.5739
▁armées	-11.5739
▁partagent	-11.574
▁disciplines	-11.574
▁Taux	-11.574
enregistrer	-11.5741
▁couverte	-11.5741
▁PVC	-11.5741
▁notoriété	-11.5741
▁pâtes	-11.5744
▁délivrance	-11.5744
▁manquant	-11.5745
</	-11.5745
▁Rom	-11.5745
oeuf	-11.5746
▁intéresser	-11.5747
soci	-11.5747
▁rajouter	-11.575
▁91	-11.5751
▁tenues	-11.5751
▁Hambourg	-11.5755
▁Yo	-11.5758
▁suffisante	-11.576
▁87	-11.576
▁che	-11.5761
▁Créez	-11.5762
▁bloqué	-11.5766
▁AV	-11.5767
▁renouvelables	-11.5767
étique	-11.5768
▁béni	-11.577
dique	-11.5772
▁feuillet	-11.5774
▁appui	-11.5777
▁renvoie	-11.5777
élever	-11.5778
▁occasions	-11.5779
▁musicales	-11.5779
dine	-11.5781
extension	-11.5783
▁immobilières	-11.5783
▁contributions	-11.5785
▁segment	-11.5785
▁Résumé	-11.5786
naise	-11.5786
▁Contrôle	-11.5786
vait	-11.5787
Shop	-11.5787
▁dignité	-11.579
î	-11.579
▁créatif	-11.5791
avril	-11.5791
▁bru	-11.5791
▁dévoilent	-11.5793
▁délicieuse	-11.5793
▁97	-11.5794
▁ter	-11.5794
▁gi	-11.5795
▁armoire	-11.5795
▁Arthur	-11.5795
ador	-11.5795
▁marquant	-11.5796
▁substance	-11.5797
▁municipale	-11.5798
▁emballage	-11.5801
▁Smart	-11.5801
▁fédérale	-11.5801
▁Rive	-11.5804
▁Bible	-11.5804
▁83	-11.5804
Iran	-11.5805
▁exact	-11.5805
édi	-11.5807
▁aisément	-11.5807
▁céramique	-11.5807
▁amélioration	-11.5807
▁Canadien	-11.5807
▁fiables	-11.5808
nels	-11.5808
shop	-11.5808
▁ti	-11.581
uration	-11.5812
étonne	-11.5814
oral	-11.5814
▁atmosphère	-11.5814
▁robes	-11.5814
▁envoyée	-11.5816
▁préjudice	-11.5818
▁variées	-11.5818
▁sauve	-11.5819
ographique	-11.5822
▁Real	-11.5825
plex	-11.5825
▁déteste	-11.5826
▁forcé	-11.5828
nation	-11.5828
▁compact	-11.5829
▁décharge	-11.583
▁lapin	-11.583
▁demandant	-11.5831
bol	-11.5833
dée	-11.5833
▁EP	-11.5834
▁Autriche	-11.5834
cée	-11.5834
▁weekend	-11.5835
▁volontairement	-11.5835
viv	-11.5839
▁favorise	-11.5839
▁Classement	-11.584
▁exp	-11.584
IDE	-11.5841
▁jette	-11.5841
▁Bertrand	-11.5842
arts	-11.5842
▁autrui	-11.5844
▁rouler	-11.5844
▁nations	-11.5845
▁vieilles	-11.585
▁morte	-11.5851
▁Imp	-11.5851
▁Six	-11.5852
▁directive	-11.5853
▁Sélection	-11.5855
▁tasse	-11.5856
▁contrôles	-11.5856
▁citoyenne	-11.5857
▁individuels	-11.5857
oyer	-11.5857
▁Gare	-11.586
écrivain	-11.586
▁Bricolage	-11.586
▁tabou	-11.5862
enfin	-11.5864
▁conso	-11.5864
nor	-11.5865
HA	-11.5866
▁prophète	-11.5867
▁puce	-11.587
▁ger	-11.587
▁pardon	-11.5872
▁Portrait	-11.5873
porte	-11.5874
Education	-11.5875
exercer	-11.5875
Apple	-11.5876
▁dominante	-11.5877
▁Moulin	-11.5877
▁angles	-11.5879
▁newsletters	-11.588
anduz	-11.5881
abus	-11.5881
▁recommandée	-11.5882
▁dirigée	-11.5884
gés	-11.5885
▁Pot	-11.5885
▁solde	-11.5885
gram	-11.5885
▁Parfait	-11.5885
▁conçus	-11.5886
▁résiste	-11.5887
▁Actuellement	-11.5888
▁Renault	-11.5889
▁caractérise	-11.5889
▁sapin	-11.5889
admission	-11.5889
▁collectivité	-11.589
encadrement	-11.5891
mettre	-11.5893
▁CGT	-11.5893
▁ajoutez	-11.5894
▁obstacles	-11.5895
well	-11.5895
▁canne	-11.5897
▁soie	-11.5897
num	-11.5897
▁désirs	-11.5898
▁Route	-11.59
trop	-11.5902
▁enlevé	-11.5902
▁démontrer	-11.5903
▁décroissante	-11.5904
EI	-11.5904
▁renovation	-11.5905
▁exposé	-11.5905
émie	-11.5908
▁Gla	-11.5909
▁pilotage	-11.5909
▁carrés	-11.591
toire	-11.591
▁laver	-11.5911
▁emmène	-11.5911
avions	-11.5911
pad	-11.5912
▁96	-11.5912
▁verticale	-11.5917
▁Express	-11.5917
▁rapprocher	-11.5917
▁tranquillité	-11.5919
▁clo	-11.592
adhésion	-11.5921
▁sensibilisation	-11.5923
▁contribué	-11.5923
arm	-11.5925
▁Meetic	-11.5927
lotte	-11.5928
▁Métiers	-11.5928
▁impliqué	-11.593
annonces	-11.593
▁maille	-11.5931
▁Communiqué	-11.5934
▁pri	-11.5934
▁partagée	-11.5935
-16	-11.5938
Intérieur	-11.5939
▁inspiration	-11.5941
naient	-11.5941
▁Bol	-11.5943
▁métropolitaine	-11.5945
CES	-11.5945
cadre	-11.5946
DM	-11.5946
▁Maur	-11.5947
disciplinaire	-11.5949
▁magnétique	-11.5951
▁autorisée	-11.5954
▁placés	-11.5954
▁Définition	-11.5955
▁passait	-11.5957
▁Edition	-11.5957
▁Roll	-11.5959
▁clichés	-11.596
▁superbes	-11.596
▁crises	-11.596
▁compositeur	-11.5961
▁Tal	-11.5962
▁Benjamin	-11.5965
▁préférable	-11.5966
▁conclure	-11.5967
Information	-11.5968
ister	-11.5969
▁sacrifice	-11.5969
▁enseignements	-11.597
eva	-11.5971
▁Bell	-11.5972
▁diminution	-11.5973
▁exposés	-11.5975
▁comptabilité	-11.5976
roux	-11.5977
ême	-11.5977
▁Films	-11.5977
évi	-11.5977
▁parlementaire	-11.5978
▁pharmacien	-11.5978
▁légalement	-11.5979
▁mince	-11.5979
▁facilite	-11.5982
▁sale	-11.5983
hom	-11.5983
▁séduction	-11.5983
BC	-11.5983
add	-11.5984
▁représenté	-11.5984
▁inox	-11.5986
▁Gou	-11.5986
▁Guadeloupe	-11.5987
▁adorable	-11.5987
uda	-11.5988
opérateur	-11.5988
▁mensuelle	-11.5989
tiers	-11.5989
▁électricité	-11.5989
▁spiritualité	-11.599
▁Touch	-11.5991
▁prépa	-11.5991
▁abouti	-11.5992
▁LO	-11.5994
▁indien	-11.5994
thérapie	-11.5996
▁game	-11.5997
▁travailleur	-11.5997
▁Cul	-11.5998
▁annoncer	-11.5999
ello	-11.6
▁recouvert	-11.6
▁Vérifiez	-11.6001
▁Juifs	-11.6001
▁tragique	-11.6002
▁Interview	-11.6005
▁distributeur	-11.6006
CD	-11.6007
▁nette	-11.6008
▁enveloppe	-11.601
pli	-11.601
ouve	-11.6011
▁concentre	-11.6012
▁questionnaire	-11.6013
▁église	-11.6013
▁terroristes	-11.6015
▁visé	-11.6015
▁71	-11.6017
▁dérange	-11.6017
▁institution	-11.6018
▁nutrition	-11.6018
orange	-11.6021
fait	-11.6024
▁envoyés	-11.6024
▁traductions	-11.6025
▁tempête	-11.6026
▁bénéfique	-11.6026
oie	-11.6026
appuyant	-11.6027
▁prétend	-11.6028
▁Agenda	-11.6028
iPhone	-11.6028
▁alinéa	-11.6031
▁LI	-11.6032
▁détecter	-11.6032
▁olympique	-11.6033
▁créatures	-11.6034
▁chevalier	-11.6034
tran	-11.6034
▁///	-11.6036
▁travaillons	-11.6036
▁82	-11.6036
▁chrétien	-11.6037
▁Finlande	-11.6037
▁déficit	-11.6037
▁désinscrire	-11.6039
▁déposées	-11.6042
phe	-11.6042
oirs	-11.6045
▁Bande	-11.6045
▁entrepreneur	-11.6045
▁constant	-11.6046
▁Land	-11.6048
▁Camping	-11.605
▁Rechercher	-11.6053
ITÉ	-11.6054
▁racisme	-11.6055
▁destinations	-11.6058
▁ailes	-11.6058
▁communiquées	-11.6059
ciel	-11.6061
▁logos	-11.6062
▁Voyez	-11.6062
▁Champagne	-11.6064
izz	-11.6064
div	-11.6066
orthographe	-11.6067
▁hypothétique	-11.6068
▁confirmées	-11.6068
▁architecte	-11.6071
▁Enfant	-11.6072
▁Dakar	-11.6073
▁Beaux	-11.6073
▁concurrents	-11.6074
▁Cuba	-11.6075
▁Youtube	-11.6076
▁maxi	-11.6078
▁introduit	-11.6078
dite	-11.6079
▁bienfaits	-11.608
ete	-11.6081
▁sécurisée	-11.6082
▁regrette	-11.6087
▁corde	-11.6089
ml	-11.6089
▁exaltation	-11.6093
cide	-11.6094
▁grotte	-11.6095
▁Vent	-11.6097
▁Potter	-11.6097
▁déploiement	-11.6099
▁allié	-11.61
TP	-11.6101
▁juive	-11.6103
icône	-11.6104
▁ouvriers	-11.6106
▁Cancer	-11.6106
▁datant	-11.6107
▁délit	-11.6111
affi	-11.6111
▁illégale	-11.6112
allemand	-11.6114
apa	-11.6115
jan	-11.6116
oma	-11.6118
quat	-11.6119
▁PI	-11.6119
▁Mos	-11.612
pri	-11.6121
▁désire	-11.6121
▁revendique	-11.6123
▁rural	-11.6125
ku	-11.6126
▁dém	-11.6126
▁extérieures	-11.6127
▁Ana	-11.6129
ombe	-11.6131
▁faune	-11.6132
embauche	-11.6132
ambi	-11.6133
▁nain	-11.6133
▁DC	-11.6134
▁fabriqués	-11.6137
▁Sy	-11.6138
▁merde	-11.6138
▁Gene	-11.6141
ncer	-11.6141
▁hé	-11.6143
▁Pierres	-11.6144
égo	-11.6145
▁Gard	-11.6145
ivre	-11.6146
▁expose	-11.6146
▁Nancy	-11.615
▁indications	-11.6151
▁Escort	-11.6152
▁Cra	-11.6152
▁DIY	-11.6153
git	-11.6153
▁volontaires	-11.6154
▁Tableau	-11.6155
▁Tribunal	-11.6155
▁1945	-11.6157
▁Ajoutez	-11.6157
▁manquez	-11.6158
▁volets	-11.6158
▁radi	-11.6158
▁densité	-11.6159
▁Numérique	-11.6163
▁routière	-11.6163
ké	-11.6163
▁raté	-11.6164
▁familiales	-11.6165
▁promesses	-11.6166
▁Nike	-11.6167
▁dirais	-11.6168
▁faille	-11.6172
▁tensions	-11.6173
▁81	-11.6175
▁intégrés	-11.6176
▁Jules	-11.6176
▁Pape	-11.6178
▁engagés	-11.6178
END	-11.6181
▁pull	-11.6182
1-1	-11.6184
▁assurant	-11.6184
optimiser	-11.6185
▁respecté	-11.6185
▁réelles	-11.6186
titude	-11.6189
▁restait	-11.6191
▁Ol	-11.6191
gou	-11.6191
▁visa	-11.6194
immer	-11.6196
intégrité	-11.6196
▁Linux	-11.6198
▁Rouen	-11.6198
▁diplomatique	-11.6199
▁posséder	-11.6199
▁Bur	-11.6199
▁Vive	-11.6201
▁nomme	-11.6202
▁débuté	-11.6202
ALE	-11.6204
▁dépit	-11.6204
▁chercheur	-11.6204
▁générosité	-11.6206
▁CDI	-11.6206
▁Montre	-11.6208
/02/	-11.6209
quot	-11.6209
▁Roumanie	-11.621
▁impeccable	-11.621
▁MS	-11.6211
▁musulmane	-11.6213
épi	-11.6213
▁répétition	-11.6213
èse	-11.6214
HD	-11.6215
/11/2014	-11.6221
▁libertine	-11.6222
▁Sels	-11.6223
▁combler	-11.6223
Comment	-11.6224
▁varient	-11.6225
▁mentionner	-11.6225
ampleur	-11.6226
▁radiateur	-11.6227
▁Chemin	-11.6228
ingénierie	-11.6228
▁Partenaires	-11.6228
▁Rocky	-11.623
▁fixes	-11.623
▁2004,	-11.6232
Dis	-11.6233
▁handicapées	-11.6233
Azur	-11.6236
▁Gold	-11.6236
▁Gauche	-11.6236
▁Couture	-11.6237
IEN	-11.6238
▁civils	-11.6239
▁rassembler	-11.624
▁Rem	-11.624
▁versement	-11.624
Marne	-11.6243
▁formules	-11.6245
▁It	-11.6246
▁noble	-11.6248
▁côtes	-11.625
▁réputé	-11.625
▁médiateur	-11.625
▁assurances	-11.6251
▁pile	-11.6252
▁vierge	-11.6254
ICE	-11.6255
▁Gé	-11.6255
iri	-11.6256
▁misère	-11.6256
▁cathédrale	-11.6257
▁vocabulaire	-11.6257
▁pdf	-11.6258
▁vivants	-11.6258
▁jupe	-11.6259
▁grandeur	-11.626
▁théorique	-11.626
rue	-11.6263
▁collé	-11.6265
▁valoriser	-11.6266
▁sécuriser	-11.6267
▁Fl	-11.6268
▁filiale	-11.6269
▁mettra	-11.6269
heim	-11.627
▁plaine	-11.6271
▁décident	-11.6272
lla	-11.6273
ij	-11.6274
igi	-11.6275
star	-11.6277
▁épaules	-11.6277
verse	-11.6278
mot	-11.6279
▁rendus	-11.6279
▁Nintendo	-11.6279
çons	-11.628
▁bijou	-11.6282
▁Costa	-11.6283
▁nomination	-11.6287
▁exception	-11.6292
etti	-11.6294
▁Licence	-11.6294
▁arrivés	-11.6294
py	-11.6297
OF	-11.6297
igna	-11.63
than	-11.63
▁Laboratoire	-11.6301
sident	-11.6302
mination	-11.6303
indique	-11.6305
ubi	-11.6305
▁excursion	-11.6306
▁capteur	-11.6306
▁Physique	-11.6307
▁Ambassadeur	-11.6308
Mé	-11.6311
▁maîtresse	-11.6312
▁innovations	-11.6312
aliste	-11.6313
vid	-11.6313
▁semelle	-11.6314
▁Seuls	-11.6315
Di	-11.6316
▁1988	-11.6316
▁Tournoi	-11.6318
lig	-11.6319
▁généraliste	-11.632
▁Bayard	-11.6321
▁gouvernements	-11.6323
▁pertinence	-11.6323
▁trouvée	-11.6325
▁CHA	-11.6326
▁Pau	-11.6327
▁conservateur	-11.6328
dar	-11.6328
▁2,5	-11.6328
▁Haïti	-11.633
▁nôtre	-11.633
▁inscrivez	-11.6334
bec	-11.6334
Chambre	-11.6335
idéal	-11.6336
▁mineure	-11.6336
aube	-11.6337
▁ranger	-11.6338
house	-11.6339
▁commandement	-11.6341
▁Dream	-11.6341
anna	-11.6342
▁sections	-11.6345
▁Cinq	-11.6346
▁Ken	-11.6346
pers	-11.6348
▁Chili	-11.6348
▁comparatif	-11.6349
2006	-11.635
▁Neuf	-11.6351
rog	-11.6353
▁Sony	-11.6354
▁dira	-11.6356
▁mécaniques	-11.6356
mise	-11.6356
▁Mans	-11.6356
ément	-11.6358
▁prioritaire	-11.6359
ever	-11.6359
▁cinéaste	-11.636
▁divine	-11.636
▁tranquillement	-11.636
▁Corn	-11.6361
▁appliqué	-11.6363
▁converti	-11.6363
▁Hauts	-11.6363
▁Paiement	-11.6364
maison	-11.6365
▁procure	-11.6367
chemin	-11.6368
▁habituelle	-11.6369
▁spot	-11.6371
▁complicité	-11.6371
▁rangs	-11.6371
▁vain	-11.6372
▁sérieuses	-11.6377
▁bla	-11.6379
▁nue	-11.6381
▁chêne	-11.6382
▁dense	-11.6383
▁devaient	-11.6383
▁précises	-11.6385
▁Mah	-11.6386
▁illustré	-11.6386
▁BO	-11.6387
agonie	-11.6388
accessoires	-11.6388
▁étages	-11.6388
▁(28)	-11.6391
Jacques	-11.6392
▁Indien	-11.6393
▁fonctionnel	-11.6393
▁gérant	-11.6394
▁Fri	-11.6398
▁lingerie	-11.6399
▁pers	-11.6399
▁réservations	-11.64
▁voudrait	-11.64
!!!!	-11.6404
▁Horror	-11.6404
cel	-11.6404
▁vitrage	-11.6406
▁complice	-11.6409
▁téléphones	-11.641
asile	-11.641
▁Standard	-11.6412
▁régulation	-11.6414
andre	-11.6415
bord	-11.6416
▁Rappel	-11.642
▁compagnons	-11.6421
▁SD	-11.6423
ford	-11.6423
▁neuro	-11.6424
▁peaux	-11.6424
▁chroniques	-11.6424
entrepreneur	-11.6426
▁Hum	-11.6426
▁précoce	-11.6427
ût	-11.6427
ound	-11.6428
▁Sont	-11.6428
plication	-11.6429
▁confier	-11.643
authenticité	-11.643
▁posée	-11.6433
▁actu	-11.6433
Denis	-11.6434
▁débutant	-11.6435
▁pla	-11.6435
pl	-11.6436
André	-11.6438
▁bouquet	-11.6439
thy	-11.6439
▁recensement	-11.6439
CG	-11.644
▁teint	-11.644
▁réalités	-11.6441
▁cinquante	-11.6441
▁suggère	-11.6442
éva	-11.6442
▁croyances	-11.6443
▁retenu	-11.6444
▁posture	-11.6444
▁Eau	-11.6447
▁industrie	-11.6448
annuaire	-11.6449
▁partant	-11.6449
▁fibres	-11.645
post	-11.6451
aro	-11.6452
▁souhaitant	-11.6452
▁Tokyo	-11.6453
▁flexible	-11.6453
▁quarante	-11.6453
▁Figaro	-11.6453
▁fraîcheur	-11.6453
hydr	-11.6454
▁ignore	-11.6455
▁cherché	-11.6455
▁philosophique	-11.6456
▁clou	-11.6456
▁Membres	-11.6457
gis	-11.6457
▁casser	-11.6458
><	-11.646
press	-11.6461
▁imposer	-11.6462
▁torture	-11.6462
▁destinataire	-11.6463
▁entités	-11.6464
▁Gau	-11.6465
▁résine	-11.6467
▁FL	-11.6468
▁infirmière	-11.6468
gua	-11.6469
Inter	-11.647
viens	-11.6471
▁Chambres	-11.6471
▁comprimé	-11.6472
chen	-11.6472
adolescence	-11.6475
▁protecteur	-11.6475
empereur	-11.6476
▁conviviale	-11.6477
▁1918	-11.6477
ates	-11.6477
▁opportunité	-11.6478
▁dresse	-11.6478
▁accueillant	-11.648
▁envahi	-11.648
▁parution	-11.6482
Bretagne	-11.6482
▁stocker	-11.6482
▁descendant	-11.6484
hon	-11.6489
▁souverain	-11.649
▁policière	-11.649
▁illicite	-11.6491
stro	-11.6492
▁soudain	-11.6494
▁portraits	-11.6495
...”	-11.6499
▁préalablement	-11.6499
▁Tru	-11.6502
wan	-11.6502
rc	-11.6502
▁Bouche	-11.6502
▁Seulement	-11.6504
▁Nav	-11.6504
▁VTT	-11.6504
▁vertical	-11.6504
urant	-11.6504
▁renforcé	-11.6505
▁Alsace	-11.6505
▁réservoir	-11.6505
institution	-11.6506
▁actrice	-11.6507
▁arguments	-11.6507
▁chargement	-11.6508
orme	-11.6508
▁épices	-11.6512
experts	-11.6513
▁défilé	-11.6513
▁Reg	-11.6513
▁champignons	-11.6514
▁restée	-11.6516
compte	-11.6516
Ed	-11.6518
▁arrivant	-11.6518
▁Léon	-11.6519
▁bannière	-11.652
Anne	-11.6521
▁cris	-11.6521
▁achetez	-11.6521
vos	-11.6526
▁pleur	-11.6534
▁Recevez	-11.6535
▁céder	-11.6536
▁Laisser	-11.6536
▁taper	-11.654
▁Via	-11.6541
▁charmante	-11.6541
▁ferai	-11.6542
▁détendre	-11.6542
▁fourniture	-11.6542
▁high	-11.6542
▁migration	-11.6542
/09/	-11.6543
▁généré	-11.6543
▁partition	-11.6544
▁Ayant	-11.6545
Mer	-11.6545
habitants	-11.6547
▁More	-11.6547
▁pédagogie	-11.655
▁territoriale	-11.6552
▁libertin	-11.6552
▁Chau	-11.6553
Sou	-11.6554
▁phare	-11.6555
▁repli	-11.6558
gnac	-11.6559
PT	-11.656
RM	-11.6561
gni	-11.6562
▁Canal	-11.6563
PN	-11.6563
/2	-11.6565
▁récupéré	-11.6566
▁Cherche	-11.6567
▁more	-11.6567
▁ajoutés	-11.6568
▁légendaire	-11.6569
▁préfet	-11.6569
▁enquêtes	-11.6569
▁entité	-11.657
uter	-11.6571
atrices	-11.6572
▁sachez	-11.6572
▁papillon	-11.6573
Utilisation	-11.6573
ède	-11.6574
▁Irak	-11.6574
▁iOS	-11.6574
▁vitamine	-11.6575
▁attaqué	-11.6576
apprécie	-11.6577
▁valoir	-11.6578
▁Animation	-11.6579
ller	-11.6581
▁œil	-11.6583
▁devoirs	-11.6583
▁chapeau	-11.6586
▁baptême	-11.6588
▁clause	-11.6588
▁bronze	-11.6588
▁retourné	-11.659
▁répression	-11.659
important	-11.6591
▁touchant	-11.6591
▁Niger	-11.6592
▁talons	-11.6592
▁Passion	-11.6593
▁cités	-11.6594
▁absolu	-11.6595
▁ép	-11.6595
▁Possibilité	-11.6595
kan	-11.6597
▁pouce	-11.6598
▁cousin	-11.6598
▁aveugle	-11.6599
▁Téléphone	-11.6599
▁prestataire	-11.6601
cht	-11.6601
udo	-11.6602
▁calcium	-11.6603
omi	-11.6606
▁proposera	-11.6606
▁Faso	-11.6608
▁alliés	-11.6609
▁mètre	-11.661
omé	-11.6612
▁bl	-11.6619
▁cirque	-11.662
tribu	-11.6622
BL	-11.6623
▁1984	-11.6625
▁retrouv	-11.6626
isées	-11.6626
▁autorisés	-11.6627
▁grade	-11.6628
▁tenait	-11.6628
Char	-11.6628
▁débutants	-11.6629
aff	-11.663
▁prévenu	-11.6631
▁Gay	-11.6632
▁Propriété	-11.6633
▁acquise	-11.6633
▁divin	-11.6634
▁fictifs	-11.6636
▁inclure	-11.6636
▁créés	-11.6638
acc	-11.6638
▁HO	-11.6639
uth	-11.664
Ab	-11.664
▁noyau	-11.6642
édit	-11.6643
▁copains	-11.6646
▁Recettes	-11.6648
▁astéroïdes	-11.6649
code	-11.665
▁désigner	-11.665
▁LG	-11.6653
▁guerres	-11.6654
▁randonnées	-11.6654
▁Pinterest	-11.6656
▁cage	-11.6656
▁souhaitée	-11.6656
▁RSS	-11.6656
▁dépassé	-11.6659
▁Chapitre	-11.666
▁Gémeaux	-11.666
▁écrivant	-11.6664
▁donnait	-11.6664
interaction	-11.6666
▁caoutchouc	-11.6667
entendent	-11.6668
▁attire	-11.6668
utilité	-11.6668
Loire	-11.6669
▁RÉ	-11.6669
▁Éditions	-11.6669
▁examens	-11.6672
▁correspondante	-11.6673
vain	-11.6673
▁Leurs	-11.6673
lière	-11.6674
▁séparer	-11.6674
▁Architecture	-11.6675
▁végétaux	-11.6675
▁Bonsoir	-11.6675
▁invitation	-11.6676
▁Ang	-11.6676
▁tubes	-11.6676
hel	-11.6676
▁Promotion	-11.6678
▁Mieux	-11.6679
▁XXe	-11.668
▁pratiqué	-11.6681
Nos	-11.6682
▁sainte	-11.6687
▁Bis	-11.6687
▁Petits	-11.6687
▁put	-11.6689
▁miniature	-11.6691
épouse	-11.6692
éma	-11.6692
▁Creer	-11.6693
▁regards	-11.6693
▁réfrigérateur	-11.6694
▁éducative	-11.6694
▁Avoir	-11.6697
▁banquier	-11.6698
ingénieur	-11.6699
▁traversée	-11.6701
▁vélos	-11.6702
▁délicat	-11.6703
▁360	-11.6703
FP	-11.6704
▁Singapour	-11.6705
▁bâton	-11.6705
▁Ford	-11.6707
bis	-11.6708
▁Siège	-11.6709
clam	-11.671
▁obscur	-11.671
yan	-11.6711
indice	-11.6711
▁raccord	-11.6711
lui	-11.6712
▁Bus	-11.6713
lain	-11.6714
▁insolite	-11.6714
OY	-11.6715
▁nuances	-11.6716
▁compatibles	-11.6716
▁tunnel	-11.6717
▁monstre	-11.6717
acier	-11.6717
▁victoires	-11.6718
▁visée	-11.6718
appeler	-11.6719
▁brin	-11.6721
▁remède	-11.6721
▁souterrain	-11.6725
▁urgent	-11.6726
▁verres	-11.6728
▁illuminations	-11.6729
alli	-11.673
yme	-11.6733
▁rac	-11.6733
▁leçons	-11.6736
▁séquence	-11.6737
▁idee	-11.6737
▁sois	-11.6739
▁Esp	-11.6739
▁Réalisé	-11.6741
▁emprunt	-11.6741
▁réparti	-11.6743
▁Affacturage	-11.6743
▁orientation	-11.6744
▁faiblesse	-11.6746
▁Global	-11.6749
primé	-11.6751
▁optimal	-11.6752
▁Réf	-11.6754
unique	-11.6755
▁Chronique	-11.6755
▁planches	-11.6756
▁subit	-11.6757
▁essayez	-11.6757
cam	-11.6759
▁Editions	-11.676
Pays	-11.6762
▁Chan	-11.6763
▁départemental	-11.6763
▁RGPD	-11.6765
▁leçon	-11.6766
▁tomates	-11.6767
▁rédacteur	-11.6767
petits	-11.6768
▁rassemblé	-11.6769
▁regardé	-11.6769
▁quinzaine	-11.677
▁corrigé	-11.677
▁interrogé	-11.677
▁INTER	-11.6771
ivité	-11.6773
▁OP	-11.6774
▁ligue	-11.6774
▁exécuté	-11.6774
▁aménagement	-11.6774
▁reçoivent	-11.6775
▁bouchon	-11.6775
iko	-11.6776
Val	-11.6777
▁cristal	-11.6777
▁reflète	-11.6778
var	-11.6778
▁minorité	-11.6778
▁cosmétiques	-11.6779
▁sphère	-11.678
▁intéressés	-11.678
/04/	-11.6781
▁?"	-11.6782
▁Fourni	-11.6783
▁1/2	-11.6783
▁innovation	-11.6783
▁axes	-11.6783
▁acoustique	-11.6785
BM	-11.6786
▁rejeté	-11.6787
venez	-11.6793
▁Francis	-11.6793
ifi	-11.6794
orge	-11.6795
▁poire	-11.6795
approbation	-11.6797
▁Christine	-11.6799
▁décrites	-11.6801
▁Pokémon	-11.6801
▁Bébé	-11.6802
▁Unies	-11.6803
To	-11.6803
email	-11.6805
▁détention	-11.6806
▁accidents	-11.6808
forum	-11.681
▁parvenu	-11.6811
▁:-)	-11.6812
▁rubriques	-11.6812
▁québécois	-11.6813
▁grain	-11.6814
▁Baby	-11.6815
▁blague	-11.6816
tens	-11.6818
▁125	-11.6818
▁Finance	-11.6819
▁décors	-11.682
▁productivité	-11.6821
▁processeur	-11.6823
apprête	-11.6824
▁manuscrit	-11.6824
▁propice	-11.6824
▁acheteurs	-11.6825
▁créent	-11.6826
▁Marne	-11.6827
▁croise	-11.6828
▁aidera	-11.683
▁Bad	-11.683
▁admirer	-11.6831
oto	-11.6831
opposer	-11.6832
▁cohérence	-11.6832
UI	-11.6832
▁Coeur	-11.6834
▁confi	-11.6835
▁Discussions	-11.6835
éclat	-11.6835
▁livret	-11.6836
▁détaillées	-11.6839
glo	-11.6839
exprime	-11.6839
▁médiation	-11.6843
nistes	-11.6845
▁your	-11.6845
▁harmonie	-11.6846
▁provoqué	-11.6847
▁aimant	-11.6847
▁panoramique	-11.6848
▁Moteur	-11.6849
▁précautions	-11.685
crire	-11.6851
▁trouvant	-11.6851
▁citations	-11.6854
▁rapporté	-11.6854
▁doctrine	-11.6855
▁respiration	-11.6856
▁transporter	-11.6859
Christ	-11.6859
▁short	-11.6863
Jo	-11.6863
▁irr	-11.6863
▁porteurs	-11.6864
▁concernée	-11.6864
▁maquette	-11.6865
▁créatrice	-11.6865
▁ira	-11.6867
▁poussée	-11.6871
▁sépare	-11.6871
▁répété	-11.6873
attitude	-11.6875
deur	-11.6876
▁Passionné	-11.6876
▁intéressants	-11.6877
▁serviteur	-11.6877
appréciation	-11.6878
▁vraies	-11.6879
▁Gabriel	-11.6882
▁réussie	-11.6882
▁gigantesque	-11.6883
▁éphémère	-11.6883
oxygène	-11.6883
instar	-11.6884
▁bulle	-11.6884
ALL	-11.6884
▁Edit	-11.6885
▁vêtement	-11.6885
▁attentivement	-11.6885
organe	-11.6889
ONE	-11.689
NS	-11.689
▁chante	-11.6891
▁DÉ	-11.6891
▁minuit	-11.6892
▁parisiens	-11.6892
▁Finances	-11.6893
▁Feux	-11.6894
illet	-11.6895
▁locataires	-11.6895
hl	-11.6898
▁twitter	-11.6898
▁rachat	-11.6899
▁orale	-11.69
▁lourds	-11.6901
▁Premium	-11.6902
▁détenteur	-11.6905
hib	-11.6906
▁confortables	-11.6909
taires	-11.6909
▁Balance	-11.6909
PM	-11.691
▁intentions	-11.6914
▁lauréat	-11.6914
▁têtes	-11.6915
▁tournois	-11.6915
wood	-11.6916
LD	-11.6919
BS	-11.6922
▁dépendent	-11.6923
Ri	-11.6925
▁Méthode	-11.6926
Votre	-11.6926
▁reproche	-11.6926
▁potentiels	-11.6927
acide	-11.6928
▁adressé	-11.6928
▁roulement	-11.6929
oke	-11.693
▁Clients	-11.6931
▁vinaigre	-11.6933
▁Eli	-11.6934
iaire	-11.6936
▁aliment	-11.6937
▁préférée	-11.6937
escalade	-11.6937
▁chronologique	-11.6937
▁bordure	-11.694
lées	-11.6941
▁courageux	-11.6944
▁autorise	-11.6945
▁grecque	-11.6949
assa	-11.6952
▁1978,	-11.6952
URE	-11.6952
artisan	-11.6953
▁accompagnés	-11.6954
meur	-11.6955
▁massive	-11.6956
▁NO	-11.6956
▁hu	-11.6957
▁aborder	-11.6957
▁procureur	-11.6957
▁explicite	-11.6958
▁aviez	-11.6959
lab	-11.696
▁curieuse	-11.6961
max	-11.6962
assaut	-11.6963
▁robinet	-11.6964
▁spacieuse	-11.6965
zan	-11.6966
▁probabilité	-11.6969
▁dentaire	-11.6969
août	-11.6969
prim	-11.6972
▁Martinique	-11.6972
TH	-11.6972
▁fournitures	-11.6972
▁vendeurs	-11.6977
irent	-11.6979
▁Argentine	-11.6981
OG	-11.6984
EU	-11.6985
▁spam	-11.6985
▁connaissait	-11.6988
amel	-11.6989
▁atout	-11.6989
▁démarre	-11.6989
▁perçu	-11.699
historique	-11.6992
▁Forme	-11.6992
itation	-11.6995
idé	-11.6996
ennes	-11.6999
▁mienne	-11.6999
Sport	-11.7003
tig	-11.7004
▁???	-11.7004
MB	-11.7006
▁observations	-11.7007
▁Rep	-11.7008
chons	-11.7009
▁lointain	-11.7009
▁Bah	-11.7012
▁tricot	-11.7013
accueillir	-11.7013
▁réussit	-11.7018
▁détermine	-11.702
acné	-11.7021
▁copier	-11.7021
▁Traitement	-11.7022
▁cesser	-11.7022
▁fée	-11.7023
▁prestigieux	-11.7024
▁ridicule	-11.7024
▁Johnny	-11.7024
reuse	-11.7025
▁péril	-11.7025
▁favori	-11.7026
▁devrais	-11.7029
▁diminue	-11.7029
▁complets	-11.7029
▁Ky	-11.703
▁saveur	-11.7038
illée	-11.7038
▁(14	-11.7038
▁dynamiques	-11.7038
▁climatiques	-11.7039
belle	-11.7039
▁sucré	-11.7039
▁manteau	-11.704
▁2019,	-11.7041
originalité	-11.7041
burg	-11.7043
▁parfums	-11.7043
▁protestant	-11.7043
▁passeport	-11.7044
▁achète	-11.7046
▁pèse	-11.7046
▁Média	-11.7046
▁CAR	-11.7047
▁exerce	-11.7048
rve	-11.7052
hypothèse	-11.7052
▁exister	-11.7055
▁traîne	-11.7056
aye	-11.706
équ	-11.7063
▁attribution	-11.7064
▁ART	-11.7064
▁vaisselle	-11.7065
▁blocs	-11.7065
▁costume	-11.7067
▁Située	-11.7067
▁votes	-11.7067
▁Boy	-11.7068
▁fixée	-11.7069
Tr	-11.7069
▁virement	-11.7071
▁hard	-11.7071
▁scrutin	-11.7071
▁God	-11.7073
▁prisonniers	-11.7075
▁Lorraine	-11.7075
Avec	-11.7076
coute	-11.7076
▁Hugo	-11.7076
▁Biennale	-11.7076
▁Clé	-11.7078
tière	-11.7081
▁ingénieurs	-11.7083
OW	-11.7083
▁Hill	-11.7087
▁topic	-11.7087
▁Ultra	-11.7087
▁Médi	-11.7092
▁indemnité	-11.7092
ragon	-11.7092
▁réformes	-11.7092
▁guise	-11.7092
▁sortent	-11.7094
▁odeur	-11.7095
▁Gro	-11.7095
▁mensonge	-11.7095
value	-11.7098
déjeuner	-11.7101
▁fo	-11.7101
▁désabonnement	-11.7101
▁mineur	-11.7101
▁Secrétaire	-11.7103
▁textile	-11.7104
▁intitulée	-11.7105
▁hébergements	-11.7105
▁Of	-11.7106
▁sollicité	-11.7107
▁automatisé	-11.7108
▁requiert	-11.7111
pays	-11.7114
▁Gri	-11.7114
hab	-11.7116
▁fouille	-11.7116
original	-11.7116
-15	-11.7118
▁CL	-11.712
▁Voiture	-11.712
▁Henry	-11.7121
▁.....	-11.7122
▁cite	-11.7123
▁talon	-11.7123
▁ajoutant	-11.7124
anche	-11.7125
élément	-11.7126
▁Galaxy	-11.7127
▁Instruments	-11.7127
▁1987	-11.7127
▁Secret	-11.7127
▁scie	-11.7133
-9	-11.7133
▁Gabon	-11.7133
écologie	-11.7134
▁exclu	-11.7135
▁Caroline	-11.7136
▁Glo	-11.7136
artisanat	-11.7137
▁déterminant	-11.7139
▁informés	-11.7139
▁anonymes	-11.7144
ambassade	-11.7145
core	-11.7147
très	-11.7148
RN	-11.7151
ssier	-11.7152
▁exceptionnelles	-11.7154
ologiques	-11.7154
▁menus	-11.7154
▁Sommaire	-11.7155
▁capitalisme	-11.7155
▁Ter	-11.7155
appliquent	-11.7158
▁légèreté	-11.7158
vance	-11.7161
firm	-11.7163
Comp	-11.7163
▁Supérieur	-11.7165
▁ERA	-11.7166
▁natale	-11.7166
▁attentif	-11.7167
▁balles	-11.7167
▁nuages	-11.7168
▁rail	-11.7169
▁croiser	-11.7169
interdiction	-11.7169
▁macro	-11.717
▁Contrat	-11.7171
ndi	-11.7171
▁territoriales	-11.7173
▁mignon	-11.7173
▁cauchemar	-11.7175
Cette	-11.7175
▁organisés	-11.7176
▁étais	-11.7178
eve	-11.7181
▁parlait	-11.7182
▁escorte	-11.7182
▁lavage	-11.7184
▁report	-11.7185
institut	-11.7185
▁Soins	-11.7187
▁Education	-11.719
▁attentats	-11.719
▁Somme	-11.7192
Observatoire	-11.7193
▁soif	-11.7194
▁flore	-11.7194
▁adversaires	-11.7194
▁détriment	-11.7195
▁polyester	-11.7195
▁Personnes	-11.7195
▁repartir	-11.7196
▁Nat	-11.7198
▁RCS	-11.72
▁Appareil	-11.7202
▁30%	-11.7204
heures	-11.7206
▁GE	-11.7207
umi	-11.7207
▁Paradis	-11.7207
▁boisson	-11.7209
▁attractions	-11.7209
▁champions	-11.721
▁Chap	-11.721
▁prie	-11.7211
▁modernité	-11.7211
▁définies	-11.7211
▁Sk	-11.7211
▁soutenue	-11.7213
▁Poly	-11.7214
▁possédez	-11.7215
▁voyance	-11.7215
▁Assistant	-11.7217
▁ISO	-11.7218
▁amener	-11.7219
▁contacté	-11.7219
Anti	-11.722
rô	-11.7221
▁fre	-11.7223
▁BA	-11.7225
▁amies	-11.7226
▁calculer	-11.7226
élo	-11.7227
▁Matt	-11.7228
importation	-11.723
▁ban	-11.7232
etre	-11.7232
appa	-11.7233
/3	-11.7233
Port	-11.7234
▁cir	-11.7234
érable	-11.7235
▁triple	-11.7236
▁formateur	-11.7237
▁comm	-11.724
pol	-11.7242
tard	-11.7242
▁Casino	-11.7243
▁Hal	-11.7244
▁organes	-11.7245
ory	-11.7246
▁distributeurs	-11.7246
▁gravité	-11.7246
gant	-11.7246
▁hop	-11.7247
exp	-11.7248
▁phases	-11.7249
▁Maman	-11.7249
dium	-11.7249
▁programmé	-11.7249
▁prescrit	-11.725
▁particularité	-11.7251
▁Bout	-11.7252
▁(0	-11.7254
▁SARL	-11.7255
▁Pêche	-11.7257
▁CS	-11.7258
éron	-11.7259
▁canard	-11.726
UMP	-11.7261
▁juif	-11.7263
kar	-11.7264
▁enrichir	-11.7265
▁Tam	-11.7265
▁Matière	-11.7265
data	-11.7265
▁livrés	-11.7265
évaluer	-11.7267
▁voulant	-11.7267
▁Autour	-11.7267
aptitude	-11.7269
ONS	-11.727
Prix	-11.7271
▁Expert	-11.7271
pal	-11.7272
initi	-11.7272
▁Sociale	-11.7273
▁coquin	-11.7273
▁patin	-11.7273
▁couverts	-11.7275
▁Lycée	-11.7276
▁Centrale	-11.7278
▁(9	-11.7279
▁VIP	-11.7281
▁Stade	-11.7282
▁épargne	-11.7282
▁DOC	-11.7283
inspecteur	-11.7284
▁pertinentes	-11.7286
lec	-11.7286
▁spatiale	-11.7287
conseil	-11.7287
▁vache	-11.7287
▁Reims	-11.7288
▁Référencement	-11.7289
▁ann	-11.7291
▁reporter	-11.7291
▁mutation	-11.7292
cieux	-11.7293
héritier	-11.7293
▁GO	-11.7294
▁traitant	-11.7294
▁linéaire	-11.7296
▁Perso	-11.7296
donne	-11.7297
lons	-11.7298
▁radical	-11.7299
▁Kim	-11.7299
gorge	-11.73
▁juges	-11.73
tas	-11.7302
▁Bord	-11.7302
▁dangereuse	-11.7303
première	-11.7303
▁conformes	-11.7304
embl	-11.7306
▁pensait	-11.7308
▁genoux	-11.731
/03/	-11.731
▁Coin	-11.731
▁CARD	-11.7311
cookies	-11.7312
▁comble	-11.7312
▁Proche	-11.7313
▁color	-11.7313
▁végétal	-11.7315
▁SAINT	-11.7316
▁comptoir	-11.7316
épa	-11.7316
impulsion	-11.7317
▁grandir	-11.7317
adresser	-11.7318
▁CAPC	-11.7318
▁passionnant	-11.732
▁pres	-11.732
Pi	-11.7321
▁online	-11.7321
▁set	-11.7322
▁Mettre	-11.7324
▁Message	-11.7325
▁consomme	-11.7325
▁documentaires	-11.7325
▁Règles	-11.7325
▁manuelle	-11.7326
▁sanguin	-11.7329
ipp	-11.733
mage	-11.733
rol	-11.7331
morph	-11.7333
cq	-11.7335
▁mobiliser	-11.7335
▁agressif	-11.7336
affin	-11.7336
obby	-11.7338
usure	-11.7338
▁tueur	-11.7339
▁fière	-11.7341
▁adoptée	-11.7343
▁témoignent	-11.7346
/12/	-11.7346
Do	-11.7346
▁Plage	-11.7346
cr	-11.7346
▁donnés	-11.7347
▁souriant	-11.7348
▁visiblement	-11.7348
▁3000	-11.735
▁Bour	-11.7351
▁camps	-11.7351
mili	-11.7351
▁résulte	-11.7352
▁baignade	-11.7352
émergence	-11.7353
put	-11.7356
▁vertus	-11.7359
wing	-11.736
▁habituel	-11.736
▁avatar	-11.7361
▁ravie	-11.7363
▁prouve	-11.7363
voc	-11.7364
▁circonscription	-11.7365
▁ralenti	-11.7365
▁république	-11.7365
▁figurent	-11.7365
offrent	-11.7365
▁marbre	-11.7366
▁brillante	-11.7367
▁initialement	-11.7367
▁But	-11.7367
▁1985	-11.737
amen	-11.7372
▁réconfort	-11.7373
▁sécuritaire	-11.7373
▁débuts	-11.7374
▁comte	-11.7374
dict	-11.7376
▁Soul	-11.738
▁voilier	-11.738
Comté	-11.7381
▁copain	-11.7381
tect	-11.7382
yst	-11.7382
équipements	-11.7382
HI	-11.7383
home	-11.7384
▁creux	-11.7385
▁permettrait	-11.7385
vidéo	-11.7386
▁photographes	-11.7387
▁Clément	-11.7388
▁étiquettes	-11.7389
▁redonner	-11.7389
▁remarquables	-11.739
▁TP	-11.739
▁régl	-11.7392
▁amusant	-11.7393
▁tromper	-11.7393
▁soeurs	-11.7393
▁littéralement	-11.7393
pass	-11.7394
▁gage	-11.7394
▁fiscalité	-11.7395
OD	-11.7395
Ina	-11.7396
▁aidant	-11.7396
▁rédiger	-11.7396
uro	-11.7396
^	-11.7397
▁représentée	-11.7397
RF	-11.7398
uté	-11.74
▁transférer	-11.7401
emprunt	-11.7402
▁Souvent	-11.7402
iment	-11.7403
RIS	-11.7404
233;	-11.7405
▁Poids	-11.7406
▁Girl	-11.7406
▁tentent	-11.7406
▁Rod	-11.7407
▁Jérôme	-11.7407
▁Posté	-11.7408
lisation	-11.7408
▁âmes	-11.7409
▁1500	-11.7411
▁maroc	-11.7411
▁conclusions	-11.7412
▁brevet	-11.7412
moins	-11.7412
fect	-11.7414
▁Unique	-11.7415
opéra	-11.7417
▁tampon	-11.7418
▁ethnique	-11.7418
[...]
