{"<s>":0,"<pad>":1,"</s>":2,"<unk>":3,"<mask>":4,"!":5,"\"":6,"#":7,"$":8,"%":9,"&":10,"'":11,"(":12,")":13,"*":14,"+":15,",":16,"-":17,".":18,"/":19,"0":20,"1":21,"2":22,"3":23,"4":24,"5":25,"6":26,"7":27,"8":28,"9":29,":":30,";":31,"<":32,"=":33,">":34,"?":35,"@":36,"A":37,"B":38,"C":39,"D":40,"E":41,"F":42,"G":43,"H":44,"I":45,"J":46,"K":47,"L":48,"M":49,"N":50,"O":51,"P":52,"Q":53,"R":54,"S":55,"T":56,"U":57,"V":58,"W":59,"X":60,"Y":61,"Z":62,"[":63,"\\":64,"]":65,"^":66,"_":67,"`":68,"a":69,"b":70,"c":71,"d":72,"e":73,"f":74,"g":75,"h":76,"i":77,"j":78,"k":79,"l":80,"m":81,"n":82,"o":83,"p":84,"q":85,"r":86,"s":87,"t":88,"u":89,"v":90,"w":91,"x":92,"y":93,"z":94,"{":95,"|":96,"}":97,"~":98,"¡":99,"¢":100,"£":101,"¤":102,"¥":103,"¦":104,"§":105,"¨":106,"©":107,"ª":108,"«":109,"¬":110,"®":111,"¯":112,"°":113,"±":114,"²":115,"³":116,"´":117,"µ":118,"¶":119,"·":120,"¸":121,"¹":122,"º":123,"»":124,"¼":125,"½":126,"¾":127,"¿":128,"À":129,"Á":130,"Â":131,"Ã":132,"Ä":133,"Å":134,"Æ":135,"Ç":136,"È":137,"É":138,"Ê":139,"Ë":140,"Ì":141,"Í":142,"Î":143,"Ï":144,"Ð":145,"Ñ":146,"Ò":147,"Ó":148,"Ô":149,"Õ":150,"Ö":151,"×":152,"Ø":153,"Ù":154,"Ú":155,"Û":156,"Ü":157,"Ý":158,"Þ":159,"ß":160,"à":161,"á":162,"â":163,"ã":164,"ä":165,"å":166,"æ":167,"ç":168,"è":169,"é":170,"ê":171,"ë":172,"ì":173,"í":174,"î":175,"ï":176,"ð":177,"ñ":178,"ò":179,"ó":180,"ô":181,"õ":182,"ö":183,"÷":184,"ø":185,"ù":186,"ú":187,"û":188,"ü":189,"ý":190,"þ":191,"ÿ":192,"Ā":193,"ā":194,"Ă":195,"ă":196,"Ą":197,"ą":198,"Ć":199,"ć":200,"Ĉ":201,"ĉ":202,"Ċ":203,"ċ":204,"Č":205,"č":206,"Ď":207,"ď":208,"Đ":209,"đ":210,"Ē":211,"ē":212,"Ĕ":213,"ĕ":214,"Ė":215,"ė":216,"Ę":217,"ę":218,"Ě":219,"ě":220,"Ĝ":221,"ĝ":222,"Ğ":223,"ğ":224,"Ġ":225,"ġ":226,"Ģ":227,"ģ":228,"Ĥ":229,"ĥ":230,"Ħ":231,"ħ":232,"Ĩ":233,"ĩ":234,"Ī":235,"ī":236,"Ĭ":237,"ĭ":238,"Į":239,"į":240,"İ":241,"ı":242,"Ĳ":243,"ĳ":244,"Ĵ":245,"ĵ":246,"Ķ":247,"ķ":248,"ĸ":249,"Ĺ":250,"ĺ":251,"Ļ":252,"ļ":253,"Ľ":254,"ľ":255,"Ŀ":256,"ŀ":257,"Ł":258,"ł":259,"Ń":260,"Ġd":261,"es":262,"Ã©":263,"Ġl":264,"on":265,"en":266,"Ġp":267,"ou":268,"re":269,"Ġs":270,"Ġc":271,"Ġde":272,"an":273,"er":274,"ti":275,"Ġa":276,"is":277,"qu":278,"in":279,"et":280,"ent":281,"it":282,"Ġm":283,"le":284,"ar":285,"ur":286,"Ġv":287,"te":288,"un":289,"âĢ":290,"Ġet":291,"tion":292,"Ġla":293,"ĠÃ":294,"or":295,"Ġt":296,"Ġn":297,"âĢĻ":298,"Ġf":299,"il":300,"our":301,"Ġqu":302,"Ġle":303,"ra":304,"ĠÃł":305,"om":306,"Ġun":307,"Ġen":308,"ment":309,"el":310,"Ġdes":311,"Ġles":312,"rÃ©":313,"al":314,"ous":315,"Ã¨":316,"ro":317,"us":318,"ri":319,"as":320,"ce":321,"ant":322,"Ġb":323,"tre":324,"est":325,"ch":326,"ation":327,"ve":328,"au":329,"ĠC":330,"ai":331,"ans":332,"Ġj":333,"res":334,"Ġau":335,"Ġpour":336,"os":337,"Ġpar":338,"ag":339,"me":340,"Ġcon":341,"eu":342,"que":343,"Ġdu":344,"ĠL":345,"oi":346,"li":347,"ĠÃ©":348,"ĠÂ":349,"Ġ2":350,"Ġg":351,"ci":352,"ĠP":353,"ais":354,"si":355,"ĠdÃ©":356,"ne":357,"ont":358,"de":359,"Ġ1":360,"se":361,"ĠS":362,"at":363,"Ġre":364,"Ġpl":365,"Ġ(":366,"Ġsur":367,"ĠM":368,"Ġque":369,"Ġcom":370,"Ġin":371,"..":372,"Ġune":373,"tÃ©":374,"Ġch":375,"ĠA":376,"di":377,"Ġpro":378,"Ġdans":379,"Ġest":380,"ol":381,"ie":382,"ĠrÃ©":383,"Ġpas":384,"itÃ©":385,"Ġvous":386,"les":387,"mp":388,"ait":389,"Ġ20":390,"ac":391,"Ġqui":392,"ĠD":393,"ab":394,"ers":395,"Ġe":396,"Ġse":397,"Ã©e":398,"Ġ:":399,"ff":400,"ons":401,"ite":402,"pp":403,"Ġou":404,"Ġr":405,"ain":406,"ter":407,"tu":408,"ĠE":409,"otre":410,"Ġplus":411,"age":412,"onn":413,"ĠB":414,"Ġh":415,"elle":416,"Ãª":417,"aire":418,"am":419,"Ġave":420,"Ġ201":421,"urs":422,"tes":423,"vi":424,"ĠÂ·":425,"ran":426,"ĠT":427,"Ġo":428,"end":429,"ouv":430,"Ġavec":431,"ĠF":432,"Ġtou":433,"Ġce":434,"ul":435,"ĠR":436,"Ġsu":437,"ces":438,"Ã©s":439,"ĠI":440,"ig":441,"Ġne":442,"Ġmo":443,"Ã¨re":444,"Ã¨s":445,"mb":446,"ir":447,"ques":448,"ale":449,"ction":450,"ĠN":451,"Ġil":452,"Ã©es":453,"oir":454,"ille":455,"ien":456,"ĠV":457,"Ġtr":458,"Ġdi":459,"ĠJ":460,"ge":461,"Ġvotre":462,"Ġ-":463,"ue":464,"lis":465,"Ġex":466,"Ġav":467,"ui":468,"Ġje":469,"ot":470,"Ġi":471,"ort":472,"pr":473,"ĠprÃ©":474,"orm":475,"...":476,"che":477,"Ġsont":478,"ĠG":479,"pe":480,"ati":481,"ette":482,"og":483,"Ġ|":484,"um":485,"ois":486,"fi":487,"Ġpeu":488,"une":489,"Ġac":490,"Ġsa":491,"ure":492,"Ġpr":493,"aux":494,"and":495,"pÃ©":496,"Ġson":497,"Ġte":498,"ine":499,"ĠÂ»":500,"iv":501,"oc":502,"uti":503,"ence":504,"ate":505,"ique":506,"Ġan":507,"eux":508,"uis":509,"Ã©n":510,"Ġnous":511,"pos":512,"Ġra":513,"Ġmais":514,"ill":515,"ations":516,"Ġser":517,"du":518,"ance":519,"Ġtra":520,"Ġsi":521,"Ġaux":522,"ier":523,"ins":524,"ours":525,"ad":526,"utilis":527,"00":528,"Ġ3":529,"mes":530,"ct":531,"ten":532,"--":533,"entre":534,"ux":535,"ist":536,"ap":537,"able":538,"Ã´":539,"ouve":540,"ĠLe":541,"Ġme":542,"ic":543,"Ġso":544,"Ġ!":545,"lÃ©":546,"tions":547,"Ġco":548,"ut":549,"ĠH":550,"Ã©ri":551,"ub":552,"Ġper":553,"Ġcomp":554,"st":555,"bre":556,"im":557,"Ġmon":558,"ise":559,"Ġtout":560,"Ġmar":561,"ors":562,"ser":563,"ĠÂ«":564,"Ġcomm":565,"av":566,"dÃ©":567,"Ġar":568,"aires":569,"con":570,"Ã©t":571,"ĠâĢ":572,"Ã§":573,"Ġapp":574,"Ã©r":575,"ĠÃ©t":576,"ens":577,"aut":578,"ĠO":579,"ants":580,"ĠÃª":581,"ay":582,"ph":583,"Ġpers":584,"ace":585,"ments":586,"ion":587,"co":588,"ard":589,"Ġbien":590,"tique":591,"Ġpo":592,"Ãł":593,"Ġparti":594,"Ġsite":595,"form":596,"Ġcette":597,"ies":598,"ts":599,"sent":600,"ez":601,"Ġdis":602,"alis":603,"onne":604,"ĠLa":605,"enti":606,"Ġfait":607,"mbre":608,"eur":609,"Ġ4":610,"alitÃ©":611,"Ġal":612,"elles":613,"ĠU":614,"ib":615,"its":616,"ĠIl":617,"oy":618,"ord":619,"Ġses":620,"ss":621,"Ãªme":622,"sion":623,"ĠLes":624,"Ġcomme":625,"Ġren":626,"ĠdÃ©c":627,"Ġaut":628,"tra":629,"Ã©ra":630,"teur":631,"ert":632,"Ġpos":633,"tin":634,"Ġfaire":635,"ussi":636,"Ã©c":637,"Ġcar":638,"ĠCh":639,"Ġ5":640,"ĠÃªtre":641,"ĠEn":642,"Ã©g":643,"Ġy":644,"Ã¢":645,"Ġpe":646,"Ġ\"":647,"ex":648,"ond":649,"oup":650,"Ġentre":651,"Ġvi":652,"ture":653,"Ġma":654,"Ġ?":655,"Ġutilis":656,"ages":657,"Ġvos":658,"ess":659,"mi":660,"ang":661,"lic":662,"Ġfor":663,"com":664,"oire":665,"tr":666,"Le":667,"Ġnotre":668,"em":669,"cher":670,"Ġleur":671,"endre":672,"Ġad":673,"par":674,"Ġpersonn":675,"Ġon":676,"ni":677,"Ġres":678,"ok":679,"Ã¨me":680,"aine":681,"Ã®":682,"ail":683,"Ġpeut":684,"met":685,"Ġinter":686,"Ġgran":687,"jet":688,"ob":689,"ver":690,"id":691,"lement":692,"out":693,").":694,"ven":695,"ĠtrÃ¨s":696,"Ġont":697,"Ġsou":698,"Ġaussi":699,"Ġces":700,"Ġsans":701,"ents":702,"ĠmÃªme":703,"Ġcons":704,"use":705,"Ġ6":706,"Ġtrav":707,"ing":708,"prÃ¨s":709,"ourn":710,"Ġ|--":711,"ec":712,"ĠPar":713,"ĠÃ©tÃ©":714,"Ġdonn":715,"onc":716,"cep":717,"mps":718,"Ġtous":719,"Ġph":720,"eau":721,"rer":722,"Ġnom":723,"Ġpre":724,"ante":725,"fin":726,"all":727,"Ġfin":728,"Ġ19":729,"Ġquel":730,"Ġst":731,"Ġli":732,"tiv":733,"Ã»":734,"Ġpri":735,"Ġann":736,"ign":737,"ĠJe":738,"Ġimp":739,"ales":740,"tif":741,"Ġprof":742,"ĠFran":743,"Ġdeux":744,"Ġam":745,"ouver":746,"ble":747,"ĠmÃ©":748,"Ġgra":749,"Ġcl":750,"alement":751,"Ġat":752,"Ġcol":753,"Ġju":754,"ĠIn":755,"Ġter":756,"âĢ¦":757,"ande":758,"lle":759,"Ġprodu":760,"ass":761,"Les":762,"ateur":763,"oit":764,"ru":765,"min":766,"des":767,"ats":768,"Ġpropos":769,"Ã¨res":770,"Ġpeti":771,"vent":772,"),":773,"Ġnos":774,"ĠW":775,"Ġ7":776,"tic":777,"Ġno":778,"Ġpub":779,"voir":780,"Ġservi":781,"La":782,"Ġelle":783,"iss":784,"igne":785,"ente":786,"Ġlui":787,"Ġdiff":788,"cu":789,"ĠcrÃ©":790,"els":791,"tement":792,"tis":793,"op":794,"Ġ200":795,"app":796,"Ġ2018":797,"Ġans":798,"ures":799,"Ġvis":800,"ils":801,"20":802,"ong":803,"rez":804,"Ġconc":805,"Ġpermet":806,"Ġ8":807,"ĠgÃ©n":808,"Ġca":809,"Ġti":810,"ler":811,"Ġjus":812,"Ġsoci":813,"puis":814,"Ġdire":815,"Ġcel":816,"ici":817,"pl":818,"Ġman":819,"Ġrec":820,"olog":821,"Ġvie":822,"Ġcha":823,"Ġob":824,"Ã©v":825,"Ġoff":826,"Ġgr":827,"itÃ©s":828,"En":829,"ĠK":830,"ites":831,"orte":832,"Ġeff":833,"Ã©tÃ©":834,"qui":835,"Ġor":836,"Ġtro":837,"ĠQ":838,"oin":839,"ner":840,"Ġtemps":841,"Ġder":842,"lÃ¨":843,"ĠMar":844,"iste":845,"cÃ©":846,"Ġdro":847,"Ġ10":848,"Ġ9":849,"cri":850,"Ġ/":851,"Ġri":852,"insi":853,"okies":854,"Ġfon":855,"ĠCom":856,"ition":857,"Ġass":858,"rai":859,"contre":860,"per":861,"Ġsy":862,"ves":863,"ĠprÃ©sent":864,"erci":865,"ĠrÃ©g":866,"Ġpuis":867,"Ġcas":868,"aient":869,"core":870,"Ã¹":871,"ron":872,"Ġmes":873,"Ã©m":874,"Ġpart":875,"itu":876,"Ġsous":877,"ĠsÃ©":878,"Ġmin":879,"ĠPour":880,"cl":881,"ĠAn":882,"Ġes":883,"ches":884,"Ġform":885,"pi":886,"ains":887,"tiques":888,"ĠFrance":889,"ouvez":890,"avi":891,"Ġbl":892,"Ġ,":893,"rit":894,"Ġcli":895,"ense":896,"Ġdem":897,"Ġfa":898,"Ġtrans":899,"ĠâĢ¢":900,"Ġ;":901,"oule":902,"Ġcookies":903,"olu":904,"ari":905,"Ġinform":906,"ues":907,"Ġw":908,"ĠÃ©g":909,"oul":910,"Ġnouv":911,"Ġseu":912,"ĠEt":913,"teurs":914,"ĠDe":915,"Ġconf":916,"Ġim":917,"emp":918,"Ġfonction":919,"Un":920,"Ġtu":921,"Ġth":922,"Ġfran":923,"mis":924,"Ġencore":925,"ili":926,"ĠoÃ¹":927,"lection":928,"Ġainsi":929,"Ġdev":930,"Ġ15":931,"Ã©lÃ©":932,"ĠgÃ©nÃ©ra":933,"nes":934,"Ġcor":935,"Ġtoute":936,"ire":937,"opp":938,"Ġavant":939,"oci":940,"endant":941,"Ġsuis":942,"Ġpay":943,"titu":944,"sionn":945,"Ġnon":946,"Ġdepuis":947,"anc":948,"ilitÃ©":949,"Ġcont":950,"Ġmal":951,"Ġmonde":952,"aines":953,"enne":954,"Ġcommun":955,"Ġjour":956,"Ġconn":957,"Ãªte":958,"resse":959,"eure":960,"Ġlors":961,"cess":962,"ĠÃī":963,"Ġbeau":964,"Ãªtre":965,"Ġfois":966,"iter":967,"int":968,"ement":969,"Ġrep":970,"ĠrÃ©p":971,"Ġnombre":972,"Ġdonc":973,"jour":974,"Ġsal":975,"Ġgrand":976,"iques":977,"Ġni":978,"Ġtoutes":979,"ances":980,"ric":981,"Ġdont":982,"lig":983,"Ġbas":984,"oute":985,"Ġfem":986,"omme":987,"Ġrencontre":988,"Ġab":989,"Ġcour":990,"fic":991,"Ġ12":992,"ĠUn":993,"Ġnouve":994,"Ġcert":995,"pÃ©ri":996,"jours":997,"gan":998,"Ġacc":999,"rais":1000,"ĠÃ§":1001,"rier":1002,"ann":1003,"ĠVous":1004,"oli":1005,"Ġleurs":1006,"Ġbon":1007,"ĠÃ§a":1008,"ables":1009,"vembre":1010,"Ġins":1011,"Ġag":1012,"ern":1013,"Ġ2017":1014,"ĠdonnÃ©es":1015,"Ġgratu":1016,"ĠintÃ©":1017,"Ġmois":1018,"Ġfi":1019,"ences":1020,"antes":1021,"tÃ©s":1022,"ature":1023,"ĠCe":1024,"Ġliv":1025,"gra":1026,"vis":1027,"one":1028,"Ġ14":1029,"Ġ0":1030,"nement":1031,"ĠMais":1032,"ĠCon":1033,"ode":1034,"mer":1035,"Ġmoins":1036,"estion":1037,"Ġfil":1038,"Ġas":1039,"Ã§ais":1040,"Ġcontre":1041,"are":1042,"ĠaprÃ¨s":1043,"rÃ©e":1044,"utilisation":1045,"Ġpouvez":1046,"ĠÃ©v":1047,"Ġmet":1048,"pte":1049,"Ġ18":1050,"ĠÃ©galement":1051,"Ġ[":1052,"oupe":1053,"pÃ©ci":1054,"Ġphot":1055,"uer":1056,"Ġenf":1057,"Ġautres":1058,"ĠrÃ©s":1059,"ES":1060,"Ġver":1061,"Ġpouv":1062,"Ġ17":1063,"ta":1064,"Ġprop":1065,"asse":1066,"net":1067,"Ġsoit":1068,"Ġpublic":1069,"tez":1070,"ls":1071,"Ġgar":1072,"Ġtoujours":1073,"eb":1074,"Ġ16":1075,"Ġmeille":1076,"ange":1077,"mble":1078,"ĠÃ©tait":1079,"act":1080,"ĠdÃ©v":1081,"Ġpoli":1082,"Ġrel":1083,"chÃ©":1084,"ateurs":1085,"ĠÃ©c":1086,"dent":1087,"lier":1088,"Ġ11":1089,"Ġavoir":1090,"Ġ2016":1091,"Ġprofes":1092,"isse":1093,"ditions":1094,"Ġcro":1095,"Ġsavoir":1096,"ises":1097,"Ġ13":1098,"der":1099,"aille":1100,"ration":1101,"ommes":1102,"Ġrecher":1103,"quer":1104,"Ã»t":1105,"dic":1106,"Ġnavi":1107,"Ġquelques":1108,"Ġnovembre":1109,"Ġ2015":1110,"ĠdÃ©b":1111,"ĠâĢĵ":1112,"vez":1113,"illet":1114,"ĠPl":1115,"Ġvers":1116,"ON":1117,"mar":1118,"Ġpremi":1119,"vier":1120,"cip":1121,"Ġva":1122,"mÃ©":1123,"ger":1124,"Pour":1125,"Ġmi":1126,"Ġdom":1127,"tres":1128,"lique":1129,"ĠdiffÃ©r":1130,"rir":1131,"Ġlong":1132,"ĠQu":1133,"anti":1134,"Ġent":1135,"Ġcomment":1136,"ĠSi":1137,"ĠspÃ©ci":1138,"Ġ&":1139,"elopp":1140,"agn":1141,"ĠPro":1142,"Ġalors":1143,"Ġrapp":1144,"Ġsera":1145,"ĠNous":1146,"ose":1147,"port":1148,"Ġnavig":1149,"Ġcompr":1150,"illi":1151,"Ġpays":1152,"rÃ©s":1153,"Ġchar":1154,"dition":1155,"Ġjours":1156,"tive":1157,"Ġpossi":1158,"uro":1159,"atique":1160,"mier":1161,"ĠlÃ©g":1162,"Ġaff":1163,"Ġtech":1164,"Ġmain":1165,"denti":1166,"Ġmom":1167,"Ġ.":1168,"Åĵ":1169,"Â°":1170,"Ġ...":1171,"Ãī":1172,"rait":1173,"ĠParis":1174,"acc":1175,"Ġ2014":1176,"Ġpi":1177,"ult":1178,"201":1179,"Ġro":1180,"vous":1181,"Ġpass":1182,"rib":1183,"Ġk":1184,"ganis":1185,"Ġjou":1186,"aÃ®":1187,"ĠAu":1188,"Ġsimp":1189,"Ġcher":1190,"agne":1191,"Ġmoi":1192,"obre":1193,"Ġprix":1194,"th":1195,"Ġcap":1196,"Ġils":1197,"Ġmus":1198,"Ã©p":1199,"ges":1200,"Ġmat":1201,"aiss":1202,"Ġsc":1203,"ĠrÃ©alis":1204,"Ġproduits":1205,"Ġprojet":1206,"ĠAl":1207,"ade":1208,"ines":1209,"coup":1210,"lect":1211,"ieurs":1212,"vre":1213,"ĠAr":1214,"ivers":1215,"Ġcela":1216,"Ġligne":1217,"ptembre":1218,"ctobre":1219,"imp":1220,"Ġautre":1221,"Ġpersonnes":1222,"autres":1223,"man":1224,"Ġcompte":1225,"ress":1226,"rÃª":1227,"dre":1228,"ĠnÃ©":1229,"serv":1230,"iÃ¨re":1231,"Ġchaque":1232,"ER":1233,"Ġavait":1234,"Ġfam":1235,"ros":1236,"Ġplan":1237,"Ġafin":1238,"cteur":1239,"Ġcoup":1240,"Ã©b":1241,"crip":1242,"anvier":1243,"Ġsupp":1244,"cont":1245,"ĠfranÃ§ais":1246,"Ġplace":1247,"ĠtÃ©lÃ©":1248,"Ġrest":1249,"Ġfer":1250,"oÃ»t":1251,"Ġchez":1252,"Je":1253,"Ã´t":1254,"orti":1255,"Ġsuiv":1256,"tant":1257,"Ġparf":1258,"Ġmai":1259,"uses":1260,"cc":1261,"Ġquand":1262,"Ġvoir":1263,"gn":1264,"fs":1265,"Ġdou":1266,"Ġforum":1267,"ĠdÃ©p":1268,"ris":1269,"Ġtravail":1270,"Vous":1271,"ets":1272,"la":1273,"ĠdÃ©j":1274,"Ġfaut":1275,"od":1276,"quipe":1277,"vers":1278,"Ġprofessionn":1279,"oix":1280,"Ġsais":1281,"ellement":1282,"In":1283,"Ġnouveau":1284,"Ġaccep":1285,"Ã©li":1286,"Ġmoment":1287,"bles":1288,"Ġmont":1289,"aur":1290,"az":1291,"ril":1292,"Ġdispos":1293,"istoire":1294,"Ġpremier":1295,"ĠrÃ©f":1296,"tÃ©ri":1297,"illes":1298,"entes":1299,"Ġconst":1300,"Ġpeuvent":1301,"ĠUne":1302,"rÃ©sent":1303,"Ġreg":1304,"Ġprin":1305,"Ġservices":1306,"ĠdÃ©velopp":1307,"raph":1308,"be":1309,"Ġbeaucoup":1310,"ach":1311,"Ġprob":1312,"000":1313,"lo":1314,"Ġoctobre":1315,"Ġjusqu":1316,"fr":1317,"ĠTh":1318,"ĠElle":1319,"tel":1320,"Ġconse":1321,"Ġ2013":1322,"Ġseptembre":1323,"Ġjuin":1324,"ager":1325,"prise":1326,"Ġsem":1327,"cembre":1328,"hui":1329,"Ġsitu":1330,"ĠRe":1331,"Ã¯":1332,"Ġsoi":1333,"ettes":1334,"ole":1335,"Ġderni":1336,"10":1337,"Ġjanvier":1338,"pect":1339,"pon":1340,"Ġvrai":1341,"Ġplusieurs":1342,"ps":1343,"Ġrecherche":1344,"Ġpor":1345,"Ġmaison":1346,"Ġbi":1347,"Ġbes":1348,"Ġindi":1349,"Ġloc":1350,"Ġcours":1351,"Ġdur":1352,"!!":1353,"Ġai":1354,"Ġinformations":1355,"Ġservice":1356,"oris":1357,"oires":1358,"Ġpetit":1359,"EN":1360,"Ġbou":1361,"ticle":1362,"âĤ":1363,"ĠdÃ©s":1364,"âĤ¬":1365,"ĠqualitÃ©":1366,"Ġavez":1367,"Il":1368,"uc":1369,"elon":1370,"Ġgrande":1371,"ore":1372,"Ġjam":1373,"Ġdoit":1374,"ath":1375,"Ġvoy":1376,"Ġmag":1377,"Ġdroit":1378,"ĠOn":1379,"----":1380,"conom":1381,"Ġenv":1382,"Ġici":1383,"Ġcontin":1384,"ions":1385,"Ã©cur":1386,"Ġcul":1387,"Ġtrois":1388,"Ġnature":1389,"Ġsouh":1390,"AN":1391,"Ã¨ne":1392,"ori":1393,"Ġven":1394,"Ġpartie":1395,"sions":1396,"Ġinst":1397,"30":1398,"Ġvol":1399,"Ġexp":1400,"Nous":1401,"Ġcontra":1402,"Ġmess":1403,"enn":1404,"Ġnouvelle":1405,"ĠdÃ©couv":1406,"Ġtrop":1407,"Ġret":1408,"ĠdÃ©jÃł":1409,"Ġmis":1410,"11":1411,"Ãĥ":1412,"Ġparticu":1413,"ctions":1414,"quÃ©":1415,"vant":1416,"Ġdit":1417,"ud":1418,"ĠdÃ©f":1419,"Ġemp":1420,"rique":1421,"cis":1422,"Ġcet":1423,"Ġmars":1424,"ĠdÃ©cembre":1425,"Ġmen":1426,"cul":1427,"Ġsuite":1428,"iens":1429,"Ġ2012":1430,"ponib":1431,"Ã©vrier":1432,"tier":1433,"ĠX":1434,"gÃ©":1435,"Ġconten":1436,"Ġauc":1437,"lu":1438,"pons":1439,"Ġjourn":1440,"ative":1441,"ouvent":1442,"ograph":1443,"jourd":1444,"anger":1445,"aint":1446,"Ġche":1447,"rie":1448,"Ġatt":1449,"gram":1450,"Ġaur":1451,"log":1452,"amb":1453,"ĠlÃł":1454,"Ġmoy":1455,"let":1456,"tifs":1457,"gie":1458,"Ġjeu":1459,"Ġmod":1460,"unes":1461,"omb":1462,"olution":1463,"Ġsouhait":1464,"ĉĊ":1465,"Ġty":1466,"ĠÂ»,":1467,"Ġfemme":1468,"atis":1469,"rent":1470,"Ġjuillet":1471,"comp":1472,"Â»":1473,"Ġrien":1474,"uit":1475,"fier":1476,"Ch":1477,"vÃ©":1478,"Ġarri":1479,"TI":1480,"vec":1481,"omm":1482,"ali":1483,"ression":1484,"Ġfond":1485,"ich":1486,"Ġci":1487,"Ġjamais":1488,"ĠpremiÃ¨re":1489,"ĠÃ©p":1490,"Ġavons":1491,"Ġpra":1492,"Ã´le":1493,"ĠDi":1494,"Ce":1495,"Ġsorti":1496,"ĠY":1497,"amment":1498,"ĠsociÃ©tÃ©":1499,"Ã§on":1500,"19":1501,"Ġimport":1502,"oil":1503,"Ġavril":1504,"Ġlib":1505,"ow":1506,"uire":1507,"Ġsol":1508,"Ġenfants":1509,"Â©":1510,"cre":1511,"Ã¨rement":1512,"art":1513,"Ġville":1514,"ell":1515,"Ġop":1516,"fication":1517,"Ġcan":1518,"Ġtrouve":1519,"antÃ©":1520,"Ġple":1521,"Ġ30":1522,"Ġdemande":1523,"ww":1524,"Ã¨g":1525,"alitÃ©s":1526,"Ġpouvoir":1527,"uss":1528,"ĠDes":1529,"ĠnÃ©cess":1530,"ov":1531,"sement":1532,"xe":1533,"Ġmati":1534,"Ġappar":1535,"ologie":1536,"iller":1537,"Ã©d":1538,"ĠsÃ©cur":1539,"ĠÃ©tu":1540,"Ġrais":1541,"mo":1542,"Ã©ro":1543,"Ġlieu":1544,"ĠvidÃ©":1545,"Ġretr":1546,"eures":1547,"itement":1548,"Ġnum":1549,"veau":1550,"Ġpersonne":1551,"Ġinf":1552,"Ġtechn":1553,"ception":1554,"isme":1555,"ĠfÃ©vrier":1556,"Ġport":1557,"Ġess":1558,"ak":1559,"Ġten":1560,"ĠannÃ©es":1561,"pÃ©rience":1562,"istre":1563,"ah":1564,"Ġsyst":1565,"eurs":1566,"ĠDans":1567,"ras":1568,"nation":1569,"Ã©rence":1570,"Ã¨le":1571,"inform":1572,"50":1573,"sez":1574,"inter":1575,"Ġfais":1576,"Ġcent":1577,"iti":1578,"Ġsp":1579,"ĠaoÃ»t":1580,"ĠZ":1581,"Ġdisponib":1582,"ĠmÃ©t":1583,"12":1584,"Ġcad":1585,"nier":1586,"arge":1587,"Ġnot":1588,"Ġprendre":1589,"Ġnation":1590,"onnement":1591,"Ġtour":1592,"ĠSt":1593,"Ġetc":1594,"Ġorganis":1595,"AR":1596,"aly":1597,"Ġmer":1598,"Ġactiv":1599,"Ġmilli":1600,"Ġceux":1601,"Ġviv":1602,"lec":1603,"Ã¢ce":1604,"Ġtex":1605,"Ġpartir":1606,"Ġcelui":1607,"ĠcÃ´":1608,"Ġconditions":1609,"ĠÃ©lect":1610,"Ġpolitique":1611,"Ġpoint":1612,"Ġdemand":1613,"ĠMon":1614,"Ã©tait":1615,"ĠsÃ©ri":1616,"ĠCette":1617,"Ġprom":1618,"Ġz":1619,"ĠreprÃ©sent":1620,"Ar":1621,"....":1622,"Ġhab":1623,"Ġporte":1624,"Ġsau":1625,"Ġlog":1626,"Ġmieux":1627,"Ġcal":1628,"Ġexemp":1629,"aff":1630,"tent":1631,"atri":1632,"Ġdernier":1633,"tout":1634,"Ġconfi":1635,"Ġtrouver":1636,"minist":1637,"Ġpendant":1638,"Ġbonne":1639,"aud":1640,"ust":1641,"Ġcoule":1642,"cle":1643,"Ġrespons":1644,"Ġprogram":1645,"ocu":1646,"Ġveu":1647,"Ġmise":1648,"Ġsens":1649,"Ġrou":1650,"Ġesp":1651,"Ġgroupe":1652,"Ġchois":1653,"ĠCar":1654,"Ġhum":1655,"Ġmettre":1656,"jou":1657,"Ġeu":1658,"IN":1659,"cer":1660,"IS":1661,"ock":1662,"pide":1663,"ĠInter":1664,"Ġselon":1665,"UR":1666,"air":1667,"Ã©nÃ©":1668,"for":1669,"Ġpage":1670,"Ġpossible":1671,"Ġsujet":1672,"Ġton":1673,"tenir":1674,"bo":1675,"Ġgratuit":1676,"ĠrÃ©se":1677,"Ġconcern":1678,"vient":1679,"18":1680,"Ġfilm":1681,"adi":1682,"ront":1683,"Ġ2011":1684,"tÃ©e":1685,"tien":1686,"ĠÃªtes":1687,"cien":1688,"15":1689,"oles":1690,"Ġach":1691,"Ġquestion":1692,"Si":1693,"uite":1694,"Ġfamille":1695,"Ġparten":1696,"Ġproduit":1697,"pul":1698,"Ġfourn":1699,"Ġrapide":1700,"Ġcou":1701,"venir":1702,"ÂŃ":1703,"Ġfac":1704,"Ġchoix":1705,"dez":1706,"ĠÂ».":1707,"Ġsouvent":1708,"Ġprincip":1709,"Ġacceptez":1710,"Ġcin":1711,"ds":1712,"ĠĠ":1713,"Â«":1714,"Ġrencont":1715,"intÃ©":1716,"lles":1717,"ribu":1718,"Ġrapport":1719,"aise":1720,"ĠSaint":1721,"mand":1722,"ĠdÃ©m":1723,"cole":1724,"uri":1725,"Ġouv":1726,"lar":1727,"Ġref":1728,"je":1729,"Ġ24":1730,"mail":1731,"prises":1732,"Ġense":1733,"Ġsign":1734,"ret":1735,"Ġdroits":1736,"Ġniveau":1737,"Ġunique":1738,"Ġpropose":1739,"Ġcuis":1740,"oth":1741,"Ġ25":1742,"Ã¨te":1743,"Ġmodi":1744,"Ġdess":1745,"Ġfl":1746,"Ġremp":1747,"Ġeffet":1748,"Unis":1749,"isc":1750,"14":1751,"Ġsour":1752,"Ġtant":1753,"Ġpetite":1754,"Ġvraiment":1755,"grÃ©":1756,"ke":1757,"ĠpiÃ¨":1758,"Ġactu":1759,"oration":1760,"ĠPh":1761,"Ġlim":1762,"bilitÃ©":1763,"Ġbesoin":1764,"Ġreste":1765,"lÃ©ment":1766,"ĠrÃ©gion":1767,"Ġvoit":1768,"ĠSe":1769,"An":1770,"ï¿":1771,"cier":1772,"Ġsommes":1773,"Ġcertains":1774,"Ġcomb":1775,"Ġta":1776,"uel":1777,"Ġpasse":1778,"Ġsites":1779,"pes":1780,"vir":1781,"Ġ100":1782,"lie":1783,"part":1784,"issant":1785,"ï¿½":1786,"Ġcelle":1787,"Ġseront":1788,"ome":1789,"Ġsub":1790,"tenant":1791,"ĠdÃ©t":1792,"Ġfemmes":1793,"action":1794,"Ġpours":1795,"jec":1796,"cription":1797,"Ġpris":1798,"tt":1799,"ĠNe":1800,"Ġbr":1801,"aissance":1802,"Ġutiliser":1803,"ug":1804,"abilitÃ©":1805,"rage":1806,"16":1807,"tention":1808,"ĠprÃ©f":1809,"vÃ©e":1810,"Ġris":1811,"lex":1812,"Ġjeune":1813,"reg":1814,"aute":1815,"assi":1816,"ĠEx":1817,"istes":1818,"autre":1819,"ile":1820,"Ġfut":1821,"Ġvisite":1822,"Ġphotos":1823,"ame":1824,"Ġinc":1825,"mbl":1826,"loi":1827,"Et":1828,"ack":1829,"Ġadap":1830,"Ġ+":1831,"Al":1832,"Ġchose":1833,"Ġjeunes":1834,"erre":1835,"Ġnavigation":1836,"ĠRÃ©":1837,"Ġnotamment":1838,"Ġassoci":1839,"Ġdestin":1840,"RE":1841,"yn":1842,"ĠannÃ©e":1843,"ĠfaÃ§on":1844,"pec":1845,"Ġexemple":1846,"Ġcadre":1847,"ĠTous":1848,"quoi":1849,"13":1850,"Ã©rique":1851,"17":1852,"Ġinternet":1853,"fique":1854,"Ġcat":1855,"ĠsystÃ¨me":1856,"duction":1857,"Ġcer":1858,"ĠsÃ©curitÃ©":1859,"dit":1860,"Ġrece":1861,"Ġsurtout":1862,"Ġweb":1863,"ry":1864,"Ġsemaine":1865,"Ġconne":1866,"Ġanim":1867,"ĠrÃ©sult":1868,"Ġaujourd":1869,"Ġblog":1870,"sident":1871,"Ġtot":1872,"Ġ2010":1873,"if":1874,"orer":1875,"asion":1876,"aler":1877,"\",":1878,"ule":1879,"ĠgrÃ¢ce":1880,"xim":1881,"mbres":1882,"ĠrÃ©pond":1883,"Ġcontr":1884,"lus":1885,"Ġfaci":1886,"Ġhomme":1887,"ĠsiÃ¨":1888,"Ã«":1889,"ĠÃ©ch":1890,"itaire":1891,"Ġsecon":1892,"uropÃ©":1893,"Ġconsi":1894,"ĠsÃ©lection":1895,"Ġmot":1896,"ossi":1897,"Ġheures":1898,"TE":1899,"Ġpoin":1900,"Ġcompos":1901,"Ġgaranti":1902,"duc":1903,"atif":1904,"phone":1905,"Ġloi":1906,"ĠIls":1907,"ote":1908,"Ġrem":1909,"aÃ®tre":1910,"ĠpÃ©ri":1911,"rain":1912,"Ġbar":1913,"gent":1914,"ĠrÃ¨g":1915,"Ġtravers":1916,"Ġdirec":1917,"avoir":1918,"Ã©ment":1919,"Une":1920,"ĠÃ©conom":1921,"De":1922,"Ġcollec":1923,"Dans":1924,"Ġinv":1925,"ĠdÃ©but":1926,"Ġlit":1927,"urer":1928,"ennent":1929,"Ġnouvelles":1930,"endu":1931,"oie":1932,"agement":1933,"off":1934,"ĠVi":1935,"Ġforme":1936,"ĠCan":1937,"Ġpu":1938,"Ġval":1939,"Ġartis":1940,"ticles":1941,"tection":1942,"att":1943,"era":1944,"Ġeffec":1945,"ĠbÃ©nÃ©":1946,"Ġcontac":1947,"Ġhaut":1948,"amp":1949,"Ġsimple":1950,"ĠAc":1951,"ĠCl":1952,"ĠrÃ©c":1953,"oyer":1954,"Ġ%":1955,"Ġpropri":1956,"esp":1957,"Ġseulement":1958,"LE":1959,"Ġord":1960,"Ġparc":1961,"arm":1962,"iles":1963,"ĠPage":1964,"duire":1965,"iÃ¨me":1966,"Ã©rÃ©":1967,"Ġsalle":1968,"ital":1969,"Ġculture":1970,"ane":1971,"Ġpasser":1972,"Ġbase":1973,"auteur":1974,"ĠrÃ©serv":1975,"ĠmaniÃ¨re":1976,"ĠsantÃ©":1977,"Ġface":1978,"Ġmari":1979,"Ġparticuli":1980,"Ġconstru":1981,"ĠdÃ©couvrir":1982,"ambre":1983,"Ġid":1984,"Ġind":1985,"ting":1986,"Ġtype":1987,"ueil":1988,"Au":1989,"once":1990,"Ġfont":1991,"riÃ¨re":1992,"eff":1993,"ĠexpÃ©rience":1994,"ind":1995,"oti":1996,"Ġnombreux":1997,"Ġplais":1998,"Ġall":1999,"Ġparce":2000,"Ġseul":2001,"itions":2002,"Ġgestion":2003,"22":2004,"ĠÃīt":2005,"rig":2006,"ĠDÃ©":2007,"Ġdocu":2008,"icile":2009,"oub":2010,"ardin":2011,"Ġ50":2012,"oses":2013,"Ġdist":2014,"ĠDE":2015,"Ġpopul":2016,"aces":2017,"tÃ©rieur":2018,"Åĵu":2019,"Ġbelle":2020,"ĠSer":2021,"Ġjuste":2022,"ĠJean":2023,"Ġmembres":2024,"ĠGr":2025,"yant":2026,"rop":2027,"Ġvente":2028,"Ġcr":2029,"tionn":2030,"Ġreconn":2031,"ĠFor":2032,"Ġinternation":2033,"ĠmatÃ©ri":2034,"ast":2035,"Ġmort":2036,"oph":2037,"Ġvale":2038,"Ġbois":2039,"Ġfrais":2040,"Com":2041,"Ġsuper":2042,"Ġfra":2043,"Ġress":2044,"ĠMont":2045,"ĠvÃ©":2046,"ĠRen":2047,"Ġregard":2048,"ĠdÃ©veloppement":2049,"ĠdÃ©ci":2050,"dess":2051,"raison":2052,"Ġtable":2053,"Ã©ric":2054,"ulti":2055,"ĠbÃ©nÃ©fi":2056,"Ġfonctionn":2057,"Ġadresse":2058,"Ġpres":2059,"//":2060,"24":2061,"ĠgÃ©":2062,"Ġcommande":2063,"Ġformation":2064,"Ġaid":2065,"rÃªt":2066,"Ġvoul":2067,"Ġchange":2068,"OR":2069,"Ġlivre":2070,"Ġimm":2071,"lication":2072,"ĠTr":2073,"Ġbo":2074,"pt":2075,"ĠÃ©quipe":2076,"Ġpan":2077,"ĠdÃ©si":2078,"Ġlien":2079,"ĠcÃ´tÃ©":2080,"Ġvoyage":2081,"Ġappel":2082,"annÃ©e":2083,"ablis":2084,"Par":2085,"Ġidenti":2086,"lab":2087,"Ġcentre":2088,"ĠdÃ¨s":2089,"Ġdonner":2090,"chi":2091,"Ã¨tres":2092,"ĠdÃ©fin":2093,"Ġbout":2094,"Ġoffre":2095,"\".":2096,"ensi":2097,"ĠsÃ©rie":2098,"Ġvue":2099,"Ġ#":2100,"Ġdevant":2101,"Ġpoursui":2102,"sy":2103,"Ġmeilleur":2104,"cture":2105,"ĠprÃ¨s":2106,"Ġrencontres":2107,"Ġsci":2108,"Ġviol":2109,"Ġeng":2110,"Ã©gor":2111,"Ġquoi":2112,"Ġassez":2113,"lais":2114,"ierre":2115,"Ġvu":2116,"ĠNo":2117,"Ġvit":2118,"alisation":2119,"Ġgl":2120,"Ġcorps":2121,"sp":2122,"Ġchau":2123,"ienne":2124,"oins":2125,"Ġpubli":2126,"AC":2127,"clus":2128,"Ġcarte":2129,"Ġgouver":2130,"ĠPe":2131,"Ġ199":2132,"Ġpai":2133,"rant":2134,"ws":2135,"Ġquelque":2136,"Ġfr":2137,"aÃ¯":2138,"Ġdonne":2139,"AS":2140,"ĠmÃ©di":2141,"ĠprÃ©v":2142,"ĠdiffÃ©rents":2143,"mment":2144,"âĢĿ":2145,"oque":2146,"Ġaucun":2147,"Ġmob":2148,"Ġconcernant":2149,"pendant":2150,"Ġgen":2151,"Ġaccomp":2152,"Ġproch":2153,"Ġraison":2154,"ĠvidÃ©o":2155,"Ġelles":2156,"fiÃ©":2157,"Ġtraitement":2158,"Ġfab":2159,"Ġgros":2160,"ĠCont":2161,"ulaire":2162,"ĠcompÃ©":2163,"Ġhommes":2164,"Ġretour":2165,"Ġpense":2166,"Ġparfois":2167,"Ġminu":2168,"quel":2169,"Ġmesure":2170,"ee":2171,"cie":2172,"lÃ¨me":2173,"mÃªme":2174,"Ġprend":2175,"Ġ40":2176,"vironnement":2177,"aque":2178,"Ġplaisir":2179,"Ġdoi":2180,"ĠCes":2181,"ys":2182,"Ġsec":2183,"vie":2184,"25":2185,"ĠeuropÃ©":2186,"Ġparfait":2187,"ĠgÃ©nÃ©ral":2188,"Ġconstitu":2189,"://":2190,"Ġ000":2191,"60":2192,"sence":2193,"activ":2194,"Ġlang":2195,"Ġchoses":2196,"urope":2197,"ĠsÃ»":2198,"Ã©lection":2199,"Ġtitre":2200,"Ã©qu":2201,"Ġ2009":2202,"illez":2203,"Ġ>":2204,"Ġcamp":2205,"Ġautom":2206,"orter":2207,"atives":2208,"uli":2209,"mÃ©di":2210,"dro":2211,"Ġjeux":2212,"histoire":2213,"ĠvÃ©r":2214,"Ġpeux":2215,"rand":2216,"OS":2217,"Ã«l":2218,"Ġpie":2219,"ĠâĤ¬":2220,"Ġeux":2221,"80":2222,"ĠCol":2223,"avant":2224,"dio":2225,"temps":2226,"ĠPrÃ©":2227,"Ġcir":2228,"quant":2229,"otidi":2230,"ĠtÃªte":2231,"tim":2232,"Ġserait":2233,"23":2234,"ĠproblÃ¨me":2235,"Cette":2236,"uerre":2237,"Ġcherche":2238,"Ġtel":2239,"illage":2240,"Ġmode":2241,"Ġorig":2242,"dec":2243,"ox":2244,"Ġdivers":2245,"Ġmarque":2246,"Ġpropre":2247,"Ġmaintenant":2248,"Ġphoto":2249,"agit":2250,"Ġcommen":2251,"aliste":2252,"Ġautour":2253,"eter":2254,"ĠâĢ¦":2255,"Ġcuisine":2256,"Ġbut":2257,"gement":2258,"usement":2259,"oud":2260,"ĠmarchÃ©":2261,"Ġcommerci":2262,"Ġgens":2263,"ck":2264,"ĠÃĢ":2265,"ĠCo":2266,"suite":2267,"atre":2268,"niques":2269,"ĠÃītats":2270,"pond":2271,"54":2272,"Ġfeu":2273,"enf":2274,"ĠconsidÃ©":2275,"ĠfÃ©":2276,"Ġtrouv":2277,"Ġques":2278,"onces":2279,"oici":2280,"atiques":2281,"Ġclients":2282,"AL":2283,"Ã¨mes":2284,"Ġprogramme":2285,"Ġsus":2286,"ide":2287,"Ġlorsque":2288,"Ġ23":2289,"itez":2290,"occ":2291,"Ġcri":2292,"prit":2293,"Ġquestions":2294,"ses":2295,"Ġsuff":2296,"vention":2297,"anci":2298,"mentation":2299,"ia":2300,"ĠAnn":2301,"Ġcontenu":2302,"ĠÃ©lÃ©":2303,"Ġheure":2304,"Åĵur":2305,"dentialitÃ©":2306,"Ġmessages":2307,"respond":2308,"ĠSh":2309,"Ġquotidi":2310,"Ãªt":2311,"Ġnouveaux":2312,"Ġlarge":2313,"Ġplu":2314,"Ġhy":2315,"ela":2316,"Ġfille":2317,"rÃ©es":2318,"sid":2319,"Ġloin":2320,"Ġpetits":2321,"utÃ´t":2322,"ĠprÃ©cis":2323,"Ġmaj":2324,"inc":2325,"Ġrecom":2326,"oure":2327,"Ġconsul":2328,"Ġbat":2329,"ministra":2330,"ton":2331,"Ġpens":2332,"aill":2333,"IL":2334,"Ġclasse":2335,"Ġus":2336,"gu":2337,"ĠAd":2338,"Ġrev":2339,"aul":2340,"Ġtourn":2341,"isation":2342,"Ġlo":2343,"ysi":2344,"Ġentreprises":2345,"ĠgÃ©nÃ©rales":2346,"ĠindÃ©":2347,"OU":2348,"alle":2349,"ĠâĢľ":2350,"Ġavis":2351,"Ġlum":2352,"aÃ®t":2353,"Ġdisc":2354,"ĠjournÃ©e":2355,"ki":2356,"tÃ©es":2357,"til":2358,"Ġvendre":2359,"ĠAm":2360,"Ġpol":2361,"nÃ©":2362,"Ġarticle":2363,"Ġ22":2364,"Ġsenti":2365,"die":2366,"Ġang":2367,"article":2368,"Ġcorrespond":2369,"heure":2370,"Ġtest":2371,"Ġrom":2372,"Ġappr":2373,"ĠMe":2374,"ĠAvec":2375,"Ġarticles":2376,"Ġutilise":2377,"Ġtemp":2378,"ĠÃ¢":2379,"ĠChar":2380,"Ġprotection":2381,"ĠthÃ©":2382,"Ġtravaux":2383,"af":2384,"ĠpassÃ©":2385,"ĠmÃ©dic":2386,"Ġpratique":2387,"ĠComm":2388,"ĠPas":2389,"onnes":2390,"Ġdate":2391,"seur":2392,"40":2393,"Ġvac":2394,"ĠBl":2395,"inf":2396,"Ġpap":2397,"Ġtoi":2398,"ots":2399,"rance":2400,"ailleurs":2401,"70":2402,"ication":2403,"Ã§u":2404,"39":2405,"Ġliste":2406,"Ã©quipe":2407,"Ġayant":2408,"Ġconte":2409,"duit":2410,"Ġclient":2411,"tiers":2412,"ĠcrÃ©ation":2413,"Ãªtes":2414,"Ġsituation":2415,"Ġpoints":2416,"cÃ©d":2417,"ĠplutÃ´t":2418,"yle":2419,"Ġchac":2420,"ĠAut":2421,"OM":2422,"oh":2423,"ĠdÃ©pl":2424,"Ã¢te":2425,"ix":2426,"Ġ21":2427,"Ġproposer":2428,"ensemble":2429,"auv":2430,"ĠTe":2431,"ociation":2432,"Ġmusique":2433,"Ġ)":2434,"tru":2435,"up":2436,"mm":2437,"acitÃ©":2438,"gne":2439,"ĠderniÃ¨re":2440,"Ġfort":2441,"Ġcouleur":2442,"ĠrÃ©seau":2443,"ĠApp":2444,"Ã©ch":2445,"ĠcrÃ©er":2446,"Ġ26":2447,"II":2448,"itation":2449,"Ġseule":2450,"Ġcompris":2451,"ĠmaÃ®":2452,"Ġeffectu":2453,"Ġnavigateur":2454,"ards":2455,"Ġminutes":2456,"Ã©l":2457,"atoire":2458,"ĠGu":2459,"tient":2460,"Ġpourrait":2461,"onde":2462,"hic":2463,"ourg":2464,"enir":2465,"Ġsex":2466,"Ġgrands":2467,"__":2468,"ze":2469,"erie":2470,"bes":2471,"ilieu":2472,"Ġaucune":2473,"ĠWeb":2474,"Ġcharge":2475,"Ġrelation":2476,"ĠMan":2477,"Ġpuiss":2478,"tives":2479,"78":2480,"Ġmeilleure":2481,"accÃ¨s":2482,"Ġ28":2483,"Ġlivraison":2484,"information":2485,"Ġban":2486,"orig":2487,"did":2488,"ologique":2489,"amme":2490,"tie":2491,"ĠprotÃ©":2492,"Ġaller":2493,"Ġx":2494,"Ġoffres":2495,"Ġexc":2496,"Ġpourquoi":2497,"ilier":2498,"hab":2499,"rou":2500,"Ġchambre":2501,"Ġvient":2502,"ĠopÃ©":2503,"ĠamÃ©li":2504,"occasion":2505,"iciel":2506,"Ġhtt":2507,"oritÃ©":2508,"Ġmessage":2509,"hÃ´":2510,"ĠprÃ©sente":2511,"olitique":2512,"ĠOr":2513,"ones":2514,"--------":2515,"aison":2516,"Ġmulti":2517,"aide":2518,"mission":2519,"orde":2520,"Mar":2521,"Ġchem":2522,"ĠrÃª":2523,"Ġmoyen":2524,"ĠInternet":2525,"Ġliber":2526,"igni":2527,"Ġmontre":2528,"ĠrÃ©ser":2529,"autÃ©":2530,"ĠCor":2531,"crire":2532,"ĠauprÃ¨s":2533,"Ġali":2534,"Ġsyn":2535,"alog":2536,"rim":2537,"position":2538,"90":2539,"rement":2540,"IC":2541,"ĠÃ©taient":2542,"ĠConse":2543,"Ġsac":2544,"ancer":2545,"itable":2546,"ĠÃ©qui":2547,"ax":2548,"ĠDÃ©c":2549,"ĠSur":2550,"Ġsemble":2551,"Ġpersonnel":2552,"Ġrendre":2553,"RA":2554,"ĠcomplÃ¨":2555,"ĠÃ©tudi":2556,"Ġveut":2557,"26":2558,"ĠSu":2559,"Ġoblig":2560,"ĠCons":2561,"Ġnuit":2562,"Ġplein":2563,"iser":2564,"Ġprofessionnels":2565,"rons":2566,"urent":2567,"Ġnoir":2568,"ith":2569,"anche":2570,"Ġsoir":2571,"Ġenreg":2572,"Ġmondi":2573,"ĠdiffÃ©rentes":2574,"ĠPlus":2575,"avais":2576,"ĠfranÃ§aise":2577,"Ġdomaine":2578,"Ġ27":2579,"auche":2580,"Ġversion":2581,"Ġcontact":2582,"ible":2583,"erm":2584,"Ġnorm":2585,"ĠSon":2586,"rom":2587,"Ġvari":2588,"Ġparticip":2589,"Ġprise":2590,"Ġvacances":2591,"iner":2592,"inaire":2593,"book":2594,"UE":2595,"Ġpersonnelles":2596,"âĢ¢":2597,"exp":2598,"Ġsigni":2599,"Ġvivre":2600,"TION":2601,"Ġsimplement":2602,"Ġpartenaires":2603,"Ġentreprise":2604,"isode":2605,"Ġanti":2606,"ĠDu":2607,"Ġcertaines":2608,"Ġrestaur":2609,"no":2610,"Ġsaison":2611,"Ġâ":2612,"Ġcause":2613,"Ġtent":2614,"ĠÃ©tran":2615,"ĠOu":2616,"Ġrend":2617,"Ġterre":2618,"oign":2619,"ĠdÃ©g":2620,"IT":2621,"Ġmor":2622,"Ġjardin":2623,"Ġcontinu":2624,"Ġrespec":2625,"onie":2626,"cessoires":2627,"nov":2628,"ĠnÃ©cessaire":2629,"Ġconnec":2630,"ĠTra":2631,"acement":2632,"ĠmatiÃ¨re":2633,"hÃ©":2634,"Con":2635,"tern":2636,"isser":2637,"Ġconsomm":2638,"Ġinstall":2639,"Ġrue":2640,"indre":2641,"andes":2642,"eng":2643,"Ġcontacter":2644,"Ġpriv":2645,"29":2646,"viron":2647,"Ġ2008":2648,"Ġis":2649,"Ġchamp":2650,"ĠTout":2651,"men":2652,"Ġrecevoir":2653,"45":2654,"Ãªmes":2655,"agner":2656,"Ġtend":2657,"Ġpersonnalis":2658,"Ġbal":2659,"itaires":2660,"Ġhist":2661,"paration":2662,"ureau":2663,"fie":2664,"val":2665,"Ġdirectement":2666,"ueur":2667,"Ġvais":2668,"Ġprojets":2669,"Ġrapidement":2670,"Ġamis":2671,"oun":2672,"ĠrÃ©v":2673,"Ġparler":2674,"Ġhistoire":2675,"char":2676,"ĠSa":2677,"rec":2678,"issez":2679,"Ġpartici":2680,"Ġgouvernement":2681,"Ġlire":2682,"Ġmerci":2683,"Ġperform":2684,"Ġeffic":2685,"orme":2686,"medi":2687,"ĠnumÃ©ro":2688,"Ġmillions":2689,"ĠvÃ©hic":2690,"Ġblanc":2691,"Ġtaille":2692,"join":2693,"ĠDieu":2694,"Ġdevez":2695,"ĠintÃ©ress":2696,"Qu":2697,"Ġgui":2698,"partement":2699,"ĠactivitÃ©s":2700,"ĠrÃ©un":2701,"ĠÅĵu":2702,"ditionn":2703,"inst":2704,"ĠÃ©tant":2705,"ĠBar":2706,"ĠForum":2707,"Ġsouhaitez":2708,"Ġterrit":2709,"Ġlun":2710,"Ġalle":2711,"ĠrÃ©aliser":2712,"ates":2713,"ime":2714,"Ġdoivent":2715,"Ã¨de":2716,"ĠpÃ©riode":2717,"Ġconfir":2718,"Ġnombreuses":2719,"Ġsemaines":2720,"33":2721,"Ġbord":2722,"Ġphysi":2723,"28":2724,"ĠamÃ©ric":2725,"quent":2726,"Ġunivers":2727,"Ġquatre":2728,"ĠmodÃ¨le":2729,"sych":2730,"cessi":2731,"vement":2732,"Ġ60":2733,"entreprise":2734,"Ġcode":2735,"Ã©ma":2736,"quelle":2737,"tation":2738,"ĠspÃ©cialis":2739,"inÃ©":2740,"opÃ©":2741,"Ġsociaux":2742,"Ġatte":2743,"21":2744,"27":2745,"ĠprÃ©sident":2746,"venu":2747,"Ġ29":2748,"Ġquelqu":2749,"Ġsein":2750,"Ġtechnique":2751,"ĠrÃ©pon":2752,"Ġcit":2753,"ĠrÃ©sultats":2754,"rix":2755,"Ġvaleur":2756,"Ġpoursuivant":2757,"ĠÃ©ner":2758,"Ġquar":2759,"Ġforce":2760,"dique":2761,"ĠidÃ©":2762,"Ġparticulier":2763,"gique":2764,"he":2765,"homme":2766,"On":2767,"ĠbÃ¢":2768,"ules":2769,"Ġfig":2770,"ĠsupÃ©ri":2771,"Ġemb":2772,"Ġlibre":2773,"Ġautant":2774,"ĠRÃ©p":2775,"Ġtexte":2776,"fois":2777,"sements":2778,"car":2779,"Ġtard":2780,"ĠcontrÃ´le":2781,"Ã©lÃ¨":2782,"Ġguerre":2783,"ays":2784,"Ġyeux":2785,"ographie":2786,"ly":2787,"Ġspect":2788,"outes":2789,"ĠMin":2790,"ĠdÃ©mar":2791,"alyse":2792,"Ġimportant":2793,"Ġrisque":2794,"Ġensemble":2795,"Ġmots":2796,"Ġmouve":2797,"...)":2798,"fait":2799,"ĠsÃ»r":2800,"Ġobjec":2801,"Ġconseils":2802,"Ġmatin":2803,"Ġconfort":2804,"ĠcatÃ©gor":2805,"venue":2806,"Ġtechniques":2807,"ĠMerci":2808,"Ġvont":2809,"Ġcm":2810,"Ġpromo":2811,"onner":2812,"Ġplate":2813,"Ġcollection":2814,"iff":2815,"Ġutilisation":2816,"ĠpiÃ¨ces":2817,"ducation":2818,"Ġensuite":2819,"olutions":2820,"Ġlaquelle":2821,"Ġaider":2822,"ĠGo":2823,"rimer":2824,"Ġsui":2825,"EL":2826,"ĠcÅĵur":2827,"Ã©tu":2828,"pa":2829,"ades":2830,"Ġcommunication":2831,"Ġresponsable":2832,"Ġmil":2833,"ĠMus":2834,"ht":2835,"Ġcrois":2836,"Ġvite":2837,"Ġvia":2838,"Ġtri":2839,"istance":2840,"Ġsortie":2841,"Ġexpl":2842,"Ġfle":2843,"forme":2844,"Ġdoute":2845,"arri":2846,"chÃ©s":2847,"frique":2848,"Ġstra":2849,"Ġpati":2850,"Ġimages":2851,"iers":2852,"urb":2853,"Ġdisponible":2854,"Ġsouff":2855,"ĠmÃ©dec":2856,"amour":2857,"menter":2858,"arde":2859,"aime":2860,"Pro":2861,"Ġbesoins":2862,"ĠAprÃ¨s":2863,"hum":2864,"son":2865,"ĠdÃ©clar":2866,"ĠdÃ©cis":2867,"ergie":2868,"raÃ®":2869,"Ġenfant":2870,"ĠthÃ¨me":2871,"AM":2872,"nous":2873,"Ġouver":2874,"Ġenti":2875,"uros":2876,"yl":2877,"Ġpermettre":2878,"Ġchacun":2879,"Ġvolont":2880,"Ġorigin":2881,"Ġterme":2882,"ouse":2883,"veur":2884,"ronique":2885,"ĠsiÃ¨cle":2886,"ĠagrÃ©":2887,"origine":2888,"Ġuniquement":2889,"ablement":2890,"Ġsport":2891,"ĠnÃ©g":2892,"lÃ¨mes":2893,"tivement":2894,"tal":2895,"Ġneu":2896,"ouss":2897,"oupes":2898,"Ġempl":2899,"Ġposs":2900,"Ġaura":2901,"Ġcomprendre":2902,"ĠpÃ¨re":2903,"yon":2904,"ublique":2905,"ives":2906,"ĠĠĠĠ":2907,"ĠMo":2908,"Ġpermettent":2909,"ĠÃ©crit":2910,"Ac":2911,"Ġutilisateurs":2912,"enez":2913,"ĠdurÃ©e":2914,"sie":2915,"ennes":2916,"Ġcandid":2917,"nements":2918,"ĠmÃ©th":2919,"99":2920,"Ġfav":2921,"ape":2922,"Ġprog":2923,"Ã©ber":2924,"Ġcaract":2925,"Ã©cu":2926,"ĠSÃ©lection":2927,"ĠintÃ©ri":2928,"apos":2929,"uve":2930,"ĠSite":2931,"ĠConseil":2932,"oisir":2933,"75":2934,"Ã©nÃ©ra":2935,"rolog":2936,"Ġmagas":2937,"Ġnationale":2938,"Ġfacile":2939,"ĠComment":2940,"vres":2941,"AT":2942,"abord":2943,"urg":2944,"ogle":2945,"vision":2946,"Ġoc":2947,"erce":2948,"DE":2949,"organis":2950,"ĠdÃ©tail":2951,"Ġlaisser":2952,"ett":2953,"Ġpot":2954,"ada":2955,"35":2956,"Ã¨que":2957,"Ġgu":2958,"Am":2959,"Ġaccue":2960,"Ġappare":2961,"ĠconfidentialitÃ©":2962,"Ã¨les":2963,"Ġ]":2964,"yth":2965,"ende":2966,"ĠÃ©le":2967,"ĠPolitique":2968,"200":2969,"sse":2970,"Ġancien":2971,"jouter":2972,"Ġpartage":2973,"Ġcouleurs":2974,"atifs":2975,"Ġaim":2976,"cript":2977,"ase":2978,"Ġcop":2979,"Ġpages":2980,"Des":2981,"ĠrÃ©pondre":2982,"adresse":2983,"ky":2984,"Ġaurait":2985,"jets":2986,"face":2987,"ĠprÃ©sence":2988,"Ã¨rent":2989,"Ġindivi":2990,"rice":2991,"Ġextra":2992,"Ġvois":2993,"Ġsecteur":2994,"Ġremar":2995,"inateur":2996,"Ġ2007":2997,"ĠrÃ©fÃ©rence":2998,"lin":2999,"Ġmaxim":3000,"Ġprofessionnel":3001,"Ġfai":3002,"Bon":3003,"ĠMal":3004,"Ġchoisir":3005,"Ġaccord":3006,"Ġ*":3007,"ĠCrÃ©":3008,"ĠfrÃ©":3009,"ĠmÃ¨re":3010,"Ġgenre":3011,"erg":3012,"Ġenfin":3013,"Ġsymp":3014,"Ġgrandes":3015,"Ġaug":3016,"ĠÃ©tablis":3017,"fiques":3018,"aprÃ¨s":3019,"Ġassur":3020,"Ġproduction":3021,"Ġsamedi":3022,"oo":3023,"quÃ©e":3024,"ĠSal":3025,"ĠCro":3026,"AP":3027,"ENT":3028,"Ġclassi":3029,"Ġlet":3030,"Ġpen":3031,"Ġpartager":3032,"Ġof":3033,"entiel":3034,"ĠtÃ©lÃ©phone":3035,"Ġkm":3036,"36":3037,"Re":3038,"48":3039,"ĠAb":3040,"ĠPr":3041,"Ġstyle":3042,"ĠhÃ´":3043,"Ġamb":3044,"lir":3045,"Ġclub":3046,"ral":3047,"ainte":3048,"Ġessay":3049,"Ã©rences":3050,"Ġparents":3051,"ĠServi":3052,"Ġchanger":3053,"zz":3054,"tro":3055,"ĠÃ©lÃ¨":3056,"ĠdÃ©ta":3057,"ĠBr":3058,"Ġgamme":3059,"arch":3060,"2018":3061,"ash":3062,"quez":3063,"Ġdesign":3064,"Ġtextes":3065,"Ġstock":3066,"ĠderniÃ¨res":3067,"ĠpossibilitÃ©":3068,"Ġtermin":3069,"Ġvoiture":3070,"ĠtÃ©m":3071,"inture":3072,"tice":3073,"ient":3074,"Ġpermettant":3075,"Ġsoient":3076,"ĠBel":3077,"Ad":3078,"Ġatta":3079,"Ġexclus":3080,"ĠvÃ©ri":3081,"ccÃ¨s":3082,"ĠPlan":3083,"Ġoub":3084,"ĠvidÃ©os":3085,"estiv":3086,"termin":3087,"titude":3088,"inte":3089,"ĠBien":3090,"Ġdisponibles":3091,"Ġretra":3092,"Ġsolution":3093,"Ġpermis":3094,"ĠrÃ©seaux":3095,"ĠdonnÃ©":3096,"ĠFem":3097,"Ġlut":3098,"hÃ©s":3099,"rale":3100,"76":3101,"ĠEtats":3102,"illeurs":3103,"ouverture":3104,"Ġdossi":3105,"Ġprofiter":3106,"roche":3107,"Ġmach":3108,"ĠÃ©tat":3109,"Ġcompagn":3110,"Ġve":3111,"Ġressour":3112,"sc":3113,"veill":3114,"acer":3115,"Ġparmi":3116,"ulture":3117,"ĠConditions":3118,"quis":3119,"Ġprov":3120,"cÃ©der":3121,"raient":3122,"Ġchauff":3123,"Ġopp":3124,"Ġcontinue":3125,"Ġsav":3126,"Ġcelles":3127,"Ġpetites":3128,"Ġimmob":3129,"Ġfinanci":3130,"eek":3131,"Ã©rap":3132,"Ġsh":3133,"tils":3134,"Ġpourrez":3135,"ice":3136,"ĠdÃ©li":3137,"Ġfils":3138,"Ġhors":3139,"Ġdiman":3140,"cident":3141,"Ġ2019":3142,"38":3143,"chant":3144,"ousse":3145,"Ġparam":3146,"Ġsuivre":3147,"vestis":3148,"Ġrecommand":3149,"Ġobtenir":3150,"AprÃ¨s":3151,"Ġrepr":3152,"tit":3153,"oise":3154,"Ġpoi":3155,"ĠÃ©lÃ©ments":3156,"Ġmeilleurs":3157,"oilÃł":3158,"ĠSud":3159,"CE":3160,"Ã¨se":3161,"Ġtaux":3162,"apon":3163,"ilitÃ©s":3164,"ĠrÃ´le":3165,"Ġconfiance":3166,"Ġroute":3167,"Ġmilieu":3168,"argent":3169,"44":3170,"Ġcoeur":3171,"Ġchef":3172,"Ġhabit":3173,"actÃ©":3174,"orts":3175,"anne":3176,"Ġcollab":3177,"Ġbe":3178,"Ġtomb":3179,"lai":3180,"Ġparle":3181,"Ġbons":3182,"Ġsensi":3183,"entrÃ©e":3184,"ministration":3185,"ma":3186,"Ġcommentaires":3187,"Ġdiffic":3188,"yc":3189,"ĠFranÃ§ais":3190,"ormais":3191,"Ġpleine":3192,"ĠCela":3193,"rations":3194,"Ġrelig":3195,"ciens":3196,"ork":3197,"Ġfonctionnement":3198,"land":3199,"ĠAlors":3200,"dessous":3201,"Ġadministra":3202,"Ġcam":3203,"ĠpropriÃ©tÃ©":3204,"ligne":3205,"ĠAss":3206,"Ġderniers":3207,"actu":3208,"Ġconseil":3209,"Ġscol":3210,"ige":3211,"Ġmauv":3212,"lent":3213,"Ġconstruction":3214,"Ġsatis":3215,"ĠproblÃ¨mes":3216,"Ġdemander":3217,"Ġsexe":3218,"uy":3219,"Ġretrouver":3220,"ĠconsÃ©qu":3221,"Ġmariage":3222,"aisse":3223,"Ġsocial":3224,"lications":3225,"pro":3226,"orÃ©":3227,"ustri":3228,"Ġ80":3229,"ignement":3230,"odes":3231,"Ġemail":3232,"time":3233,"Ġchemin":3234,"Ġpat":3235,"ament":3236,"uelle":3237,"issement":3238,"matique":3239,"Ġrempl":3240,"ionn":3241,"ambres":3242,"ume":3243,"Ġdisposition":3244,"erne":3245,"Ġrespect":3246,"pend":3247,"Ġvenir":3248,"ĠscÃ¨ne":3249,"wslet":3250,"io":3251,"ĠÃ©conomique":3252,"stitu":3253,"Ġrendez":3254,"iversitÃ©":3255,"cs":3256,"Ġsociale":3257,"Ġfour":3258,"ancement":3259,"Ġlequel":3260,"cup":3261,"roy":3262,"Ġsecond":3263,"Ġtransport":3264,"ĠÃ©vÃ©":3265,"ribution":3266,"Ġcade":3267,"liquer":3268,"estival":3269,"Ġfro":3270,"veux":3271,"IE":3272,"ute":3273,"ĠgÃ©nÃ©rale":3274,"Ġspectac":3275,"www":3276,"34":3277,"oot":3278,"iver":3279,"ĠdÃ©part":3280,"Ġpresque":3281,"Ġeuros":3282,"ĠSÃ©lectionner":3283,"65":3284,"orique":3285,"usse":3286,"usion":3287,"Ġrense":3288,"Ġsuivi":3289,"Ġdocument":3290,"Ġexiste":3291,"charger":3292,"RO":3293,"Ġdispar":3294,"aller":3295,"ĠmÃ©m":3296,"emb":3297,"Ġprest":3298,"itter":3299,"Ġdimanche":3300,"ination":3301,"Ġbureau":3302,"Ġjouer":3303,"aume":3304,"Ġmeu":3305,"ref":3306,"ĠFin":3307,"Ġlivres":3308,"Ġposition":3309,"Ã¢tre":3310,"Ġtransform":3311,"lam":3312,"Ġsim":3313,"ĠaccÃ¨s":3314,"ĠstratÃ©":3315,"Ġaide":3316,"emploi":3317,"ĠDis":3318,"Ġmanif":3319,"Ġquotidien":3320,"ĠÃīp":3321,"Ġabs":3322,"ĠvÃ©ritable":3323,"Ġsole":3324,"Ġgauche":3325,"quÃ©s":3326,"Ġiniti":3327,"aritÃ©":3328,"Ġpied":3329,"Ġconnaissance":3330,"bres":3331,"ple":3332,"Ġfru":3333,"Ġlongtemps":3334,"ĠÃ©vi":3335,"roit":3336,"informations":3337,"dits":3338,"Ġ45":3339,"Ġspor":3340,"ĠsÃ©jour":3341,"Ġlecture":3342,"Ã©cole":3343,"AU":3344,"ĠbÃ¢ti":3345,"ibli":3346,"dex":3347,"Ġdirect":3348,"Ġenvie":3349,"ĠdeuxiÃ¨me":3350,"ulation":3351,"Ġcapit":3352,"ĠrÃ©ponse":3353,"Ġfabric":3354,"Mais":3355,"Ġtari":3356,"ouvrez":3357,"Ġsortir":3358,"ĠrÃ©alitÃ©":3359,"ville":3360,"Ġenvoy":3361,"credi":3362,"ĠSoci":3363,"AG":3364,"Ġconsulter":3365,"Ġfaites":3366,"Ġpaiement":3367,"Ġcertaine":3368,"Ġdurant":3369,"tÃ©ra":3370,"Ġtrouverez":3371,"ars":3372,"ĠVotre":3373,"ĠIs":3374,"ĠNotre":3375,"tine":3376,"ĠprÃ©c":3377,"Ġsait":3378,"lise":3379,"lant":3380,"Ġdiri":3381,"aci":3382,"ĠLib":3383,"terie":3384,"79":3385,"ĠapprÃ©":3386,"DÃ©c":3387,"Ġfix":3388,"Ġplupart":3389,"quet":3390,"ĠdÃ©pos":3391,"ĠrÃ©guli":3392,"Ìģ":3393,"issent":3394,"esse":3395,"Ġsoli":3396,"Ġdifficile":3397,"ĠNord":3398,"Ġdevenir":3399,"lage":3400,"Ġsoleil":3401,"ĠmÃ©c":3402,"ĠÃ©qu":3403,"ĠcommunautÃ©":3404,"Ex":3405,"Ġministre":3406,"Ġgard":3407,"cel":3408,"ĠcaractÃ¨re":3409,"avait":3410,"Ġrouge":3411,"Ġuti":3412,"ik":3413,"Ġmaladi":3414,"Ġmoder":3415,"NE":3416,"ĠpropriÃ©t":3417,"Ġble":3418,"ailler":3419,"Ġmatch":3420,"Ġ31":3421,"Ġami":3422,"ĠLire":3423,"Ġ!!!":3424,"ĠRou":3425,"sh":3426,"68":3427,"Ã¨tes":3428,"achat":3429,"ĠcrÃ©Ã©":3430,"bat":3431,"Ġpresse":3432,"Ġpeau":3433,"Ġfacilement":3434,"euillez":3435,"Ġlu":3436,"Ġnaturel":3437,"mat":3438,"ĠpiÃ¨ce":3439,"ĠparticuliÃ¨rement":3440,"ĠMich":3441,"Ġoui":3442,"cteurs":3443,"crit":3444,"Ã©rer":3445,"fe":3446,"mettre":3447,"do":3448,"ocra":3449,"Or":3450,"Ġchiff":3451,"tilis":3452,"ĠÃĥ":3453,"Ġcommuni":3454,"prÃ©":3455,"ologies":3456,"Ġhaute":3457,"ĠconnaÃ®tre":3458,"Ġpourra":3459,"Ġvendredi":3460,"quÃªte":3461,"Ġsigne":3462,"Ġcommune":3463,"ĠmatÃ©riel":3464,"ft":3465,"Ġespace":3466,"Ġdirection":3467,"Ġterrain":3468,"ĠÃ©tudes":3469,"Ġchat":3470,"ĠGrand":3471,"ouverte":3472,"Ã§ois":3473,"Ġpublique":3474,"Ġtes":3475,"onnÃ©es":3476,"ĠrÃ¨gles":3477,"ĠdÃ©partement":3478,"ony":3479,"Ġannonce":3480,"rÃ¨s":3481,"ĠutilisÃ©":3482,"accord":3483,"Ġtraditionn":3484,"Ã¨ge":3485,"ĠfonctionnalitÃ©s":3486,"ĠLiv":3487,"ĠNoÃ«l":3488,"ĠMa":3489,"SE":3490,"Ġscienti":3491,"Ġautoris":3492,"atrice":3493,"Ã©nergie":3494,"Ġrepro":3495,"ĠdÃ©sormais":3496,"Ph":3497,"env":3498,"Ġenc":3499,"tification":3500,"Ġfins":3501,"conomie":3502,"CH":3503,"ha":3504,"itÃ©e":3505,"ĠRÃ©publique":3506,"lan":3507,"Ġannonces":3508,"Ġailleurs":3509,"Ġlorsqu":3510,"charge":3511,"rÃªts":3512,"lande":3513,"Ġtiers":3514,"Ġ35":3515,"Ġmagni":3516,"Ġnu":3517,"Ġ198":3518,"...]":3519,"OL":3520,"ombre":3521,"Ġir":3522,"Ġsang":3523,"bum":3524,"tiver":3525,"Ġmarques":3526,"iteur":3527,"ĠamÃ©liorer":3528,"Ġindividu":3529,"gue":3530,"Ġmouvement":3531,"ĠJu":3532,"Ġoffici":3533,"Ġsource":3534,"ĠlÃ©gales":3535,"ĠrÃ©ussi":3536,"Avec":3537,"Ġdroite":3538,"Ġmanque":3539,"ppe":3540,"ĠSand":3541,"Ġimage":3542,"Ġaime":3543,"Ġcontrat":3544,"ĠidÃ©es":3545,"ĠÃ©cl":3546,"ynam":3547,"FR":3548,"esprit":3549,"yst":3550,"Ġvillage":3551,"Ġast":3552,"Ġtal":3553,"ĠMarie":3554,"Ġcomprend":3555,"ina":3556,"Ġpal":3557,"Ã©bec":3558,"aliser":3559,"ĠThe":3560,"Ġprocess":3561,"icher":3562,"actÃ©ris":3563,"Ġroman":3564,"Ã©rie":3565,"aie":3566,"ĠComme":3567,"77":3568,"user":3569,"Ġsolutions":3570,"ĠsuccÃ¨s":3571,"ĠFace":3572,"ĠMer":3573,"Ġsalon":3574,"Ġproche":3575,"Ġcertain":3576,"Ġmas":3577,"Ãªche":3578,"liÃ©":3579,"Ġlongue":3580,"ctionn":3581,"ordre":3582,"Ġpolitiques":3583,"cr":3584,"Ġjoli":3585,"Ġvoix":3586,"ĠactivitÃ©":3587,"ĠGÃ©nÃ©ra":3588,"Ġocc":3589,"Ġconserv":3590,"ĠsupplÃ©ment":3591,"Ġzone":3592,"ĠÃīpisode":3593,"Ġexpos":3594,"ĠQue":3595,"Ġconnaiss":3596,"Etat":3597,"Ġlieux":3598,"Ġliens":3599,"ĠBon":3600,"Ġrelative":3601,"Ġsort":3602,"xte":3603,"Notre":3604,"image":3605,"ĠPer":3606,"ana":3607,"Ġstatis":3608,"Ġphysique":3609,"rist":3610,"Ġ70":3611,"intÃ©rieur":3612,"Ġcentres":3613,"activitÃ©":3614,"66":3615,"Ġsoins":3616,"95":3617,"Ġenviron":3618,"Ġattend":3619,"Ġcra":3620,"Ã©di":3621,"Ġoffrir":3622,"oulez":3623,"Ġgraph":3624,"formÃ©ment":3625,"ĠnumÃ©rique":3626,"Ġlangue":3627,"fÃ©rence":3628,"ĠGoogle":3629,"anim":3630,"Ġsuivant":3631,"Ġoutils":3632,"objet":3633,"Ġconsac":3634,"ĠexpÃ©ri":3635,"ross":3636,"Ġcommentaire":3637,"2015":3638,"ĠÃ©dition":3639,"Ġpremiers":3640,"ĠPor":3641,"ĠdÃ©termin":3642,"ĠimmÃ©di":3643,"ĠCH":3644,"Ġmoyens":3645,"Ġminim":3646,"ĠCap":3647,"ĠEntre":3648,"Ġpsych":3649,"ologiques":3650,"Ġmodifier":3651,"Ġbain":3652,"fications":3653,"Ġprofessionnelle":3654,"Ã¨ve":3655,"Ġtran":3656,"Ġ2006":3657,"ĠAng":3658,"Ġcontenus":3659,"tir":3660,"Ġdevient":3661,"Ġthe":3662,"Ġdomicile":3663,"enant":3664,"hy":3665,"ĠsituÃ©":3666,"Ġclass":3667,"Ġdevrait":3668,"Ġdouce":3669,"abl":3670,"Ġremb":3671,"Ġdra":3672,"Ġveux":3673,"ĠPi":3674,"pens":3675,"onom":3676,"Ġvir":3677,"Ã©tique":3678,"Ġlogiciel":3679,"mpor":3680,"Ġchambres":3681,"Ġcomplet":3682,"ĠMag":3683,"illÃ©":3684,"Ġcontraire":3685,"Ġnational":3686,"Ġchale":3687,"Ġfich":3688,"ctu":3689,"wsletter":3690,"ĠtrouvÃ©":3691,"Ġdos":3692,"ĠMaison":3693,"astique":3694,"olÃ©":3695,"ĠPierre":3696,"Ġhabitu":3697,"ĠPre":3698,"avantage":3699,"etÃ©":3700,"US":3701,"ieux":3702,"vain":3703,"oncÃ©":3704,"Ġmoyenne":3705,"âĢ¦]":3706,"trer":3707,"utilisateur":3708,"Ġ'":3709,"Ġcalcul":3710,"ĠrÃ©serve":3711,"Ġpourtant":3712,"nent":3713,"Ġhttp":3714,"ĠlibertÃ©":3715,"identi":3716,"Ġ90":3717,"Ġpratiques":3718,"appar":3719,"ĠUS":3720,"Ġindustri":3721,"ĠmÃªmes":3722,"accep":3723,"ĠÃ©trang":3724,"uration":3725,"ĠlumiÃ¨re":3726,"Ġprocessus":3727,"Ġenvironnement":3728,"ĠBe":3729,"Ġcommence":3730,"DI":3731,"Ġpapier":3732,"dire":3733,"Ġmur":3734,"Ġmembre":3735,"cons":3736,"ĠEurope":3737,"cience":3738,"Ġgroupes":3739,"ctures":3740,"Ġmission":3741,"association":3742,"ignes":3743,"itre":3744,"Ġreven":3745,"ara":3746,"udg":3747,"oile":3748,"49":3749,"ME":3750,"dis":3751,"Ġformulaire":3752,"Ġjoueurs":3753,"37":3754,"Ġsorte":3755,"ĠÃ©lÃ¨ves":3756,"ĠVal":3757,"ĠTV":3758,"Ġfen":3759,"Ġfou":3760,"Ġbient":3761,"Europe":3762,"Ġcu":3763,"ĠBou":3764,"avez":3765,"Ġprot":3766,"Ġendro":3767,"31":3768,"ĠmodÃ¨les":3769,"Ġcompar":3770,"expÃ©rience":3771,"itif":3772,"Ġesc":3773,"Ġautomatique":3774,"ĠLA":3775,"ariat":3776,"Ġgarantie":3777,"itant":3778,"Ġsouhaite":3779,"Ġchance":3780,"ĠsoirÃ©e":3781,"ĠAg":3782,"ini":3783,"ĠcontrÃ´":3784,"iez":3785,"Ġcinq":3786,"ĠcinÃ©ma":3787,".,":3788,"ama":3789,"Ġretrouve":3790,"Ġperman":3791,"ĠpÃ©n":3792,"Ġand":3793,"Ã©tat":3794,"fric":3795,"ren":3796,"ano":3797,"Ġavaient":3798,"ension":3799,"ĠTu":3800,"32":3801,"Ġfamili":3802,"Ġgarde":3803,"hÃ©sitez":3804,"ĠnÃ©cessaires":3805,"Ġoeu":3806,"Ġcliquez":3807,"ĠDire":3808,"Ġlundi":3809,"Ġvic":3810,"ĠLE":3811,"ĠrÃ©sid":3812,"Ġconcours":3813,"ĠprocÃ©d":3814,"Ġressources":3815,"Ġsuc":3816,"Ġrappel":3817,"ilos":3818,"dessus":3819,"ĠCentre":3820,"ĠLou":3821,"ĠTri":3822,"ailles":3823,"ordeaux":3824,"Ġpopulation":3825,"Ġgratuitement":3826,"46":3827,"este":3828,"Ġvide":3829,"ĠdÃ©n":3830,"Ġenregist":3831,"mande":3832,"ares":3833,"ĠLi":3834,"idÃ©e":3835,"Ġmoteur":3836,"oto":3837,"Ġpeine":3838,"Ġouvert":3839,"ĠdÃ©di":3840,"ĠÃ©n":3841,"Ã¨tre":3842,"ĠmalgrÃ©":3843,"ission":3844,"Ġcab":3845,"resser":3846,"Ġcroiss":3847,"agÃ©":3848,"Ġdouble":3849,"ĠQuÃ©bec":3850,"istÃ¨re":3851,"keting":3852,"ĠMen":3853,"Ġlesqu":3854,"55":3855,"timis":3856,"Ġproc":3857,"Ġrester":3858,"ĠprÃªt":3859,"Ã´me":3860,"Ġmultip":3861,"Ġpost":3862,"Ġpassage":3863,"ani":3864,"ĠFl":3865,"ĠLors":3866,"**":3867,"Ġpou":3868,"ĠresponsabilitÃ©":3869,"ĠcÃ©lÃ¨":3870,"espace":3871,"appr":3872,"ĠMac":3873,"Ġsoutien":3874,"cent":3875,"Ġsymb":3876,"Ġquelle":3877,"Merci":3878,"ĠcatÃ©gorie":3879,"ĠCour":3880,"ides":3881,"Ġmontant":3882,"Ġconsult":3883,"Ġfichier":3884,"Ã§ons":3885,"Ġactuellement":3886,"Ġmun":3887,"Ġexcell":3888,"anie":3889,"Ġcouple":3890,"liers":3891,"Ġaj":3892,"heur":3893,"rat":3894,"urÃ©":3895,"Votre":3896,"ĠEsp":3897,"ity":3898,"ĠPays":3899,"App":3900,"Bonjour":3901,"Ġconvi":3902,"ocation":3903,"Ġvoulez":3904,"ĠRob":3905,"ĠAff":3906,"ĠVer":3907,"intÃ©rÃªt":3908,"alu":3909,"oss":3910,"cupÃ©":3911,"ĠPrix":3912,"ĠAt":3913,"Ġchangement":3914,"Ġwww":3915,"Ã¨nes":3916,"Ġcond":3917,"01":3918,"Ġexception":3919,"server":3920,"ĠCanada":3921,"Ġ[âĢ¦]":3922,"truc":3923,"Ġfilms":3924,"Ġbonnes":3925,"icro":3926,"mation":3927,"Ġlic":3928,"Ġamoure":3929,"Mon":3930,"ĠGra":3931,"ber":3932,"Ġmanifest":3933,"ĠMois":3934,"ister":3935,"ĠRÃ©g":3936,"artis":3937,"ouvelle":3938,"Ġarch":3939,"Ġtrain":3940,"Ġessenti":3941,"Ġbel":3942,"Ġmaximum":3943,"IR":3944,"Ġjuri":3945,"Ġaccompagn":3946,"Ġdifficul":3947,"expl":3948,"ĠhÃ©ber":3949,"alogue":3950,"Ġmains":3951,"Ã¨ce":3952,"Ġchauss":3953,"Ã¢teau":3954,"Ġpeur":3955,"Ġposte":3956,"Ġconnu":3957,"ĠÅĵuvre":3958,"Ġgratuite":3959,"ouleur":3960,"Ġmagasin":3961,"Ã©tais":3962,".\"":3963,"sur":3964,"Ġaccessi":3965,"Ġformat":3966,"novation":3967,"Ġutilisons":3968,"vage":3969,"Ġlab":3970,"Ġparcours":3971,"Ġboutique":3972,"tifi":3973,"Ġtels":3974,"iblioth":3975,"ĠcaractÃ©ris":3976,"alisme":3977,"Ġdossier":3978,"Ġstat":3979,"iscine":3980,"ĠidÃ©e":3981,"duite":3982,"Ã©ration":3983,"ĠGar":3984,"osition":3985,"CI":3986,"ĠfÃªte":3987,"ðŁ":3988,"Ġfaisant":3989,"Ġexist":3990,"mÃ©e":3991,"Ġpatri":3992,"ĠGran":3993,"Ġgagner":3994,"otte":3995,"Ġnouvel":3996,"ximitÃ©":3997,"ĠdÃ©lai":3998,"Ġinformatique":3999,"rasse":4000,"OUR":4001,"88":4002,"Ġdix":4003,"inon":4004,"enligne":4005,"Ġhor":4006,"Ġcombat":4007,"Ġmarche":4008,"urieux":4009,"amÃ©li":4010,"uisse":4011,"Ã©nagement":4012,"Ġsembl":4013,"ĠreprÃ©sente":4014,"Ġcampagne":4015,"isÃ©":4016,"magne":4017,"Ġconcep":4018,"bon":4019,"Ġpuisque":4020,"da":4021,"Ġtravaill":4022,"Ġadul":4023,"Ġrenfor":4024,"Ġbudg":4025,"Ġdipl":4026,"Ġchoc":4027,"tition":4028,"moine":4029,"ĠMat":4030,"Ġplac":4031,"bl":4032,"reux":4033,"Ġsuffit":4034,"ĠdÃ©cision":4035,"Ġsecre":4036,"Ġweek":4037,"Ġactions":4038,"urant":4039,"hi":4040,"Ġvas":4041,"Ġterritoire":4042,"Ġ!!":4043,"Ġ=":4044,"ĠplanÃ¨te":4045,"RI":4046,"OT":4047,"del":4048,"ĠÂ©":4049,"ÃĢ":4050,"Ġfant":4051,"Ġmesures":4052,"Ġstatistiques":4053,"Ã©ros":4054,"Ġpropres":4055,"69":4056,"ost":4057,"Ġtravailler":4058,"Ġautor":4059,"Ġcheveux":4060,"Ġparticiper":4061,"administration":4062,"ĠSign":4063,"AD":4064,"riques":4065,"Ġfilles":4066,"cieux":4067,"appel":4068,"pour":4069,"Ġconnais":4070,"Ġimportante":4071,"ĠprivÃ©e":4072,"ĠToutes":4073,"Ġdynam":4074,"Ġerre":4075,"Ã¢ge":4076,"Ġrencontrer":4077,"Ġpil":4078,"Ġcartes":4079,"Ġrejoin":4080,"tenu":4081,"ĠFacebook":4082,"importe":4083,"Ġsud":4084,"ĠCommun":4085,"mun":4086,"Ġsil":4087,"ĠvolontÃ©":4088,"ĠBeau":4089,"Ġnour":4090,"ĠNation":4091,"ĠproximitÃ©":4092,"ĠrÃ©sultat":4093,"Ġmercredi":4094,"ĠdÃ©cidÃ©":4095,"tiÃ©":4096,"Ġinternationale":4097,"Ġinstitu":4098,"ĠSac":4099,"Ġglob":4100,"Ġcouv":4101,"ĠeuropÃ©enne":4102,"ĠEst":4103,"ĠdÃ©tails":4104,"tivitÃ©":4105,"tellig":4106,"gÃ©e":4107,"Ġquali":4108,"Ġcy":4109,"Ġsupport":4110,"Ġdocuments":4111,"Ġ(...)":4112,"ĠbeautÃ©":4113,"Ġgaz":4114,"Ġplans":4115,"Ġquartier":4116,"icip":4117,"lÃł":4118,"ĠTer":4119,"Ġinstru":4120,"sons":4121,"Ġporter":4122,"Ġlaisse":4123,"Ġcommand":4124,"Ãīt":4125,"Ġpassionn":4126,"Ġaliment":4127,"ince":4128,"ĠreÃ§":4129,"umes":4130,"ĠmÃ©dias":4131,"Ġparties":4132,"Ġnaissance":4133,"Ġsoup":4134,"offre":4135,"ino":4136,"ĠrÃ©duire":4137,"uels":4138,"Ġsouv":4139,"Ġtransf":4140,"Ġrepos":4141,"Ġate":4142,"ĠbÃ©nÃ©fici":4143,"anges":4144,"ĠbÃ©b":4145,"Su":4146,"xion":4147,"Ġdiv":4148,"Ġtelle":4149,"Ġquanti":4150,"litÃ©":4151,"Ġarrive":4152,"47":4153,"Ġment":4154,"demment":4155,"Ġparis":4156,"ressi":4157,"ĠChe":4158,"ĠmÃ©l":4159,"ĠRoy":4160,"ĠrÃ©servÃ©s":4161,"Tout":4162,"Car":4163,"Ġassurer":4164,"Ġdessus":4165,"ĠboÃ®":4166,"Ġenvoyer":4167,"Ġanimaux":4168,"oser":4169,"ĠimmÃ©diate":4170,"Ġfall":4171,"ĠAinsi":4172,"Ġimag":4173,"Ġsujets":4174,"ĠtempÃ©ra":4175,"iche":4176,"Ġincl":4177,"oisirs":4178,"mage":4179,"ĠmodÃ©":4180,"mart":4181,"ĠÃ©lectronique":4182,"ĠdÃ©faut":4183,"ĠÃ©cr":4184,"Ġcommerce":4185,"ĠreÃ§u":4186,"ATION":4187,"tÃ©rature":4188,"Ġpermettra":4189,"PS":4190,"Ġsent":4191,"Ġlocation":4192,"Ġcitoy":4193,"::":4194,"Ġefficace":4195,"Ġsalari":4196,"urance":4197,"ĠcollÃ¨":4198,"Ou":4199,"llemagne":4200,"riture":4201,"ĠRet":4202,"oirs":4203,"mon":4204,"Ġvoie":4205,"endra":4206,"Ġbran":4207,"Ġmm":4208,"Ġreti":4209,"itesse":4210,"ĠprÃ©senter":4211,"Aut":4212,"Ġcontempor":4213,"ĠÃ©lectrique":4214,"duits":4215,"Sur":4216,"Ass":4217,"Ġinj":4218,"deur":4219,"Ġpuissance":4220,"Ġemploy":4221,"Ġbanc":4222,"chement":4223,"Ġ48":4224,"telle":4225,"Ġjeudi":4226,"lÃ©g":4227,"Depuis":4228,"Ġanaly":4229,"ĠmaÃ®tr":4230,"uff":4231,"Blog":4232,"Ġiss":4233,"cipe":4234,"ĠBen":4235,"ropri":4236,"Ġtotal":4237,"ata":4238,"ĠmÃ©can":4239,"ĠprÃ©cÃ©":4240,"Ġconsommation":4241,"Ġpublics":4242,"tiÃ¨re":4243,"onnÃ©":4244,"Ġfaud":4245,"Ġmanger":4246,"por":4247,"ĠProf":4248,"ĠElles":4249,"Ġvin":4250,"??":4251,"Ġmoderne":4252,"Ġforte":4253,"Ġrelations":4254,"Ġgo":4255,"ĠTour":4256,"Ġrisques":4257,"Ġutilisant":4258,"ed":4259,"ĠextÃ©ri":4260,"enfant":4261,"ĠcapacitÃ©":4262,"ll":4263,"tructure":4264,"ka":4265,"uil":4266,"Ġvra":4267,"Ġaccessoires":4268,"Ġcoord":4269,"Ġcompter":4270,"ĠÃ©viter":4271,"Ġcorrec":4272,"ublic":4273,"Ġfisc":4274,"application":4275,"Ġprochaine":4276,"Ġpartout":4277,"Ġtypes":4278,"ĠrÃ©alisÃ©":4279,"ĠidentifiÃ©":4280,"Ġpoids":4281,"Ġstand":4282,"isl":4283,"ĠagrÃ©able":4284,"ccueil":4285,"Ġvo":4286,"ĠQuand":4287,"ĠentraÃ®":4288,"Ġgarantir":4289,"ĠNew":4290,"ĠInform":4291,"Ġcourt":4292,"enture":4293,"58":4294,"ĠRÃ©s":4295,"Ġportes":4296,"gÃ©s":4297,"mblÃ©e":4298,"Ġmusic":4299,"Ġrub":4300,"Ġallez":4301,"ĠNos":4302,"autes":4303,"Ġpose":4304,"Ġprochain":4305,"Ġcontinuer":4306,"ĠdÃ©velopper":4307,"rages":4308,"Ġdessin":4309,"tences":4310,"ĠpÃ©d":4311,"Ġindis":4312,"Ġmail":4313,"Ġbras":4314,"Ġapplication":4315,"Ã©dÃ©":4316,"Ġcompt":4317,"onge":4318,"ram":4319,"inet":4320,"ET":4321,"ĠCli":4322,"Ġseconde":4323,"IM":4324,"ĠvÃ©hicule":4325,"Ġauteurs":4326,"ĠSc":4327,"ĠForm":4328,"Ġdirige":4329,"rich":4330,"ustrie":4331,"cles":4332,"ĠCode":4333,"ĠderriÃ¨re":4334,"Ġexceptionn":4335,"Ġtotalement":4336,"ĠpubliÃ©":4337,"ilosoph":4338,"Ġtop":4339,"analyse":4340,"Ġrob":4341,"Ġphotograph":4342,"Ġcommencer":4343,"atta":4344,"Ãªtements":4345,"utiliser":4346,"chent":4347,"ĠSandales":4348,"to":4349,"Ġciv":4350,"ĠTech":4351,"hors":4352,"Ġordinateur":4353,"ĠmÃ©moire":4354,"ĠNon":4355,"Ġmobile":4356,"RÃ©":4357,"ĠGe":4358,"parer":4359,"aises":4360,"quÃ©es":4361,"yez":4362,"vitÃ©":4363,"Ġinternational":4364,"king":4365,"ĠrÃ©guliÃ¨rement":4366,"Ġretourn":4367,"ignements":4368,"actualitÃ©":4369,"].":4370,"ĠJav":4371,"Ġsurface":4372,"oux":4373,"Ġsix":4374,"ĠrÃ©d":4375,"Ġpenser":4376,"adap":4377,"Ġsomme":4378,"ĠutilisÃ©es":4379,"Ġvig":4380,"Ġtellement":4381,"ĠJus":4382,"Ġ500":4383,"Ġnett":4384,"Ġexer":4385,"Ġorient":4386,"alise":4387,"ĠadaptÃ©s":4388,"rÃ©sil":4389,"ĠBo":4390,"ĠrÃ©alisation":4391,"Ġprofil":4392,"ĠService":4393,"Ġ2005":4394,"Ġmagnifique":4395,"ĠâĢĶ":4396,"ĠJeux":4397,"Ġrepas":4398,"Lors":4399,"Ġraisons":4400,"ader":4401,"Ġpersonnages":4402,"Ġacheter":4403,"ancÃ©":4404,"Ġassure":4405,"environnement":4406,"Ġ[...]":4407,"ĠQui":4408,"unis":4409,"va":4410,"urr":4411,"Ġbelles":4412,"Ġ38":4413,"ĠBi":4414,"ĠÃ©vent":4415,"org":4416,"98":4417,"Ġpa":4418,"Ġgratuits":4419,"less":4420,"ĠgÃ©nÃ©ralement":4421,"ĠcomplÃ¨te":4422,"ĠrÃ©uss":4423,"Ġparfaitement":4424,"Ġbio":4425,"trÃªme":4426,"aug":4427,"Ġpeinture":4428,"import":4429,"Ã¨ces":4430,"Ġanglais":4431,"tor":4432,"ĠContac":4433,"ĠCas":4434,"Ġ75":4435,"Ġbra":4436,"onses":4437,"ĠNic":4438,"ĠMad":4439,"Ġadop":4440,"Ġclassique":4441,"Ġdispose":4442,"ĠBer":4443,"Ġcompagnie":4444,"Ġfre":4445,"Ġsatisf":4446,"Ġinten":4447,"Se":4448,"Ġbour":4449,"Ġpanne":4450,"ĠsociÃ©tÃ©s":4451,"Ġsouvenir":4452,"Ġdomin":4453,"Ġtouche":4454,"leur":4455,"Ġobjets":4456,"ĠchaÃ®":4457,"Ġtermes":4458,"Ces":4459,"ĠSky":4460,"Ġastrolog":4461,"ĠdÃ©pend":4462,"Ġstructure":4463,"ball":4464,"Ġpiscine":4465,"ĠdÃ©mocra":4466,"Ġinspi":4467,"ĠBordeaux":4468,"avec":4469,"Ġvaleurs":4470,"ĠsystÃ¨mes":4471,"Ġvalid":4472,"Ġremerci":4473,"onneur":4474,"nom":4475,"exist":4476,"ĠdÃ©cor":4477,"ĠÃ©d":4478,"iciels":4479,"ĠCam":4480,"Ġvert":4481,"euse":4482,"Ġap":4483,"Ġattention":4484,"Ġcrise":4485,"Ã©gÃ©t":4486,"we":4487,"ĠbientÃ´t":4488,"ĠDepuis":4489,"Ġconcerne":4490,"Ġchoisi":4491,"ĠprÃª":4492,"uaire":4493,"accueil":4494,"Ġfavoris":4495,"ĠET":4496,"Ġconstat":4497,"Ġillus":4498,"itude":4499,"iÃ¨res":4500,"ĠgÃ©rer":4501,"illon":4502,"ĠrÃ©flex":4503,"oiles":4504,"Ġcependant":4505,"Ã´te":4506,"Ġtom":4507,"ĠLyon":4508,"ĠVidÃ©":4509,"Ġplainte":4510,"Ġsauf":4511,"Ġlimite":4512,"Ġracis":4513,"ĠPal":4514,"ows":4515,"Ġcourse":4516,"Ġ01":4517,"intes":4518,"Ġdavantage":4519,"erts":4520,"ĠPers":4521,"Ġnewsletter":4522,"EC":4523,"dia":4524,"gar":4525,"ĠTÃ©lÃ©":4526,"Ġfamilles":4527,"ĠarrÃª":4528,"ĠrÃ©par":4529,"allation":4530,"Ġtravaille":4531,"talie":4532,"ĠPrÃ©sident":4533,"ĠpremiÃ¨res":4534,"74":4535,"Ġinformation":4536,"ĠMi":4537,"Ġperdu":4538,"ĠRencontre":4539,"Ġexper":4540,"oyage":4541,"agog":4542,"ague":4543,"Ġutilisateur":4544,"Ġtiss":4545,"Ġred":4546,"ĠentiÃ¨rement":4547,"ĠdÃ©couverte":4548,"Ġrig":4549,"AmÃ©rique":4550,"andic":4551,"OC":4552,"airement":4553,"Ġlaiss":4554,"SS":4555,"Ġcliquant":4556,"Ġavi":4557,"ĠQuel":4558,"Ã©riques":4559,"Ġlogement":4560,"ĠcomplÃ©ment":4561,"andis":4562,"Ġenseign":4563,"ĠFranÃ§ois":4564,"Ġtendance":4565,"ouer":4566,"ĠcoÃ»":4567,"Â²":4568,"imm":4569,"impression":4570,"QUE":4571,"ĠNouve":4572,"ĠTrans":4573,"Ġcre":4574,"Ġbonheur":4575,"Ġcoin":4576,"AF":4577,"actions":4578,"|--":4579,"ĠSignaler":4580,"rock":4581,"Ġtrou":4582,"Ġpouvons":4583,"empl":4584,"ĠToute":4585,"Ġverre":4586,"atur":4587,"09":4588,"EM":4589,"chÃ©e":4590,"Ġmaisons":4591,"ĠparamÃ¨tres":4592,"chat":4593,"indi":4594,"Ġrele":4595,"Ġspectacle":4596,"Ġvitesse":4597,".)":4598,"ĠOb":4599,"Â¨":4600,"alistes":4601,"vo":4602,"sidenti":4603,"Ġmondiale":4604,"Ġfera":4605,"illir":4606,"asi":4607,"veille":4608,"Esp":4609,"Ġcircul":4610,"rog":4611,"enc":4612,"ĠcompÃ©tences":4613,"oint":4614,"Ġfournir":4615,"Ġguide":4616,"Ġappro":4617,"Ġcib":4618,"Ġregarder":4619,"ĠintÃ©g":4620,"ĠSans":4621,"ĠÃ©mo":4622,"ĠrÃ©cupÃ©":4623,"Ġ2000":4624,"Ġstu":4625,"Ġpieds":4626,"Ã§ant":4627,"Ġmardi":4628,"ĠJourn":4629,"ms":4630,"DF":4631,"06":4632,"ĠPort":4633,"Ġobjectif":4634,"Ġfonctions":4635,"Ġclair":4636,"Ġhauteur":4637,"ĠtroisiÃ¨me":4638,"ĠrÃªve":4639,"Ġoptions":4640,"ĠprÃ©sentation":4641,"Ġplantes":4642,"Tous":4643,"vÃ©s":4644,"ĠrÃ©ception":4645,"Ġorgan":4646,"AB":4647,"Ġcondition":4648,"esses":4649,"Ġhabitants":4650,"Ġ46":4651,"Ġfournisse":4652,"registre":4653,"ĠPaul":4654,"ĠVille":4655,"gies":4656,"Ġint":4657,"usÃ©":4658,"ĠgoÃ»t":4659,"Ġartistes":4660,"Ġsuffis":4661,"ercice":4662,"Ġdeme":4663,"pren":4664,"Ġformes":4665,"angÃ©":4666,"Ġfruits":4667,"uisine":4668,"Ġmeilleures":4669,"Ġveuillez":4670,"och":4671,"iversaire":4672,"Ġair":4673,"Ġposer":4674,"Ġdirecteur":4675,"chiers":4676,"Ġdesc":4677,"Ġbru":4678,"tte":4679,"Ġacteurs":4680,"Ġcalme":4681,"Ġnord":4682,"ĠCal":4683,"roissant":4684,"Ġaugment":4685,"organisation":4686,"ĠVeuillez":4687,"ĠprotÃ©ger":4688,"ĠSec":4689,"ĠdÃ»":4690,"Ġchaud":4691,"ĠÃ©tudiants":4692,"itent":4693,"Ġeffets":4694,"itÃ©es":4695,"Ġdistance":4696,"Ġcaf":4697,"ark":4698,"Ġvilles":4699,"Ġconception":4700,"cherche":4701,"Ã©libat":4702,"auss":4703,"gements":4704,"rÃ©sentation":4705,"Â»,":4706,"Ġmaladie":4707,"Ġcourant":4708,"âĢĵ":4709,"tream":4710,"ĠPeu":4711,"ĠprivÃ©":4712,"ĠVoir":4713,"Ġbleu":4714,"Ġgross":4715,"ĠcÃ©lÃ¨bre":4716,"Ġfichiers":4717,"Ġrecue":4718,"Ġmachine":4719,"Ã©volution":4720,"line":4721,"Â®":4722,"ĠvoilÃł":4723,"Ġcrit":4724,"Comme":4725,"Ġcru":4726,"ĠSuisse":4727,"Ġtechnologie":4728,"ĠGen":4729,"Ġvend":4730,"tiennent":4731,"Ġlettre":4732,"Ġpolice":4733,"ĠSantÃ©":4734,"Ġvisage":4735,"ĠdÃ©fense":4736,"Ã©gal":4737,"ĠIN":4738,"obile":4739,"Ġsan":4740,"ĠRec":4741,"pre":4742,"aj":4743,"59":4744,"viennent":4745,"ĠDom":4746,"ĠChine":4747,"ustra":4748,"Ã©tude":4749,"Ġinvestis":4750,"Ġpouvait":4751,"Ġlocaux":4752,"Ġadress":4753,"42":4754,"truction":4755,"ĠmÃ¨tres":4756,"____":4757,"hÃ©r":4758,"Ġgarder":4759,"sieur":4760,"Ġexig":4761,"ilisation":4762,"Ġlutte":4763,"IA":4764,"rouvez":4765,"Ã©ducation":4766,"ctoire":4767,"ĠbÃ©nÃ©ficier":4768,"ĠBelgique":4769,"âĢī":4770,"ĠEl":4771,"ĠutilisÃ©s":4772,"72":4773,"Ġforums":4774,"ĠBlog":4775,"ĠrÃ©gime":4776,"Ġfoot":4777,"Ġ36":4778,"Ġvoici":4779,"aster":4780,"08":4781,"exc":4782,"Ġperd":4783,"Ġrecru":4784,"Ġhttps":4785,"Ġsoin":4786,"ĠcÃ©rÃ©":4787,"Ġchercher":4788,"Ġmicro":4789,"Ġul":4790,"rup":4791,"Ġfaite":4792,"Ġmini":4793,"ĠJac":4794,"Ġconsent":4795,"Ġindispens":4796,"ĠComp":4797,"Ġhyp":4798,"ĠbÃ©bÃ©":4799,"cepti":4800,"Ġpassion":4801,"ste":4802,"ĠMes":4803,"Ġtechnologies":4804,"Ġquit":4805,"ĠvÃ©gÃ©t":4806,"jectif":4807,"ick":4808,"uler":4809,"xes":4810,"ĠMichel":4811,"ĠprÃ©par":4812,"ĠrÃ©el":4813,"ĠDU":4814,"ĠNi":4815,"seurs":4816,"ĠmÃ©tal":4817,"ames":4818,"Ġchap":4819,"Ġchans":4820,"Ġfacil":4821,"Ġpuisse":4822,"reur":4823,"cipl":4824,"seille":4825,"ĠmÃ©decin":4826,"ports":4827,"ulle":4828,"gner":4829,"Ġmarch":4830,"ĠEN":4831,"ĠFond":4832,"Ġalbum":4833,"Ġbande":4834,"Ġpartenaire":4835,"Ġ2004":4836,"cal":4837,"ĠcrÃ©dit":4838,"oleil":4839,"stru":4840,"ores":4841,"rables":4842,"ĠidÃ©al":4843,"ĠtÃ©lÃ©ph":4844,"ca":4845,"Ġaffaires":4846,"ĠdÃ©co":4847,"ĠindÃ©pend":4848,"Ġpayer":4849,"ĠpossÃ¨de":4850,"OP":4851,"Ġ39":4852,"mÃ©s":4853,"Ġcadeau":4854,"asser":4855,"Ãītat":4856,"Ġsor":4857,"ĠprÃ©sents":4858,"Ġtap":4859,"Ġcroissance":4860,"ĠPhili":4861,"ĠfÃ©min":4862,"Ġcontinuant":4863,"Ġprivil":4864,"Ġconver":4865,"Ġeau":4866,"oitation":4867,"Ġrestaurant":4868,"TS":4869,"oubli":4870,"ĠConc":4871,"Ġmilliers":4872,"Ġpois":4873,"Ġbouton":4874,"Ġmises":4875,"Ġryth":4876,"ĠChrist":4877,"Ġjustice":4878,"Ġproches":4879,"chet":4880,"Ġfinalement":4881,"Ġaffir":4882,"Ġja":4883,"ĠActu":4884,"entiss":4885,"raine":4886,"43":4887,"liquÃ©":4888,"Ġmass":4889,"Ġto":4890,"Ġdemi":4891,"Ġamour":4892,"Ġpreuve":4893,"Ġvent":4894,"Ġpeuple":4895,"atÃ©gor":4896,"Ġenregistre":4897,"onnÃ©e":4898,"Ġtenir":4899,"ĠÃ©tablissements":4900,"Ġara":4901,"ciences":4902,"ĠSp":4903,"cienne":4904,"ingt":4905,"utÃ©":4906,"ĠvÃ©hicules":4907,"ĠÃ©vÃ©nements":4908,"Ġfaible":4909,"IV":4910,"Afrique":4911,"ura":4912,"opÃ©ration":4913,"Ġperdre":4914,"Ġphilosoph":4915,"Ġprincipe":4916,"41":4917,"Ġfaute":4918,"onique":4919,"Ġdig":4920,"liquez":4921,"Ġmunicip":4922,"Est":4923,"oublie":4924,"ĠOp":4925,"Ġamp":4926,"05":4927,"Ġhistorique":4928,"Ġbillet":4929,"Ġemploi":4930,"Ġaspect":4931,"onomie":4932,"ĠMonde":4933,"alerie":4934,"Ġfaits":4935,"Ġcos":4936,"ĠSociÃ©tÃ©":4937,"Ġpatrimoine":4938,"Ġait":4939,"02":4940,"lections":4941,"Ġfleurs":4942,"At":4943,"ĠÃ©quipes":4944,"Ġpublication":4945,"Ġoutil":4946,"Ġmam":4947,"fort":4948,"Elle":4949,"Ġpom":4950,"Ġjoue":4951,"Bien":4952,"ĠdÃ©coration":4953,"chives":4954,"aS":4955,"ĠcarriÃ¨re":4956,"tisme":4957,"iance":4958,"ĠapprÃ©ci":4959,"Ġcommunes":4960,"iritu":4961,"aw":4962,"Union":4963,"ĠliÃ©s":4964,"Ġentier":4965,"Ġapporter":4966,"Plus":4967,"ĠCG":4968,"vel":4969,"Ġinterdits":4970,"tements":4971,"times":4972,"ablissement":4973,"Ã©poque":4974,"Ġscolaire":4975,"cule":4976,"gÃ©n":4977,"run":4978,"ĠimmÃ©diatement":4979,"ĠOff":4980,"Ġagence":4981,"ĠPol":4982,"rÃ©t":4983,"Ġend":4984,"IG":4985,"atin":4986,"Ġperte":4987,"oncer":4988,"Ġdurable":4989,"ube":4990,"Ġriche":4991,"Ġfestival":4992,"Ġdevoir":4993,"Ġtenu":4994,"ĠdÃ©fini":4995,"IP":4996,"ĠcomplÃ©":4997,"lÃ©e":4998,"Ġendroit":4999,"ood":5000,"Ġquant":5001,"Ġvieux":5002,"Ġprati":5003,"ĠAir":5004,"Ġapprendre":5005,"Ġassociations":5006,"Ġinscription":5007,"Ġretrouv":5008,"Ġplage":5009,"ĠrÃ¨glement":5010,"ĠDÃ©couvrez":5011,"Cl":5012,"Ġvoire":5013,"ĠrÃ©duction":5014,"ĠCours":5015,"avis":5016,"Ġappareil":5017,"ĠcÃ©libat":5018,"andicap":5019,"ilan":5020,"Ġconscience":5021,"verse":5022,"ĠcomplÃ¨tement":5023,"Ġrecette":5024,"Ġconnexion":5025,"ĠpropriÃ©taire":5026,"'s":5027,"Ġheureux":5028,"Ġsom":5029,"ĠMÃ©":5030,"Ġmontrer":5031,"ĠChaque":5032,"ive":5033,"Ġurb":5034,"ĠĠĠĠĠĠĠĠ":5035,"Ġdiverses":5036,"Â´":5037,"univers":5038,"ĠmÃ©thode":5039,"dom":5040,"Ġmens":5041,"ĠVoici":5042,"Av":5043,"ortement":5044,"ĠCert":5045,"quette":5046,"Ġferme":5047,"cou":5048,"Ġriches":5049,"ĠintÃ©rieur":5050,"Ġsoumis":5051,"tellectu":5052,"ĠðŁ":5053,"fiÃ©e":5054,"ĠLouis":5055,"ÂĴ":5056,"Ġtableau":5057,"national":5058,"ĠmajoritÃ©":5059,"ends":5060,"rateur":5061,"ollar":5062,"ĠrÃ©volution":5063,"ĠLit":5064,"ĠSkyrock":5065,"Ġlignes":5066,"ip":5067,"itecture":5068,"Ġparticuliers":5069,"uelles":5070,"ĠsiÃ¨ge":5071,"ataire":5072,"Ġ--":5073,"ranger":5074,"roir":5075,"Ġtruc":5076,"Ġabord":5077,"ĠBas":5078,"ĠFil":5079,"rime":5080,"Ġfroid":5081,"Ġrenouv":5082,"accomp":5083,"old":5084,"main":5085,"Ġstatut":5086,"Ġnote":5087,"ĠcÃ©lÃ©":5088,"56":5089,"Ġrevient":5090,"Ġha":5091,"orisation":5092,"Ġvisites":5093,"ĠdÃ©sir":5094,"aimer":5095,"ĠPS":5096,"Ġlour":5097,"Ġabus":5098,"Ġbus":5099,"ĠdiffÃ©rence":5100,"ĠmÃ©r":5101,"Ġgagn":5102,"IER":5103,"Ġfonds":5104,"Ġvision":5105,"ĠmÃ©n":5106,"Ġconnaissances":5107,"areil":5108,"ossible":5109,"Ġdo":5110,"Ã©sie":5111,"Ġracistes":5112,"ĠII":5113,"Ġmarketing":5114,"ĠÃ©tab":5115,"Ġforces":5116,"73":5117,"ĠÃ©quip":5118,"ĠAli":5119,"ateau":5120,"ĠDES":5121,"ĠRes":5122,"Ġmoments":5123,"Ġfaisait":5124,"Ġjournal":5125,"Ġdimen":5126,"Ġfabrication":5127,"Ġaction":5128,"nez":5129,"Ġpourront":5130,"ĠBan":5131,"Ġdevis":5132,"71":5133,"ĠSch":5134,"dans":5135,"inscription":5136,"ricitÃ©":5137,"Ġrap":5138,"Ġsolid":5139,"Ġsyndic":5140,"ĠforcÃ©":5141,"ray":5142,"ĠdemandÃ©":5143,"ĠFre":5144,"Sau":5145,"Ġdoc":5146,"Ġpoly":5147,"Ġvien":5148,"Ġsuscepti":5149,"Ġdevenu":5150,"Ġrecherches":5151,"ung":5152,"Ġneuf":5153,"ĠsÃ©rieux":5154,"rÃ©al":5155,"ĠtÃ©moign":5156,"Ġchim":5157,"Ġpersonnage":5158,"Ġatti":5159,"ĠPC":5160,"ĠCent":5161,"Ġpierre":5162,"Ġtrib":5163,"ĠMÃ©t":5164,"Ġfabri":5165,"ĠCookies":5166,"ĠpÃ¢":5167,"gi":5168,"po":5169,"acte":5170,"ĠCependant":5171,"igue":5172,"Ġentendu":5173,"Ġorganisation":5174,"ĠfrÃ©qu":5175,"autant":5176,"ĠNouvelle":5177,"ologue":5178,"by":5179,"ĠImp":5180,"ĠTerre":5181,"quettes":5182,"Ġ300":5183,"ĠrÃ©servation":5184,"ĠÃ©lÃ©ment":5185,"lim":5186,"ĠsupÃ©rieur":5187,"ĠmÃ©tier":5188,"Ġconseill":5189,"Ġlux":5190,"Ġsignifie":5191,"Ġcontribu":5192,"Ã©nom":5193,"Aff":5194,"aitre":5195,"Alors":5196,"Ġsuivants":5197,"Ġsection":5198,"ĠspÃ©cifique":5199,"ĠprÃ©cÃ©dent":5200,"hÃ´tel":5201,"ĠFer":5202,"ĠCer":5203,"las":5204,"Ġprofonde":5205,"Ġaltern":5206,"Ġwith":5207,"mont":5208,"ĠutilisÃ©e":5209,"Ġconnecter":5210,"Ne":5211,"ĠRom":5212,"ĠÃ©cri":5213,"arn":5214,"ĠSÃ©n":5215,"ĠintÃ©rieure":5216,"ID":5217,"Nos":5218,"Ġbless":5219,"enseignement":5220,"ourir":5221,"ĠSy":5222,"azine":5223,"Ġminimum":5224,"Ġrasse":5225,"UN":5226,"Ġdehors":5227,"ĠAutres":5228,"Ġpron":5229,"Ġray":5230,"visor":5231,"France":5232,"ilis":5233,"Ġ150":5234,"riel":5235,"Ġconstr":5236,"Ġtandis":5237,"89":5238,"piration":5239,"Ġpassant":5240,"lit":5241,"Ġajouter":5242,"Ġprim":5243,"ĠpublicitÃ©":5244,"Ġfonctionne":5245,"ĠfenÃªtre":5246,"ĠAfrique":5247,"rÃ©h":5248,"entrer":5249,"Ġrecettes":5250,"ĠtÃ©lÃ©charger":5251,"Ġbiens":5252,"ĠprÃ©al":5253,"umÃ©":5254,"Ġproposons":5255,"Ġgenti":5256,"Ġpaix":5257,"ĠSoleil":5258,"Ġcommandes":5259,"Ġant":5260,"Ġobjectifs":5261,"ouf":5262,"gr":5263,"Ġachet":5264,"ĠquantitÃ©":5265,"Ġbeaux":5266,"ĠSam":5267,"ĠPuis":5268,"Ġoutre":5269,"mn":5270,"ĠVos":5271,"oiff":5272,"Ġhumaine":5273,"Ġobligatoire":5274,"pital":5275,"Ġ<":5276,"orie":5277,"Ġprincipal":5278,"Ġajou":5279,"Ġindic":5280,"Ag":5281,"ĠFemme":5282,"Ġventes":5283,"Ġveulent":5284,"Ġchin":5285,"ĠintÃ©ressant":5286,"ĠtÃ¢":5287,"ĠSte":5288,"ĠBra":5289,"Ġexplique":5290,"ira":5291,"veurs":5292,"Ã©conomie":5293,"ĠvÃ©rifier":5294,"Ġcorrectement":5295,"aScript":5296,"rid":5297,"Ġinjurieux":5298,"Ġï¿½":5299,"ĠWi":5300,"ortÃ©":5301,"alisÃ©":5302,"Ġstation":5303,"entissage":5304,"Inter":5305,"ectu":5306,"ĠfÃ©dÃ©":5307,"Ġplaces":5308,"ĠVis":5309,"ĠJoh":5310,"Ġrevenir":5311,"ussie":5312,"Ġbiblioth":5313,"Ġprises":5314,"miÃ¨re":5315,"ĠAnti":5316,"ĠMentions":5317,"indows":5318,"Ġpression":5319,"Ġtient":5320,"Ġappartement":5321,"atures":5322,"Ġlocal":5323,"ĠamÃ©ricain":5324,"gÃ©es":5325,"ibles":5326,"Ġregr":5327,"tile":5328,"Ġrendu":5329,"Is":5330,"ussions":5331,"ĠdÃ©ch":5332,"Ġarriver":5333,"Advisor":5334,"ĠrÃ©ponses":5335,"auff":5336,"Ġobserv":5337,"fiant":5338,"Ġouverte":5339,"ĠvÃ©ritÃ©":5340,"Ġnoter":5341,"Ġconfig":5342,"ĠFemmes":5343,"cid":5344,"Ġvoud":5345,"Ġroy":5346,"osph":5347,"tiens":5348,"ĠMode":5349,"arc":5350,"Ġzones":5351,"inÃ©e":5352,"Ġvisiter":5353,"ĠAnnonces":5354,"Ġperformances":5355,"bourg":5356,"ĠlÃ©gisl":5357,"Ġviens":5358,"arrivÃ©e":5359,"aye":5360,"ondes":5361,"urÃ©e":5362,"ĠCet":5363,"Ab":5364,"Ġ@":5365,"pAdvisor":5366,"ĠrÃ©sidence":5367,"olat":5368,"heureusement":5369,"ĠÃ©tude":5370,"Ġvoyages":5371,"ĠopÃ©ration":5372,"moins":5373,"uide":5374,"col":5375,"ĠdÃ©r":5376,"rine":5377,"Ġsimil":5378,"ĠLun":5379,"Ġapplications":5380,"Ġclassement":5381,"Ġintellectu":5382,"Ġprogrammes":5383,"Ġafric":5384,"Ġdomaines":5385,"ĠprÃ©paration":5386,"espÃ¨re":5387,"ĠcommencÃ©":5388,"veillance":5389,"oue":5390,"Ã©lect":5391,"rois":5392,"Ġabsolu":5393,"witter":5394,"ĠpÃ©dagog":5395,"lÃ©es":5396,"Ġentour":5397,"Ġcomporte":5398,"ataires":5399,"Ġital":5400,"oriz":5401,"Comment":5402,"br":5403,"Ġlait":5404,"treaming":5405,"pel":5406,"ĠdÃ©bat":5407,"oquer":5408,"Ġpharm":5409,"ĠRome":5410,"illa":5411,"Ġsuivante":5412,"^^":5413,"existence":5414,"ements":5415,"Ġcontient":5416,"ker":5417,"Ġdispositions":5418,"Ġaffich":5419,"Ġquasi":5420,"Ġbro":5421,"ĠmaÃ®tre":5422,"Ġvisiteurs":5423,"Ġcomportement":5424,"Ġvaut":5425,"formes":5426,"ortun":5427,"chÃ©es":5428,"gal":5429,"agent":5430,"Ġbac":5431,"MS":5432,"ĠcafÃ©":5433,"osÃ©":5434,"ĠstratÃ©gie":5435,"enregistre":5436,"tific":5437,"ĠSes":5438,"ĠMaroc":5439,"ĠdÃ©cl":5440,"ĠcritÃ¨res":5441,"Ġciel":5442,"ĠprÃ©parer":5443,">>":5444,"Ġdollar":5445,"Ġcuir":5446,"Ġplateforme":5447,"ĠespÃ©":5448,"Ġtarifs":5449,"delÃł":5450,"Ġvingt":5451,"Ġsupprimer":5452,"Ġcroire":5453,"ouche":5454,"ographique":5455,"ouvrir":5456,"04":5457,"ĠmÃ©tiers":5458,"aude":5459,"ĠCa":5460,"tons":5461,"Ġoublier":5462,"ĠbÃ¢timent":5463,"ĠcoÃ»t":5464,"03":5465,"Ġpanier":5466,"gues":5467,"avenir":5468,"Ġdon":5469,"Ġdestination":5470,"ĠeuropÃ©en":5471,"ĠaccÃ©der":5472,"Ġsentiment":5473,"ascript":5474,"installation":5475,"ĠBrÃ©sil":5476,"ĠÐ":5477,"cemment":5478,"Ġroi":5479,"Ġcritique":5480,"ĠChamp":5481,"Ġbre":5482,"ĠBal":5483,"ĠCre":5484,"ĠpersonnalitÃ©":5485,"Ġtre":5486,"Ġauto":5487,"ĠClub":5488,"tuces":5489,"ventions":5490,"ĠcaractÃ©ristiques":5491,"ĠintÃ©gra":5492,"ayer":5493,"aluation":5494,"Ġdonnent":5495,"Ġresse":5496,"Ġart":5497,"ĠAuteur":5498,"Ġfron":5499,"Ġconcert":5500,"ĠthÃ©Ã¢tre":5501,"go":5502,"olas":5503,"ĠMaur":5504,"Ġpouvant":5505,"Ġpau":5506,"ĠPourquoi":5507,"ĠJapon":5508,"Ġparticipation":5509,"Ġtenue":5510,"olique":5511,"Ġlance":5512,"Ġusage":5513,"Ġcontexte":5514,"Ġoccasion":5515,"Ġvoi":5516,"LA":5517,"Ġanciens":5518,"tise":5519,"ĠCuisine":5520,"DÃ©":5521,"Ġenj":5522,"itaine":5523,"bi":5524,"Ġautomatiquement":5525,"Ġcollabor":5526,"!!!!":5527,"Ġlicence":5528,"Ġoptim":5529,"96":5530,"ĠIns":5531,"Commenter":5532,"Ġterrasse":5533,"box":5534,"oe":5535,"Ġexam":5536,"Ġperformance":5537,"Ġconseiller":5538,"Ġfinal":5539,"Ġscientifique":5540,"Â».":5541,"ĠVie":5542,"rÃ©n":5543,"Ġsept":5544,"ola":5545,"ĠÃ¢ge":5546,"tivitÃ©s":5547,"Ġcoupe":5548,"ĠtempÃ©rature":5549,"pas":5550,"luence":5551,"ĠHistoire":5552,"Ġboul":5553,"Ġsociales":5554,"Ġbudget":5555,"avid":5556,"huile":5557,"ĠJavaScript":5558,"assurance":5559,"Ġcomptes":5560,"Ġmilliards":5561,"ĠprÃ©vu":5562,"ĠGroupe":5563,"Ġimmobili":5564,"ĠplanÃ¨tes":5565,"ĠÃ©nergÃ©":5566,"ĠAs":5567,"Ġdeg":5568,"mais":5569,"Ġrecev":5570,"Ġsug":5571,"ĠAnim":5572,"honneur":5573,"ĠfrÃ¨re":5574,"ostic":5575,"riez":5576,"obilier":5577,"Ġchaleur":5578,"oft":5579,"ĠHer":5580,"Ġkil":5581,"esti":5582,"Ġhom":5583,"Ġchant":5584,"right":5585,"Ġoptimis":5586,"veaux":5587,"Ġobjet":5588,"Ġchien":5589,"Ġjapon":5590,"ĠDel":5591,"St":5592,"Ġsecret":5593,"ĠPhot":5594,"Ġlac":5595,"onction":5596,"aments":5597,"Ġtelles":5598,"Ġimmobilier":5599,"Ġmotiv":5600,"----------------":5601,"glise":5602,"ilibre":5603,"ĠChris":5604,"Ġfranco":5605,"Ġgal":5606,"ĠrÃ©glement":5607,"ĠsituÃ©e":5608,"Ġfutur":5609,"Utilis":5610,"ĠTur":5611,"ĠministÃ¨re":5612,"Ġlogiciels":5613,"ĠSE":5614,"07":5615,"opposition":5616,"Ġ55":5617,"initi":5618,"Ġachat":5619,"Ġattendre":5620,"imag":5621,"inaires":5622,"Ã©roport":5623,"ĠcontrÃ´ler":5624,"Entre":5625,"ĠGal":5626,"RAN":5627,"isez":5628,"Ġcapable":5629,"Lire":5630,"Ġ43":5631,"ĠdÃ©cide":5632,"Ġcourrier":5633,"Ġpartenariat":5634,"Ġdynamique":5635,"Ġmand":5636,"Voici":5637,"Ġassociation":5638,"Ġ120":5639,"Ġbloc":5640,"Ġpous":5641,"atoires":5642,"dra":5643,"ĠXV":5644,"Ġtherm":5645,"Ġchasse":5646,"Ġspiritu":5647,"ĠÃ©nergie":5648,"Ġtar":5649,"Ġplat":5650,"Ġrenseignements":5651,"ĠCN":5652,"uner":5653,"ĠprocÃ©dure":5654,"uni":5655,"agÃ©e":5656,"duis":5657,"exposition":5658,"Ġ$":5659,"fidentialitÃ©":5660,"Ġvraie":5661,"Ġtraite":5662,"Ġjuridique":5663,"Ġvirtu":5664,"roph":5665,"UniversitÃ©":5666,"ussion":5667,"ĠchaÃ®ne":5668,"Ġconcurr":5669,"ĠEnfin":5670,"Ã¼":5671,"ĠFab":5672,"Ġserez":5673,"venant":5674,"Ġexposition":5675,"Ġconvient":5676,"tienne":5677,"Ġ34":5678,"Ġviennent":5679,"meub":5680,"Ġhumain":5681,"Ġaurez":5682,"Ġespaces":5683,"vaux":5684,"ouvre":5685,"Ġrejoindre":5686,"Ġconsentement":5687,"lexe":5688,"Ġessayer":5689,"ĠÃ©coles":5690,"ĠorganisÃ©":5691,"ĠHar":5692,"Ġviolence":5693,"assin":5694,"Ġ::":5695,"Ġcapitale":5696,"seau":5697,"ester":5698,"emple":5699,"ieur":5700,"Ġconcept":5701,"ĠMars":5702,"Ġmarchand":5703,"ĠPos":5704,"ĠRo":5705,"ĠCommission":5706,"Ġmine":5707,"Ġtenter":5708,"ket":5709,"Ġfini":5710,"ĠgÃ©nÃ©":5711,"ĠPeti":5712,"Ġnotes":5713,"Ġfas":5714,"ĠforcÃ©ment":5715,"Ġfinancement":5716,"Ġjeunesse":5717,"Ġhandicap":5718,"ycl":5719,"ĠphÃ©nom":5720,"Ġconvain":5721,"Ġstru":5722,"Ã´mes":5723,"ault":5724,"Ġsignes":5725,"Ã©sus":5726,"Ġdiscu":5727,"ĠÃ©volu":5728,"PE":5729,"Ã©curitÃ©":5730,"âĢľ":5731,"ĠmÃ©lange":5732,"ĠBour":5733,"ministrateur":5734,"audi":5735,"IF":5736,"Ġradio":5737,"aign":5738,"contres":5739,"Ġinstant":5740,"Ġsmart":5741,"ĠscÃ©n":5742,"her":5743,"uellement":5744,"Ġdois":5745,"istant":5746,"range":5747,"Ġrand":5748,"Ġquotidienne":5749,"laire":5750,"ĠmoitiÃ©":5751,"Ġlis":5752,"ĠprÃ©sentes":5753,"ĠmatÃ©riaux":5754,"Ã©matiques":5755,"Ġrembour":5756,"Ġesprit":5757,"ĠproposÃ©":5758,"ancien":5759,"Ġgour":5760,"ĠmarchÃ©s":5761,"agers":5762,"Ġtranqu":5763,"Ġlettres":5764,"Ġboule":5765,"Ġvoyageurs":5766,"Ġaccessible":5767,"Ġmondial":5768,"agnes":5769,"ĠMor":5770,"igneur":5771,"Ġappelle":5772,"Ġfoi":5773,"ĠStra":5774,"ommage":5775,"ĠautoritÃ©s":5776,"Ġservir":5777,"ĠsupÃ©rieure":5778,"istique":5779,"ĠrÃ©vÃ©":5780,"Ã¨che":5781,"Ġtabl":5782,"Ġ05":5783,"ĠMod":5784,"ĠprivilÃ©g":5785,"Ġaffec":5786,"ĠhÃ´tel":5787,"ks":5788,"Ġpourraient":5789,"ĠLond":5790,"avons":5791,"Ġcondam":5792,"Ġfinale":5793,"ĠÃ©levÃ©":5794,"Ġlesquels":5795,"Ġdevait":5796,"Ġcath":5797,"ĠMontrÃ©al":5798,"Ju":5799,"ĠtÃ©lÃ©charge":5800,"ection":5801,"Ġnaturelle":5802,"Ġdiscours":5803,"Ġadultes":5804,"ĠThÃ©":5805,"ĠÃİ":5806,"orge":5807,"ĠpÃ©t":5808,"ĠAvant":5809,"ĠMartin":5810,"Ġvigueur":5811,"Ġrefus":5812,"naire":5813,"Ġï":5814,"ancÃ©e":5815,"Ġsavez":5816,"chir":5817,"Ġmodification":5818,"ĠGrande":5819,"Ġchanti":5820,"ami":5821,"ĠTrÃ¨s":5822,"chez":5823,"Ġdemandes":5824,"Ġattra":5825,"pris":5826,"Cont":5827,"ĠDeux":5828,"Ġprincipalement":5829,"ĠopÃ©rations":5830,"Ġmodes":5831,"moi":5832,"Ġmauvais":5833,"Ġdimin":5834,"Ġtor":5835,"Ġfid":5836,"iennes":5837,"merce":5838,"Ġsorties":5839,"Ġtoutefois":5840,"ĠsÃ©par":5841,"ĠdÃ©marche":5842,"Ġbouche":5843,"ĠmÃ©tÃ©":5844,"Ã©cran":5845,"Ġdiver":5846,"ĠprÃ©sentÃ©":5847,"Ġresponsables":5848,"Ġ33":5849,"itations":5850,"liss":5851,"2014":5852,"clam":5853,"MA":5854,"ĠconsidÃ©rer":5855,"ĠCON":5856,"bilitÃ©s":5857,"Ġpla":5858,"Ġtotale":5859,"Ġsciences":5860,"Ã©velopp":5861,"urgence":5862,"Ġporno":5863,"Ġhier":5864,"ĠdÃ©couvre":5865,"matiques":5866,"ĠboÃ®te":5867,"amÃ©liorer":5868,"artiste":5869,"quin":5870,"ario":5871,"Ġ32":5872,"retagne":5873,"Ġcharme":5874,"Ġrespecter":5875,"Ġrelatives":5876,"Ġmoindre":5877,"rimÃ©":5878,"Ġgratuites":5879,"aider":5880,"ĠannoncÃ©":5881,"Ġexac":5882,"industrie":5883,"Ġcertainement":5884,"Ġimpossible":5885,"ĠmusÃ©e":5886,"Ġpouss":5887,"100":5888,"ĠToul":5889,"Ġdiz":5890,"ĠCong":5891,"Ġconstruire":5892,"Ãªcher":5893,"Ġmultiples":5894,"oyez":5895,"2017":5896,"can":5897,"Ġvictimes":5898,"ĠchrÃ©":5899,"rient":5900,"Ġterr":5901,"Ġpros":5902,"ĠprÃ©cÃ©d":5903,"ĠLang":5904,"OST":5905,"ĠrÃ¨gle":5906,"Ġmul":5907,"dou":5908,"ĠMai":5909,"TM":5910,"ĠÃ®":5911,"ĠGestion":5912,"arer":5913,"Ġlois":5914,"Ġapplic":5915,"lation":5916,"Ġ49":5917,"Ġgrosse":5918,"ave":5919,"objectif":5920,"ĠpÃ©":5921,"ĠpensÃ©e":5922,"Ġfan":5923,"Ġexercer":5924,"ĠdÃ©lais":5925,"rateurs":5926,"Ann":5927,"MENT":5928,"Ġby":5929,"Ġappareils":5930,"ĩa":5931,"iditÃ©":5932,"anmoins":5933,"IRE":5934,"ĠAujourd":5935,"occup":5936,"enses":5937,"Ġremise":5938,"ĠSA":5939,"Ġreb":5940,"assade":5941,"illant":5942,"oÃ¹":5943,"ĠMÃªme":5944,"Ġ->":5945,"bert":5946,"Ġprofesseur":5947,"ĠclÃ©":5948,"Th":5949,"ĠOui":5950,"ĠrÃ©cent":5951,"Ġball":5952,"oz":5953,"nÃ©s":5954,"ĠÃ©tape":5955,"ĠdifficultÃ©s":5956,"Ġpromotion":5957,"Ġimpres":5958,"autom":5959,"rab":5960,"ĠÃ©videmment":5961,"dir":5962,"rac":5963,"ĠvÃªtements":5964,"ley":5965,"ĠconfÃ©rence":5966,"ty":5967,"entique":5968,"outer":5969,"Ġcoups":5970,"Ġsources":5971,"ĠpÃªche":5972,"olume":5973,"ĠVol":5974,"Ġfit":5975,"rÃ´le":5976,"euros":5977,"Ġplomb":5978,"Ġvivant":5979,"don":5980,"Ġdistribution":5981,"Ġ58":5982,"Ġceci":5983,"roniques":5984,"Ġtarif":5985,"Pl":5986,"affaires":5987,"Ġdoig":5988,"ĠEs":5989,"oeu":5990,"oton":5991,"Ġpopulaire":5992,"ĠrÃ©sistance":5993,"Sauter":5994,"ĠrÃ©flexion":5995,"adore":5996,"Ġbis":5997,"tenance":5998,"Ġsusp":5999,"ĠHe":6000,"Ġmani":6001,"ĠclÃ©s":6002,"ĠÃ©lÃ©g":6003,"Ġcroy":6004,"Ġmention":6005,"ull":6006,"Ã©rapie":6007,"auf":6008,"Ret":6009,"diction":6010,"pÃ©dition":6011,"Ġvictoire":6012,"aites":6013,"ĠprÃ©cise":6014,"Ġcommuniquer":6015,"ney":6016,"Ġchaussures":6017,"ĠJeu":6018,"Ġmu":6019,"ĠrÃ©cemment":6020,"Ġcompati":6021,"Ġ78":6022,"Ġcircons":6023,"igh":6024,"anitÃ©":6025,"Ġradi":6026,"Ġprincipaux":6027,"Ġmig":6028,"Pas":6029,"ĠÃ©m":6030,"extÃ©rieur":6031,"Ġniveaux":6032,"ĠCulture":6033,"Ġcollaboration":6034,"ettre":6035,"usage":6036,"ĠArt":6037,"Ġjoie":6038,"ĠJÃ©sus":6039,"Ġmorce":6040,"Ġavantages":6041,"Ġjoueur":6042,"Ġrang":6043,"Ġconstitue":6044,"gÃ©rie":6045,"Ġapporte":6046,"ĠAv":6047,"ĠrÃ©gions":6048,"Ġintellig":6049,"Ã®le":6050,"ĠarriÃ¨re":6051,"ĠextrÃªme":6052,"Ġordre":6053,"Ġdange":6054,"Ġlar":6055,"annonce":6056,"Ġutile":6057,"ĠextÃ©rieure":6058,"Ġrose":6059,"iteurs":6060,"Ġsurprise":6061,"Ġformations":6062,"CA":6063,"Ã©rir":6064,"ĠgÃ©nÃ©ration":6065,"ĠrÃ©ussite":6066,"agnement":6067,"Ġserr":6068,"uste":6069,"ĠMain":6070,"inique":6071,"ĠsupplÃ©mentaires":6072,"Ġoccup":6073,"erni":6074,"ĠAlex":6075,"Ġfrag":6076,"ĠtÃ´t":6077,"Ġsecondes":6078,"Ġmerveille":6079,"Quand":6080,"Ġinvite":6081,"agerie":6082,"........":6083,"Ã©tablissement":6084,"Ġtranspar":6085,"gy":6086,"riculture":6087,"ĠsalariÃ©s":6088,"han":6089,"Ġlancer":6090,"ĠdÃ©claration":6091,"Gr":6092,"TER":6093,"Ġcommercial":6094,"Ġdistribu":6095,"tissement":6096,"Ġfiche":6097,"ĠÃ©cole":6098,"Ġlargement":6099,"ĠSem":6100,"Ġbanque":6101,"Ġconcent":6102,"umer":6103,"ĠdÃ©fi":6104,"apes":6105,"âĢ¦)":6106,"Oui":6107,"Ġtrom":6108,"Ġfaudra":6109,"ĠPhilippe":6110,"pit":6111,"Art":6112,"tail":6113,"ĠCE":6114,"ĠÃ©cran":6115,"Ġpatients":6116,"Ġscientifiques":6117,"ĠIm":6118,"ĠdegrÃ©s":6119,"Ġinclus":6120,"entretien":6121,"Ġhas":6122,"QU":6123,"Ġfili":6124,"ete":6125,"ĠSciences":6126,"ĠRouge":6127,"ĠrÃ©union":6128,"administrateur":6129,"agu":6130,"onte":6131,"diques":6132,"option":6133,"ĠPo":6134,"ĠLog":6135,"yright":6136,"ĠMilieu":6137,"Ġfleur":6138,"ĠHy":6139,"ĠÃ©conomiques":6140,"ĠCi":6141,"ĠcatÃ©gories":6142,"Ġnat":6143,"osse":6144,"SI":6145,"ogne":6146,"Ġfavor":6147,"olie":6148,"Ġsuivantes":6149,"Ġpuisqu":6150,"Ġhe":6151,"Ġretraite":6152,"cte":6153,"ĠenvoyÃ©":6154,"aissent":6155,"fiÃ©s":6156,"Ġcapital":6157,"affich":6158,"Ġvoulu":6159,"Ġcivi":6160,"Ġsinon":6161,"Ġaccepter":6162,"Ġinscrit":6163,"VD":6164,"Ġutilisez":6165,"Ġrobe":6166,"Ġchocolat":6167,"ĠÃ©poque":6168,"ju":6169,"Ġrapports":6170,"ĠRussie":6171,"ĠintÃ©rÃªt":6172,"Ġmentionn":6173,"Ġremont":6174,"Ġrenouvel":6175,"RES":6176,"Ġmusul":6177,"ĠconnectÃ©":6178,"Ġmilitaire":6179,"ĠRÃ©gion":6180,"allÃ©":6181,"Ġmenu":6182,"64":6183,"ĠWindows":6184,"Ġseuls":6185,"ĠconformÃ©ment":6186,"nel":6187,"ĠadaptÃ©":6188,"Ġkilom":6189,"mine":6190,"ĠPRO":6191,"SP":6192,"Ġprobablement":6193,"ld":6194,"istan":6195,"rologie":6196,"ĠSelon":6197,"Ġru":6198,"exploitation":6199,"Ġgri":6200,"itons":6201,"ory":6202,"ĠCD":6203,"Ġincont":6204,"Ġfu":6205,"Ġcarb":6206,"Ã©rant":6207,"Ġbasse":6208,"Ġ^^":6209,"Ġauteur":6210,"endrier":6211,"ubliÃ©":6212,"Ġfournit":6213,"crivez":6214,"Ġlende":6215,"Ġblanche":6216,"Ġlogique":6217,"Ġfondament":6218,"Ġcadeaux":6219,"hiver":6220,"Ġsynth":6221,"ĠUtilis":6222,"ĠentrÃ©e":6223,"Ġtests":6224,"ĠindiquÃ©":6225,"ĠBern":6226,"Åĵuvre":6227,"Ġeffectuer":6228,"Ġalli":6229,"nique":6230,"anisme":6231,"ĠlÃ¢":6232,"ings":6233,"Ġvouloir":6234,"Ġarts":6235,"hor":6236,"TC":6237,"inscrire":6238,"Ġcentrale":6239,"ĠÃ©crire":6240,"Ġsuit":6241,"ĠÃ©quipements":6242,"Ġlimites":6243,"Ġ2003":6244,"Ġchangements":6245,"Ġracont":6246,"ĠpublicitÃ©s":6247,"sidentielle":6248,"ĠInst":6249,"stitut":6250,"ĠMarseille":6251,"ourt":6252,"union":6253,"ĠJohn":6254,"fer":6255,"Ġcommerciale":6256,"ĠPic":6257,"Ġancienne":6258,"Ã§a":6259,"ĠmÃ©thodes":6260,"ĠprÃ©fÃ©":6261,"licitÃ©":6262,"Ġsimples":6263,"Ġmontagne":6264,"intÃ©rÃªts":6265,"ga":6266,"ĠrÃ©flÃ©":6267,"orth":6268,"ĠAnd":6269,"uves":6270,"ĠportÃ©e":6271,"ĠÃ©tablissement":6272,"ĠYork":6273,"mbler":6274,"Ġfrom":6275,"ĠLorsque":6276,"utation":6277,"Ġpartis":6278,"Ġamoureux":6279,"ĠCanal":6280,"riers":6281,"Ġintro":6282,"obtenir":6283,"Ġanniversaire":6284,"igu":6285,"Ġpertin":6286,"crits":6287,"Ġhumains":6288,"df":6289,"Ġcommer":6290,"oni":6291,"ĠEmp":6292,"Ġrevue":6293,"Ġamen":6294,"absence":6295,"Ġdemain":6296,"intÃ©gra":6297,"Ġlyc":6298,"ĠÃ©lections":6299,"ssemblÃ©e":6300,"Que":6301,"olf":6302,"ĠâĢĺ":6303,"ĠfinanciÃ¨re":6304,"Ġdiffusion":6305,"Ġgris":6306,"Ġpersonnelle":6307,"Accueil":6308,"Ġrevi":6309,"Cet":6310,"ĠDroit":6311,"lÃ¨ve":6312,"ey":6313,"ĠDonc":6314,"Ġabsolument":6315,"Ġdollars":6316,"Ġparole":6317,"Ġ37":6318,"onnÃ©s":6319,"Ġconsultation":6320,"vet":6321,"Ġconduite":6322,"Ġsuppression":6323,"62":6324,"uxelles":6325,"Ġsourire":6326,"Ġserveur":6327,"Ġprestations":6328,"ĠcomposÃ©":6329,"leine":6330,"Ã©criture":6331,"Ġ44":6332,"ancier":6333,"agnol":6334,"Ġsituations":6335,"ĠCou":6336,"Ġ65":6337,"Ġhypoth":6338,"Ġaudio":6339,"&#":6340,"ĠLÃ©g":6341,"Ġbatterie":6342,"Ren":6343,"Ġnoms":6344,"Ġ..":6345,"ĠEm":6346,"cool":6347,"Ġveille":6348,"Ġlendemain":6349,"ĠCel":6350,"avier":6351,"ĠServices":6352,"ĠLu":6353,"ulaires":6354,"ĠSeu":6355,"Ġsert":6356,"Ġchiffres":6357,"ĠInf":6358,"estation":6359,"Ġnoire":6360,"Ġincroy":6361,"Ġ2002":6362,"Ġcircu":6363,"Ġloisirs":6364,"ĠdÃ©bar":6365,"ĠHD":6366,"ĠappelÃ©":6367,"Ġrythme":6368,"olesc":6369,"Ġvote":6370,"ĠDim":6371,"Ġartistique":6372,"Sujet":6373,"Ã´tel":6374,"Date":6375,"Ġsoyez":6376,"ĠconsÃ©quences":6377,"Ġtitres":6378,"ĠRE":6379,"Ġmauvaise":6380,"ĠSuper":6381,"ibilitÃ©":6382,"view":6383,"agence":6384,"Ġmeur":6385,"Ġphase":6386,",...":6387,"Ã©vÃ©":6388,"Ġatteint":6389,"Ġfigure":6390,"ĠtrÃ©s":6391,"Ġdemeure":6392,"ĠPAR":6393,"Ġdisposez":6394,"tels":6395,"ĠDavid":6396,"attend":6397,"ĠcompÃ©t":6398,"ĠexpÃ©riences":6399,"rs":6400,"Ġanalyse":6401,"Ġcontinuez":6402,"ĠconÃ§":6403,"ĠFestival":6404,"identitÃ©":6405,"Ġactiver":6406,"Ġfaciliter":6407,"ĠMinistre":6408,"Ġmatern":6409,"ositÃ©":6410,"ĠPat":6411,"Ġrent":6412,"Ġplastique":6413,"illages":6414,"Ġoriginal":6415,"the":6416,"ĠSol":6417,"Ġexcellent":6418,"igner":6419,"eni":6420,"ĠvÃ©lo":6421,"ĠLo":6422,"cm":6423,"ĠdÃ©clarÃ©":6424,"mÃ©es":6425,"faire":6426,"Ġparfum":6427,"Ġrectification":6428,"ĠEuropÃ©":6429,"Ġtab":6430,"Ġrubrique":6431,"ĠamÃ©ricaine":6432,"85":6433,"ĠAllemagne":6434,"2016":6435,"ĠRel":6436,"Ġsolaire":6437,"uant":6438,"avance":6439,"Du":6440,"arr":6441,"ĠRecherche":6442,"Ġenvis":6443,"PrÃ©":6444,"oble":6445,"own":6446,"ĠpropriÃ©taires":6447,"Ġofficiel":6448,"conte":6449,"Ġvar":6450,"ĠÃ©trangÃ¨res":6451,"Ġfaux":6452,"ĠRoyaume":6453,"63":6454,"umul":6455,"ĠexpÃ©riment":6456,"environ":6457,"Ġeaux":6458,"adis":6459,"ĠspÃ©cifiques":6460,"pin":6461,"ĠextÃ©rieur":6462,"andre":6463,"assurer":6464,"ĠdÃ©diÃ©":6465,"ĠmaÃ®trise":6466,"Ġaband":6467,"Ġcouverture":6468,"ierres":6469,"ITE":6470,"ĠThi":6471,"Pe":6472,"Ġtente":6473,"ĠinfÃ©ri":6474,"ĠHaut":6475,"ĠDem":6476,"ĠspÃ©cialiste":6477,"ĠtÃ©lÃ©vision":6478,"ĠYou":6479,"Ġfar":6480,"ĠJacques":6481,"OB":6482,"Ġsympath":6483,"Ġinscrire":6484,"67":6485,"ĠcÃ´tÃ©s":6486,"ST":6487,"agir":6488,"Ġcomplexe":6489,"Ġoeuvre":6490,"limin":6491,"ystÃ¨me":6492,"ĠCoupe":6493,"Ġlecteurs":6494,"ott":6495,"Ġpont":6496,"Ġportable":6497,"Ġprincipale":6498,"ĠprÃ©alable":6499,"Ġateliers":6500,"Ġrembours":6501,"Ġdates":6502,"lon":6503,"Ġreconnu":6504,"angement":6505,"Ġcollectif":6506,"ĠBro":6507,"Ġatten":6508,"Ġjudi":6509,"Ġportant":6510,"Ġdevra":6511,"Ġchauffage":6512,"raÃ«l":6513,"ribuer":6514,"ĠsÃ©ance":6515,"ĠdÃ©voil":6516,"iz":6517,"ĠdÃ©tr":6518,"ĠdÃ©te":6519,"Ġapproche":6520,"ĠforÃªt":6521,"plus":6522,"ieuse":6523,"Ġpire":6524,"assÃ©":6525,"Ġcandidats":6526,"ĠLondres":6527,"phones":6528,"Ã¨ques":6529,"Ġdisting":6530,"ĠgoÃ»":6531,"Ġallait":6532,"UL":6533,"Ġtombe":6534,"ja":6535,"Ã´ne":6536,"Ġlongueur":6537,"Per":6538,"Ġinvent":6539,"Ġrequ":6540,"Ġerreur":6541,"ĠlÃ©gumes":6542,"Mal":6543,"Ġargent":6544,"ĠdÃ©pÃ´t":6545,"ĠBri":6546,"ardins":6547,"rÃ©taire":6548,"Ġpossibles":6549,"Ġachats":6550,"midi":6551,"!!!":6552,"ival":6553,"UT":6554,"Ġparfaite":6555,"UM":6556,"Ġdiagn":6557,"ĠInternational":6558,"Ġ59":6559,"Ġcheval":6560,"ĠlittÃ©rature":6561,"Ġinves":6562,"ĠrÃ©paration":6563,"ĠcÃ¢":6564,"ĠHaute":6565,"Ġmys":6566,"Ġfame":6567,"Ġmorts":6568,"ĠTru":6569,"Ġoption":6570,"fiez":6571,"ĠintÃ©grÃ©":6572,"allÃ©e":6573,"Ġlangues":6574,"Ġcellu":6575,"ater":6576,"ĠindÃ©pendant":6577,"aval":6578,"dier":6579,"Ġbancaire":6580,"Ã©tranger":6581,"Ġtraiter":6582,"Ġastuces":6583,"Ġdispositif":6584,"Tr":6585,"ĠItalie":6586,"ĠÃ©nergÃ©tique":6587,"quie":6588,"ductions":6589,"Ġscul":6590,"avascript":6591,"eth":6592,"Ġsit":6593,"ĠDÃ©f":6594,"âĦ":6595,"accepte":6596,"armÃ©e":6597,"ĠrÃ©pÃ©":6598,"rob":6599,"ĠTrier":6600,"Ġposi":6601,"Ġindispensable":6602,"Ġjoin":6603,"ĠintÃ©rÃªts":6604,"rire":6605,"Ġsucre":6606,"Ġfinir":6607,"ĠRÃ©fÃ©rence":6608,"ĠmÃ©dicaments":6609,"Ġsalles":6610,"Ġpubliques":6611,"olation":6612,"ĠbÃ©n":6613,"Ġgraphique":6614,"Ġmassi":6615,"ĠPetit":6616,"raide":6617,"ĠpossibilitÃ©s":6618,"Ġcoqu":6619,"Ġdiscipl":6620,"ĠInc":6621,"OSTFR":6622,"Ġinnov":6623,"Ġ06":6624,"Ġroul":6625,"Ġpersonnels":6626,"Ġpauvre":6627,"ottes":6628,"ye":6629,"Ġpeint":6630,"ĠproposÃ©s":6631,"ĠMusÃ©e":6632,"ĠrÃ©ellement":6633,"joux":6634,"Ġtres":6635,"Ġjolie":6636,"BE":6637,"fa":6638,"Ġconsiste":6639,"Ġinqui":6640,"umeur":6641,"utri":6642,"orges":6643,"Ġobten":6644,"Ġnaviguer":6645,"Ġallemand":6646,"Ġinstallation":6647,"Ġlecteur":6648,"Ġcherchez":6649,"Ġparticipants":6650,"Ġdouleur":6651,"Ġnet":6652,"visions":6653,"ĠÃ©vÃ©nement":6654,"ĠMy":6655,"Ġencour":6656,"ĠBois":6657,"Ġprofit":6658,"ĠAccessoires":6659,"ĠCrÃ©ation":6660,"otes":6661,"Inform":6662,"dement":6663,"ĠprÃ©fÃ©rences":6664,"Ã©dÃ©ration":6665,"Ġdanse":6666,"Ġentrer":6667,"CO":6668,"dation":6669,"ĠcrÃ©e":6670,"ouch":6671,"oriques":6672,"Ġmeuble":6673,"Ġfeuilles":6674,"Ġfortement":6675,"ĠStar":6676,"ĠAR":6677,"ĠactivÃ©":6678,"Ġrenv":6679,"Ġsond":6680,"vence":6681,"Ã©dition":6682,"Ġtourisme":6683,"Ġremettre":6684,"Ġrappelle":6685,"tig":6686,"ĠMA":6687,"Ġvoitures":6688,"acie":6689,"Ġlocale":6690,"Ser":6691,"ĠMusique":6692,"ĠdÃ©je":6693,"ultÃ©":6694,"Ġultra":6695,"urier":6696,"Ġauth":6697,"ĠLoire":6698,"ĠcrÃ¨me":6699,"meture":6700,"Ġrare":6701,"Ġfallait":6702,"Fran":6703,"cun":6704,"ya":6705,"Ġlocales":6706,"ĠJour":6707,"rome":6708,"ĠSalle":6709,"ĠchargÃ©":6710,"activer":6711,"Ġnormes":6712,"tionnel":6713,"ĠÃ©mis":6714,"investis":6715,"aurais":6716,"ĠmÃ©d":6717,"Ġmagazine":6718,"PA":6719,"Ġsatisfait":6720,"ĠGl":6721,"ĠLab":6722,"ĠhÃ©bergÃ©":6723,"Ġperspec":6724,"ĠrÃ©daction":6725,"Ġvolume":6726,"Ġprintemps":6727,"Ġtomber":6728,"illÃ©e":6729,"vin":6730,"ĠquÃªte":6731,"Ġentend":6732,"Ġplong":6733,"ĠÃ©toiles":6734,"Ġcourage":6735,"idÃ©":6736,"CC":6737,"adeleine":6738,"Ġprison":6739,"Ġsommet":6740,"Ġcitoyens":6741,"trait":6742,"mise":6743,"ight":6744,"Ġtradition":6745,"Ġgrave":6746,"Ġos":6747,"estes":6748,"nie":6749,"ĠGÃ©":6750,"Ġdiab":6751,"Ġdoux":6752,"importance":6753,"Ġrestent":6754,"Ġmille":6755,"onyme":6756,"ĠfÃªtes":6757,"Ġmyth":6758,"Ġatteindre":6759,"adÃ©m":6760,"ĠNicolas":6761,"ĠHol":6762,"Ġenjeux":6763,"Ġviolation":6764,"Ġrac":6765,"Ġlongues":6766,"expression":6767,"azz":6768,"ieu":6769,"ĠAk":6770,"ires":6771,"Ok":6772,"Ġcombin":6773,"Ġdisp":6774,"Ġactuelle":6775,"ĠJardin":6776,"Ġtoit":6777,"ications":6778,"ĠGrÃ¢ce":6779,"ĠdÃ©finir":6780,"Ġremis":6781,"ĠVidÃ©o":6782,"Ġallons":6783,"Ġcapac":6784,"ĠprÃ©nom":6785,"ĠChambre":6786,"ĠreprÃ©sentant":6787,"Ġagents":6788,"ĠnouveautÃ©s":6789,"ĠDou":6790,"Ġmeubles":6791,"gnÃ©":6792,"IX":6793,"ĠBur":6794,"essionn":6795,"mpe":6796,"Ġappli":6797,"Afin":6798,"dy":6799,"TT":6800,"Ġbais":6801,"Ġdiam":6802,"Ġjuge":6803,"ĠnÃ©goci":6804,"Ġarr":6805,"cha":6806,"âĦ¢":6807,"Ġreproduction":6808,"Ġnul":6809,"Ġ68":6810,"ĠarrivÃ©e":6811,"ĠconÃ§u":6812,"Ġengage":6813,"Ġbu":6814,"rin":6815,"ualitÃ©":6816,"Ġsaur":6817,"Ġjur":6818,"Ang":6819,"gard":6820,"ĠParti":6821,"ji":6822,"Ġfol":6823,"Ġpleinement":6824,"Ġpointe":6825,"ĠdÃ©rou":6826,"ĠlÃ©gÃ¨re":6827,"Ġraconte":6828,"rap":6829,"Ġconfortable":6830,"orient":6831,"ĠNovembre":6832,"Ġprincipales":6833,"ĠGÃ©nÃ©ral":6834,"feu":6835,"Ġposter":6836,"Ġbrut":6837,"Ġtalent":6838,"ĠÃ©volution":6839,"neur":6840,"Te":6841,"ias":6842,"Ġbateau":6843,"Ġcomplex":6844,"long":6845,"ĠDÃ©velopp":6846,"Ġenvers":6847,"ĠdÃ©cÃ¨s":6848,"estaur":6849,"arre":6850,"ĠrÃ©alise":6851,"Ġdanger":6852,"Ã¨nement":6853,"Ġ400":6854,"ĠdÃ©liv":6855,"entraide":6856,"Ġbaisse":6857,"Ġportrait":6858,"Ġ1978":6859,"Ġmasse":6860,"Ġattentes":6861,"57":6862,"ĠAnnuaire":6863,"ald":6864,"commun":6865,"Ġ02":6866,"Ġscience":6867,"ĠClient":6868,"enregistrement":6869,"Ġfus":6870,"AGE":6871,"Ã©cution":6872,"ĠfranÃ§aises":6873,"unal":6874,"Ġinterne":6875,"Ġpatient":6876,"Ġps":6877,"ĠLin":6878,"oct":6879,"Ġ64":6880,"Ġcolis":6881,"ĠÃ©pre":6882,"Ġimpos":6883,"Ġrecours":6884,"ĠTripAdvisor":6885,"Ġdure":6886,"Toutes":6887,"ĠPL":6888,"Ã©tudes":6889,"61":6890,"ĠDate":6891,"occu":6892,"Ġer":6893,"Ġcorre":6894,"Comm":6895,"ĠliÃ©es":6896,"Ġcoff":6897,"ĠcÃ©libataires":6898,"ĠSim":6899,"apt":6900,"ii":6901,"opyright":6902,"Ġchaude":6903,"ĠTunis":6904,"Ġ1000":6905,"Ġacqu":6906,"ĠcomprÃ©h":6907,"Ġtrouvent":6908,"ĠBruxelles":6909,"Ġhos":6910,"entraÃ®":6911,"ĠMonsieur":6912,"Ġhistoires":6913,"53":6914,"alon":6915,"Ġreprendre":6916,"lige":6917,"Cons":6918,"ĠLux":6919,"ĠaimÃ©":6920,"ĠBat":6921,"91":6922,"ĠÃ©changes":6923,"Ġsty":6924,"Ġimportants":6925,"ĠspÃ©cial":6926,"Ġill":6927,"ĠâĨ":6928,"Ġpure":6929,"mÃªmes":6930,"my":6931,"Ã©taires":6932,"Ġneige":6933,"ĠMath":6934,"Ġtitu":6935,"iness":6936,"Ġboite":6937,"ĠParc":6938,"Ġenne":6939,"ĠinterprÃ©":6940,"ĠCharles":6941,"anes":6942,"ĠProduits":6943,"oxy":6944,"attention":6945,"tionnelle":6946,"rÃ©g":6947,"Ġcliquer":6948,"Ġcivile":6949,"ĠCÃ´te":6950,"Ġquitter":6951,"ĠlancÃ©":6952,"CrÃ©":6953,"ĠqualitÃ©s":6954,"For":6955,"Ã¨nements":6956,"acÃ©":6957,"Ġfact":6958,"III":6959,"Ils":6960,"Ġretard":6961,"Ġlesquelles":6962,"OD":6963,"VF":6964,"Ġtac":6965,"ĠarrivÃ©":6966,"Ġaccueil":6967,"Ġprofessionnelles":6968,"Ġmachines":6969,"Ġmagasins":6970,"ĠÃ¨":6971,"ĠCroissant":6972,"Ġpren":6973,"VOSTFR":6974,"titution":6975,"Ġmurs":6976,"Ġexperts":6977,"ĠSÃ©nÃ©gal":6978,"FF":6979,"ĠaÃ©ri":6980,"ĠPant":6981,"gon":6982,"ĠLim":6983,"isÃ©e":6984,"oyen":6985,"Ġrevanche":6986,"dients":6987,"DÃ©p":6988,"Tu":6989,"ĠSan":6990,"Ġassi":6991,"Ġindique":6992,"gin":6993,"Ġretourner":6994,"ĠrentrÃ©e":6995,"engage":6996,"Ãªtres":6997,"ĠdÃ©couvert":6998,"ĠgarÃ§on":6999,"Ġnormal":7000,"Ġcommission":7001,"inv":7002,"Ġcoiff":7003,"ĠeffectuÃ©":7004,"Ġvain":7005,"Ġfixe":7006,"Ġjaune":7007,"pare":7008,"Ġsaint":7009,"ĠCamp":7010,"Ġestim":7011,"Ġclairement":7012,"DÃ©couvrez":7013,"Ġrat":7014,"intervention":7015,"apprentissage":7016,"ĠLune":7017,"Jean":7018,"eue":7019,"Ġdescription":7020,"Ġlogo":7021,"lez":7022,"excell":7023,"Ġaventure":7024,"Ġfranch":7025,"Ġ08":7026,"Ġmonter":7027,"ponible":7028,"Ġjet":7029,"apÃ©":7030,"ĠprÃ©fÃ©rÃ©":7031,"ĠLong":7032,"Ġappropri":7033,"ĠdisponibilitÃ©":7034,"No":7035,"Ġcycle":7036,"Off":7037,"Ġstage":7038,"Ġ09":7039,"oratoire":7040,"ARD":7041,"Ġcentaines":7042,"dien":7043,"Ġaimer":7044,"Ġhumaines":7045,"Ġcabinet":7046,"ĠAP":7047,"ĠlÃ©giti":7048,"ĠprÃ©sid":7049,"Ġexclusi":7050,"Ġ2001":7051,"oudre":7052,"criptions":7053,"ĠCertains":7054,"irl":7055,"tiÃ¨res":7056,"Ġentretien":7057,"Ġchiffre":7058,"instant":7059,"Ġdent":7060,"Histoire":7061,"Ġimportantes":7062,"Ġdessous":7063,"ĠchÃ¢teau":7064,"ĠÃ©lectriques":7065,"ĠdestinÃ©es":7066,"Ġsoulig":7067,"dule":7068,"Ġvenu":7069,"Ġpel":7070,"52":7071,"Ġconvivi":7072,"Ġluxe":7073,"ĠXX":7074,"ĠEd":7075,"Ġsubst":7076,"Ġchinois":7077,"Ġvaste":7078,"Ġracc":7079,"Ġrevenus":7080,"ĠBle":7081,"Ãªtement":7082,"ĠfrÃ©quent":7083,"Ġexter":7084,"Ġsauve":7085,"Ġfati":7086,"issante":7087,"Ġconserver":7088,"onnier":7089,"ĠAffaires":7090,"ĀĀ":7091,"ĠcoordonnÃ©es":7092,"ĠmatiÃ¨res":7093,"Ġaccueille":7094,"ĠDVD":7095,"ĠPrÃ©sentation":7096,"ĠTable":7097,"Ġutiles":7098,"Ġactes":7099,"ĠcapacitÃ©s":7100,"stÃ©":7101,"mie":7102,"ĠContacter":7103,"Pierre":7104,"envoi":7105,"Ġrecons":7106,"Ġvul":7107,"ĠcompÃ©tition":7108,"Bas":7109,"mestre":7110,"Ġchaleure":7111,"Ġexactement":7112,"ĠNoir":7113,"ĠSou":7114,"ĠdÃ©lic":7115,"Ġlogements":7116,"Ġformule":7117,"Ġjui":7118,"inion":7119,"ĠÃ©chapp":7120,"ĠST":7121,"Ġ56":7122,"Ġerreurs":7123,"ene":7124,"Ġ42":7125,"Ġsympa":7126,"Ġlangage":7127,"ĠDocu":7128,"bit":7129,"Ã©le":7130,"Ġchamps":7131,"Ġaspects":7132,"51":7133,"Ġmouvements":7134,"Ġtissu":7135,"prendre":7136,"Ġcesse":7137,"Ġartiste":7138,"Aujourd":7139,"ĠpÃ©r":7140,"ams":7141,"Ġconfront":7142,"Ġsuperbe":7143,"orÃ©e":7144,"oigne":7145,"ĠÅĵuvres":7146,"affaire":7147,"Ġremboursement":7148,"ĠindÃ©si":7149,"gl":7150,"Ġtaxes":7151,"92":7152,"Ġcontrats":7153,"Ġfootball":7154,"ica":7155,"Ġimpressionn":7156,"ĠGuerre":7157,"DÃ©croissant":7158,"Ġu":7159,"ĠrÃ©alisÃ©e":7160,"Ġlin":7161,"cÃ©lÃ©":7162,"ĠÃ©change":7163,"ĠNature":7164,"ĠDÃ©m":7165,"Ġsoutenir":7166,"annage":7167,"arme":7168,"Ġavions":7169,"ĠNet":7170,"Association":7171,"rick":7172,"ricol":7173,"Ġatelier":7174,"Ġtut":7175,"Ġsignal":7176,"exception":7177,"ducteur":7178,"Ġterres":7179,"Ġmaman":7180,"ĠkilomÃ¨tres":7181,"Ġfacture":7182,"ĠsÃ©lectionner":7183,"ĠthÃ¨mes":7184,"ĠFormation":7185,"Ġsentir":7186,"Ġfaveur":7187,"autÃ©s":7188,"Ġbilan":7189,"Lorsque":7190,"ial":7191,"Ġremarqu":7192,"na":7193,"Ġcorrespondant":7194,"ĠEss":7195,"ĠnumÃ©riques":7196,"Ġparent":7197,"ĠlibertÃ©s":7198,"ĠConsul":7199,"ĠNor":7200,"atÃ©gories":7201,"hÃ©tique":7202,"ĠdifficultÃ©":7203,"ĠÃĩa":7204,"appelle":7205,"Ġengagement":7206,"ĠApple":7207,"Ġtraduction":7208,"ags":7209,"Ġstandard":7210,"Ġinconn":7211,"Ã´ts":7212,"Ġrass":7213,"Ġaffaire":7214,"ĠÃ©tapes":7215,"lÃ©s":7216,"Ġdisque":7217,"Ġsession":7218,"ctes":7219,"lerie":7220,"ource":7221,"Ġpluie":7222,"Ġrevoir":7223,"Ġparking":7224,"Uni":7225,"Ġaccompagner":7226,"OG":7227,"ĠdÃ©veloppÃ©":7228,"oÃ¯":7229,"ĠPresse":7230,"Ġpersonnaliser":7231,"exercice":7232,"Tri":7233,"ĠCroissantDÃ©croissant":7234,"Ġbains":7235,"ĠTwitter":7236,"Archives":7237,"nÃ©e":7238,"Ġrecommande":7239,"Ġcatalogue":7240,"Ġconduit":7241,"ĠSous":7242,"ĠPra":7243,"Ġcombien":7244,"ĠcitÃ©":7245,"arrÃª":7246,"ĠconnaÃ®t":7247,"Vos":7248,"Ġefforts":7249,"Ġleader":7250,"jug":7251,"Ġfront":7252,"ĠFi":7253,"Ġprennent":7254,"Ġagric":7255,"PL":7256,"ĠHen":7257,"ĠToulouse":7258,"Ġnettoyage":7259,"Ġrevenu":7260,"ĠLigue":7261,"Ġfrance":7262,"Ġbarre":7263,"Ġhasard":7264,"ench":7265,"droid":7266,"Ġchanson":7267,"Ġvoulait":7268,"aure":7269,"Ġanne":7270,"Phone":7271,"Ġench":7272,"ĠMarc":7273,"ĠEspagne":7274,"venus":7275,"ĠlittÃ©":7276,"Ġvisu":7277,"dus":7278,"ĠspÃ©ciale":7279,"Ġouvrage":7280,"SA":7281,"ĠparticuliÃ¨re":7282,"ĠbrÃ»":7283,"Ġhi":7284,"Ġapport":7285,"ĠBre":7286,"ĠAnne":7287,"Ġsignature":7288,"Ġstric":7289,"conque":7290,"Ġmontage":7291,"ĠNom":7292,"hier":7293,"ĠlÃ©gÃ¨rement":7294,"Ġpotentiel":7295,"ho":7296,"Ġmaladies":7297,"erv":7298,"ĠMic":7299,"ĠDr":7300,"Ġauxqu":7301,"Ġactuel":7302,"Tra":7303,"Ġbases":7304,"ĠvÃ©cu":7305,"ype":7306,"xi":7307,"ĠchangÃ©":7308,"Ġ:)":7309,"Ġopportun":7310,"Ġquin":7311,"Ġdirigeants":7312,"Ġcanadi":7313,"ĠdonnÃ©e":7314,"Ġmath":7315,"ĠDon":7316,"Ġtester":7317,"ĠCliquez":7318,"ĠclientÃ¨le":7319,"VE":7320,"dies":7321,"ĠPeut":7322,"gramme":7323,"sous":7324,"Ġcollections":7325,"info":7326,"Ġrestaurants":7327,"raire":7328,"ĠRÃ¨g":7329,"Ġrecueilli":7330,"Ġmeme":7331,"Ã©rapeu":7332,"dence":7333,"ĠprÃ©t":7334,"Ġaccident":7335,"Ġhausse":7336,"tige":7337,"ĠspÃ©cialisÃ©":7338,"adio":7339,"aventure":7340,"Ġressenti":7341,"ĠÃ©duc":7342,"Ġ47":7343,"Quel":7344,"Veuillez":7345,"ĠGre":7346,"ouvoir":7347,"rante":7348,"Ġ88":7349,"Ġprostitu":7350,"ĠCin":7351,"outez":7352,"Ġartisan":7353,"],":7354,"Ġcourriel":7355,"Ġprogressi":7356,"Ġavoc":7357,"Ġportail":7358,"ĠdiffÃ©rent":7359,"ĠsÃ©ries":7360,"citÃ©":7361,"tifiÃ©":7362,"cevoir":7363,"Chaque":7364,"Ã´les":7365,"ÌĢ":7366,"ĠJuli":7367,"Ouest":7368,"Ġcollecte":7369,"Ġimprim":7370,"Ġclimat":7371,"effectu":7372,"ctor":7373,"Ġculturel":7374,"trÃ©":7375,"ĠlaissÃ©":7376,"ala":7377,"ativitÃ©":7378,"Ã¢me":7379,"ĠRobert":7380,"gre":7381,"ĠsupplÃ©mentaire":7382,"Ġvoulais":7383,"ĠMme":7384,"atisation":7385,"quisition":7386,"ĠspÃ©cialisÃ©e":7387,"ĠrÃ©cupÃ©rer":7388,"atte":7389,"ĠcrÃ©ations":7390,"ĠenquÃªte":7391,"sert":7392,"Ġ54":7393,"telier":7394,"Ġ99":7395,"icacitÃ©":7396,"Ãªches":7397,"ĠThiÃ¨s":7398,"tension":7399,"uclÃ©":7400,"Ġstreaming":7401,"ĠfaÃ§":7402,"Ġcur":7403,"ĠHor":7404,"Ġmissions":7405,"Ġtransmis":7406,"ĠinvitÃ©s":7407,"olue":7408,"FA":7409,"agram":7410,"Ġdiscussion":7411,"ricole":7412,"ope":7413,"ĠCL":7414,"htt":7415,"Ġmusici":7416,"IB":7417,"Ġtransfert":7418,"Ġdouche":7419,"Afficher":7420,"onnant":7421,"Ġsold":7422,"ĠBretagne":7423,"Ġoffrent":7424,"ĠDesign":7425,"Ġpensez":7426,"ĠamÃ©n":7427,"Ġparticipe":7428,"Ġmou":7429,"ĠlÃ©ger":7430,"veiller":7431,"Ġpublicitaires":7432,"Allemagne":7433,"Ġcommerciales":7434,"tration":7435,"tifier":7436,"ĠmÃ©dicament":7437,"Ġtrouvez":7438,"oriser":7439,"iliser":7440,"Ġbiais":7441,"ĠrÃ©novation":7442,"ĠdestinÃ©":7443,"Ġvendeur":7444,"ĠdÃ©ri":7445,"Ã©ti":7446,"asses":7447,"ĠBay":7448,"Ġsurveillance":7449,"udence":7450,"ĠMax":7451,"dite":7452,"Ġtourner":7453,"ĠMacron":7454,"Ġsauver":7455,"ĠPan":7456,"ĠCarte":7457,"Ġprincipes":7458,"ĠNorm":7459,"Ġamie":7460,"Ġfaibles":7461,"ĠrÃªves":7462,"ĠcamÃ©ra":7463,"ĠâĨĴ":7464,"ĠcomitÃ©":7465,"ĠmÃ©decine":7466,"Ġfamiliale":7467,"ĠprÃ©s":7468,"Ġproduire":7469,"Ġpuissant":7470,"Ġrestauration":7471,"ĠNationale":7472,"ĠdÃ©cisions":7473,"effet":7474,"Ġmanipul":7475,"Ġrares":7476,"bec":7477,"Ġ95":7478,"ouvertes":7479,"ĠplaÃ®t":7480,"ordinaire":7481,"Ġsoud":7482,"viÃ¨re":7483,"ĠprÃ©vues":7484,"ita":7485,"ĠrÃ©pert":7486,"cession":7487,"Ġaler":7488,"Ġaqu":7489,"Ġstress":7490,"Ġfrapp":7491,"ĠPDF":7492,"Ġ250":7493,"Ġarmes":7494,"CS":7495,"Ġaver":7496,"Ġign":7497,"Ġcandidat":7498,"Ġguit":7499,"Ġoriginale":7500,"ĠportÃ©":7501,"Ġvictime":7502,"Ġretirer":7503,"ĠChauss":7504,"ĠContact":7505,"enser":7506,"Ġfranc":7507,"ĠDra":7508,"Ġchute":7509,"vue":7510,"Ġcontent":7511,"ĠDÃ©fense":7512,"ĠrÃ©cit":7513,"ĠRencontres":7514,"ĠDani":7515,"Ġscolaires":7516,"Enfin":7517,"Ġtrafic":7518,"ĠLuc":7519,"Ġski":7520,"Ġexigences":7521,"ĠAN":7522,"Ġcontemporain":7523,"ham":7524,"Ã¨vres":7525,"ĠÃ©ti":7526,"ĠVI":7527,"uile":7528,"Ġfinanciers":7529,"Ġcirculation":7530,"Åĵil":7531,"Ġeffectivement":7532,"Ġvali":7533,"ĠhÃ©ros":7534,"habitude":7535,"ĠLES":7536,"Ġaccro":7537,"enfants":7538,"Ġchacune":7539,"sÃ©":7540,"sier":7541,"Ġambiance":7542,"Ġ69":7543,"Ġtirer":7544,"Ġallant":7545,"ĠdÃ©tente":7546,"Ġconduire":7547,"uÃ©":7548,"aies":7549,"âĢĿ,":7550,"ĠNational":7551,"ĠCanalBlog":7552,"Ġsch":7553,"Ġsing":7554,"Ġsouvenirs":7555,"Ġboute":7556,"ĠHum":7557,"ĠdÃ©finition":7558,"Ġly":7559,"ĠSÃ©":7560,"ĠInformatique":7561,"manuel":7562,"Ġ>>>":7563,"Ġchir":7564,"ĠprÃ©cision":7565,"usses":7566,"ressions":7567,"Ġpur":7568,"cure":7569,"Ġouvre":7570,"Ġtoil":7571,"ĠSex":7572,"ĠcompÃ©ti":7573,"liste":7574,"Ġtapis":7575,"Ġpatron":7576,"Ġfinancier":7577,"Ġmonu":7578,"Ġbrit":7579,"Ġsecteurs":7580,"Ġjudici":7581,"tures":7582,"ĠMex":7583,"nam":7584,"Ġsexy":7585,"ĠSar":7586,"Ġintern":7587,"Ġ03":7588,"ĠadaptÃ©e":7589,"Ġenvir":7590,"asseur":7591,"Ġconnue":7592,"Ġconsid":7593,"82":7594,"ĠBir":7595,"onnez":7596,"Ġclassiques":7597,"ml":7598,"Ġregret":7599,"Ġarchite":7600,"ĠPart":7601,"Liv":7602,"ĠdÃ©chets":7603,"ban":7604,"ling":7605,"Ġfournisseur":7606,"Ġreligion":7607,"astr":7608,"lesse":7609,"Ġsaisir":7610,"Ġsel":7611,"Ġmaintenir":7612,"Ġmoto":7613,"Ġpollu":7614,"Ġassurance":7615,"cient":7616,"ouÃ©":7617,"Ġtoile":7618,"Actu":7619,"ionnat":7620,"Ġouvrir":7621,"leurs":7622,"amen":7623,"arrive":7624,"za":7625,"iger":7626,"Ã©coute":7627,"Ob":7628,"Ġdialogue":7629,"Ġcirconst":7630,"ĠrÃ©fÃ©r":7631,"inage":7632,"ĠrÃ©clam":7633,"AssemblÃ©e":7634,"audience":7635,"ĠPartie":7636,"ĠdÃ©jeuner":7637,"espoir":7638,"ĠfraÃ®":7639,"Ġcalendrier":7640,"Ġremplir":7641,"Ġ04":7642,"entin":7643,"Ġcharges":7644,"Ġarbres":7645,"ĠvariÃ©tÃ©":7646,"Ã¨vre":7647,"Ġconsultez":7648,"sif":7649,"Ġamateurs":7650,"Ġq":7651,"Ġentendre":7652,"Ġvise":7653,"Ġcoton":7654,"CP":7655,"Ġproposition":7656,"ĠBlack":7657,"ĠSainte":7658,"ĠAuteurDate":7659,"Ġblan":7660,"ĠïĢ":7661,"Ġintitu":7662,"omÃ©t":7663,"Ġpain":7664,"Ġsinc":7665,"deurs":7666,"Ġrire":7667,"ovi":7668,"ĠreÃ§oit":7669,"Ġfournisseurs":7670,"Ġcourses":7671,"Ġattendant":7672,"Ġconform":7673,"ĠPap":7674,"ĠLaurent":7675,"Ġuns":7676,"ĠCher":7677,"Ġdevi":7678,"ettez":7679,"Index":7680,"ĠspÃ©cialement":7681,"Ġjournaliste":7682,"Ġreconnaissance":7683,"Ġappartient":7684,"Ġcontenant":7685,"Ġorganisations":7686,"Ã©change":7687,"ĠrÃ©servÃ©":7688,"Ġlaissez":7689,"Ġalimentaire":7690,"ĠArts":7691,"Ġstructures":7692,"aliers":7693,"Ġtransformation":7694,"ĠprÃ©vue":7695,"ĠPrin":7696,"joint":7697,"ĠLÃ©":7698,"ĠIP":7699,"serie":7700,"Ġasse":7701,"ctionnaire":7702,"Ġchiens":7703,"ĠSU":7704,"Ġclasses":7705,"dium":7706,"ĠÃ©chÃ©":7707,"Ġproposent":7708,"enis":7709,"Ġauquel":7710,"ĠïĢĨ":7711,"ĠAll":7712,"Ġher":7713,"ĠprÃ©vention":7714,"ĠBlanc":7715,"Sa":7716,"Ġrues":7717,"Ġobtenu":7718,"INE":7719,"ineux":7720,"Ġ....":7721,"tible":7722,"ĠenregistrÃ©":7723,"Ġbref":7724,"Ġfun":7725,"leterre":7726,"ĠrÃ©comp":7727,"ĠBÃ©":7728,"ĠTop":7729,"Ġaccueillir":7730,"ĠCP":7731,"Ġglis":7732,"ĠVan":7733,"ĠBanque":7734,"Ġdistin":7735,"ĠdÃ©couvrez":7736,"ĠCeci":7737,"ĠrÃ©forme":7738,"grÃ©dients":7739,"ĠSpÃ©ci":7740,"cin":7741,"orld":7742,"ĠMari":7743,"ĠlycÃ©e":7744,"ĠAst":7745,"ĠPop":7746,"cts":7747,"Col":7748,"omas":7749,"exper":7750,"Ġdat":7751,"ĠindÃ©sirables":7752,"Es":7753,"acements":7754,"assage":7755,"MI":7756,"Ġattribu":7757,"Ġinfos":7758,"Ġclic":7759,"Ġdessins":7760,"ĠPourtant":7761,"ercices":7762,"Ġcoc":7763,"ĠDÃ©cembre":7764,"ĠCO":7765,"ĠEnf":7766,"ĠnommÃ©":7767,"Ġhyper":7768,"tenue":7769,"Ġmidi":7770,"vies":7771,"Ã©viter":7772,"oquÃ©":7773,"vÃ©es":7774,"Ġremplacer":7775,"version":7776,"Ġappris":7777,"Ġbruit":7778,"Ġsurf":7779,"abonnement":7780,"ĠpÃ¢te":7781,"rants":7782,"ĠDan":7783,"Ġenseignants":7784,"Ã©tiques":7785,"agÃ©s":7786,"ĠAutre":7787,"Ġdirecte":7788,"Ġsitue":7789,"Ġactif":7790,"Ġ600":7791,"CT":7792,"Ġhuit":7793,"work":7794,"ĠCR":7795,"Ġgarage":7796,"Toute":7797,"rastru":7798,"jection":7799,"Ġdiffus":7800,"Ġsimilaires":7801,"ureaux":7802,"neu":7803,"ĠKar":7804,"universitÃ©":7805,"ora":7806,"ĠCOM":7807,"Ġral":7808,"mique":7809,"Ã©cuti":7810,"Ġphotographie":7811,"Ġmagie":7812,"ĠMay":7813,"Ġdiscuter":7814,"ĠprivÃ©s":7815,"ĠNÃ©":7816,"Ġregarde":7817,"Ġexige":7818,"appro":7819,"Ġauront":7820,"ĠidÃ©ale":7821,"Ġpouvoirs":7822,"rise":7823,"ĠBonne":7824,"ĠAmb":7825,"ĠspÃ©cialistes":7826,"Ġterritori":7827,"Ġgay":7828,"Ġong":7829,"iterran":7830,"meuble":7831,"Ġrusse":7832,"Ġseraient":7833,"ĠSÃ©curitÃ©":7834,"Ġmaroc":7835,"Ġlibres":7836,"tionnelles":7837,"Ġ57":7838,"Ġcopie":7839,"Ġtranquille":7840,"Ġling":7841,"uter":7842,"Ġmanquer":7843,"Ġdossiers":7844,"Ġavent":7845,"Ġretrait":7846,"ĠPremier":7847,"ciers":7848,"Ġsentiments":7849,"Ġtroubles":7850,"allen":7851,"Sh":7852,"istres":7853,"Ġoccident":7854,"Ġpublier":7855,"amedi":7856,"monie":7857,"Ġvisant":7858,"dÃ©e":7859,"Avant":7860,"atelier":7861,"ĠÃİles":7862,"ĠAide":7863,"ĠinstallÃ©":7864,"ries":7865,"Ã©taire":7866,"Ġchantier":7867,"ĠDÃ©partement":7868,"Ġmaire":7869,"ouli":7870,"ĠextrÃªmement":7871,"ĠVente":7872,"Ġjustement":7873,"Ġculturelle":7874,"hÃ©ber":7875,"Ġsable":7876,"ĠprÃªts":7877,"ĠprivilÃ©gi":7878,"tins":7879,"ĠcollÃ¨ge":7880,"Ġnov":7881,"ĠIII":7882,"ĠdÃ©sirez":7883,"Ġmang":7884,"ĠLiber":7885,"Ġfermeture":7886,"rices":7887,"ĠDoc":7888,"ĠbibliothÃ¨que":7889,"GE":7890,"mosph":7891,"Ġfourni":7892,"allage":7893,"Ġmener":7894,"ILL":7895,"Ġdevenue":7896,"Ġ85":7897,"Ġsouci":7898,"Ġadresses":7899,"ĠmÃ¢":7900,"Ġfonctionner":7901,"Ġchercheurs":7902,"ĠSeigneur":7903,"ĠrÃ©di":7904,"ĠdiversitÃ©":7905,"ruption":7906,"oliques":7907,"alie":7908,"chons":7909,"onnements":7910,"ĠconsÃ©quence":7911,"ĠÃ©clai":7912,"ĠDirection":7913,"Ġtableaux":7914,"rÃ¨te":7915,"ĠGab":7916,"Ġpotenti":7917,"Ġsusceptibles":7918,"ĠrencontrÃ©":7919,"Ġfans":7920,"alimentation":7921,"ĠmÃ©tÃ©o":7922,"ĠhÃ©s":7923,"Ġpein":7924,"enda":7925,"Ġmotifs":7926,"Ġentrepren":7927,"Ġpaysage":7928,"ĠFA":7929,"Ġgourmand":7930,"ĠUSB":7931,"Ġmilitaires":7932,"anneau":7933,"Ġenfance":7934,"su":7935,"Ġphilosophie":7936,"ĠSyn":7937,"tugal":7938,"rable":7939,"licite":7940,"eld":7941,"Ġ140":7942,"ophe":7943,"hÃ´ne":7944,"Ġincontourn":7945,"ĠLeur":7946,"ayant":7947,"yp":7948,"Ġ180":7949,"ĠCA":7950,"aujourd":7951,"ĠPersonn":7952,"Ã©ral":7953,"Cal":7954,"Ġsilence":7955,"Ġaper":7956,"Ġconstruit":7957,"ĠpÃ©tro":7958,"Ã¡":7959,"LC":7960,"Ġintellectuelle":7961,"fl":7962,"Ġcens":7963,"Madeleine":7964,"rite":7965,"Ġcontactez":7966,"ĠComitÃ©":7967,"ĠsignÃ©":7968,"ĠsÃ©n":7969,"Ġstade":7970,"oureux":7971,"ĠPublic":7972,"Ġoise":7973,"ĠfrÃ¨res":7974,"km":7975,"Ġadulte":7976,"aph":7977,"ĠconsÃ©quent":7978,"Ġrond":7979,"Ġ00":7980,"incent":7981,"Ġcart":7982,"Ġexpliquer":7983,"ĠingÃ©n":7984,"dÃ©c":7985,"Ġmac":7986,"Ġcentral":7987,"Ġfantas":7988,"ĠÃ©lab":7989,"tiste":7990,"Ġdites":7991,"Ġvoil":7992,"Ġsurvi":7993,"ĠreprÃ©sentation":7994,"ĠÃ©limin":7995,"mant":7996,"ĠbÃ©t":7997,"Ġpermanent":7998,"Ġcancer":7999,"Ġoct":8000,"ĠachetÃ©":8001,"Ġemm":8002,"Ġtransports":8003,"ologne":8004,"ĠAccueil":8005,"Ġsimpli":8006,"ĠPhoto":8007,"Me":8008,"ko":8009,"ĠAcc":8010,"ena":8011,"Ġcache":8012,"ĠrÃ©elle":8013,"ym":8014,"ĠDirecteur":8015,"93":8016,"ĠJours":8017,"ĠVers":8018,"apport":8019,"oeuvre":8020,"ilib":8021,"azon":8022,"Ġoppos":8023,"Ġconfiguration":8024,"ĠBref":8025,"Ġmalheureusement":8026,"ĠsÃ©ances":8027,"Ġtempor":8028,"Ġjardins":8029,"ĠParce":8030,".-":8031,"ĠSw":8032,"ĠdegrÃ©":8033,"atie":8034,"cy":8035,"Ġtoucher":8036,"ĠnÃ©cessitÃ©":8037,"Ġinternationales":8038,"rase":8039,"ĠrÃ©action":8040,"ĠAndroid":8041,"Ġidentifier":8042,"teries":8043,"ties":8044,"ĠEnse":8045,"Ġpsy":8046,"Ġchefs":8047,"ĠLum":8048,"ĠrÃ©ussir":8049,"vice":8050,"Ġconsommateurs":8051,"Ġhonn":8052,"Ġperfe":8053,"::::":8054,"Ġdiagnostic":8055,"aisons":8056,"amin":8057,"ĠmÃ©decins":8058,"Ġmorte":8059,"ĠÂ°":8060,"Ġrappeler":8061,"cieuse":8062,"ĠMÃ©d":8063,"humanitÃ©":8064,"ĠnuclÃ©":8065,"Ġconclus":8066,"ĠassociÃ©":8067,"uster":8068,"oui":8069,"Ġplateau":8070,"ĠSalon":8071,"Ġ66":8072,"ĠStu":8073,"ĠOli":8074,"ĠphÃ©nomÃ¨ne":8075,"ĠfidÃ©":8076,"Ã©valuation":8077,"ĠespÃ¨ces":8078,"tech":8079,"Ġbranche":8080,"hÃ©sion":8081,"Ã©taient":8082,"ĠentiÃ¨re":8083,"ĠPalais":8084,"Ġpoursuivre":8085,"Ġ98":8086,"Ġdevraient":8087,"Ġtyp":8088,"||--":8089,"Institut":8090,"âĢ¦.":8091,"mÃ©diaire":8092,"Ġrejet":8093,"Ġsensib":8094,"Selon":8095,"Ġel":8096,"Ġnaturels":8097,"yr":8098,"Ġbataille":8099,"ĠGuy":8100,"ĠBernard":8101,"Ġsensible":8102,"inium":8103,"cune":8104,"efficacitÃ©":8105,"%.":8106,"ĠnÃ©cessite":8107,"Ġcentra":8108,"aa":8109,"Ġcamping":8110,"Ġparoles":8111,"expÃ©dition":8112,"ĠExp":8113,"Ġcerveau":8114,"ĠjouÃ©":8115,"fon":8116,"ouleurs":8117,"Ġmol":8118,"Ġsmartphone":8119,"serve":8120,"Ġrouges":8121,"ĠÃ©motions":8122,"Ġcompli":8123,"berg":8124,"tront":8125,"ĠSeine":8126,"tÃ©ph":8127,"comme":8128,"ĠcomprÃ©hension":8129,"ĠDÃ©veloppement":8130,"Ã©glise":8131,"ĠirrÃ©":8132,"ĠRem":8133,"mans":8134,"Ġcollective":8135,"Ġjaponais":8136,"Ġtechni":8137,"ĠMatÃ©ri":8138,"Ġprestation":8139,"architecture":8140,"onnaie":8141,"ĠSports":8142,"Ã©nus":8143,"Ġinstaller":8144,"Ġreprise":8145,"ĠrÃ©fÃ©rences":8146,"vait":8147,"ĠÃ©trangers":8148,"miques":8149,"obe":8150,"Ġacier":8151,"Ġetre":8152,"ĠcinÃ©":8153,"Ma":8154,"Ġdommage":8155,"Ġcertific":8156,"ĠaccompagnÃ©":8157,"Ġenregistrer":8158,"Ġincroyable":8159,"ĠEv":8160,"ĠliÃ©":8161,"orp":8162,"Ġmec":8163,"ĠsolidaritÃ©":8164,"Ġguer":8165,"otel":8166,"agi":8167,"Ġadmi":8168,"Ġchante":8169,"Ġ160":8170,"ĠAlle":8171,"Ļ¥":8172,"ĠcollectivitÃ©s":8173,"Ġofficielle":8174,"ĠbÃ¢timents":8175,"itch":8176,"habit":8177,"orent":8178,"ĠLac":8179,"ĠSport":8180,"ĠNouveaux":8181,"pers":8182,"MT":8183,"Ġpublicitaire":8184,"ĠProtection":8185,"Ġoccu":8186,"ĠDÃ¨s":8187,"irt":8188,"Ġimporte":8189,"Ġtransformer":8190,"lisme":8191,"Ġmoul":8192,"rÃ©d":8193,"ding":8194,"siÃ¨re":8195,"Ġconfirmation":8196,"Ġamoureuse":8197,"ĠFÃ©dÃ©ration":8198,"vail":8199,"optimis":8200,"Ġoffert":8201,"Ġence":8202,"ĠAL":8203,"Ã©th":8204,"Ġconcurrence":8205,"Ġtablette":8206,"Ġstim":8207,"ĠCat":8208,"ĠTex":8209,"orce":8210,"Ġhu":8211,"Ġcourte":8212,"Ġanciennes":8213,"Ġlimiter":8214,"Ġmagn":8215,"onctu":8216,"Ġdorm":8217,"Ġpromen":8218,"ĠrÃ©duit":8219,"Espagne":8220,"Ġgagne":8221,"Voir":8222,"Ġpiste":8223,"ĠorganisÃ©e":8224,"ution":8225,"Ġgare":8226,"ĠJack":8227,"appareil":8228,"ĠPri":8229,"ĠdÃ©terminer":8230,"ĠFam":8231,"ĠToutefois":8232,"Ġore":8233,"EU":8234,"Ġpeup":8235,"Ġvins":8236,"tube":8237,"ĠManagement":8238,"ĠGren":8239,"Ġnaturellement":8240,"Ġmesurer":8241,"Ġcong":8242,"ĠÃ©lus":8243,"Ġdouceur":8244,"annÃ©es":8245,"ĠpersonnalisÃ©":8246,"ĠLivraison":8247,"Ġinuti":8248,"Ġenle":8249,"ĠrÃ©tro":8250,"ĠProvence":8251,"Ġreli":8252,"Ġorganismes":8253,"hous":8254,"Ġinstitutions":8255,"Ġtrace":8256,"):":8257,"ĠCath":8258,"ographe":8259,"Ġflux":8260,"Ġrecevez":8261,"Ġemprun":8262,"ĠAD":8263,"Ġphysiques":8264,"ĠproblÃ©":8265,"Ġ53":8266,"Ġcant":8267,"Ġviande":8268,"bas":8269,"Ġcoucher":8270,"uestions":8271,"ĠRi":8272,"ĠdÃ©sactiv":8273,"Ġrecrutement":8274,"Ġprofondeur":8275,"Ã©lectricitÃ©":8276,"Ġbag":8277,"quide":8278,"Ġnotion":8279,"Ġimportance":8280,"Ġtur":8281,"ĠSP":8282,"ĠBus":8283,"oisissez":8284,"Ð°":8285,"ĠmÃ©canique":8286,"Fi":8287,"ics":8288,"rien":8289,"ĠconsidÃ©rÃ©":8290,"ĠIndex":8291,"Ġboutons":8292,"ĠcÃ´te":8293,"ĠPorte":8294,"ĠbÃ©nÃ©ficiez":8295,"ĠSui":8296,"ĠRock":8297,"Ġprote":8298,"Ġpropositions":8299,"94":8300,"ĠconfÃ©rences":8301,"ĠdÃ©mont":8302,"ĠmodalitÃ©s":8303,"Ġreligieux":8304,"Ġsecrets":8305,"ouest":8306,"Ġdangereux":8307,"otion":8308,"issait":8309,"clav":8310,"ĠemployÃ©s":8311,"voire":8312,"ĠÃ©vÃ¨nements":8313,"Ġbaign":8314,"Ġvenez":8315,"ĠEch":8316,"Ġfaudrait":8317,"ĠparlÃ©":8318,"ĠDÃ©b":8319,"fiÃ©es":8320,"dÃ©pend":8321,"lisation":8322,"Ġcase":8323,"embourg":8324,"ĠreconnaÃ®tre":8325,"RÃ©s":8326,"Ġislam":8327,"isÃ©s":8328,"Ġdonnant":8329,"ĠÃ©pisode":8330,"analy":8331,"Ġrecueillies":8332,"Ġur":8333,"Ġdimension":8334,"ĠÃ©mer":8335,"Ġconven":8336,"ĠMaster":8337,"Ġcouche":8338,"sol":8339,"Ġterra":8340,"Ġprofond":8341,"Ġinvitons":8342,"tian":8343,")|":8344,"acteur":8345,"onor":8346,"uminium":8347,"Ġautrement":8348,"Ġplaf":8349,"Ġacte":8350,"images":8351,"Ġplats":8352,"Ã¨dent":8353,"annique":8354,"iliation":8355,"owe":8356,"Ġvalable":8357,"ĠcoopÃ©ration":8358,"ters":8359,"ĠAqu":8360,"ĠÃ©tabli":8361,"enquÃªte":8362,"of":8363,"ĠMÃ©di":8364,"Ġstar":8365,"Ġrenforcer":8366,"ĠTi":8367,"ĠMos":8368,"Ġplas":8369,"Ġcolor":8370,"Ġsoucis":8371,"Ġreport":8372,"ouff":8373,"Ġprenant":8374,"Ġoccas":8375,"Ġrecon":8376,"ILLE":8377,"ĠCos":8378,"Ġacquis":8379,"Ġassurent":8380,"ĠarrÃªtÃ©":8381,"ĠeuropÃ©ens":8382,"Ġfacteurs":8383,"low":8384,"armonie":8385,"ismes":8386,"Ġsports":8387,"Ġsportifs":8388,"âĢ¯":8389,"Ġfine":8390,"Ġbulle":8391,"ĠFranÃ§aise":8392,"alisÃ©e":8393,"DC":8394,"Ġmettant":8395,"El":8396,"ĠbÃ©nÃ©v":8397,"illeur":8398,"Ġforfait":8399,"ĠPhotos":8400,"Ġpopulations":8401,"OUS":8402,"ĠmÃ©trop":8403,"sbourg":8404,"Ġhoraires":8405,"cessoire":8406,"offrir":8407,"Ġsportif":8408,"pellier":8409,"ĠMoi":8410,"ANT":8411,"Ġfurent":8412,"Di":8413,"Ġprolong":8414,"Ġimmense":8415,"ĠmÃ©dical":8416,"ook":8417,"Ġsignific":8418,"ĠSau":8419,"Ġfat":8420,"ĠCelui":8421,"chauff":8422,"ĠprÃ©fÃ¨re":8423,"Ġlancement":8424,"acheter":8425,"fini":8426,"ĠMON":8427,"ĠinÃ©d":8428,"scendant":8429,"Ġnutri":8430,"ulte":8431,"ĠPendant":8432,"ĠSatur":8433,"espÃ©":8434,"Ġvisible":8435,"ĠJo":8436,"ãģ":8437,"chette":8438,"Ġinstallations":8439,"Ġmutu":8440,"DA":8441,"ĠcoÃ»ts":8442,"aimerais":8443,"Ġstockage":8444,"olis":8445,"assement":8446,"Ġendroits":8447,"Ġcircuit":8448,"Ġsemblent":8449,"Ġpompe":8450,"ĠconsidÃ©rerons":8451,"ĠÃ©tage":8452,"Ġmessagerie":8453,"omp":8454,"Ġactive":8455,"Attention":8456,"Forum":8457,"bri":8458,"enci":8459,"giÃ¨ne":8460,"Ġtraditionnelle":8461,"ĠmÃª":8462,"Ġpostes":8463,"hist":8464,"Ġchi":8465,"ĠrÃ©mun":8466,"Ġaccessibles":8467,"endue":8468,"ĠpubliÃ©s":8469,"isses":8470,"ĠprÃ©cisÃ©ment":8471,"Ġmodern":8472,"ĠRien":8473,"ĠBourg":8474,"arrÃªt":8475,"Ġquelles":8476,"Ġyou":8477,"Ġtransmission":8478,"Ġnourriture":8479,"Ġterroris":8480,"Ġactifs":8481,"Ġassis":8482,"Ġstudio":8483,"kin":8484,"Ġgrossesse":8485,"angle":8486,"oly":8487,"Ġdeb":8488,"ĠDisponible":8489,"Ġtendances":8490,"Ġhiver":8491,"ĠIci":8492,"servation":8493,"ĠElect":8494,"Ġalg":8495,"ĠsystÃ©":8496,"ĠMc":8497,"Ġtravailleurs":8498,"ĠdÃ©mons":8499,"Ġpierres":8500,"Ġinterdit":8501,"ĠdÃ©cro":8502,"OI":8503,"Ġrespi":8504,"ĠproposÃ©es":8505,"Ġplant":8506,"ĠNum":8507,"Ġregroupe":8508,"Ġmoteurs":8509,"ny":8510,"ribue":8511,"ĠDisc":8512,"Ġgalerie":8513,"ĠnÃ©anmoins":8514,"utÃ©s":8515,"Ġarabe":8516,"ao":8517,"ressÃ©":8518,"ĠBD":8519,"ĠbasÃ©":8520,"Ġlook":8521,"Ġcrain":8522,"Ġsuisse":8523,"Ġvoile":8524,"ĠHomme":8525,"Ġtension":8526,"Ġmobiles":8527,"entend":8528,"Ġouverture":8529,"ĠÃ©lector":8530,"ĠProm":8531,"ĠAussi":8532,"Ġ110":8533,"investissement":8534,"Ġraisonn":8535,"Ġchapitre":8536,"aby":8537,"ĠBoh":8538,"Ġexclusivement":8539,"ĠplacÃ©":8540,"Ġadolesc":8541,"ĠinformÃ©":8542,"cÃ©dÃ©":8543,"Ġsuffisamment":8544,"ĠsecrÃ©taire":8545,"Ġorganise":8546,"ĠTou":8547,"Ġautomobile":8548,"Ġtraitements":8549,"Ġrock":8550,"ĠcolÃ¨re":8551,"ĠtraitÃ©":8552,"Ġterri":8553,"aleries":8554,"ĠreprÃ©sentants":8555,"als":8556,"housias":8557,"atch":8558,"ĠprÃĥ":8559,"Ġoffrant":8560,"Ġ130":8561,"Ġsatisfaction":8562,"ĠGratu":8563,"ĠdÃ©placer":8564,"aissez":8565,"informatique":8566,"siez":8567,"Ġkg":8568,"ĠdÃ©fendre":8569,"Ġmanifestations":8570,"autoritÃ©":8571,"ĠCouleur":8572,"Ġpromotions":8573,"Ġram":8574,"2013":8575,"articles":8576,"ĠmystÃ©ri":8577,"ĠrÃ©col":8578,"ĠcoÃ»te":8579,"Ġinflu":8580,"DÃ©pÃªches":8581,"ondÃ©":8582,"ake":8583,"oubliez":8584,"ĠFaites":8585,"influence":8586,"ĠfidÃ¨le":8587,"HE":8588,"Ġmandat":8589,"aco":8590,"ĠoubliÃ©":8591,"Ġnez":8592,"affichage":8593,"ico":8594,"ĠdÃ©mocratie":8595,"Ġrichesse":8596,"exemple":8597,"Ġprogrammation":8598,"ĠÃ©l":8599,"Ġsouha":8600,"Ġvivent":8601,"isÃ©es":8602,"ĠsiÃ¨cles":8603,"Ġcommunaut":8604,"ĠrÃ©solution":8605,"Ġaimez":8606,"Ġ77":8607,"ĠprocÃ¨s":8608,"Ġinformer":8609,"Ġdents":8610,"ĠdÃ©mon":8611,".Â»":8612,"Ġbillets":8613,"AV":8614,"97":8615,"ĠrÃ©si":8616,"Ġbijoux":8617,"Conc":8618,"Ġvoc":8619,"Ġlutter":8620,"Ġmodifications":8621,"Imp":8622,"Ġbanques":8623,"ĠexpÃ©":8624,"Ġisol":8625,"dÃ©es":8626,"ĠConne":8627,"ĠBureau":8628,"Ã®te":8629,"ĠThÃ©Ã¢tre":8630,"pir":8631,"ĠÃ©norme":8632,"ĠBrun":8633,"Ġdoigts":8634,"ĠadaptÃ©es":8635,"ĠconsacrÃ©":8636,"ĠjournÃ©es":8637,"Ġalimentation":8638,"ĠapparaÃ®t":8639,"ĠJournal":8640,"veil":8641,"ĠcrÃ©Ã©e":8642,"Ã©mission":8643,"ĠLoisirs":8644,"ĠBelle":8645,"ĠprocÃ©der":8646,"ĠLoc":8647,"vages":8648,"PubliÃ©":8649,"Ġvieille":8650,"ĠConf":8651,"hib":8652,"Ġcertes":8653,"anique":8654,"ĠLoi":8655,"Ġprenez":8656,"telligence":8657,"ĠVir":8658,"Ġpoign":8659,"ĠrÃ©t":8660,"Ġcandidature":8661,"Ġmatchs":8662,"ĠbÃ©nÃ©ficie":8663,"Ġdisent":8664,"ĠrÃ©gional":8665,"Italie":8666,"Ġmettent":8667,"ĠdestinÃ©e":8668,"Ġenrich":8669,"ablir":8670,"ĠassociÃ©s":8671,"toine":8672,"Retrouvez":8673,"Ġhommage":8674,"2012":8675,"ĠrÃ©fÃ©rencement":8676,"Ġrepar":8677,"Ġhistoriques":8678,"Ġcontacts":8679,"rÃ¨":8680,"iler":8681,"ĠdÃ©con":8682,"Ġprimaire":8683,"ĠFOR":8684,"Ġ07":8685,"ĠessayÃ©":8686,"aule":8687,"Ã©nie":8688,"Ġessentiel":8689,"Ġcomposition":8690,"ĠcomplÃ©ter":8691,"âĨ":8692,"Ġmaintenance":8693,"chage":8694,"Ġsoeur":8695,"Ġminute":8696,"Ġ62":8697,"Ġessentiellement":8698,"Ġdouze":8699,"ĠLunettes":8700,"ĠhÃ´tels":8701,"Ġmons":8702,"ĠLivre":8703,"innovation":8704,"Ġmotif":8705,"Ġmalade":8706,"Ġnar":8707,"Ġtourne":8708,"play":8709,"Ã©matique":8710,"Ġ!)":8711,"Cert":8712,"ĠContin":8713,"Ġglobale":8714,"Ġaugmenter":8715,"ÃĪ":8716,"ĠdÃ©roul":8717,"Ġrecevrez":8718,"Ġparlement":8719,"Ġsolide":8720,"ultures":8721,"ĠĠĠĠĠĠĠĠĠĠĠĠĠĠĠĠ":8722,"ĠRich":8723,"guer":8724,"demn":8725,"Ġjournalistes":8726,"Ġrapides":8727,"Ġanimal":8728,"Ġ41":8729,"ount":8730,"Ġrecul":8731,"animation":8732,"assadeur":8733,"Ġanc":8734,"ĠÃ©norm":8735,"ĠAV":8736,"Javascript":8737,"Ã©bÃ©c":8738,"Ġinternautes":8739,"ĠCab":8740,"Ġfiches":8741,"endroit":8742,"Ġmairie":8743,"ĠNantes":8744,"Ġcommerciaux":8745,"astroph":8746,"okie":8747,"ator":8748,"Ġraff":8749,"Ġprime":8750,"Ġvenue":8751,"ĠrÃ©alisÃ©s":8752,"UB":8753,"Ġchron":8754,"cide":8755,"andie":8756,"MP":8757,"Ġconservation":8758,"ĠdÃ©cider":8759,"cter":8760,"ĠprÃ©sidentielle":8761,"Ġinscrits":8762,"Ġfier":8763,"ĠpassÃ©e":8764,"ĠVidÃ©os":8765,"The":8766,"amÃ©nagement":8767,"ĠdÃ©clen":8768,"Ġband":8769,"auto":8770,"ĠMAR":8771,"Ġprudence":8772,"oter":8773,"envoyer":8774,"Ġbureaux":8775,"unitÃ©":8776,"tiles":8777,"ĠGenÃ¨ve":8778,"Ġauraient":8779,"Ġmenace":8780,"Ġintervention":8781,"otique":8782,"ĠDÃ©p":8783,"Ġconseille":8784,"ĠSystÃ¨me":8785,"Ġblancs":8786,"Ġchances":8787,"iki":8788,"nant":8789,"table":8790,"Ġconvers":8791,"ĠdÃ©gra":8792,"Ġacteur":8793,"Non":8794,"ĠRos":8795,"Ġvoies":8796,"Orient":8797,"Ġremplacement":8798,"Ġincom":8799,"gypte":8800,"Ġpaysages":8801,"ĠVe":8802,"________":8803,"Mes":8804,"ĠEc":8805,"ĠÃ©lÃ¨ve":8806,"Ġfournies":8807,"Derni":8808,"Ġretrouvez":8809,"installer":8810,"Ġdominantes":8811,"Ġpseu":8812,"Ġ1999":8813,"Ġfiable":8814,"Deux":8815,"ĠrÃ©soudre":8816,"orama":8817,"cÃ©e":8818,"ĠrÃ©vÃ¨le":8819,"ords":8820,"Ġcroissant":8821,"ĠsÃ»re":8822,"Ġbeur":8823,"und":8824,"ĠUN":8825,"Ġagir":8826,"tait":8827,"RÃ©p":8828,"oll":8829,"Ġcass":8830,"Ġcellules":8831,"chec":8832,"anglais":8833,"ulier":8834,"ĠÃ©pis":8835,"Ġvisiteur":8836,"Ġsavent":8837,"opath":8838,"ĠChef":8839,"riche":8840,"liance":8841,"ĠÃ©conomie":8842,"Ġgel":8843,"Ġvoyez":8844,"cop":8845,"ĠtÃ©lÃ©chargement":8846,"ĠmarquÃ©":8847,"ĠFaire":8848,"Ġchoisissez":8849,"ĠTrois":8850,"ĠNap":8851,"paravant":8852,"activitÃ©s":8853,"ordÃ©":8854,"ĠVenez":8855,"Article":8856,"Ġconflit":8857,"uie":8858,"Ġrentrer":8859,"Ġradic":8860,"entine":8861,"Ġrelativement":8862,"ricolage":8863,"Saint":8864,"urage":8865,"oblig":8866,"texte":8867,"ĠEr":8868,"ustralie":8869,"BC":8870,"ĠAux":8871,"Cela":8872,"Ġcouvert":8873,"outs":8874,"ĠcotÃ©":8875,"ĠDaniel":8876,"Ġpoche":8877,"Ã©chapp":8878,"Ins":8879,"Ġexploit":8880,"ĠTunisie":8881,"TrÃ¨s":8882,"chon":8883,"ĠÃ©quipÃ©e":8884,"Âª":8885,"haus":8886,"ĠprÃªte":8887,"Ã©rable":8888,"Ġstrictement":8889,"pport":8890,"Ġaudi":8891,"ĠTaille":8892,"hÃ´pital":8893,"Ġmilit":8894,"rak":8895,"rairie":8896,"</":8897,"Ġsages":8898,"ĠmobilitÃ©":8899,"ĠallÃ©":8900,"âĢĭ":8901,"ĠpensÃ©":8902,"SÃ©lection":8903,"Ġquels":8904,"ĠMinistÃ¨re":8905,"ĠCir":8906,"ĠTele":8907,"ĠNouveau":8908,"Ġastrologique":8909,"ritÃ©":8910,"Ġmajeur":8911,"ĠPanneau":8912,"Ġdimensions":8913,"acle":8914,"anda":8915,"Ġcontinent":8916,"Ġquartiers":8917,"Qui":8918,"orb":8919,"Ġfondateur":8920,"aro":8921,"Ġhoriz":8922,"Ġparall":8923,"Ġmagique":8924,"ael":8925,"mages":8926,"Ã´mage":8927,"illy":8928,"ool":8929,"uton":8930,"ĠindÃ©pendante":8931,"Ðµ":8932,"ĠacceptÃ©":8933,"Ġdiscussions":8934,"ĠÃ©cologique":8935,"Ð¾":8936,"ources":8937,"ĠTrump":8938,"actif":8939,"Ġgout":8940,"ache":8941,"Ġclim":8942,"Ġregroup":8943,"essentiel":8944,"Ġlaissant":8945,"ĠGroup":8946,"Ġfortes":8947,"Ġvirus":8948,"ĠAh":8949,"ĠImm":8950,"illons":8951,"ĠÃªtres":8952,"endredi":8953,"Ġgraphiques":8954,"Ġalimentaires":8955,"exÃ©cution":8956,"ĠrÃ©cente":8957,"amÃ©lioration":8958,"Marie":8959,"Ġmange":8960,"intÃ©gration":8961,"ĠConfidentialitÃ©":8962,"fici":8963,"Ġsympt":8964,"issons":8965,"Ġcav":8966,"ĠLittÃ©rature":8967,"Ġmorceaux":8968,"Ġ76":8969,"Ġnaturelles":8970,"ĠCC":8971,"Ġporn":8972,"Ġversions":8973,"rot":8974,"Ġsouhaitent":8975,"ĠTechn":8976,"Ġrangement":8977,"ondissement":8978,"Ġâĸ":8979,"non":8980,"ĠparticipÃ©":8981,"Ġcoul":8982,"ouis":8983,"ĠremarquÃ©":8984,"Ġmyst":8985,"ĠHeure":8986,"roid":8987,"Ġpoudre":8988,"Mich":8989,"yrÃ©n":8990,"LES":8991,"ĠRadio":8992,"Ġ52":8993,"ington":8994,"ĠprogrÃ¨s":8995,"Ġconfirmer":8996,"Ġchansons":8997,"Ġcomprends":8998,"Ġplante":8999,"ĠGi":9000,"agraph":9001,"ĠME":9002,"COM":9003,"amine":9004,"TU":9005,"tue":9006,"ĠPortugal":9007,"rines":9008,"abilitÃ©s":9009,"Ġride":9010,"ĠmÃ©rite":9011,"ographiques":9012,"Ġoptimale":9013,"Ġdifficiles":9014,"Ġ800":9015,"Ġnette":9016,"itifs":9017,"ĠPsych":9018,"ĠMoyen":9019,"crimin":9020,"ĠsÃ©qu":9021,"Ġappartiennent":9022,"Ġconfirme":9023,"ãĢ":9024,"ĠÃ©couter":9025,"garde":9026,"doc":9027,"ĠPay":9028,"ĠGrÃ¨ce":9029,"ĠLivres":9030,"ĠWh":9031,"Ġexceptionnelle":9032,"Gar":9033,"ĠSemaines":9034,"lets":9035,".).":9036,"ĠdÃ®":9037,"ĠGuide":9038,"ancienne":9039,"atÃ©gorie":9040,"onniers":9041,"Ġsculp":9042,"ĠÃ©ditions":9043,"Ġformer":9044,"Ġposses":9045,"ierge":9046,"ĠDescription":9047,"Ġpopulaires":9048,"Ġpilote":9049,"ĠdÃ©penses":9050,"Ġsommeil":9051,"Ġdisposer":9052,"guÃ©":9053,"Ġnationales":9054,"culaire":9055,"ĠtÃ¢ches":9056,"istiques":9057,"visible":9058,"aurait":9059,"Ġautorisation":9060,"Ġplages":9061,"yrÃ©nÃ©es":9062,"TA":9063,"ĠrÃ©server":9064,"Ġlot":9065,"ĠActualitÃ©s":9066,"antis":9067,"Ġcontribution":9068,"ĠLille":9069,"Ġcord":9070,"Ġcarnet":9071,"Ġtribunal":9072,"ĠmÃ©dicale":9073,"rets":9074,"Ġpositif":9075,"ĠMun":9076,"ĠactualitÃ©s":9077,"ĠAU":9078,"ĠsÃ©rieuse":9079,"ĠdÃ©placement":9080,"urgie":9081,"ennis":9082,"ĠTVA":9083,"ouette":9084,"Ġplaque":9085,"Ġphrase":9086,"Ġquasiment":9087,"agriculture":9088,"illÃ©s":9089,"ĠdÃ©crit":9090,"ĠFig":9091,"Ġaugmente":9092,"laires":9093,"peau":9094,"ĠreprÃ©sentent":9095,"Ġaffi":9096,"aluer":9097,"abs":9098,"ellent":9099,"Ġsusceptible":9100,"http":9101,"Ġmanifestation":9102,"ider":9103,"Ġcollaborateurs":9104,"Ã©conom":9105,"ĠTar":9106,"Ġlente":9107,"ĠfrÃ©quence":9108,"ĠdÃ©cenn":9109,"ĠUSA":9110,"existe":9111,"adapter":9112,"infos":9113,"Ġpistes":9114,"Ã©tant":9115,"Ġdisait":9116,"Ġvues":9117,"ĠRetrouvez":9118,"Ã¨ses":9119,"ae":9120,"landais":9121,"uation":9122,"Ġconstituent":9123,"way":9124,"ĠfinanciÃ¨res":9125,"Ġpanneau":9126,"alcool":9127,"ĠEspace":9128,"agon":9129,"ĠÃ©loi":9130,"ĠQuelle":9131,".....":9132,"ĠsensibilitÃ©":9133,"ciÃ¨re":9134,"Ġcuisson":9135,"rosoft":9136,"ĠContactez":9137,"attaque":9138,"adÃ©mie":9139,"van":9140,"ĠSil":9141,"oufles":9142,"ĠpremierLe":9143,"Montrer":9144,"ĠPont":9145,"Ã©quilibre":9146,"ĠrÃ©pondu":9147,"Ġremet":9148,"Ġcirconstances":9149,"Ġvan":9150,"Ġutilisent":9151,"ĠÃ¢me":9152,"MC":9153,"ĠMeu":9154,"ĠEff":9155,"Ġagences":9156,"âĢĿ.":9157,"Ġexpert":9158,"ĠprÃ©cip":9159,"Ġvertic":9160,"Ġprofite":9161,"Ġber":9162,"atriÃ¨me":9163,"Ġexcellente":9164,"ĠPub":9165,"achet":9166,"ĠdiffÃ©rente":9167,"reuse":9168,"ĠthÃ©orie":9169,"ĠcommuniquÃ©":9170,"Ġsympathique":9171,"Ġfrau":9172,"Ġrup":9173,"atine":9174,"Ġconcerts":9175,"cheur":9176,"Ġrur":9177,"ĠpersonnalisÃ©s":9178,"Ġcommander":9179,"ĠJeunes":9180,"ĠGeorges":9181,"ĠHome":9182,"Ġcommis":9183,"ĠadhÃ©r":9184,"ĠUnivers":9185,"Ġcitoyen":9186,"ĠtÃ©lÃ©phonique":9187,"ĠcarrÃ©":9188,"ĠRÃ©seau":9189,"Ġom":9190,"Ġtome":9191,"Ġplani":9192,"Ġescort":9193,"mentaire":9194,"ĠThomas":9195,"ĠPremiÃ¨re":9196,"OQ":9197,"Ġglace":9198,"Ġinstructions":9199,"Emp":9200,"ĠHam":9201,"ĠdÃ©diÃ©e":9202,"Ġfabricant":9203,"Ġrej":9204,"Ġmix":9205,"ĠJournÃ©e":9206,"Ġproposant":9207,"Ġterritoires":9208,"arb":9209,"Espace":9210,"Ġbandes":9211,"ĠNeu":9212,"Ġargu":9213,"olid":9214,"astrologie":9215,"ĠArchives":9216,"Ġprovince":9217,"ĠSN":9218,"Ġcadres":9219,");":9220,"Ġlaboratoire":9221,"eme":9222,"Ġconnus":9223,"ĠdÃ©fis":9224,"ĠPÃ¨re":9225,"PR":9226,"arque":9227,"tifici":9228,"86":9229,"utilise":9230,"Åĵurs":9231,"Ġsatisfaire":9232,"atar":9233,"Ġcatastroph":9234,"Prof":9235,"arriÃ¨re":9236,"ĠapprÃ©ciÃ©":9237,"87":9238,"Ġfaisons":9239,"Ġtiens":9240,"liques":9241,"Ġmodernes":9242,"lantique":9243,"ĠCu":9244,"ĠHond":9245,"ĠcrÃ©dits":9246,"âĢĶ":9247,"Ġvenus":9248,"Ġtitulaire":9249,"Co":9250,"Ġ89":9251,"Bienvenue":9252,"icale":9253,"Ġdiplom":9254,"Ġcoach":9255,"Ġsombre":9256,"Ġenqu":9257,"ugi":9258,"bien":9259,"ĠQuelques":9260,"ĠdÃ©couvertes":9261,"GrÃ¢ce":9262,"ĠStÃ©ph":9263,"page":9264,"Ġpul":9265,"Ġclubs":9266,"ĠidentitÃ©":9267,"itz":9268,"Ġcodes":9269,"Ġdevons":9270,"ĠMam":9271,"ĠFondation":9272,"ĠMexique":9273,"inÃ©s":9274,"Ġmourir":9275,"Ġtraces":9276,"oseph":9277,"83":9278,"eroun":9279,"Ġsacri":9280,"Ġparvenir":9281,"Site":9282,"Ġcivil":9283,"ĠAlain":9284,"ĠdÃ©par":9285,"entreprises":9286,"ĠAz":9287,"Ġfruit":9288,"Ġmascul":9289,"Ġ|--â":9290,"Ã¶":9291,"ĠBu":9292,"Ġobligations":9293,"BA":9294,"ĠKh":9295,"ĠgÃª":9296,"Ġdizaines":9297,"ĠEp":9298,"Ġtuer":9299,"Ġissus":9300,"Ġ{":9301,"mal":9302,"etnam":9303,"Ġtraditionnel":9304,"abri":9305,"titudes":9306,"ĠÃ©pi":9307,"ĠNouv":9308,"ĠMet":9309,"TRE":9310,"journ":9311,"Ġprior":9312,"Ġrelatif":9313,"Ġaccompagne":9314,"Ġfameux":9315,"cro":9316,"Ġ63":9317,"Ġsignification":9318,"HÃ´tel":9319,"Ġcyc":9320,"Ġestime":9321,"ĠcÃ©rÃ©monie":9322,"Ġcrimin":9323,"ĠOK":9324,"Ġkit":9325,"ĠcollÃ¨gues":9326,"ĠcomposÃ©e":9327,"Ġprofils":9328,"ĠÃ©lectroniques":9329,"ĠCommunautÃ©":9330,"ĠRose":9331,"Ġimpression":9332,"Ã¨lement":9333,"Ġavance":9334,"ĠConformÃ©ment":9335,"Ġenvies":9336,"Ġgrec":9337,"atrices":9338,"Ġabonnement":9339,"assistance":9340,"Ġrecherchez":9341,"ĠVoilÃł":9342,"ison":9343,"Ġsouffle":9344,"Ġressemble":9345,"anÃ©ment":9346,"ĠMontpellier":9347,"Ġsin":9348,"Ġpare":9349,"Ġavenir":9350,"ĠEnsuite":9351,"Ġ86":9352,"Ġsensation":9353,"quait":9354,"ary":9355,"Ġdocumentaire":9356,"Ġ96":9357,"Ġapprend":9358,"Ġinfo":9359,"Ġhuman":9360,"ĠpropriÃ©tÃ©s":9361,"Ġlabel":9362,"cor":9363,"Ġorganiser":9364,"hommes":9365,"Ġfroide":9366,"ĠStrasbourg":9367,"Ġproducteurs":9368,"ĠprÃ©sentÃ©s":9369,"Ġmusicale":9370,"Ġscand":9371,"ĠpoÃ©sie":9372,"los":9373,"lits":9374,"Ġcritiques":9375,"ĠexÃ©cu":9376,"Ġ79":9377,"Ġbri":9378,"\":":9379,"Ġrupture":9380,"Ġparagraph":9381,"ressent":9382,"ĠprÃ©occup":9383,"ĠOrganis":9384,"Ġbrill":9385,"Ġgrosses":9386,"quillage":9387,"ERS":9388,"ev":9389,"ĠMaurice":9390,"ĠNice":9391,"ĠÃ©quipÃ©":9392,"Ġlouer":9393,"ĠLÃł":9394,"Ġrejoint":9395,"ĠtournÃ©e":9396,"Ð¸":9397,"Ġanimations":9398,"Ġfoyer":9399,"ĠParlement":9400,"emplacement":9401,"Ġnatal":9402,"eut":9403,"Ġcous":9404,"Ġvertu":9405,"Ġchaise":9406,"ulÃ©":9407,"tinÃ©ra":9408,"ateaux":9409,"Ġmili":9410,"Ġuni":9411,"Ã©die":9412,"Ġadvers":9413,"Ġoubli":9414,"ĠLuxembourg":9415,"âĢĺ":9416,"Ã©der":9417,"Ġfur":9418,"Ġserrure":9419,"ories":9420,"aga":9421,"ĠpensÃ©es":9422,"ato":9423,"anteur":9424,"ĠmontÃ©e":9425,"ĠÃ©missions":9426,"Ġfavoriser":9427,"Ġ67":9428,"Ġfeuille":9429,"IQUE":9430,"Ġmorale":9431,"ĠparaÃ®t":9432,"Ġcontemporaine":9433,"Fin":9434,"Ġtables":9435,"Ġfic":9436,"ĠfidÃ©litÃ©":9437,"Ġraf":9438,"Ġarm":9439,"ĠÃ©trange":9440,"treet":9441,"Ġindividus":9442,"ĠTom":9443,"Ġsollic":9444,"ĠOuv":9445,"Ġcorri":9446,"Ġmobilier":9447,"Ġreprend":9448,"ĠSyl":9449,"ĠTor":9450,"enfance":9451,"CF":9452,"ĠEUR":9453,"Ġserv":9454,"ĠdÃ©bats":9455,"jac":9456,"Ġafficher":9457,"ĠCiel":9458,"itale":9459,"âĤ¬âĦ¢":9460,"ĠtravaillÃ©":9461,"Ġrenforce":9462,"jan":9463,"PrÃ©sentation":9464,"Ġsondage":9465,"Ġquitte":9466,"81":9467,"enue":9468,"Ġmaintien":9469,"Ġcommunications":9470,"ĠeuropÃ©ennes":9471,"Ã©nager":9472,"Ġtours":9473,"ĠPantoufles":9474,"rlande":9475,"ĠShow":9476,"Ġnuits":9477,"ĠÃ©ventuellement":9478,"ĠÃ©tro":9479,"ĠprivÃ©es":9480,"lot":9481,"Ġavanc":9482,"Ġtransition":9483,"Char":9484,"Ġ74":9485,"ĠIsraÃ«l":9486,"uffis":9487,"ink":9488,"Ġhar":9489,"ĠcÃ©lÃ©b":9490,"Men":9491,"ĠÃ©crite":9492,"itte":9493,"Ġremercie":9494,"Ġsignaler":9495,"ĠPiÃ¨ces":9496,"active":9497,"apprÃ©":9498,"ĠTBE":9499,"ĠÃ©coute":9500,"Ġdite":9501,"ĠÃ©quipement":9502,"ĠamÃ©ricains":9503,"-)":9504,"Ġcaisse":9505,"Ġvag":9506,"ĠrecommandÃ©":9507,"hyp":9508,"Ġtransmettre":9509,"uent":9510,"Ġdisparition":9511,"ĠspÃ©ciales":9512,"ĠlÃ¨vres":9513,"Ġannuel":9514,"ĠscÃ©nario":9515,"ĠFRAN":9516,"mil":9517,"ĠÃ©tudiant":9518,"bÃ©":9519,"Ġroutes":9520,"Ġprochaines":9521,"Ġoeuvres":9522,"Ġsortes":9523,"Ġtraditionnelles":9524,"Ġconvention":9525,"ĠVÃ©nus":9526,"Ġindustrielle":9527,"Ġvideo":9528,"ĠCGU":9529,"ĠÃ©vident":9530,"Ġflex":9531,"opping":9532,"lat":9533,"Ġarom":9534,"Ġmusulman":9535,"Ġreprises":9536,"Ġaliments":9537,"Ġarabes":9538,"Ġvice":9539,"Ġ1998":9540,"engagement":9541,"Ġpoursuit":9542,"ĠterminÃ©":9543,"dictions":9544,"Ġcomprenant":9545,"ĠGouver":9546,"pri":9547,"humour":9548,"Ġrepris":9549,"Ġpommes":9550,"ĠPluton":9551,"yste":9552,"Ġsecours":9553,"Ġjoy":9554,"Ġoffer":9555,"Ġsaisons":9556,"ĠMalgrÃ©":9557,"ĠPoint":9558,"Ġroule":9559,"ĠliÃ©e":9560,"ĠdÃ©pannage":9561,"ĠCommentaires":9562,"Ġplafond":9563,"ensions":9564,"ĠDig":9565,"issage":9566,"Ġchronique":9567,"ignoirs":9568,"Ġasi":9569,"ĠÃ©lu":9570,"arts":9571,"Ã©tÃ©o":9572,"ĠrÃ©gler":9573,"ĠVen":9574,"impact":9575,"qY":9576,"Ġpassent":9577,"ĠCity":9578,"ĠillÃ©g":9579,"Ġfasse":9580,"URE":9581,"ĠfrontiÃ¨re":9582,"cia":9583,"ĠdÃ©mÃ©nagement":9584,"Ġloup":9585,"Man":9586,"ĠDÃ©s":9587,"ĠMoh":9588,"ĠchÃ¢":9589,"Ġlive":9590,"ĠrÃ©gl":9591,"cidents":9592,"DU":9593,"TO":9594,"ponsable":9595,"ĠMil":9596,"ĠLet":9597,"Ġcoute":9598,"rasser":9599,"Ġouvrages":9600,"ConfidentialitÃ©":9601,"Can":9602,"Ġquelconque":9603,"Ġofferts":9604,"ĠprÃ©cieux":9605,"ĠlibÃ©ra":9606,"ago":9607,"Ġpoul":9608,"autorisation":9609,"ĠinvitÃ©":9610,"Ġculturelles":9611,"ĠgagnÃ©":9612,"Ġbris":9613,"peur":9614,"Ġinterro":9615,"Ġrempli":9616,"Ã¢teaux":9617,"lsace":9618,"Ġconstater":9619,"ĠFont":9620,"Bl":9621,"ĠprioritÃ©":9622,"aisie":9623,"Ġmassage":9624,"ĠWe":9625,"ĠAngel":9626,"Ġ84":9627,"ĠPoi":9628,"Ġcolon":9629,"ĠCroix":9630,"Ġdisant":9631,"Ġcle":9632,"ĠAfin":9633,"ĠHong":9634,"Ġcomposants":9635,"ĠSaturne":9636,"ĠprÃ©ciser":9637,"conc":9638,"Ġfinance":9639,"ĠdÃ©taillÃ©":9640,"ĠRÃ©union":9641,"84":9642,"Ġmets":9643,"Ġvenait":9644,"ambiance":9645,"ouc":9646,"Ġcaus":9647,"trice":9648,"ĠSyrie":9649,"Ġexceptionnel":9650,"ĠCy":9651,"ãĥ":9652,"alisÃ©s":9653,"ĠtÃ¢che":9654,"manie":9655,"tines":9656,"Ġya":9657,"Ġrappro":9658,"mosphÃ¨re":9659,"Ġverte":9660,"ĠprÃ©venir":9661,"Ġesti":9662,"Ġpuissent":9663,"ĠÃ©chÃ©ant":9664,"ĠAG":9665,"aders":9666,"ĠfonctionnalitÃ©":9667,"ĠChaussures":9668,"acles":9669,"ituÃ©":9670,"ĠsoirÃ©es":9671,"Ġinfir":9672,"entis":9673,"dial":9674,"ĠtotalitÃ©":9675,"Ġvoisins":9676,"ĠSav":9677,"Ġ94":9678,"ĠUniversitÃ©":9679,"ĠJuin":9680,"ĠrandonnÃ©e":9681,"Ġarb":9682,"ĠCorÃ©e":9683,"Ġmit":9684,"ĠsÃ©v":9685,"Ġtrucs":9686,"Ġrefuser":9687,"idÃ©es":9688,"Ġsupports":9689,"Ġaffiche":9690,"agrÃ©":9691,"quier":9692,"illaume":9693,"ĠLigne":9694,"ĠDQ":9695,"chbox":9696,"Ġjambes":9697,"Ġnavigateurs":9698,"ĠrelÃ¨ve":9699,"Ġcomprom":9700,"Ġbroy":9701,"ignon":9702,"Ġperspective":9703,"ĠdiabÃ¨te":9704,"ĠprÃ©pare":9705,"ĠXIX":9706,"Ġagricole":9707,"Ġextraordinaire":9708,"Ġliquide":9709,"ĠRP":9710,"Ġconcl":9711,"Mai":9712,"mentaires":9713,"ouvrage":9714,"ical":9715,"ĠriviÃ¨re":9716,"Son":9717,"Ġefficaces":9718,"ĠÃ©voluer":9719,"ĠdrÃ´le":9720,"Ġplacer":9721,"ĠðŁĺ":9722,"ĠempÃªcher":9723,"Ġpun":9724,"positions":9725,"rui":9726,"ĠBarb":9727,"ĠÃ©quival":9728,"Ġpermettront":9729,"Ġ72":9730,"ordinateur":9731,"Ġinternationaux":9732,"ĠdÃ©poser":9733,"Ġpuissiez":9734,"ĠdestinÃ©s":9735,"ĠLy":9736,"Ġpert":9737,"uivre":9738,"Ġmeurt":9739,"CON":9740,"tume":9741,"Ġaccepte":9742,"apprendre":9743,"itage":9744,"pection":9745,"ĠOuti":9746,"essayer":9747,"Ġferont":9748,"Ġconforme":9749,"Ġgre":9750,"ĠAS":9751,"Homme":9752,"ajouter":9753,"uge":9754,"Ġbonus":9755,"ello":9756,"BB":9757,"Ġcomportements":9758,"ower":9759,"Ġcorrespondent":9760,"Ġsecondaires":9761,"Ġpes":9762,"Ġcible":9763,"armes":9764,"ĠArch":9765,"ĠÃ©ducation":9766,"album":9767,"Ġjudiciaire":9768,"ĠdÃ©cret":9769,"Ġapplicables":9770,"inqui":9771,"ĠEsc":9772,"Ġchers":9773,"ĠBleu":9774,"ĠDI":9775,"Ġintense":9776,"Ġvoudrais":9777,"ĠPlusieurs":9778,"ĠDonnÃ©es":9779,"ĠBohÃ¨me":9780,"blog":9781,"Ġvacc":9782,"Ġdocumentation":9783,"ĠiP":9784,"ĠmontrÃ©":9785,"intro":9786,"hin":9787,"Ġclaire":9788,"Ġjugement":9789,"Ġner":9790,"ĠCAP":9791,"Ġexistence":9792,"Ġexercice":9793,"ĠChap":9794,"ĠAlgÃ©rie":9795,"Ġcouples":9796,"ĠpÃ©dagogique":9797,"Ġconsom":9798,"Ġsacs":9799,"ĠstÃ©":9800,"ĠprÃ©cÃ©dente":9801,"ĠprÃ©sentent":9802,"Ġthermique":9803,"agas":9804,"Ġronde":9805,"giques":9806,"lah":9807,"Ġnotification":9808,"ctionnaires":9809,"ĠrepÃ©":9810,"Tech":9811,"riÃ¨res":9812,"Ġconnaitre":9813,"ĠClaude":9814,"Ġbeurre":9815,"ĠMas":9816,"Ġponctu":9817,"Ġgras":9818,"Ġindustriel":9819,"Ġitalien":9820,"ĠRhÃ´ne":9821,"Ġpermanente":9822,"Ġauthentique":9823,"ĠVoy":9824,"Ġnorme":9825,"Mars":9826,"inateurs":9827,"tenus":9828,"Ġfinit":9829,"ĠWal":9830,"Ġprofession":9831,"ĠMel":9832,"associ":9833,".:":9834,"Â·":9835,"Ã©galitÃ©":9836,"ĠlimitÃ©e":9837,"ĠDj":9838,"ĠdÃ©mocratique":9839,"Ġpack":9840,"approche":9841,"Mo":9842,"Ġvillages":9843,"ĠesthÃ©tique":9844,"ĠMadame":9845,"Ġvendu":9846,"ĠHall":9847,"appliquer":9848,"''":9849,"Ġcroit":9850,"Ġterminal":9851,"ĠsÃ©curisÃ©":9852,"Ġimpact":9853,"ĠRep":9854,"Ġvocation":9855,"Ġvalidation":9856,"olo":9857,"ĠdiplÃ´me":9858,"ĠWiki":9859,"brer":9860,"ĠchÃ´mage":9861,"ĠJÃ©r":9862,"Ġheureuse":9863,"ĠBeaucoup":9864,"Ġinterdite":9865,"automne":9866,"offres":9867,"ĠMach":9868,"AND":9869,"Ġartifici":9870,"ĠpubliÃ©e":9871,"Ġpermanence":9872,"ĠPok":9873,"ageux":9874,"ĠpassionnÃ©s":9875,"ĠBE":9876,"PH":9877,"ĠTurquie":9878,"ĠtrÃĥ":9879,"gestions":9880,"antill":9881,"ĠparamÃ©":9882,"anou":9883,"ĠiPhone":9884,"Ġexpositions":9885,"dÃ©pendance":9886,"Ġrobots":9887,"roÃ¯":9888,"Ġsemblait":9889,"ĠdÃ©clin":9890,"ĠlÃ©gale":9891,"immobilier":9892,"ĠprÃ©server":9893,"sive":9894,"ctur":9895,"ĠOne":9896,"ĠÃ©pouse":9897,"Ġperfection":9898,"ĠKe":9899,"ĠcomplÃ©mentaires":9900,"ĠCharte":9901,"ĠOpen":9902,"Ġcharte":9903,"ĠdiplÃ´":9904,"Ġindispensables":9905,"ĠÃ®les":9906,"Ġ170":9907,"Ã®t":9908,"rimÃ©s":9909,"ĠPlace":9910,"ĠÃ¢gÃ©es":9911,"Ġavantage":9912,"ĠJusqu":9913,"aya":9914,"ĠajoutÃ©":9915,"ĠParmi":9916,"ensif":9917,"Ġ(Â«":9918,"Ġsavait":9919,"ĠingrÃ©dients":9920,"neus":9921,"Ã©vÃ©nement":9922,"ĠPeignoirs":9923,"Ġsexuelle":9924,"Ġbritannique":9925,"urez":9926,"antie":9927,"acÃ©e":9928,"ĠRestaur":9929,"Ġvague":9930,"ĠÃ©conomies":9931,"jus":9932,"ĠclassÃ©":9933,"cides":9934,"ĠprocÃ©dÃ©":9935,"dÃ©qu":9936,"uyer":9937,"ibliothÃ¨que":9938,"SO":9939,"ilde":9940,"Ġroyaume":9941,"Ã§ait":9942,"Ġsoul":9943,"Ã´tre":9944,"Ġvrais":9945,"ĠnÃ©e":9946,"GA":9947,"ota":9948,"Ġcontribuer":9949,"ĠfenÃªtres":9950,"ĠtÃ©moignages":9951,"ctrice":9952,"Ġcookie":9953,"miers":9954,"ĠRÃ©fÃ©rencement":9955,"ĠDÃ©rap":9956,"ĠXIA":9957,"ĠAttention":9958,"ĠInformations":9959,"eule":9960,"ĠDÃ©rapant":9961,"arrÃªter":9962,"sa":9963,"Ġorigines":9964,"Ġchats":9965,"Ġdommages":9966,"Ġcompatible":9967,"Ġfolie":9968,"igration":9969,"Ġexemples":9970,"bn":9971,"Ġlou":9972,"Ġgon":9973,"ĠbÃ©ton":9974,"Ġfuturs":9975,"ĠefficacitÃ©":9976,"inations":9977,"Ġrepose":9978,"ĠimmobiliÃ¨re":9979,"Ġtraduit":9980,"Ġcultures":9981,"OQI":9982,"Ġstars":9983,"ĠXIAOQI":9984,"Ġjouets":9985,"ĠMot":9986,"illÃ©es":9987,"ANS":9988,"Ã©chelle":9989,"ĠdÃ©finitivement":9990,"xww":9991,"ĠmodifiÃ©e":9992,"tics":9993,"Ġexplo":9994,"Ġdeviennent":9995,"ĠquatriÃ¨me":9996,"ĠrÃ©putation":9997,"PerlÃ©es":9998,"utilisateurs":9999,"ĠgAv":10000,"xwwqY":10001,"VA":10002,"ĠCad":10003,"Ġsoldats":10004,"Ġrarement":10005,"ĠspÃ©cialisÃ©s":10006,"Ġasc":10007,"ĠPatri":10008,"Ġmagnifiques":10009,"Ġpromouvoir":10010,"ORT":10011,"Ġprends":10012,"ĠdisponibilitÃ©s":10013,"Ġexpress":10014,"tisation":10015,"oga":10016,"Ġpropor":10017,"Ġtrente":10018,"onnance":10019,"Ġsugg":10020,"Ġboulot":10021,"Ġgam":10022,"dd":10023,"ĠChristophe":10024,"ĠretrouvÃ©":10025,"Ġfuite":10026,"otage":10027,"Ġauparavant":10028,"aÃ©roport":10029,"geois":10030,"ware":10031,"Ġpant":10032,"Ġinterven":10033,"ĠgÃ©nÃ©raux":10034,"unn":10035,"Ġbiz":10036,"Ġchampionnat":10037,"ĠHenri":10038,"ĠadÃ©qu":10039,"ĠvallÃ©e":10040,"Ġcarre":10041,"Ivoire":10042,"sible":10043,"ĠIV":10044,"adel":10045,"ĠlimitÃ©":10046,"change":10047,"ĠVincent":10048,"ĠfrontiÃ¨res":10049,"AUX":10050,"Ġsouhaiter":10051,"ĠrÃ©flÃ©chir":10052,"ctive":10053,"voi":10054,"ĠÃ©pr":10055,"ĠProgramme":10056,"onnage":10057,"Ġcommiss":10058,"Ġexercices":10059,"Ġartisans":10060,"Ġchevaux":10061,"Ġfum":10062,"Ġpublications":10063,"Ġforts":10064,"Ġbienvenue":10065,"Ġajoute":10066,"viens":10067,"Ġdescend":10068,"Ġgeste":10069,"mond":10070,"invent":10071,"ĠÃ©tern":10072,"Ġqueue":10073,"ĠUr":10074,"Agence":10075,"lor":10076,"Ã©qui":10077,"Ġsportive":10078,"ĠprocÃ©dures":10079,"Ġsouffrance":10080,"ffe":10081,"Ġpoissons":10082,"ĠEX":10083,"aisseur":10084,"Ġciblage":10085,"dules":10086,"Ġfir":10087,"ĠGh":10088,"Ġaigu":10089,"ĠRetour":10090,"ĠBonjour":10091,"orne":10092,"Ġaugmentation":10093,"Mer":10094,"accompagnement":10095,"[...]":10096,"Ġressource":10097,"ĠÃ©tats":10098,"ĠAucun":10099,"vidu":10100,"Ġtalents":10101,"Octobre":10102,"Ġlunettes":10103,"Ġexcl":10104,"ĠFlor":10105,"ĠProfessionn":10106,"ado":10107,"ĠArticle":10108,"ĠSaison":10109,"othÃ©rapie":10110,"ĠArm":10111,"itrine":10112,"ĠAnimaux":10113,"Ġvisualiser":10114,"Paul":10115,"Ġseins":10116,"Ġclin":10117,"ĠNews":10118,"origin":10119,"Paris":10120,"accÃ©der":10121,"Ġpoisson":10122,"ĠdÃ©veloppe":10123,"Ġtentative":10124,"ĠnuclÃ©aire":10125,"voy":10126,"Pi":10127,"ĠPorno":10128,"Ġfamilial":10129,"envie":10130,"ĠConsultez":10131,"ĠconformitÃ©":10132,"ĠCamb":10133,"ĠarrÃªt":10134,"ĠRÃ©f":10135,"ĠconstituÃ©":10136,"Ġcertifi":10137,"Ġdizaine":10138,"ĠcollectÃ©es":10139,"Ġfiltre":10140,"Ġpause":10141,"CL":10142,"Ġinsol":10143,"Ġincontournable":10144,"Ġproven":10145,"Ġbrun":10146,"ologues":10147,"Dis":10148,"aisselle":10149,"lip":10150,"ĠFoot":10151,"Ġcla":10152,"mÃ©dia":10153,"ConformÃ©ment":10154,"Ġguitare":10155,"extra":10156,"As":10157,"utes":10158,"ĠColomb":10159,"RS":10160,"bou":10161,"nd":10162,"Ġpousse":10163,"ĠTest":10164,"Ġdose":10165,"ĠÃ©valu":10166,"Ġ).":10167,"ĠDivers":10168,"Ġcommerces":10169,"Michel":10170,"Ġmaximale":10171,"Ġaventures":10172,"Ġoiseaux":10173,"ĠmatÃ©riels":10174,"agÃ©es":10175,"Sal":10176,"aisser":10177,"Ġgars":10178,"Ĺı":10179,"Ġcry":10180,"ĠQuant":10181,"Ġarchives":10182,"ĠdÃ©sign":10183,"ĠplanÃ©taires":10184,"Ã®tre":10185,"Ense":10186,"Ġcumul":10187,"loque":10188,"cÃ©s":10189,"auvres":10190,"Ġpeuples":10191,"acquisition":10192,"ipp":10193,"ulÃ©e":10194,"Ġ87":10195,"ĠEmmanuel":10196,"Ġcauses":10197,"Ġsusc":10198,"Ġsymbole":10199,"ĠPetite":10200,"attente":10201,"Ġpanneaux":10202,"ĠDub":10203,"Ġcool":10204,"initiative":10205,"ĠsÃ©lectionnÃ©":10206,"Ġmusiciens":10207,"ĠJup":10208,"...).":10209,"Ġserveurs":10210,"ĠsÅĵur":10211,"aspect":10212,"ĠSeptembre":10213,"ĠFort":10214,"ĠdÃ©posÃ©e":10215,"acÃ©s":10216,"ĠBio":10217,"Ġsouris":10218,"Ġindustriels":10219,"ĠPatrick":10220,"Ġcercle":10221,"ero":10222,"Ġramen":10223,"âĨĳ":10224,"ĠSites":10225,"Ġpeintre":10226,"Ġciter":10227,"Ġfe":10228,"outant":10229,"ĠNov":10230,"Ġcouper":10231,"Ġseni":10232,"Ġprofitez":10233,"ĠbasÃ©e":10234,"ĠpÃ©riodes":10235,"ĠRap":10236,"Ġeut":10237,"Ġvieil":10238,"cesseur":10239,"ĠÃ¨me":10240,"vÃ¨ge":10241,"ĠcaractÃ¨res":10242,"ĠFilm":10243,"Ġboire":10244,"Ġtissus":10245,"Ġlave":10246,"Ġincon":10247,"ĠassurÃ©":10248,"Ġtaxe":10249,"Ġdisparu":10250,"ĠSoph":10251,"ĠcrÃ©ativitÃ©":10252,"ĠpersonnalisÃ©e":10253,"afÃ©":10254,"Ġlever":10255,"ĠÃ©changer":10256,"AlgÃ©rie":10257,"Ġsportives":10258,"gen":10259,"Ġben":10260,"Ġintervenir":10261,"Ã©quipement":10262,"ĠTre":10263,"Ġpaire":10264,"opÃ©ra":10265,"Ġmiroir":10266,"oche":10267,"TÃ©lÃ©":10268,"Ġindividuelle":10269,"Ġassurez":10270,"Ġvalide":10271,"Ġparl":10272,"Ġinvestissement":10273,"ĠsystÃ©matique":10274,"ĠscÃ¨nes":10275,"ĠMess":10276,"ierry":10277,"Ġtube":10278,"tens":10279,"ĠChat":10280,"Ġentourage":10281,"ĠhÃ©r":10282,"diaque":10283,"ĠHab":10284,"Ġenvah":10285,"Ġembar":10286,"ĠrÃ©servÃ©e":10287,"Ġsemi":10288,"uz":10289,"Ġsauvage":10290,"tick":10291,"****":10292,"itanie":10293,"ĠtraitÃ©es":10294,"Ã©rard":10295,"ĠgrÃ¨ve":10296,"Ġspectacles":10297,"ender":10298,"feuille":10299,"avion":10300,"Ġbelge":10301,"Ġindiquer":10302,"Ġtire":10303,"Ġisra":10304,"Ã©ni":10305,"Ġprovenant":10306,"Ġjal":10307,"ĠNombre":10308,"ignant":10309,"sans":10310,"ĠMur":10311,"ĠCÃ©":10312,"Ġ125":10313,"Ġconseillers":10314,"ĠVill":10315,"ĠAvi":10316,"ĠÃ©quilib":10317,"Az":10318,"Ġcontraintes":10319,"ĠUl":10320,"ComitÃ©":10321,"Autres":10322,"ĠJou":10323,"Ġmonte":10324,"ĠStock":10325,"Ġencad":10326,"Ġrefuse":10327,"erine":10328,"ating":10329,"Ã®tes":10330,"ĠrÃ©sist":10331,"lissement":10332,"ĠRÃ¨glement":10333,"Ġmous":10334,"Ġsalaire":10335,"ĠOctobre":10336,"ĠÃ©quilibre":10337,"ĠTch":10338,"ĠGir":10339,"ĠParten":10340,"ysique":10341,"Ġanalyses":10342,"Ġ128":10343,"interest":10344,"DerniÃ¨res":10345,"ĠLar":10346,"Ġmarcher":10347,"Ġappels":10348,"temp":10349,"nelle":10350,"oignez":10351,"outil":10352,"ush":10353,"ctez":10354,"ĠRue":10355,"ĠconsidÃ¨re":10356,"ĠposÃ©":10357,"endi":10358,"tude":10359,"Ġphotographies":10360,"ĠTrib":10361,"Ġroues":10362,"Conditions":10363,"ĠgarÃ§ons":10364,"Ġtranspor":10365,"tionnels":10366,"Ġimpli":10367,"mois":10368,"Ġjusque":10369,"Ġgla":10370,"ĠCorse":10371,"ĠDro":10372,"Ġfournis":10373,"Ã´ture":10374,"xx":10375,"ĠRÃ©sult":10376,"Ġproph":10377,"Ġillim":10378,"lera":10379,"ĠSecon":10380,"ĠBang":10381,"vol":10382,"ĠsynthÃ¨se":10383,"Ġprogressivement":10384,"CD":10385,"ĠUran":10386,"Ġvuln":10387,"intelligence":10388,"ĠLav":10389,"ĠsÃ»rement":10390,"Ġrecommandations":10391,"ouvÃ©":10392,"Ġfacebook":10393,"outh":10394,"ĠCommerce":10395,"Ġconjug":10396,"ĠDur":10397,"ext":10398,"Mont":10399,"ĠES":10400,"ĠMicrosoft":10401,"ĠÃ©vo":10402,"aura":10403,"Ġglobal":10404,"Ġmontagnes":10405,"\\'":10406,"ĠNations":10407,"ĠrÃ©alisÃ©es":10408,"ish":10409,"MM":10410,"aqu":10411,"ĠNept":10412,"ĠHonda":10413,"Ġrecouv":10414,"ĠConfÃ©rence":10415,"ĠenregistrÃ©s":10416,"Ġhauts":10417,"ĠVO":10418,"Ġconnaissent":10419,"Ġavais":10420,"Ġconcentration":10421,"ĠappelÃ©e":10422,"rencontre":10423,"Ġliqu":10424,"ombres":10425,"ĠChÃ¢teau":10426,"Ġcomplexes":10427,"Ġvib":10428,"oeil":10429,"PD":10430,"Ġcomparer":10431,"intage":10432,"impÃ´t":10433,"ĠrÃ©fugi":10434,"adaptation":10435,"ĠrÃ©gi":10436,"Mus":10437,"Ġlongs":10438,"ineuse":10439,"hom":10440,"Ãīglise":10441,"ĠLLC":10442,"fre":10443,"ĠrÃĥ":10444,"ogo":10445,"applique":10446,"Ġclavier":10447,"Ġsols":10448,"Ġsubli":10449,"Ġbassin":10450,"tell":10451,"pent":10452,"alestin":10453,"Ġincap":10454,"ĠChristian":10455,"ĠPou":10456,"Ġespagnol":10457,"vise":10458,"amas":10459,"ĠexpliquÃ©":10460,"ĠAug":10461,"ĠrÃªver":10462,"ĠdÃ©marches":10463,"ĠCommunication":10464,"Internet":10465,"ĠRay":10466,"Ġvarier":10467,"ĠprotÃ©gÃ©e":10468,"Ġinformatiques":10469,"Ã©nage":10470,"rastructures":10471,"ombe":10472,"Ġboutiques":10473,"ĠÃ©par":10474,"Ġperturb":10475,"mÃ©t":10476,"vit":10477,"trations":10478,"Ġnormalement":10479,"ĠGÃ©nÃ©rales":10480,"ĠPai":10481,"ING":10482,"Ġgirl":10483,"Ġexpli":10484,"ĠLangue":10485,"ĠÃ©normÃ©ment":10486,"Pre":10487,"ep":10488,"ĠBienvenue":10489,"ĠmÃ©nage":10490,"ĠFC":10491,"Ġsensibles":10492,"Ġ1990":10493,"ĠDemande":10494,"ĠGMT":10495,"Ġ1995":10496,"minaire":10497,"ĠDisney":10498,"tiss":10499,"Ġhaine":10500,"prix":10501,"Ãªter":10502,"cheter":10503,"abil":10504,"Ġproducteur":10505,"gentine":10506,"Ġ2020":10507,"Avril":10508,"ĠquÃ©bÃ©c":10509,"ĠCeux":10510,"Ġ93":10511,"Ġgarantit":10512,"Ġintime":10513,"ĠFour":10514,"Ġsouplesse":10515,"Ġsuivent":10516,"ĠsimplicitÃ©":10517,"Ġatteinte":10518,"Ġsavons":10519,"ĠcommunautÃ©s":10520,"ĠAkis":10521,"Ġdevriez":10522,"Ġministres":10523,"Ġprotoc":10524,"Ġannonc":10525,"ĠMini":10526,"Ġbox":10527,"Ġcoll":10528,"ĠmÃ©tro":10529,"ĠÃ®le":10530,"ops":10531,"Ġdispositifs":10532,"Ġabou":10533,"Ġessentielles":10534,"atou":10535,"ĠÃ©valuation":10536,"atisÃ©":10537,"Ġalent":10538,"Ġrecycl":10539,"Ġpauvres":10540,"Ġnoirs":10541,"ĠEng":10542,"Ġaffront":10543,"ÃŃ":10544,"Ġcurieux":10545,"Ġchampion":10546,"versitÃ©":10547,"meaux":10548,"ĠBes":10549,"ĠconcernÃ©s":10550,"inspiration":10551,"heim":10552,"ĠAkismet":10553,"Ġtraits":10554,"Ġmg":10555,"ĠaccÃ©lÃ©":10556,"occuper":10557,"Ġtox":10558,"Ġvolet":10559,"Septembre":10560,"cade":10561,"zy":10562,"Ah":10563,"Ġrechercher":10564,"ĠBoul":10565,"intÃ©resse":10566,"Ġcontrairement":10567,"estres":10568,"Ġchauffe":10569,"ĠFR":10570,"ĠClassi":10571,"oline":10572,"etteur":10573,"ĠCoup":10574,"Ġrecommandons":10575,"Ecole":10576,"ĠarrÃªter":10577,"ĠgÃ©nie":10578,"Ġlav":10579,"ĠdÃ©bit":10580,"Ġbattre":10581,"ĠautorisÃ©":10582,"Ã©re":10583,"Ġhuile":10584,"cÃ©dez":10585,"Ġdiscipline":10586,"uyez":10587,"ĠEuropÃ©enne":10588,"endie":10589,"Ġventre":10590,"ĠcomÃ©di":10591,"Ġpav":10592,"ĠPau":10593,"cas":10594,"ĠprÃ©fÃ©rÃ©s":10595,"Ġpop":10596,"Ã©gard":10597,"Ġplonge":10598,"ED":10599,"INT":10600,"Ġdonnera":10601,"Ġfauteuil":10602,"Ġloy":10603,"ĠQU":10604,"Ġens":10605,"ĠRed":10606,"ĠstratÃ©gies":10607,"Ġpositions":10608,"ĠAÃ©roport":10609,"ĠcompliquÃ©":10610,"cope":10611,"ĠdÃĥ":10612,"ĠzÃ©ro":10613,"ĠAmazon":10614,"Ġjoindre":10615,"utin":10616,"ĠÃ©lÃ©gant":10617,"ĠCongo":10618,"Ġcog":10619,"rats":10620,"ignons":10621,"onymes":10622,"Ġadore":10623,"ĠunitÃ©s":10624,"Ġarbre":10625,"ĠPrÃ©sent":10626,"Ġtrait":10627,"fran":10628,"ĠtÃ©moignage":10629,"Pers":10630,"Ġtub":10631,"Pr":10632,"ttes":10633,"Ġmusulmans":10634,"ĠcompÃ©tence":10635,"ba":10636,"Ġouvertes":10637,"ĠPH":10638,"And":10639,"ÑĢ":10640,"Ġ73":10641,"ĠgÃ©nÃ©rations":10642,"Ġmotivation":10643,"faits":10644,"inement":10645,"illent":10646,"Ġgaranties":10647,"ĠthÃ©matiques":10648,"Ġmajeure":10649,"ĠDiff":10650,"lore":10651,"quÃ©rir":10652,"ĠWorld":10653,"ĠrÃ©glementation":10654,"Ġcouver":10655,"ĠÃ©dit":10656,"ĠJam":10657,"ĠGaz":10658,"ĠfÃ©minin":10659,"Ġdivis":10660,"ERT":10661,"hÃ´tes":10662,"Op":10663,"expÃ©ri":10664,"back":10665,"Ġtriste":10666,"ody":10667,"ingue":10668,"Ġcontente":10669,"Ġlivrer":10670,"Ġvern":10671,"ĠMulti":10672,"ĠFr":10673,"organisme":10674,"issi":10675,"Ġ750":10676,"Ġremarque":10677,"Ġtchat":10678,"ĠPoste":10679,"ĠdÃ©croissant":10680,"Ġlourd":10681,"jÃł":10682,"alit":10683,"Ġterminer":10684,"master":10685,"Ġtransp":10686,"ĠAndrÃ©":10687,"deo":10688,"ĠLED":10689,"Ġlistes":10690,"ĠsÃ¨che":10691,"Ġdomes":10692,"Ġ(+":10693,"Conne":10694,"appui":10695,"cam":10696,"ĠprÃ©sentant":10697,"ĠimprÃ©":10698,"ĠdÃ©passer":10699,"Ġlune":10700,"Ġsain":10701,"Ġdiscre":10702,"raction":10703,"onnais":10704,"Juillet":10705,"Ġpourrais":10706,"ĠAuto":10707,"Ġmanagement":10708,"Ġventi":10709,"ĠespÃ¨ce":10710,"ĠÃ©preuves":10711,"Ġconcernent":10712,"Ġincar":10713,"ĠVit":10714,"issue":10715,"ĠvisibilitÃ©":10716,"alogie":10717,"fil":10718,"Ġdivision":10719,"Ġcomprennent":10720,"ĠfacilitÃ©":10721,"Ġaiment":10722,"ĠpÃ©riph":10723,"anÃ©":10724,"ĠJanvier":10725,"ossibilitÃ©":10726,"Ġgrille":10727,"Ġbuts":10728,"Ġattaque":10729,"Ġapplicable":10730,"ĠmaÃ®tres":10731,"Form":10732,"orable":10733,"Ġproduis":10734,"ĠperpÃ©":10735,"Ġbron":10736,"ĠMr":10737,"Ġobst":10738,"Ġsuivez":10739,"Ġrefaire":10740,"Ġ700":10741,"mblement":10742,"Ã©ries":10743,"extrÃªme":10744,"Ġdevront":10745,"Ġfiscal":10746,"Ġmodule":10747,"ctation":10748,"ayez":10749,"Ġsoign":10750,"ĠBos":10751,"Ġmusical":10752,"Ã©lab":10753,"Ġbisous":10754,"ĠdÃ©lÃ©":10755,"ĠprÃ©sentÃ©es":10756,"Ġdevrez":10757,"Ġsouver":10758,"Ã©crire":10759,"ĠQuestions":10760,"abelle":10761,"ĠJuillet":10762,"url":10763,"Ainsi":10764,"aste":10765,"affiche":10766,"ĠWest":10767,"Ġseules":10768,"Ġstyles":10769,"Ġauxquels":10770,"ĠVÃ©":10771,"Ġmajor":10772,"ĠprÃ©cÃ©dentes":10773,"Ġfinances":10774,"Ġpdf":10775,"ĠPologne":10776,"Ġamus":10777,"Ãªts":10778,"gh":10779,"Ġagent":10780,"Ġflor":10781,"VI":10782,"Copyright":10783,"zaine":10784,"Ġhydra":10785,"ĠpassionnÃ©":10786,"Ġscore":10787,"ĠdÃ©col":10788,"Ġextrait":10789,"ortez":10790,"Ġblack":10791,"ĠÃ©crans":10792,"ĠMÃ©dec":10793,"ĠdÃ©lÃ©g":10794,"ĠMali":10795,"Ġmarqu":10796,"ĠAvril":10797,"ĠstratÃ©gique":10798,"Ġ1980":10799,"Ġchic":10800,"Ġvenant":10801,"Ġexclusives":10802,"Ġrenseigner":10803,"ĠCÃ¢":10804,"Juin":10805,"ĠEncore":10806,"Ġsucc":10807,"Ġ108":10808,"Pourquoi":10809,"Ġpersonnalisation":10810,"Janvier":10811,"phe":10812,"atÃ©ri":10813,"Ġremarquable":10814,"Ġraconter":10815,"Ġtermine":10816,"Ġvivement":10817,"issements":10818,"Ġquart":10819,"Ġplaques":10820,"ĠPR":10821,"Ġchirurg":10822,"ums":10823,"ĠGard":10824,"inn":10825,"ĠBac":10826,"ĠBlu":10827,"Ã³":10828,"ĠOrient":10829,"ĠfermÃ©":10830,"kea":10831,"Ġpousser":10832,"Ġaspi":10833,"ĠMu":10834,"ĠTrouver":10835,"Ġprestataires":10836,"ĠpriÃ¨re":10837,"ĠPME":10838,"ondre":10839,"Ġsauce":10840,"tÃ©rieure":10841,"ĠguÃ©r":10842,"ĠintitulÃ©":10843,"Ġfallu":10844,"Ġgastr":10845,"ited":10846,"ĠJoseph":10847,"Ġpiano":10848,"Ġzo":10849,"ĠpÃ¢tis":10850,"Ascendant":10851,"Ġpoitrine":10852,"affir":10853,"ĠSuÃ¨de":10854,"vard":10855,"ĠReg":10856,"Ġsachant":10857,"Ġclimatique":10858,"Ġarrivent":10859,"âĢ¦).":10860,"onnerie":10861,"Ġprofesseurs":10862,"ĠAlpes":10863,"ĠdÃ©sactivÃ©":10864,"aus":10865,"Ġpath":10866,"Ġfiscale":10867,"Ġvoter":10868,"dÃ©s":10869,"Ġcorp":10870,"Ġdestruction":10871,"tueux":10872,"Ġdict":10873,"ĠJames":10874,"Ġfinition":10875,"ĠprÃ©voir":10876,"ĠcÃ©libataire":10877,"ĠHommes":10878,"Ġimplique":10879,"Ġpapiers":10880,"Ġprogression":10881,"Ġprocure":10882,"Ġ360":10883,"akar":10884,"teste":10885,"Ġgouvern":10886,"Ġrecord":10887,"ĠOlivier":10888,"Ġaccus":10889,"ĠlittÃ©raire":10890,"Ġregar":10891,"ĠnumÃ©ros":10892,"Ġdeven":10893,"Ġhumeur":10894,"Ġvies":10895,"appartement":10896,"fice":10897,"Ġsab":10898,"Ġlargeur":10899,"Ġtournoi":10900,"Ġtailles":10901,"ĠlÃ©gislation":10902,"Novembre":10903,"nac":10904,"Ġcolle":10905,"Ġ97":10906,"acifique":10907,"Rencontre":10908,"Ġconstate":10909,"Autre":10910,"Ġillum":10911,"ĠCinÃ©ma":10912,"Ġconflits":10913,"ĠProjet":10914,"ĠresponsabilitÃ©s":10915,"Ġallemande":10916,"ĠÃ©clat":10917,"amis":10918,"avaient":10919,"laration":10920,"Auc":10921,"Puis":10922,"ĠAmÃ©rique":10923,"Ġmorceau":10924,"inez":10925,"ctori":10926,"ĠAntoine":10927,"Ġressembl":10928,"ĠgoÃ»ts":10929,"get":10930,"Ġgraves":10931,"ĠAC":10932,"ĠrÃ©pertoire":10933,"Ġflash":10934,"Ġnormale":10935,"Ġafricaine":10936,"ĠCit":10937,"Ġcuri":10938,"ĠintÃ©resse":10939,"ĠsalariÃ©":10940,"Ã¨gre":10941,"ĠsymptÃ´mes":10942,"ĠconservÃ©es":10943,"Ġfri":10944,"Ġgrav":10945,"Ġcomparaison":10946,"Ġrelever":10947,"cler":10948,"ĠproposÃ©e":10949,"isseur":10950,"cesse":10951,"shirt":10952,"Ġhabitudes":10953,"Ġterrible":10954,"ĠPois":10955,"issance":10956,"Ġpersonnellement":10957,"ugby":10958,"Aller":10959,"uf":10960,"tudes":10961,"ĠÃ©levÃ©e":10962,"Ġmassif":10963,"TP":10964,"âĸ":10965,"ĠSO":10966,"Ġemplois":10967,"Ġsecondaire":10968,"Ġcatholique":10969,"Ġassister":10970,"Ġcertificat":10971,"ilÃ©":10972,"Ġmonnaie":10973,"Ġ51":10974,"Utilisateur":10975,"Ġrect":10976,"Ġessais":10977,"ĠCelle":10978,"Ġeuro":10979,"agez":10980,"Ġserais":10981,"Ġcess":10982,"Ġlectures":10983,"ĠPA":10984,"ĠstabilitÃ©":10985,"DS":10986,"ĠsÃ©jours":10987,"aid":10988,"ĠTourisme":10989,"Ġcrist":10990,"Ġpalais":10991,"ĠLic":10992,"Ġcontractu":10993,"Ġconsacre":10994,"Ġconvaincre":10995,"sim":10996,"Ġverts":10997,"ĠGuillaume":10998,"ĠdÃ©putÃ©s":10999,"ernant":11000,"ĠGRA":11001,"ĠInd":11002,"Ġtort":11003,"Ġrentre":11004,"unique":11005,"ĠreprÃ©senter":11006,"ĠEnt":11007,"ĠtuÃ©":11008,"ĠRennes":11009,"Ġindividuel":11010,"ĠexpÃ©di":11011,"ror":11012,"wan":11013,"ĠFrancis":11014,"opie":11015,"ĠAra":11016,"acute":11017,"commerce":11018,"ĠquittÃ©":11019,"orations":11020,"ĠMercure":11021,"mann":11022,"ĠconseillÃ©":11023,"Pos":11024,"Ġ83":11025,"ĠmÃ¨ne":11026,"Ġexclusif":11027,"Ġravis":11028,"Ġoptimiser":11029,"uez":11030,"ĠJeudi":11031,"ĠLion":11032,"Ãªle":11033,"Ġinstrument":11034,"TML":11035,"rira":11036,"umeurs":11037,"Ġbiologique":11038,"Ġuniversitaire":11039,"Ġshow":11040,"ĠPot":11041,"ommÃ©e":11042,"Ġalternative":11043,"Ġleaders":11044,"Ġmauvaises":11045,"AoÃ»t":11046,"ĠTE":11047,"ĠpostÃ©s":11048,"ĠclÃ´ture":11049,"Ġagricoles":11050,"ĠAutom":11051,"allenge":11052,"Ġouverts":11053,"ĠLor":11054,"ĠFac":11055,"Ġennemis":11056,"ĠgÃ©ographique":11057,"ĠapprÃ©cier":11058,"ĠMoul":11059,"poser":11060,"ols":11061,"rÃ¨tement":11062,"Ġaluminium":11063,"itiÃ©":11064,"Ġquad":11065,"ĠFN":11066,"ouille":11067,"ĠOU":11068,"ĠunitÃ©":11069,"ĠIT":11070,"Ġagit":11071,"Ġdirecteurs":11072,"ocÃ©":11073,"Ġmilieux":11074,"illard":11075,"ĠthÃ©rapeu":11076,"Ġaident":11077,"Ġtransforme":11078,"installe":11079,"ĠSorti":11080,"ĠInde":11081,"ĠdÃ©voile":11082,"Ġexclusive":11083,"Ġsons":11084,"Ġparcour":11085,"ĠCri":11086,"Ġ178":11087,"ĠtempÃ©ratures":11088,"Ġdiscrimin":11089,"Ġinvestissements":11090,"lÃ¨vement":11091,"Ġaccorder":11092,"cir":11093,"ĠBert":11094,"aha":11095,"tex":11096,"ĠNik":11097,"ĠQualitÃ©":11098,"ĠadoptÃ©":11099,"Ġmarine":11100,"Politique":11101,"Vis":11102,"ĠrÃ©chauff":11103,"celet":11104,"Ġpromotionnelles":11105,"ĠNath":11106,"ĠimpÃ©ra":11107,"ĠlivrÃ©":11108,"hu":11109,"Ġconnaissez":11110,"Ġmanuel":11111,"ĠFonds":11112,"Ġchaleureux":11113,".|":11114,"erreur":11115,"Ġcock":11116,"ĠSta":11117,"ĠBob":11118,"Ġorganisme":11119,"ĠprÃ©voit":11120,"ĠtolÃ©":11121,"ĠTal":11122,"ĠpossÃ©d":11123,"ĠdÃ©roule":11124,"ĠMarine":11125,"ĠantÃ©ri":11126,"Ġfabricants":11127,"effectuer":11128,"ĠpartagÃ©":11129,"ĠintÃ©ressante":11130,"Ġintu":11131,"ĠÃ©nergies":11132,"ouliÃ¨re":11133,"intention":11134,"CatÃ©gories":11135,"ĠÂ»)":11136,"Ġaffirme":11137,"Ġvel":11138,"Ġdor":11139,"Ġmira":11140,"Ġannuelle":11141,"Ġphotographe":11142,"Ġdette":11143,"gnes":11144,"ild":11145,"ĠSamedi":11146,"ĠWilli":11147,"naires":11148,"Ġpli":11149,"dice":11150,"ĠrÃ©tra":11151,"Ġsuici":11152,"ACT":11153,"Ġsurprises":11154,"ĠdÃ©cal":11155,"crivant":11156,"wa":11157,"accepter":11158,"'t":11159,"Ġvols":11160,"Ġdormir":11161,"Ġrayon":11162,"itables":11163,"ĠrÃ©gionale":11164,"ierie":11165,"rÃ©dÃ©ric":11166,"mÃ¨re":11167,"ĠperÃ§":11168,"Ġattaques":11169,"quo":11170,"Ġgro":11171,"oyant":11172,"Dem":11173,"ĠProduit":11174,"Ġcasser":11175,"ĠHollande":11176,"Anne":11177,"ize":11178,"Ġadministrateurs":11179,"Ġtendre":11180,"Ġgraines":11181,"ĠfondÃ©":11182,"Vi":11183,"Ġ138":11184,"Ġdedans":11185,"aigne":11186,"eck":11187,"Ġadapt":11188,"Ġ118":11189,"ĠAssociation":11190,"Organis":11191,"autor":11192,"Ġjuridiques":11193,"armon":11194,"effacement":11195,"Ã©rÃ©s":11196,"Ġcontiennent":11197,"Ġmy":11198,"ĠÃ©tranger":11199,"Ġbomb":11200,"aper":11201,"urne":11202,"Rec":11203,"ĠVÃ©r":11204,"afficher":11205,"ĠintÃ©grer":11206,"garder":11207,"Ġmontres":11208,"Ġsignifications":11209,"Ġressent":11210,"ĠcrÃ©ateur":11211,"Ġdetail":11212,"Ġoffrons":11213,"ĠArtis":11214,"Ġjeter":11215,"gnon":11216,"Ġ105":11217,"Ġamateur":11218,"rol":11219,"ingÃ©n":11220,"rass":11221,"Ġ92":11222,"ÑĤ":11223,"Ġpneu":11224,"orientation":11225,"ĠEtat":11226,"ĠMÃ©l":11227,"Ġportent":11228,"Ġinstruments":11229,"QUES":11230,"erb":11231,"Ġenceinte":11232,"Ġlol":11233,"Ġservent":11234,"Ġperc":11235,"Ġcamar":11236,"Ġtravaillent":11237,"ĠViv":11238,"Ġexterne":11239,"2019":11240,"Ġinfluence":11241,"Ġphp":11242,"Ġvesti":11243,"ENS":11244,"identifier":11245,"ulations":11246,"Ġbouteille":11247,"ĠPE":11248,"Ġadresser":11249,"ĠdiffÃ©rences":11250,"ĠNormandie":11251,"tar":11252,"Ġadministrative":11253,"ĠentraÃ®ne":11254,"ĠpÃ©trole":11255,"ĠCompte":11256,"ĠpassÃ©es":11257,"Ġ//":11258,"ĠlÃ©gend":11259,"ANCE":11260,"Ġtouristique":11261,"tug":11262,"Ġfranchise":11263,"Ġnews":11264,"ĠPlay":11265,"Ġofficiellement":11266,"Ġfoule":11267,"exprimer":11268,"soci":11269,"ĠCV":11270,"cial":11271,"Ġadmis":11272,"Ġordinaire":11273,"Ġconstituer":11274,"anÃ©e":11275,"Ġpoil":11276,"OBIL":11277,"site":11278,"interprÃ©":11279,"ĠMaintenant":11280,"Ã©tÃ©r":11281,"ĠCertaines":11282,"Ġconversation":11283,"Rem":11284,"FÃ©vrier":11285,"ĠFranc":11286,"Ġrendent":11287,"Ġparagraphe":11288,"indÃ©pendance":11289,"ĠdotÃ©":11290,"ceptions":11291,"ĠLui":11292,"Ġlocations":11293,"ĠcomplÃ©mentaire":11294,"Ġinterventions":11295,"ĠthÃ¨se":11296,"ĠPoli":11297,"tesse":11298,"horiz":11299,"ĠÃ©pisodes":11300,"xy":11301,"Ġraisonnable":11302,"Ġgoogle":11303,"Ġsupporter":11304,"Ġdame":11305,"Ġpneus":11306,"ĠTitre":11307,"glom":11308,"VoilÃł":11309,"inions":11310,"Ġsurpris":11311,"Ġtouristiques":11312,"ĠDimanche":11313,"Ġuniques":11314,"Ġballon":11315,"Ġchemins":11316,"nÃ©es":11317,"Ġadapter":11318,"Ġmax":11319,"Ġchev":11320,"ĠSo":11321,"==":11322,"Donc":11323,"ĠrÃ©sumÃ©":11324,"Ġ1997":11325,"Ġjournaux":11326,"emark":11327,"mitÃ©":11328,"raires":11329,"culture":11330,"ĠanimÃ©":11331,"Ġconsommateur":11332,"Ġparois":11333,"233":11334,"ĠPle":11335,"Ã©pre":11336,"Louis":11337,"Ġessai":11338,"ĠFeu":11339,"Moi":11340,"ĠAfric":11341,"dios":11342,"Ġculturels":11343,"endront":11344,"opro":11345,"Ġexplications":11346,"ĠSEO":11347,"ĠNote":11348,"ĠGui":11349,"Ġlibrement":11350,"ĠÃ©crits":11351,"aptateur":11352,"chestre":11353,"Ġenthousias":11354,"Ġfuture":11355,"MÃªme":11356,"Ġaides":11357,"Aide":11358,"vu":11359,"raits":11360,"ĠAvis":11361,"ĠBourse":11362,"ĠlÃ©gal":11363,"Ġfib":11364,"Ġdoub":11365,"ĠindÃ©pendants":11366,"ĠprÃ©sentÃ©e":11367,"ĠparticuliÃ¨res":11368,"%,":11369,"ints":11370,"ĠcosmÃ©":11371,"olet":11372,"Ġboissons":11373,"Ġbalade":11374,"asy":11375,"Ġspati":11376,"ĠpersonnalisÃ©es":11377,"Ġspe":11378,"adÃ©":11379,"Ġbourse":11380,"prits":11381,"uisent":11382,"Ġgren":11383,"Val":11384,"ĠtÃ©moins":11385,"listes":11386,"ION":11387,"interro":11388,"ĠDominique":11389,"ĠcÃ¢ble":11390,"Ġblogs":11391,"ĠengagÃ©":11392,"Ġmobilisation":11393,"Ġcroissante":11394,"ieuses":11395,"ĠdÃ©tour":11396,"2010":11397,"ĠMÃ©tÃ©o":11398,"ĠapparaÃ®tre":11399,"Ġrelais":11400,"ĠAp":11401,"Ġconseillons":11402,"ĠbÃ©nÃ©voles":11403,"Ġparts":11404,"Ġparadis":11405,"quets":11406,"Ġsurpr":11407,"Ã©lÃ¨ve":11408,"Ġrab":11409,"imie":11410,"Ġmerveilleux":11411,"uche":11412,"ĠmodifiÃ©":11413,"Ġcroix":11414,"Ġexpertise":11415,"dr":11416,"Ġbalades":11417,"ĠparaÃ®tre":11418,"Ġcyl":11419,"ĠBall":11420,"Ġblanches":11421,"ĠTourn":11422,"avre":11423,"employ":11424,"arbre":11425,"Ð½":11426,"ury":11427,"ster":11428,"peti":11429,"Ġstable":11430,"Ġnationaux":11431,"Ġvieilles":11432,"Ġgolf":11433,"ĠÃ©th":11434,"Ġmariti":11435,"Ġadministrateur":11436,"Ġvalider":11437,"ulg":11438,"Prix":11439,"Ġgentil":11440,"ĠChem":11441,"lem":11442,"Ġattendu":11443,"Ġfranchement":11444,"aite":11445,"uts":11446,"Ġarme":11447,"Ġdoul":11448,"animaux":11449,"den":11450,"identification":11451,"ĠLeg":11452,"Ã©cri":11453,"Ġmanches":11454,"Ġflu":11455,"Ġdil":11456,"âĢŃ":11457,"ĠLis":11458,"Ġsouple":11459,"ĠchaÃ®nes":11460,"Ġsaut":11461,"Ġlaine":11462,"tisseur":11463,"Ġappeler":11464,"Ġfrancophone":11465,"ĠPV":11466,"ĠGros":11467,"ĠfaÃ§ons":11468,"Ġintr":11469,"Ġpayant":11470,"hÃ©bergement":11471,"Ġcanton":11472,"Ġ900":11473,"ĠBig":11474,"ozy":11475,"ĠÃ©tions":11476,"ĠÃ©vidence":11477,"hop":11478,"Ġvoyager":11479,"fond":11480,"arth":11481,"BO":11482,"Ġpic":11483,"orel":11484,"ĠfÃ©dÃ©ral":11485,"Ġcombinaison":11486,"ĠPÃ¢":11487,"ĠlÃ©gende":11488,"Alpes":11489,"Ġvilla":11490,"ĠMP":11491,"ĀĀĀĀ":11492,"ĠMah":11493,"Eglise":11494,"ĠTTC":11495,"Ġenvirons":11496,"una":11497,"Ġdonnez":11498,"Ġpsychologique":11499,"Ġmunicipal":11500,"Ġ;)":11501,"Ġfaciles":11502,"Ġlanc":11503,"ĠLos":11504,"aband":11505,"ĠdÃ©putÃ©":11506,"ĠBibliothÃ¨que":11507,"ĠprÃ©visions":11508,"ĠTravail":11509,"usine":11510,"Ġhoraire":11511,"ĠÃ©co":11512,"ĠMise":11513,"examen":11514,"Ġdigne":11515,"Ġache":11516,"ĠBirchbox":11517,"Ġpseudo":11518,"Ġressorti":11519,"ĠJulien":11520,"ĠGouvernement":11521,"ĠMul":11522,"ĠBis":11523,"ĠchrÃ©tiens":11524,"ondÃ©ment":11525,"Ġbil":11526,"ovation":11527,"ultime":11528,"ĠImages":11529,"onome":11530,"quante":11531,"Ġriz":11532,"2011":11533,"jon":11534,"ĠcheminÃ©e":11535,"oween":11536,"Ġretrouvent":11537,"Ġconnait":11538,"ashington":11539,"Ġformid":11540,"ĠChez":11541,"ness":11542,"Ġdons":11543,"ĠWall":11544,"Informatique":11545,"ĠDÃ©t":11546,"Ġreligieuse":11547,"ĠConcours":11548,"Ġurbain":11549,"Ġinterview":11550,"ĠCra":11551,"ĠconcernÃ©":11552,"ĠÃ©tablir":11553,"Ġtonnes":11554,"Ġcommencent":11555,"Ġclinique":11556,"ĠprÃ©cau":11557,"ĠAf":11558,"ĠconsidÃ©rÃ©e":11559,"Ġparisienne":11560,"ĠpayÃ©":11561,"Lib":11562,"ĠCr":11563,"sidence":11564,"ĠRT":11565,"ĠThaÃ¯":11566,"ĠSacs":11567,"ĠparamÃ©trer":11568,"uise":11569,"Ġessentielle":11570,"Ġgenres":11571,"Ġremercier":11572,"Ġmineurs":11573,"Ġtrimestre":11574,"enu":11575,"ĠThierry":11576,"oriels":11577,"ĠinspirÃ©":11578,"Ġurbaine":11579,"ĠcanapÃ©":11580,"ueux":11581,"ĠÃ©mission":11582,"vente":11583,"ĠPoin":11584,"ularitÃ©":11585,"Ġ---":11586,"Ġtransaction":11587,"ĠIdÃ©":11588,"ĠbibliothÃ¨ques":11589,"inves":11590,"Ġrelie":11591,"sant":11592,"ouveau":11593,"Ġjury":11594,"Ġappliquer":11595,"ĠNeptune":11596,"FOR":11597,"olÃ©on":11598,"ĠHu":11599,"Ġobligation":11600,"Ġado":11601,"Ġsouligne":11602,"ĠlÃ©":11603,"Ġparlent":11604,"ĠPark":11605,"ĠModÃ¨le":11606,"ulateur":11607,"Ġcasse":11608,"Ġcroient":11609,"ĠDiv":11610,"ĠBM":11611,"uritÃ©":11612,"ĠLien":11613,"Ġ1996":11614,"Ġmalades":11615,"ĠchargÃ©e":11616,"omo":11617,"otÃ©":11618,"Ġparticul":11619,"Ġgestes":11620,"acturage":11621,"cra":11622,"Ġgain":11623,"amitiÃ©":11624,"Ġdoucement":11625,"Ġcroise":11626,"ĠPen":11627,"Ġlumineux":11628,"ĠAnglais":11629,"Beau":11630,"arrÃªte":11631,"Ã©roÃ¯":11632,"Ġsoigne":11633,"ĠMÃ©diterran":11634,"Ġdys":11635,"ily":11636,"Ġprogresser":11637,"ĠcÃ©lÃ¨bres":11638,"Ġhall":11639,"ĠFra":11640,"ĠprÃ©fÃ©rence":11641,"entraÃ®nement":11642,"ortant":11643,"Ġvolontaire":11644,"Ġalentours":11645,"ĠassociÃ©e":11646,"ĠâĢĿ":11647,"ĠStÃ©phane":11648,"Ġ148":11649,"Ġissue":11650,"riment":11651,"avoc":11652,"Ġsaurait":11653,"gÃ¨ne":11654,"Ġeth":11655,"Ġconcasseur":11656,"Ġrapproche":11657,"Ġconducteur":11658,"ails":11659,"Ġorth":11660,"ĠRam":11661,"Ġfermer":11662,"Ġfacteur":11663,"Ġvoyant":11664,"Ġcombats":11665,"SL":11666,"esseur":11667,"2009":11668,"ĠmaÃ®triser":11669,"Ġexamen":11670,"Ġglu":11671,"ĠFleurs":11672,"Ñģ":11673,"clÃ©s":11674,"Accessoires":11675,"asie":11676,"ĠprofondÃ©ment":11677,"ĠAM":11678,"ĠpauvretÃ©":11679,"oient":11680,"Ġaud":11681,"Ġterrains":11682,"yo":11683,"enaire":11684,"Ġmillion":11685,"web":11686,"ÃīS":11687,"taire":11688,"Ġsagesse":11689,"Ġpartielle":11690,"ĠnÃ©gatif":11691,"Ġ~":11692,"Carte":11693,"ĠparallÃ¨le":11694,"Pendant":11695,"Ġattente":11696,"Ġprochains":11697,"Gu":11698,"ĠpassÃ©s":11699,"LO":11700,"locu":11701,"Ġenn":11702,"ĠCF":11703,"Ġcherchent":11704,"ĠFÃ©vrier":11705,"Ġreine":11706,"truire":11707,"Ali":11708,"ĠCopyright":11709,"ĠrÃ¨gne":11710,"Ġincons":11711,"Certains":11712,"attra":11713,"ĠRoi":11714,"Ġserai":11715,"ĠSark":11716,"aisissez":11717,"ĠmÃ©dia":11718,"Ġpareil":11719,"artement":11720,"clusion":11721,"ISE":11722,"Ġvirtuelle":11723,"vices":11724,"ĠabonnÃ©s":11725,"ĠÃ©preuve":11726,"Ġdouleurs":11727,"ĠrÃ©actions":11728,"Ã©clai":11729,"ĠintÃ©ressÃ©":11730,"Ġpress":11731,"Ġspont":11732,"Ġloint":11733,"incl":11734,"Sous":11735,"ĠCade":11736,"oivent":11737,"Ã´tÃ©":11738,"Ġblo":11739,"Ġtechnologiques":11740,"Ġsanitaire":11741,"TR":11742,"empÃªcher":11743,"Ġdoctor":11744,"ditÃ©":11745,"effort":11746,"Ġvoient":11747,"ĠSmart":11748,"Ġpertes":11749,"Ã©ron":11750,"reurs":11751,"osex":11752,"ĠAsie":11753,"ĠfondÃ©e":11754,"Ġmonsieur":11755,"ĠON":11756,"ople":11757,"Ġfromage":11758,"yons":11759,"Ġplain":11760,"ctoires":11761,"ĠHÃ´tel":11762,"Ġais":11763,"Ġretours":11764,"Ġaccompagnement":11765,"ĠInstagram":11766,"Ġsoph":11767,"Ġprince":11768,"Ġcontenir":11769,"Ġadministratif":11770,"Ã©rÃ©es":11771,"ativement":11772,"Ġide":11773,"elli":11774,"Ġchal":11775,"ĠreflÃ¨":11776,"mag":11777,"ĠExpl":11778,"Ġmousse":11779,"ĠTelecharger":11780,"Ġadditionn":11781,"ĠtestÃ©":11782,"wood":11783,"Ġdel":11784,"Ġlatin":11785,"ĠGÃ©rard":11786,"ĠrÃ©gionales":11787,"habitation":11788,"AA":11789,"acheteur":11790,"abonner":11791,"board":11792,"Ġcitron":11793,"ĠfixÃ©":11794,"ĠnÃ©cessairement":11795,"ĠcondamnÃ©":11796,"actÃ¨re":11797,"Ġparu":11798,"Ġpratiquer":11799,"Ġconclu":11800,"vic":11801,"Ġstages":11802,"Ġrayons":11803,"ĠrÃ©agir":11804,"Ġcarton":11805,"ĠdÃ©placements":11806,"ĠRichard":11807,"ctif":11808,"uk":11809,"Ġartistiques":11810,"Ġefficacement":11811,"organiser":11812,"bus":11813,"Ġtroupes":11814,"ĠPOUR":11815,"ĠrÃ©centes":11816,"ĠGalerie":11817,"Ġemplacement":11818,"Ġvoisin":11819,"ĠAub":11820,"Ġcourir":11821,"alifor":11822,"Ġcanal":11823,"ĠâĤ¬.":11824,"emme":11825,"acieux":11826,"ĠâĻ¥":11827,"Ġapparaissent":11828,"ĠAoÃ»t":11829,"orial":11830,"ĠDerni":11831,"larg":11832,"ĠJupiter":11833,"cell":11834,"ĠNewsletter":11835,"Ġ115":11836,"ĠobligÃ©":11837,"ĠBeautÃ©":11838,"ĠMass":11839,"olitaine":11840,"Ġguider":11841,"expertise":11842,"ĠprÃ©tend":11843,"inos":11844,"Ġparcs":11845,"ĠCameroun":11846,"Ġhumide":11847,"Ġsimilaire":11848,"formation":11849,"amor":11850,"bar":11851,"ĠNiger":11852,"ĠarchÃ©":11853,"Ġ|--âĹı":11854,"ĠBain":11855,"ĠNC":11856,"ĠrÃ©unions":11857,"Ġmaternelle":11858,"rict":11859,"Envie":11860,"Ġviolences":11861,"ĠCongrÃ¨s":11862,"ĠAnnonce":11863,"Ġremonter":11864,"ĠUranus":11865,"accessi":11866,"ĠSUR":11867,"ĠsituÃ©s":11868,"Ġressort":11869,"ases":11870,"ĠListe":11871,"ĠtentÃ©":11872,"ĠLiban":11873,"Ġjaunes":11874,"Ġgentilles":11875,"Ġmaquillage":11876,"ĠreconnaÃ®t":11877,"ĠRG":11878,"dam":11879,"aki":11880,"Ã§ants":11881,"Ġrestera":11882,"Ãİ":11883,"loc":11884,"Ġ106":11885,"individu":11886,"Ġvingtaine":11887,"omie":11888,"ocÃ©an":11889,"Ġrestos":11890,"entendre":11891,"Ġduo":11892,"Ġindemn":11893,"ĠLot":11894,"uns":11895,"Ġusine":11896,"ĠdÃ©sert":11897,"ĠKen":11898,"acances":11899,"Ġtraditions":11900,"Ġhonor":11901,"Ġbusiness":11902,"Ġconclusion":11903,"Ġpince":11904,"itÃ´t":11905,"ĠmenÃ©e":11906,"ĠÃ©b":11907,"ĠreprÃ©sentations":11908,"Ã´tels":11909,"ĠdiamÃ¨tre":11910,"ĠrÃ©alisations":11911,"Ġsaura":11912,"ĠrÃ©public":11913,"oler":11914,"Ġpositive":11915,"Ġprit":11916,"Ġmassac":11917,"ĠprotÃ©gÃ©":11918,"ĠpÃ©dagogiques":11919,"mÃ¨tres":11920,"aceuti":11921,"kraine":11922,"ommaire":11923,"FS":11924,"laise":11925,"diff":11926,"Ġcrime":11927,"Ġexplos":11928,"ĠentraÃ®ner":11929,"ĠpossÃ¨dent":11930,"ĠBerlin":11931,"Ġconversion":11932,"ĠRol":11933,"Ġrelax":11934,"Ġhautes":11935,"ĠmusÃ©es":11936,"ĠOuest":11937,"Angleterre":11938,"Ġgueule":11939,"ĠWashington":11940,"Ġcoiffure":11941,"quipement":11942,"apporter":11943,"ĠCompagn":11944,"ĠFant":11945,"Ã©diteur":11946,"Ġavion":11947,"Ġcacher":11948,"Ġmettons":11949,"din":11950,"Ġnav":11951,"Ġceinture":11952,"ĠJui":11953,"ĠLibre":11954,"Bel":11955,"Ġheb":11956,"Ġpourcent":11957,"ĠrÃ©pand":11958,"ĠScience":11959,"oises":11960,"ĠSant":11961,"Ġromans":11962,"rances":11963,"ĠOrig":11964,"Ġcompose":11965,"Ġsurfaces":11966,"Ġavocat":11967,"ĠdÃ©partements":11968,"cf":11969,"ĠMix":11970,"ĠEric":11971,"ĠÃ©voque":11972,"acun":11973,"Ãªque":11974,"Ġracines":11975,"Ġcig":11976,"niti":11977,"Ġpouvais":11978,"ĠGau":11979,"ĠAssoci":11980,"ĠgrÃ©":11981,"Ġtechniciens":11982,"Ġpublie":11983,"ĠsÃ©lectionnÃ©s":11984,"CES":11985,"Ġagressi":11986,"ĠappelÃ©s":11987,"ãĤ":11988,"ART":11989,"Ġhabituellement":11990,"Ġcommunautaire":11991,"itan":11992,"ĠHug":11993,"Ġindex":11994,"Ġelect":11995,"Ġcasque":11996,"FO":11997,"Ġsuspension":11998,"Ġtransparence":11999,"ĠAquitaine":12000,"aba":12001,"Ġcouvre":12002,"mit":12003,"Ġcapables":12004,"Ġenvelopp":12005,"rabie":12006,"Ġavancer":12007,"ĠModi":12008,"ĠaffichÃ©":12009,"Ġconstante":12010,"troduction":12011,"ĠrÃ©jou":12012,"Elles":12013,"Ġmate":12014,"ĠAgence":12015,"ĠCM":12016,"ĠPascal":12017,"mper":12018,"Ġtablettes":12019,"ĠisraÃ©li":12020,"ĠmariÃ©e":12021,"ĠdÃ©cennies":12022,"icien":12023,"Ġcampagnes":12024,"ĠNorvÃ¨ge":12025,"ĠdÃ©tachÃ©es":12026,"Ġgend":12027,"Ġpaiements":12028,"Go":12029,"Ġtroupe":12030,"Inf":12031,"ĠMichael":12032,"Ġcouture":12033,"Ġinitiatives":12034,"Ġchinoise":12035,"ĠrÃ©solu":12036,"ĠplongÃ©e":12037,"Jeux":12038,"ĠÃītat":12039,"Ġtechnologique":12040,"uba":12041,"Ġimmeuble":12042,"ĠpersonnalitÃ©s":12043,"FranÃ§ois":12044,"Ã©preuve":12045,"ĠSing":12046,"ids":12047,"!)":12048,"Ġappartements":12049,"Ġespoir":12050,"auteurs":12051,"ĠlancÃ©e":12052,"asc":12053,"ĠLorsqu":12054,"ĠJustice":12055,"lÃ¨che":12056,"Ġsembler":12057,"Ġhonte":12058,"islam":12059,"Ġ168":12060,"Ġfixer":12061,"IO":12062,"ĠdÃ©cr":12063,"ĠFourn":12064,"Ġverrou":12065,"dont":12066,"ĠcuriositÃ©":12067,"Ġaccueilli":12068,"ensÃ©":12069,"ĠdÃ©clare":12070,"Ġfinancer":12071,"Ġlarmes":12072,"ĠGU":12073,"engager":12074,"ĠÃ©cou":12075,"Ġlimitation":12076,"eto":12077,"Ġmontrent":12078,"ĠVoyage":12079,"Ġ158":12080,"Ġprovoquer":12081,"Ġchimiques":12082,"Ġnoy":12083,"IsraÃ«l":12084,"ĠcomÃ©die":12085,"Ã©rÃ©e":12086,"ĠchÃ¨re":12087,"Ġissu":12088,"Ġillust":12089,"Ġmos":12090,"Ġfigurant":12091,"ĠmystÃ¨re":12092,"Ġperformant":12093,"ĠChoisir":12094,"ĠdÃ©passe":12095,"ĠAmÃ©ric":12096,"Trans":12097,"rÃ¨tes":12098,"essources":12099,"ĠAucune":12100,"anat":12101,"eler":12102,"Ã©tudi":12103,"ĠÃ©ditÃ©":12104,"Ġinoubli":12105,"Ġindiquant":12106,"ĠAnaly":12107,"Ġitalienne":12108,"Atelier":12109,"Ġcolonne":12110,"Ġ1994":12111,"Ġpatience":12112,"Ġdoigt":12113,"Ġpleins":12114,"ĠCollection":12115,"ĠconfirmÃ©":12116,"ĠOrdre":12117,"Ġcompagnies":12118,"anz":12119,"ĠdÃ©sactiver":12120,"Ġfigur":12121,"outils":12122,"Ġretenir":12123,"ĠMobile":12124,"Ġdisques":12125,"Trier":12126,"Ġeffort":12127,"domad":12128,"Ġtoilette":12129,"OK":12130,"Ġconstitution":12131,"Ġanonyme":12132,"olescent":12133,"Ġbrillant":12134,"ĠMadrid":12135,"Ġaccessoire":12136,"becue":12137,"Ġbatt":12138,"ĠrÃ©alisateur":12139,"Ġastrologiques":12140,"Ġpsychi":12141,"Ġdress":12142,"ĠVendredi":12143,"ccident":12144,"euve":12145,"Ġpais":12146,"tenez":12147,"nale":12148,"Ġoptique":12149,"Ġcarbone":12150,"Ã¢ts":12151,"ĠarmÃ©e":12152,"quemment":12153,"Ġ-----------------":12154,"chait":12155,"astien":12156,"diversitÃ©":12157,"alem":12158,"Ã©rarch":12159,"ĠGuinÃ©e":12160,"Ġprobable":12161,"ĠMoz":12162,"ĠRÃ©ser":12163,"Ġmout":12164,"avoue":12165,"ĠprotÃ¨ge":12166,"Ġfatigue":12167,"Ġinn":12168,"ador":12169,"aucun":12170,"ĠRab":12171,"ĠconsacrÃ©e":12172,"Sans":12173,"ĠBÃ¢":12174,"ĠNE":12175,"ptures":12176,"ĠGÃ©nÃ©rale":12177,"Ġappor":12178,"ĠLocation":12179,"ĠHist":12180,"ENCE":12181,"Ġout":12182,"Ġfarine":12183,"Ġprovient":12184,"essai":12185,"Ġapprofon":12186,"TIQUE":12187,"ĠTags":12188,"ĠadhÃ©rents":12189,"Ġrestant":12190,"Ġpratiquement":12191,"ĠSinon":12192,"ĠFL":12193,"ĠcÃ©lÃ©br":12194,"cile":12195,"ĠdÃ©signe":12196,"ĠalgÃ©ri":12197,"uscule":12198,"ĠMaÃ®tre":12199,"Ġger":12200,"Ġmusiques":12201,"ĠTF":12202,"Ġcave":12203,"Ġusages":12204,"RIS":12205,"amÃ©":12206,"Ġromantique":12207,"pie":12208,"Ġvisibles":12209,"ĠminÃ©ra":12210,"Ġmiel":12211,"Ġgig":12212,"niÃ¨re":12213,"ĠFe":12214,"Ġcourts":12215,"ĠMonaco":12216,"Sui":12217,"Ġlampe":12218,"ĠSlo":12219,"ĠdÃ©crire":12220,"Ġinsuffis":12221,"opinion":12222,"Ġsuivie":12223,"ĠsouhaitÃ©":12224,"ĠsÃ©paration":12225,"Ġsymboliques":12226,"any":12227,"Ġbleue":12228,"ĠcinÃ©m":12229,"Ġtenant":12230,"ĠrÃ©pondent":12231,"Ġpharmacie":12232,"ĠbiÃ¨re":12233,"Ã©si":12234,"Ġcann":12235,"inverse":12236,"Ġroue":12237,"Ġrespecte":12238,"rogation":12239,"ĠmÃ©diÃ©v":12240,"ĠâĢ¬":12241,"VidÃ©":12242,"ĠSom":12243,"Ã©tablir":12244,"chets":12245,"Ġstations":12246,"inscrit":12247,"Ġsalut":12248,"Ġchanteur":12249,"isson":12250,"Ġvoulons":12251,"ĠguÃ¨re":12252,"wsletters":12253,"Ġexternes":12254,"Ġnob":12255,"ĠGarantie":12256,"exac":12257,"plan":12258,"Ġabsence":12259,"ĠÃ©levÃ©s":12260,"ĠProfitez":12261,"Ġmonument":12262,"Ġritu":12263,"ĠsÃ©duire":12264,"Ġconstructeur":12265,"Ġprovo":12266,"Ġdiversi":12267,"Ġpreuves":12268,"Ġmental":12269,"Ġpourriez":12270,"lÃ¨ge":12271,"Ġmigrants":12272,"Ġprovis":12273,"Ġlits":12274,"ĠPyrÃ©nÃ©es":12275,"ĠFront":12276,"ĠAlbert":12277,"Ġactuels":12278,".),":12279,"Ġmarge":12280,"Ġimplant":12281,"ank":12282,"rose":12283,"Ġinitiative":12284,"anniversaire":12285,"Ġambiti":12286,"Ġtrouvait":12287,"ĠcÃ©rÃ©b":12288,"Ġcivilisation":12289,"Ġsymbolique":12290,"onse":12291,"isti":12292,"ĠÃ©crivain":12293,"ĠrÃ©partition":12294,"ĠrÃ©volutionnaire":12295,"Ġ135":12296,"Ġaient":12297,"amer":12298,"Ġassist":12299,"Apple":12300,"Ġdiffuser":12301,"Ġcultiv":12302,"ĠimpÃ´ts":12303,"appli":12304,"Ġanalyser":12305,"Ġmonuments":12306,"axe":12307,"Ġcout":12308,"Ġnoires":12309,"Ġrattra":12310,"ĠAuteurDateSujet":12311,"Ġadolescents":12312,"estations":12313,"Ġintervient":12314,"ĠWC":12315,"Ġbrou":12316,"ĠautoritÃ©":12317,"ĠrÃ©duite":12318,"occupe":12319,"ĠlibÃ©ration":12320,"ĠTemps":12321,"Ġchair":12322,"ĠVin":12323,"Ġ109":12324,"ĠAstro":12325,"ĠCatherine":12326,"Ġath":12327,"Ġsk":12328,"orn":12329,"endo":12330,"ensez":12331,"ĠAppr":12332,"ĠChauff":12333,"Ġvisitez":12334,"ĠÃ©chelle":12335,"ALL":12336,"CHE":12337,"ĠðŁĻ":12338,"celone":12339,"ditation":12340,"atti":12341,"intermÃ©diaire":12342,"Ġpilotes":12343,"Ġoreilles":12344,"merci":12345,"Ġbol":12346,"gas":12347,"agra":12348,"ĠÃ©ro":12349,"Ġonglet":12350,"ĠMatÃ©riel":12351,"encontre":12352,"Ġinaug":12353,"iblement":12354,"Ġurgence":12355,"entrepren":12356,"Ġmoral":12357,"Ġattendent":12358,"Ġnettoyer":12359,"ĠChoisissez":12360,"ussitÃ´t":12361,"Ġexal":12362,"ĠrÃ©cents":12363,"cieuses":12364,"rairement":12365,"ĠlumiÃ¨res":12366,"ĠspÃ©ciaux":12367,"tissements":12368,"Ġ139":12369,"ĠGPS":12370,"elez":12371,"mpes":12372,"Ġpensent":12373,"Ġov":12374,"ĠImmobilier":12375,"Ġrecueil":12376,"ĠMercredi":12377,"ĠSimon":12378,"Ġbateaux":12379,"SC":12380,"ĠRendez":12381,"Ġpromis":12382,"Ġinutile":12383,"euf":12384,"diÃ¨re":12385,"ĠfaÃ§ade":12386,"ĠphpBB":12387,"ĠaffichÃ©s":12388,"aver":12389,"accro":12390,"Ġbite":12391,"aim":12392,"arriver":12393,"NA":12394,"Ġ129":12395,"ĠInternation":12396,"Ġcouches":12397,"grer":12398,"ĠeffectuÃ©e":12399,"Ġpy":12400,"ĠNu":12401,"Ġcoloris":12402,"ĠDist":12403,"Ġsonore":12404,"ĠdÃ©coup":12405,"ĠcongrÃ¨s":12406,"ĠBru":12407,"alisations":12408,"Ġchatte":12409,"ĠEnvironnement":12410,"ASS":12411,"Ġfantastique":12412,"Ġimprimer":12413,"ratoire":12414,"ĠcommandÃ©":12415,"Ġencourage":12416,"ĠtraÃ®":12417,"Ter":12418,"Ġimpati":12419,"ĠmÃ©nages":12420,"bal":12421,"Ġinternes":12422,"Ã©las":12423,"Ġfolle":12424,"tifie":12425,"Ġvapeur":12426,"Ġcoquine":12427,"ĠFrÃ©dÃ©ric":12428,"Ġcoffre":12429,"ĠvÃ©rification":12430,"Ġauthenti":12431,"Ġoriginales":12432,"Ġimmobiliers":12433,"ĠlÃ©gitime":12434,"sidÃ©":12435,"Ġpromet":12436,"ĠbÃ©nÃ©fice":12437,"Ġcomptable":12438,"lymp":12439,"alier":12440,"mbles":12441,"Anti":12442,"Ġalbums":12443,"ĠcrÃ©ant":12444,"ĠVietnam":12445,"ĠMO":12446,"Ġtouristes":12447,"abeth":12448,"post":12449,"Ġcontribue":12450,"ĠbÃ©nÃ©ficient":12451,"Ġpomme":12452,"ĠFire":12453,"Ġgarantis":12454,"Ġ1992":12455,"RP":12456,"ĠSuite":12457,"Ġvive":12458,"Ġvitrines":12459,"romp":12460,"Ġarrondissement":12461,"Ġnettement":12462,"Ġrequis":12463,"Ġcrimes":12464,"ĠLiens":12465,"Ġtir":12466,"ĠRoyal":12467,"Ġbancaires":12468,"Ġpoliciers":12469,"Ġexprimer":12470,"Ġesprits":12471,"otels":12472,"ĠVierge":12473,"ĠdÃ©fend":12474,"ĠtombÃ©":12475,"Ġinitiale":12476,"Ġparcourir":12477,"ĠaÃ©ro":12478,"Part":12479,"baye":12480,"ĠtÃ©moin":12481,"ĠchÃ¨que":12482,"ĠAjouter":12483,"ĠrÃ©vol":12484,"ĠBruno":12485,"DÃ¨s":12486,"SION":12487,"ĠGratuit":12488,"ĠXIXe":12489,"Ã©par":12490,"lient":12491,"Ġsavais":12492,"ĠSyste":12493,"Ġrede":12494,"Ġentrepreneurs":12495,"ĠSMS":12496,"tifications":12497,"ĠSams":12498,"Ġrendement":12499,"Ġdisposent":12500,"Ġflot":12501,"not":12502,"duites":12503,"ĠMAN":12504,"ĠMarchÃ©":12505,"aisses":12506,"crites":12507,"ĠÃİle":12508,"',":12509,"Ġplaire":12510,"Ġ149":12511,"Ġgaleries":12512,"initÃ©":12513,"ĠPu":12514,"Ġ116":12515,"Christ":12516,"ĠfidÃ¨les":12517,"ĠEmploi":12518,"ĠsiÃ¨ges":12519,"Ġangle":12520,"Ã¤":12521,"Ġ159":12522,"oureuse":12523,"ĠcongÃ©":12524,"ĠCha":12525,"ĠTot":12526,"LM":12527,"ĠGrenoble":12528,"ĠcrÃ©ateurs":12529,"Ġremarquer":12530,"ĠSel":12531,"Ġessentiels":12532,"ĠextÃ©rieurs":12533,"ĠPin":12534,"Ġpira":12535,"ĠOÃ¹":12536,"Ġexpression":12537,"ĠCommande":12538,"Ġmentale":12539,"Ġenseignement":12540,"Ġfortune":12541,"SM":12542,"oine":12543,"Ġculte":12544,"ĠrÃ©fugiÃ©s":12545,"row":12546,"Ġperles":12547,"ĠopÃ©rateurs":12548,"sme":12549,"ĠmenÃ©":12550,"Ġrespectifs":12551,"Ġensole":12552,"ulteurs":12553,"ĠintÃ©grÃ©e":12554,"amÃ©ric":12555,"ĠSarkozy":12556,"ĠinfÃ©rieure":12557,"ĠdÃ©guis":12558,"ĠclassÃ©s":12559,"Ġtrent":12560,"ĠeffectuÃ©es":12561,"command":12562,"rases":12563,"acÃ©es":12564,"ĠRÃ©volution":12565,"vergne":12566,"Ġ??":12567,"Ġverra":12568,"Ġtunis":12569,"ĠUV":12570,"bonne":12571,"ĠGreen":12572,"onnu":12573,"Ã©tend":12574,"amed":12575,"ONU":12576,"Ġpizz":12577,"Ã©bastien":12578,"ĠPetites":12579,"Ġlinge":12580,"asp":12581,"Ġcontro":12582,"Ġvamp":12583,"roi":12584,"teau":12585,"ĠadhÃ©":12586,"ĠSophie":12587,"ĠMarketing":12588,"acts":12589,"ĠSm":12590,"Ġtrajet":12591,"mÃ¨tre":12592,"Ġperspectives":12593,"ĠDess":12594,"TripAdvisor":12595,"ĠrÃ©no":12596,"apparition":12597,"euses":12598,"Ġsalons":12599,"tinÃ©raire":12600,"Phot":12601,"Ġrassemble":12602,"Ġconcevoir":12603,"ĠFRANCE":12604,"ĠCollec":12605,"Ġnourrir":12606,"Super":12607,"ilie":12608,"Ġindicatif":12609,"orant":12610,"piers":12611,"ĠIle":12612,"Ġnew":12613,"ĠSoi":12614,"ĠcÃ©lÃ©brer":12615,"ĠFou":12616,"ĠBah":12617,"ĠTel":12618,"ctivitÃ©":12619,"Ġfonctionnent":12620,"ĠdÃ©licate":12621,"Ġjuger":12622,"Ġfes":12623,"ĠlibÃ©rer":12624,"Ġadministratives":12625,"Ġcocktail":12626,"ĠSupp":12627,"ÃĤ":12628,"ĠBul":12629,"Ġabsent":12630,"ĠhiÃ©rarch":12631,"Ġfusion":12632,"Ġautonome":12633,"500":12634,"BS":12635,"urÃ©s":12636,"Ġsexuel":12637,"Ġ1970":12638,"Ġferait":12639,"attends":12640,"obligation":12641,"lises":12642,"Ġ350":12643,"ĠHTML":12644,"Ġ119":12645,"timent":12646,"agisse":12647,"ĠPie":12648,"ĠTechniques":12649,"hÃ©rence":12650,"Ġmn":12651,"Ġentrain":12652,"ĠeffectuÃ©s":12653,"Suite":12654,"encer":12655,"auth":12656,"Ġexhaus":12657,"observation":12658,"TV":12659,"ancy":12660,"Ġcapitaine":12661,"ĠÃ©trangÃ¨re":12662,"ĠSÃ©rie":12663,"Ġpuissante":12664,"Ġofficiels":12665,"Ġhuiles":12666,"Ġtele":12667,"ouvement":12668,"Ġpersu":12669,"alors":12670,"Ġchimie":12671,"Ġtemporaire":12672,"Ġoriginaux":12673,"lateur":12674,"ĠLaur":12675,"isolation":12676,"Ġfiction":12677,"Ġcombattre":12678,"Ġfabriquer":12679,"Ġfavorable":12680,"ĠSexe":12681,"Ġserre":12682,"Ġconsole":12683,"ensible":12684,"theme":12685,"rutement":12686,"Ġartic":12687,"rue":12688,"seaux":12689,"Ġmic":12690,"ĠAudio":12691,"Ġsuggestions":12692,"bis":12693,"hub":12694,"Ġsalope":12695,"Ġmaill":12696,"indres":12697,"hip":12698,"ĠinfÃ©rieur":12699,"Luc":12700,"ĠHT":12701,"Ġbloquer":12702,"Ġcouss":12703,"blÃ¨mes":12704,"ĠOs":12705,"ĠFranco":12706,"ĠPharm":12707,"Jac":12708,"ĠLibertÃ©s":12709,"anv":12710,"mesure":12711,"ĠID":12712,"pal":12713,"sauf":12714,"raux":12715,"ĠadorÃ©":12716,"Ġnavire":12717,"agiste":12718,"tumes":12719,"ĠchrÃ©tien":12720,"ĠFamille":12721,"Ġplastiques":12722,"Ġattent":12723,"ĠPÃ©ri":12724,"Ã©risation":12725,"ĠconsÃ©cuti":12726,"asso":12727,"DÃ©s":12728,"ĠtraitÃ©s":12729,"Ã©clairage":12730,"PM":12731,"ĠlaÃ¯":12732,"ĠimprimÃ©":12733,"Ġraccour":12734,"autonomie":12735,"Ġbars":12736,"Ġrelatifs":12737,"ĠPremi":12738,"agissait":12739,"Ġmince":12740,"Ġadopter":12741,"ĠrÃ©munÃ©ration":12742,"Ġtiennent":12743,"pedia":12744,"Ġpc":12745,"Ġjouent":12746,"Ġorange":12747,"Livraison":12748,"Ġpassions":12749,"Ġdieu":12750,"Port":12751,"views":12752,"Ġrigueur":12753,"ĠPres":12754,"ĠrÃ©cupÃ©ration":12755,"ciation":12756,"ĠTH":12757,"Ġimaginer":12758,"fonction":12759,"ĠÃ©lection":12760,"oriste":12761,"ĠData":12762,"ĠDenis":12763,"Ġprouver":12764,"ĠpoignÃ©e":12765,"Ġfile":12766,"ĠConseils":12767,"ĠResponsable":12768,"ĠNetwork":12769,"Ġconsommer":12770,"Ġjazz":12771,"Ġrace":12772,"ĠKit":12773,"ĠPhil":12774,"Ġprendra":12775,"ĠKi":12776,"ĠoptimisÃ©":12777,"Ġ82":12778,"ĠdÃ©truire":12779,"Ġordres":12780,"habil":12781,"Ġbalcon":12782,"ĠMÃ©diterranÃ©e":12783,"ĠavancÃ©e":12784,"ĠÃīcole":12785,"ĠaperÃ§u":12786,"ĠCuir":12787,"ĠDre":12788,"Ġperception":12789,"ĠDÃ©fenseur":12790,"ĠmÃ¨":12791,"Ġsatell":12792,"crite":12793,"jo":12794,"ĠMee":12795,"ĠamenÃ©":12796,"AZ":12797,"ĠDar":12798,"ĠVar":12799,"Ġsubir":12800,"Parce":12801,"Ġput":12802,"Ġopinion":12803,"Ġpeintures":12804,"ĠdÃ©sol":12805,"Ġexprime":12806,"Ġbaiser":12807,"ĠUnion":12808,"lecteurs":12809,"ĠType":12810,"ĠLG":12811,"Ġaffili":12812,"Plan":12813,"ĠÃ©valuer":12814,"Ġ136":12815,"PC":12816,"ĠMis":12817,"ĠTok":12818,"Ġdrogue":12819,"ulf":12820,"ĠInstru":12821,"ĠÃ©vÃ¨nement":12822,"ĠvariÃ©s":12823,"ĠNouvelles":12824,"Ġchoisis":12825,"ĠFAQ":12826,"avie":12827,"Ġsangu":12828,"Ġsoupe":12829,"Ġgloire":12830,"Ġbaise":12831,"ĠmodÃ©ration":12832,"Tube":12833,"entir":12834,"ĠprÃ©parÃ©":12835,"Ġtypique":12836,"rÃ©tion":12837,"ĠBL":12838,"vants":12839,"acceptation":12840,"ĠRevue":12841,"Ġpaquet":12842,"DR":12843,"zo":12844,"bie":12845,"Ġappartenant":12846,"ĠAmbassadeur":12847,"ĠAngeles":12848,"mod":12849,"ĠcrÃ©atifs":12850,"Ġcommuns":12851,"Ġincluant":12852,"Ġ126":12853,"Ġneufs":12854,"ĠsacrÃ©":12855,"ĠOrd":12856,"via":12857,"ellation":12858,"Ġlinguis":12859,"ĠNapolÃ©on":12860,"ĠÃ©pous":12861,"Ġpin":12862,"Ġcitation":12863,"Ġprovin":12864,"Esprit":12865,"Ġcahier":12866,"ĠocÃ©":12867,"Ġfondation":12868,"html":12869,"Service":12870,"Ġdata":12871,"ĠÃ©tonn":12872,"cepter":12873,"Ġcasino":12874,"ĠfÃ©minine":12875,"Ġpolyval":12876,"\")":12877,"etre":12878,"tup":12879,"Ġcertification":12880,"ĠforÃªts":12881,"Ġquinze":12882,"ĠThaÃ¯lande":12883,"ere":12884,"Ġdebout":12885,"Ġchang":12886,"aurai":12887,"Ġludique":12888,"Ġconvainc":12889,"Ġayez":12890,"ĠrÃ©cep":12891,"ĠfiabilitÃ©":12892,"ĠprÃ©ju":12893,"Ġmaig":12894,"ĠenregistrÃ©es":12895,"iture":12896,"Ġsoutenu":12897,"ĠIntÃ©":12898,"Ġplateformes":12899,"Ġmasque":12900,"ĠboÃ®tier":12901,"auph":12902,"uma":12903,"Ġmarchandises":12904,"Ġ146":12905,"Ġpouvaient":12906,"Quelques":12907,"ducteurs":12908,"ĠproblÃ©matique":12909,"ĠindiquÃ©e":12910,"sses":12911,"resses":12912,"Ġfonctionnaires":12913,"queur":12914,"Conse":12915,"Ġconces":12916,"Ġpossession":12917,"mas":12918,"augmenter":12919,"Maison":12920,"ystÃ¨mes":12921,"Ġdescente":12922,"ĠFÃªte":12923,"ĠOk":12924,"Ġautonomie":12925,"ĠmultimÃ©dia":12926,"Ġdocteur":12927,"Ġjoint":12928,"onglet":12929,"Ġinfrastructures":12930,"MalgrÃ©":12931,"Ġabonner":12932,"rigue":12933,"rad":12934,"ĠBarcelone":12935,"horizon":12936,"TEL":12937,"ĠÃīlect":12938,"ĠArbres":12939,"Ġsurvie":12940,"ĠprÃ©avis":12941,"ĠPÃ©r":12942,"ĠrÃ©ductions":12943,"Ġapparence":12944,"ghan":12945,"Ġtransactions":12946,"2008":12947,"lante":12948,"geant":12949,"arium":12950,"Ġmobilis":12951,"Ġbords":12952,"ĠfrÃ©quemment":12953,"ĠMark":12954,"Peti":12955,"ĠSamsung":12956,"rions":12957,"attendre":12958,"ashion":12959,"Ġsph":12960,"ĠJon":12961,"ĠOuver":12962,"Ġprotocole":12963,"ariste":12964,"ĠDec":12965,"ĠFÃ©":12966,"Ġgentillesse":12967,"Ġ104":12968,"Ġcourtes":12969,"Ġparlant":12970,"Ġliaison":12971,"Ġsexuelles":12972,"Droit":12973,"Ġmenaces":12974,"Ġpassagers":12975,"objets":12976,"ĠfiliÃ¨re":12977,"Ġgrandi":12978,"ICE":12979,"augmentation":12980,"Ġexten":12981,"Ġchou":12982,"icales":12983,"Ġrecense":12984,"ĠDÃ©claration":12985,"ĠtouchÃ©":12986,"oke":12987,"ĠdÃ©taillÃ©e":12988,"Ġvendus":12989,"TEN":12990,"ĠSab":12991,"php":12992,"Ġvariable":12993,"ĠfÃ©v":12994,"ĠgÃ©ant":12995,"Ġrecommander":12996,"Ġoccasionn":12997,"Ġ}":12998,"Ġtrous":12999,"Ġjustifier":13000,"ĠrÃ©pondant":13001,"Ġup":13002,"ĠdÃ©clarations":13003,"Ġpollution":13004,"ĠDÃ©coration":13005,"ĠvisitÃ©":13006,"ĠGRATU":13007,"Ġpassages":13008,"Ġvolant":13009,"Ġajus":13010,"Ġdiminuer":13011,"Petit":13012,"Ġ155":13013,"ĠSource":13014,"Ġobtient":13015,"ĠrÃ©guliÃ¨re":13016,"Ġrobot":13017,"sectes":13018,"ĠSall":13019,"ĠdÃ©pendance":13020,"Air":13021,"had":13022,"fiants":13023,"Ġpapa":13024,"Ġinstin":13025,"Ãīcole":13026,"Ã©laboration":13027,"ĠRog":13028,"enfer":13029,"ĠamitiÃ©":13030,"idon":13031,"ĠÃ©gal":13032,"ĠBusiness":13033,"abulaire":13034,"gny":13035,"ĠemployÃ©":13036,"Ġexistent":13037,"ĠvulnÃ©ra":13038,"ĠapportÃ©":13039,"ĠTechnique":13040,"Ġillustre":13041,"Venez":13042,"ĠÃ©clair":13043,"ĠREN":13044,"mus":13045,"uisant":13046,"Ġorigine":13047,"esclav":13048,"elier":13049,"Ġhal":13050,"Ġtournant":13051,"Ġopinions":13052,"jeu":13053,"Ġlocalisation":13054,"Ġfaim":13055,"ĠPorn":13056,"Ġmait":13057,"ular":13058,"ĠRH":13059,"Ġfascin":13060,"ueuse":13061,"Ġtas":13062,"Ġsoldes":13063,"Ġjolies":13064,"Ġmilitants":13065,"Alex":13066,"Ġfous":13067,"Ġattitude":13068,"ĠgÃ¢teau":13069,"Ġtransmises":13070,"tia":13071,"thur":13072,"Ġsimult":13073,"olive":13074,"Ġinno":13075,"ĠrÃ©unis":13076,"ainement":13077,"ĠprÃ©cÃ©dents":13078,"oxyd":13079,"ĠSauf":13080,"Ġboulevers":13081,"rigÃ©":13082,"avÃ¨re":13083,"Ġpromesse":13084,"ĠCNIL":13085,"ĠMarcel":13086,"Ġpensais":13087,"................":13088,"Ġfoc":13089,"ĠcachÃ©":13090,"rablement":13091,"Ġparticipant":13092,"Ġvitesses":13093,"Ġpriori":13094,"ĠsÃ©rÃ©n":13095,"ĠalÃ©":13096,"phÃ©m":13097,"sionnaire":13098,"Ġauxquelles":13099,"abe":13100,"ĠdÃ©finitive":13101,"Pal":13102,"Ġ156":13103,"ĠMagas":13104,"Ġservant":13105,"ĠPubliÃ©":13106,"ĠSimp":13107,"ĠGold":13108,"Ġverrez":13109,"Ġinvestir":13110,"ady":13111,"Ġther":13112,"lissant":13113,"Ġsouverain":13114,"ĠdÃ©lÃ©gation":13115,"Ġcuivre":13116,"Ġharmonie":13117,"quiÃ¨me":13118,"ISON":13119,"ĠVenise":13120,"ĠMiss":13121,"aissant":13122,"><":13123,"Ġdue":13124,"finition":13125,"Ġboucle":13126,"ĠPARIS":13127,"undi":13128,"Ġenver":13129,"ĠFils":13130,"ĠOrange":13131,"Ġluc":13132,"ainissement":13133,"ĠsÃ©lectionnez":13134,"ĠconÃ§ue":13135,"ĠtrÃ©sor":13136,"Ġperso":13137,"ĠthÃ©matique":13138,"Ġaccords":13139,"ĠRac":13140,"Ġ175":13141,"Description":13142,"ims":13143,"Ġlogistique":13144,"Ġfiltres":13145,"ĠrÃ©cits":13146,"ĠpoÃ¨te":13147,"Ġreconnus":13148,"Ġsocialiste":13149,"ĠAlexandre":13150,"Ġcarburant":13151,"ĠSC":13152,"Ġhospit":13153,"orre":13154,"ĠgÃ¢":13155,"ĠastÃ©":13156,"ĠOutre":13157,"ĠVersailles":13158,"Ġissues":13159,"ĠDroits":13160,"ĠrÃ©flÃ©ch":13161,"cour":13162,"analyser":13163,"Ġterrorisme":13164,"Ġformidable":13165,"Ġcoins":13166,"ecture":13167,"Ġparrain":13168,"ĠSolid":13169,"Ġ167":13170,"ĠgoÃ»ter":13171,"ĠCop":13172,"pose":13173,"exer":13174,"ĠWar":13175,"ĠentrÃ©es":13176,"ĠÃ©lectrom":13177,"MÃ©":13178,"Ġextraits":13179,"Ġmad":13180,"ĠcroisiÃ¨re":13181,"Ġsilen":13182,"ĠphÃ©nomÃ¨nes":13183,"Ġrenseignement":13184,"obiles":13185,"ĠdÃ©posÃ©":13186,"Ã©lÃ¨ne":13187,"ĠConte":13188,"ĠindiquÃ©s":13189,"Ġreconnue":13190,"ĠavancÃ©es":13191,"interprÃ©tation":13192,"Ġfrancs":13193,"ĠempÃª":13194,"Ġspl":13195,"quants":13196,"Ġvisuels":13197,"Ġfrappe":13198,"Ġengager":13199,"ford":13200,"inets":13201,"Ġheur":13202,"Ġ107":13203,"Ġremplis":13204,"120":13205,"Ġobsc":13206,"ĠrÃ´les":13207,"mile":13208,"Ġcompagnon":13209,"ĠqualifiÃ©":13210,"ĠgÃ©nÃ©reux":13211,"AI":13212,"ĠrÃ©sister":13213,"ĠmÃ©dicaux":13214,"ĠConstitution":13215,"RÃ¨g":13216,"Ġvigil":13217,"ĠDomaine":13218,"altitude":13219,"Ġ169":13220,"ĠprÃ©cisÃ©":13221,"ĠMunicip":13222,"ĠÃ©chantill":13223,"ĠdÃ©licieux":13224,"tille":13225,"aps":13226,"mide":13227,"ĠhÃ©bergement":13228,"france":13229,"ĠHigh":13230,"ĠdÃ©gÃ¢ts":13231,"ĠrÃ©sistant":13232,"Ġ),":13233,"rales":13234,"ĠAllemand":13235,"Ġwh":13236,"Connectez":13237,"eline":13238,"Ġdemandez":13239,"ceau":13240,"Ġhorizont":13241,"Ġhumour":13242,"impose":13243,"Ġhydro":13244,"OBILIER":13245,"armer":13246,"ĠCatÃ©gories":13247,"Inde":13248,"artistes":13249,"Ġinterface":13250,"ĠdÃ©fauts":13251,"ĠperpÃ©tu":13252,"Ġsauvages":13253,"tilitÃ©":13254,"Ġestiv":13255,"Ġ179":13256,"Ġpermissions":13257,"ĠToujours":13258,"estÃ©":13259,"Ġsaisie":13260,"Ġordinateurs":13261,"athlon":13262,"EP":13263,"Ġ176":13264,"Ġmettra":13265,"Ġdemandent":13266,"Ã©lande":13267,"Ġmanche":13268,"Ġnotice":13269,"ĠBourgogne":13270,"ĠAstrotheme":13271,"Ġsyndicats":13272,"Ġobs":13273,"ĠopportunitÃ©s":13274,"ĠsÃ©rÃ©nitÃ©":13275,"omÃ¨tre":13276,"ĠVilles":13277,"ĠArn":13278,"Ġviolent":13279,"ĠCrÃ©dit":13280,"Ġvif":13281,"Ġtuy":13282,"aurÃ©":13283,"ĠamÃ©ricaines":13284,"Claude":13285,"Jus":13286,"Ġrideaux":13287,"ĠTro":13288,"Ġpsychologie":13289,"ĠTerrit":13290,"Nouvelle":13291,"Ġprovoque":13292,"Ġbudgets":13293,"organ":13294,"Ġdirig":13295,"Ġcouvrir":13296,"ĠFree":13297,"Ġsecs":13298,"Ġdirectrice":13299,"Ġfixation":13300,"Ġintention":13301,"Ġconstamment":13302,"ĠsexualitÃ©":13303,"ĠmÃ©canismes":13304,"ĠÃ©quipÃ©s":13305,"RC":13306,"Ġsalaires":13307,"anning":13308,"Ġofferte":13309,"uÃ©e":13310,"Ġbad":13311,"octobre":13312,"ĠPeinture":13313,"ĠGame":13314,"opportun":13315,"Ġtraditionnels":13316,"Ġmoyennes":13317,"ĠcomplÃ¨tes":13318,"Ġoccupe":13319,"Ġfeux":13320,"Ġjanv":13321,"Ġconsoli":13322,"ĠAnnÃ©e":13323,"atteindre":13324,"Cliquez":13325,"Ġ145":13326,"tination":13327,"autique":13328,"Ġcoordination":13329,"Fer":13330,"Ġpoches":13331,"ĠÃ©tudiante":13332,"Ġchaises":13333,"Ġ165":13334,"Ġ114":13335,"istÃ©":13336,"etter":13337,"onnet":13338,"ĠnouveautÃ©":13339,"ĠAtt":13340,"ĠHeures":13341,"Ġpostale":13342,"ĠPom":13343,"Ġassistance":13344,"Ġinclut":13345,"ĠDonald":13346,"Ġsurvivre":13347,"ĠespÃ©rons":13348,"titions":13349,"ĠCafÃ©":13350,"ographies":13351,"Ġintemp":13352,"Ġsoumettre":13353,"ĠmÃ©tÃ©or":13354,"Ġpape":13355,"Ġjouet":13356,"rosse":13357,"avent":13358,"Ġ166":13359,"ARL":13360,"posÃ©":13361,"Ġrembourser":13362,"Ġconjoin":13363,"Ġsoutient":13364,"=\"":13365,"UX":13366,"reau":13367,"ĠÃ©gale":13368,"ĠAfficher":13369,"ĠrÃ©glage":13370,"Ġsubstitu":13371,"Ġmecs":13372,"pire":13373,"ĠInformation":13374,"ĠHarry":13375,"ĠbÃ©nÃ©fices":13376,"ĠdisparaÃ®tre":13377,"eries":13378,"chers":13379,"agnole":13380,"Ġaccorde":13381,"Ġcollecter":13382,"Ġcompromis":13383,"Bou":13384,"diens":13385,"ĠKing":13386,"Ġtch":13387,"ĠCoc":13388,"Ġtrah":13389,"Ġhorm":13390,"ĠvÃ©tÃ©r":13391,"Ġfrein":13392,"Ġnoix":13393,"aptis":13394,"ĠmathÃ©matiques":13395,"Ġtransmet":13396,"Ġabond":13397,"kina":13398,"Ġrapporte":13399,"Ġchoisit":13400,"activation":13401,"Ġoeufs":13402,"odique":13403,"alogues":13404,"OUT":13405,"Ġabsolue":13406,"ĠTim":13407,"institu":13408,"Inscrivez":13409,"ections":13410,"ĠNO":13411,"Ġplanche":13412,"ossier":13413,"ĠrÃ©flexions":13414,"refour":13415,"Ġdesser":13416,"Ġmagist":13417,"ĠrÃ©unit":13418,"Pays":13419,"Ġindividuelles":13420,"ĠBMW":13421,"MO":13422,"elin":13423,"ĠMÃ©m":13424,"ĠrÃ©gulier":13425,"Ġsubi":13426,"Ġpoursuite":13427,"Ġcime":13428,"ĠÃ©volutions":13429,"Ġmultitude":13430,"ĠDanemark":13431,"ĠmystÃ©rieux":13432,"ĠdÃ®ner":13433,"lire":13434,"ĠHad":13435,"ĠðŁĻĤ":13436,"Ġsuppose":13437,"neau":13438,"ĠpopularitÃ©":13439,"Mari":13440,"ĠArticles":13441,"tiÃ¨me":13442,"ĠcontrÃ´les":13443,"Ġserons":13444,"ĠActualitÃ©":13445,"Ġsouviens":13446,"intÃ©grer":13447,"RL":13448,"rigÃ©ra":13449,"Utilisation":13450,"Ġvernis":13451,"Ġcac":13452,"Ġexcessi":13453,"ĠStand":13454,"bons":13455,"pdf":13456,"ĠacquÃ©rir":13457,"joignez":13458,"yer":13459,"Ġpouces":13460,"acteurs":13461,"uu":13462,"ason":13463,"eul":13464,"abo":13465,"vons":13466,"Ġvole":13467,"Ġtennis":13468,"cad":13469,"Ġhect":13470,"Ġpourcentage":13471,"ĠÃ©di":13472,"IGN":13473,"Ġarchitecture":13474,"Ġregistre":13475,"ĠSah":13476,"ateg":13477,"wn":13478,"Ġcapture":13479,"Ġcorriger":13480,"ĠOutils":13481,"Ġcenti":13482,"Ġimper":13483,"Ġ124":13484,"Ġnoct":13485,"ĠDJ":13486,"ound":13487,"Ġabat":13488,"ĠvÃ©ritables":13489,"ĠAdresse":13490,"ĠÂ§":13491,"ĠSpe":13492,"accent":13493,"ĠprotÃ©gÃ©s":13494,"ĠRoch":13495,"ĠcomplexitÃ©":13496,"ĠCitÃ©":13497,"Ġconv":13498,"Ã©vent":13499,"Ġenter":13500,"ĠUs":13501,"ĠAustralie":13502,"ĠcommÃ©m":13503,"Ġ???":13504,"ĠformÃ©":13505,"Ġguides":13506,"Ġtrompe":13507,"jections":13508,"Ġopposition":13509,"ĠdÃ©bute":13510,"ĠgÃ©nial":13511,"Ġcell":13512,"Ð¾Ð":13513,"ĠEur":13514,"Ġcontactant":13515,"Ġstandards":13516,"Ca":13517,"Ġbur":13518,"Ġrefuge":13519,"Ġbranches":13520,"Loc":13521,"ĠdÃ©buter":13522,"Ġbatteries":13523,"Ġinconnu":13524,"ĠrÃ©serves":13525,"Ġml":13526,"ĠdÃ©lib":13527,"Ġfataliste":13528,"pres":13529,"Ġvisuel":13530,"Ġimmer":13531,"Ġconfidenti":13532,"kg":13533,"ĠHP":13534,"Ġinforme":13535,"Ġpharmaceuti":13536,"ĠCÃ¢ble":13537,"VO":13538,"burg":13539,"ĠfÃªter":13540,"ĠMalheureusement":13541,"Ġfournie":13542,"Chez":13543,"ĠtransformÃ©":13544,"ĠGil":13545,"Ġreligions":13546,"ĠappropriÃ©":13547,"Ġidentique":13548,"pects":13549,"Ġmensuel":13550,"ria":13551,"Ġaffronter":13552,"Ġobserver":13553,"Ã©en":13554,"Ġfibre":13555,"hos":13556,"Ġpassez":13557,"ĠcÃ©ra":13558,"inser":13559,"Ġambi":13560,"Ġultime":13561,"Ġlaver":13562,"ĠRace":13563,"2006":13564,"arte":13565,"Ġvign":13566,"ĠCreative":13567,"ĠcrÃ©di":13568,"ĠdÃ©sespÃ©":13569,"ĠLundi":13570,"ĠColombie":13571,"tle":13572,"Ġvoler":13573,"Ġengagements":13574,"Ġenlever":13575,"oyÃ©":13576,"lever":13577,"obs":13578,"Ġneur":13579,"Ġcoulis":13580,"Ġseniors":13581,"Aqu":13582,"ĠÃ©pau":13583,"ĠrÃ©vÃ©ler":13584,"ĠMairie":13585,"orith":13586,"ĠtÃªtes":13587,"ĠÃ©diteurs":13588,"encre":13589,"ĠtÃ©n":13590,"Ġsep":13591,"ĠYves":13592,"ultes":13593,"Ġhein":13594,"ona":13595,"dem":13596,"ĠdÃ©cla":13597,"ĠrestÃ©":13598,"ĠÃ©tudier":13599,"iliers":13600,"mber":13601,"dication":13602,"Ġmajeurs":13603,"ĠPil":13604,"Ġrecharge":13605,"Ġic":13606,"Ġinterlocu":13607,"onniÃ¨re":13608,"Ġmarquer":13609,"Ġexemplaires":13610,"ĠMicro":13611,"Ġavocats":13612,"ĠEnfants":13613,"EB":13614,"ĠHal":13615,"Ġsuccessi":13616,"Ġtue":13617,"Ġphrases":13618,"TEUR":13619,"emballage":13620,"Ġ!!!!":13621,"tuce":13622,"ĠSupÃ©ri":13623,"Office":13624,"Ġsn":13625,"Ġsigner":13626,"ĠSerge":13627,"Mentions":13628,"Ġsolidaire":13629,"Ã¨ges":13630,"ĠEcole":13631,"Ġsexuels":13632,"ticien":13633,"Ġsmartphones":13634,"HA":13635,"Ġpartiellement":13636,"ssis":13637,"Ġsoumise":13638,"ĠMeilleur":13639,"Ġsuppos":13640,"ropriÃ©tÃ©":13641,"Ġapproxim":13642,"stes":13643,"ĠNam":13644,"ĠbactÃ©ri":13645,"ĠPa":13646,"humiditÃ©":13647,"Ġtaches":13648,"ĠAth":13649,"Ġamende":13650,"Ġrobes":13651,"ĠiPad":13652,"ĠAngleterre":13653,"lien":13654,"amar":13655,"sifs":13656,"ĠSaf":13657,"Ġuniverselle":13658,"ĠÃ©puis":13659,"Ġactuelles":13660,"ĠvaliditÃ©":13661,"rsquo":13662,"ĠspÃ©":13663,"ĠmentionnÃ©":13664,"odge":13665,"Ġconcepts":13666,"Ġsondages":13667,"Disc":13668,"Ã´nes":13669,"Ġbanli":13670,"ĠempÃªche":13671,"Ġportefeuille":13672,"ĠFootball":13673,"ĠaussitÃ´t":13674,"Ġaveug":13675,"onnent":13676,"Ġcorruption":13677,"illettes":13678,"Ã©bÃ©":13679,"Ġjuil":13680,"Ġlesb":13681,"ĠrÃ©els":13682,"nelles":13683,"insertion":13684,"actifs":13685,"TIN":13686,"Ġanglaise":13687,"ĠBerges":13688,"ĠÃ©loign":13689,"Em":13690,"Ġsoix":13691,"ĠEnv":13692,"Ġcellule":13693,"INES":13694,"ĠTw":13695,"ĠDiam":13696,"ĠengagÃ©e":13697,"Ġsouffre":13698,"Ġchantiers":13699,"ĠtÃ©lÃ©phones":13700,"Ġchanter":13701,"ĠPet":13702,"over":13703,"iert":13704,"Ġapprentissage":13705,"Ġinvestisseurs":13706,"adou":13707,"Ġmilliard":13708,"ĠLogiciels":13709,"Ġprovenance":13710,"%)":13711,"ĠMore":13712,"Ġforment":13713,"culer":13714,"ĠfacultÃ©":13715,"ĠmatÃ©riau":13716,"Ġtriom":13717,"ĠIt":13718,"cevez":13719,"DD":13720,"XX":13721,"media":13722,"ALE":13723,"Jacques":13724,"ĠNÃ©anmoins":13725,"ĠGeorge":13726,"ĠBriand":13727,"Ġguerres":13728,"ĠBTS":13729,"Ġpolicier":13730,"ĠdÃ©buts":13731,"Ã©cart":13732,"Ã©mique":13733,"Ġgardien":13734,"Ġreligieuses":13735,"CaractÃ¨re":13736,"Ġbouger":13737,"ĠJeunesse":13738,"ĠuniversitÃ©s":13739,"Ġbot":13740,"Ġcircuits":13741,"cur":13742,"Ġinscrivant":13743,"vais":13744,"ĠMÃ©trop":13745,"intÃ©gralitÃ©":13746,"Ġtirage":13747,"bour":13748,"oiement":13749,"ĠChic":13750,"Ġrestri":13751,"ĠMauritanie":13752,"Ġextension":13753,"angers":13754,"Ġ------------------":13755,"Ġfragile":13756,"Ġravi":13757,"Ġ1960":13758,"Choisir":13759,"Ġpist":13760,"acent":13761,"Ġhard":13762,"ĠmodÃ©rateurs":13763,"sey":13764,"pper":13765,"Ġdistingue":13766,"Ġduquel":13767,"outch":13768,"Ġprimor":13769,"phab":13770,"CTION":13771,"»¿":13772,"Ġinscriptions":13773,"ander":13774,"ĠDS":13775,"endrait":13776,"Ġcoque":13777,"Ã©mon":13778,"ĠsupÃ©rieures":13779,"Ġsouligner":13780,"ĠÃ©clairage":13781,"ĠrÃ©tractation":13782,"ĠMaire":13783,"ĠDA":13784,"2007":13785,"Ġsanitaires":13786,"Ġobligatoires":13787,"Ġparquet":13788,"ĠBR":13789,"ĠBad":13790,"ĠLangues":13791,"Ġratta":13792,"ĠVert":13793,"ensitÃ©":13794,"ĠConvention":13795,"Ġmentions":13796,"rovi":13797,"ĠCant":13798,"ĠLas":13799,"Ġtemple":13800,"ĠmÃ©canisme":13801,"apis":13802,"phonie":13803,"ĠFinlande":13804,"ĠgÃ¨re":13805,"Ġpoulet":13806,"Ġcigare":13807,"Ġbaie":13808,"Ġsurveiller":13809,"Ġ?)":13810,"Ġsensations":13811,"Ġgouvernements":13812,"tibles":13813,"ymn":13814,"Ġmodules":13815,"roÃ¯des":13816,"ĠPÃ´le":13817,"ĠFonction":13818,"......":13819,"ĠtÃ©lÃ©phon":13820,"glomÃ©ration":13821,"Ġintervenants":13822,"ĠfÃ©vr":13823,"Asie":13824,"agascar":13825,"Ġalternatives":13826,"ĠStore":13827,"Ġpalette":13828,"ĠRecher":13829,"sance":13830,"Ġseuil":13831,"Ġpoup":13832,"Ġnulle":13833,"ĠdÃ©termination":13834,"ĠbÃ©bÃ©s":13835,"adeloupe":13836,"Ġtransporteur":13837,"ĠMontre":13838,"Ġampli":13839,"optimisation":13840,"ila":13841,"Ġconserve":13842,"ogram":13843,"ĠpostÃ©":13844,"ĠRoumanie":13845,"ision":13846,"Ã¨ves":13847,"Ġtraverse":13848,"Ġinstants":13849,"ĠprÃ©cÃ©demment":13850,"ĠdÃ©marrage":13851,"Ã©levage":13852,"ĠBag":13853,"ĠCommons":13854,"adoption":13855,"...,":13856,"ĠassociÃ©es":13857,"hal":13858,"Ġaccent":13859,"ĠsystÃ©matiquement":13860,"index":13861,"Ġspirituelle":13862,"ĠhonnÃªte":13863,"Ġconvo":13864,"Ġentra":13865,"ĠCannes":13866,"Her":13867,"Res":13868,"Ġfau":13869,"aurer":13870,"ueillir":13871,"ĠprÃ©texte":13872,"ustom":13873,"Ġrestre":13874,"Ġcontinuent":13875,"Ġnaz":13876,"Ġunes":13877,"ĠHel":13878,"Ġfausse":13879,"ĠPrenez":13880,"ĠEntreprise":13881,"Ġillustrations":13882,"Ġfondamentaux":13883,"Ġplur":13884,"ĠVienne":13885,"Ã©couter":13886,"Ġcharger":13887,"ĠprÃ©vus":13888,"amines":13889,"ĠmarquÃ©e":13890,"Ã©tonnes":13891,"ĠminÃ©ral":13892,"Ġtabac":13893,"Ġlentement":13894,"hh":13895,"Faites":13896,"vidÃ©":13897,"ĠspÃ©cific":13898,"Ġpique":13899,"Ġcompens":13900,"olymp":13901,"Ġcentaine":13902,"RÃ©fÃ©rence":13903,"ĠXVI":13904,"ĠÃ©gard":13905,"ĠVictor":13906,"Ġtrouble":13907,"Ġfactures":13908,"Soci":13909,"ĠBoutique":13910,"ansion":13911,"Ġstagi":13912,"Ġintens":13913,"ĠAtelier":13914,"Ġmythique":13915,"rr":13916,"RÃ©g":13917,"YS":13918,"itres":13919,"Ġexploitation":13920,"ĠnÃ©gociations":13921,"Ġbouteilles":13922,"ĠdÃ©faite":13923,"Ġchoisie":13924,"ĠNot":13925,"ĠGarde":13926,"Ġapportent":13927,"Main":13928,"ĠVend":13929,"ensive":13930,"Ġsubs":13931,"Ġ117":13932,"Ġdevenus":13933,"Ġcote":13934,"Ġconsci":13935,"Ġbook":13936,"Ġplait":13937,"ĠFrais":13938,"ĠmaniÃ¨res":13939,"pice":13940,"ĠrÃ©parer":13941,"Ġuniversitaires":13942,"ailli":13943,"raisons":13944,"Ġsand":13945,"ĠSk":13946,"ĠmodÃ©rateur":13947,"ATIONS":13948,"Martin":13949,"Ġhebdomad":13950,"ĠDocteur":13951,"Ġprincesse":13952,"cipation":13953,"Ġdoubl":13954,"Saisissez":13955,
[...]
