#version: 0.2
Ġ d
e s
Ã ©
Ġ l
o n
e n
Ġ p
o u
r e
Ġ s
Ġ c
Ġd e
a n
e r
t i
Ġ a
i s
q u
i n
e t
en t
i t
Ġ m
l e
a r
u r
Ġ v
t e
u n
â Ģ
Ġ et
ti on
Ġl a
Ġ Ã
o r
Ġ t
Ġ n
âĢ Ļ
Ġ f
i l
ou r
Ġ qu
Ġl e
r a
ĠÃ ł
o m
Ġ un
Ġ en
m ent
e l
Ġd es
Ġl es
r Ã©
a l
ou s
Ã ¨
r o
u s
r i
a s
c e
an t
Ġ b
t re
es t
c h
a tion
v e
a u
Ġ C
a i
an s
Ġ j
r es
Ġa u
Ġp our
o s
Ġp ar
a g
m e
Ġc on
e u
qu e
Ġd u
Ġ L
o i
l i
Ġ Ã©
Ġ Â
Ġ 2
Ġ g
c i
Ġ P
a is
s i
Ġd Ã©
n e
on t
d e
Ġ 1
s e
Ġ S
a t
Ġ re
Ġp l
Ġ (
Ġs ur
Ġ M
Ġqu e
Ġc om
Ġ in
. .
Ġun e
t Ã©
Ġc h
Ġ A
d i
Ġp ro
Ġd ans
Ġ est
o l
i e
Ġ rÃ©
Ġp as
it Ã©
Ġv ous
l es
m p
a it
Ġ2 0
a c
Ġqu i
Ġ D
a b
er s
Ġ e
Ġs e
Ã© e
Ġ :
f f
on s
it e
p p
Ġ ou
Ġ r
a in
t er
t u
Ġ E
o tre
Ġpl us
ag e
on n
Ġ B
Ġ h
el le
Ã ª
ai re
a m
Ġa ve
Ġ20 1
ur s
t es
v i
ĠÂ ·
r an
Ġ T
Ġ o
en d
ou v
Ġave c
Ġ F
Ġt ou
Ġc e
u l
Ġ R
Ġs u
c es
Ã© s
Ġ I
i g
Ġn e
Ġm o
Ã¨ re
Ã¨ s
m b
i r
qu es
a le
c tion
Ġ N
Ġ il
Ã© es
oi r
il le
i en
Ġ V
Ġt r
Ġd i
Ġ J
g e
Ġv otre
Ġ -
u e
l is
Ġe x
Ġa v
u i
Ġj e
o t
Ġ i
or t
p r
Ġp rÃ©
or m
.. .
ch e
Ġs ont
Ġ G
p e
a ti
et te
o g
Ġ |
u m
o is
f i
Ġp eu
un e
Ġa c
Ġs a
u re
Ġp r
au x
an d
p Ã©
Ġs on
Ġ te
in e
ĠÂ »
i v
o c
u ti
en ce
a te
i que
Ġ an
eu x
u is
Ã© n
Ġn ous
p os
Ġ ra
Ġm ais
il l
ation s
Ġs er
d u
an ce
Ġt ra
Ġs i
Ġau x
i er
in s
our s
a d
uti lis
0 0
Ġ 3
m es
c t
t en
- -
ent re
u x
is t
a p
ab le
Ã ´
ou ve
ĠL e
Ġm e
i c
Ġs o
Ġ !
l Ã©
tion s
Ġc o
u t
Ġ H
Ã© ri
u b
Ġp er
Ġcom p
s t
b re
i m
Ġm on
is e
Ġtou t
Ġm ar
or s
s er
ĠÂ «
Ġcom m
a v
d Ã©
Ġa r
ai res
c on
Ã© t
Ġ âĢ
Ã §
Ġa pp
Ã© r
ĠÃ© t
en s
au t
Ġ O
ant s
ĠÃ ª
a y
p h
Ġp ers
a ce
ment s
i on
c o
ar d
Ġb ien
ti que
Ġp o
Ã ł
Ġpar ti
Ġs ite
f orm
Ġc ette
i es
t s
s ent
e z
Ġd is
al is
on ne
ĠL a
en ti
Ġf ait
mb re
e ur
Ġ 4
al itÃ©
Ġa l
el les
Ġ U
i b
it s
ĠI l
o y
or d
Ġs es
s s
Ãª me
si on
ĠL es
Ġcom me
Ġr en
ĠdÃ© c
Ġau t
t ra
Ã© ra
te ur
er t
Ġp os
ti n
Ġf aire
us si
Ã© c
Ġc ar
ĠC h
Ġ 5
ĠÃª tre
ĠE n
Ã© g
Ġ y
Ã ¢
Ġp e
Ġ "
e x
on d
ou p
Ġ entre
Ġv i
tu re
Ġm a
Ġ ?
Ġ utilis
ag es
Ġv os
es s
m i
an g
li c
Ġf or
c om
oi re
t r
L e
Ġn otre
e m
ch er
Ġle ur
end re
Ġa d
p ar
Ġpers onn
Ġ on
n i
Ġ res
o k
Ã¨ me
ain e
Ã ®
a il
Ġpeu t
m et
Ġin ter
Ġg ran
j et
o b
v er
i d
le ment
ou t
) .
v en
Ġtr Ã¨s
Ġ ont
Ġs ou
Ġa ussi
Ġc es
Ġs ans
ent s
Ġm Ãªme
Ġcon s
us e
Ġ 6
Ġtra v
in g
pr Ã¨s
our n
Ġ| --
e c
ĠP ar
ĠÃ© tÃ©
Ġd onn
on c
ce p
mp s
Ġt ous
Ġp h
e au
re r
Ġn om
Ġp re
an te
f in
al l
Ġf in
Ġ1 9
Ġqu el
Ġs t
Ġl i
ti v
Ã »
Ġp ri
Ġan n
ig n
ĠJ e
Ġi mp
al es
ti f
Ġpro f
ĠF ran
Ġde ux
Ġa m
ouv er
b le
Ġm Ã©
Ġg ra
Ġc l
ale ment
Ġa t
Ġc ol
Ġj u
ĠI n
Ġt er
âĢ ¦
an de
l le
Ġpro du
as s
L es
ate ur
o it
r u
m in
d es
at s
Ġpro pos
Ã¨ res
Ġpe ti
v ent
) ,
Ġn os
Ġ W
Ġ 7
ti c
Ġn o
Ġp ub
v oir
Ġser vi
L a
Ġ elle
is s
ig ne
ent e
Ġl ui
Ġdi ff
c u
Ġc rÃ©
el s
te ment
ti s
o p
Ġ20 0
a pp
Ġ201 8
Ġ ans
ur es
Ġv is
il s
2 0
on g
re z
Ġcon c
Ġper met
Ġ 8
Ġg Ã©n
Ġc a
Ġ ti
l er
Ġj us
Ġso ci
p uis
Ġdi re
Ġc el
i ci
p l
Ġm an
Ġre c
ol og
Ġv ie
Ġch a
Ġo b
Ã© v
Ġo ff
Ġg r
itÃ© s
E n
Ġ K
it es
or te
Ġe ff
Ã© tÃ©
qu i
Ġ or
Ġt ro
Ġ Q
o in
n er
Ġte mps
Ġde r
l Ã¨
ĠM ar
is te
c Ã©
Ġd ro
Ġ1 0
Ġ 9
c ri
Ġ /
Ġ ri
in si
ok ies
Ġf on
ĠC om
i tion
Ġa ss
ra i
con tre
p er
Ġs y
v es
ĠprÃ© sent
er ci
ĠrÃ© g
Ġp uis
Ġc as
ai ent
co re
Ã ¹
r on
Ġm es
Ã© m
Ġpar t
it u
Ġs ous
Ġs Ã©
Ġm in
ĠP our
c l
ĠA n
Ġ es
ch es
Ġf orm
p i
ain s
ti ques
ĠFran ce
ouve z
a vi
Ġb l
Ġ ,
r it
Ġc li
en se
Ġde m
Ġf a
Ġtr ans
ĠâĢ ¢
Ġ ;
ou le
Ġco okies
ol u
ar i
Ġin form
u es
Ġ w
ĠÃ© g
ou l
Ġn ouv
Ġs eu
ĠE t
te urs
ĠD e
Ġcon f
Ġi m
e mp
Ġfon ction
U n
Ġt u
Ġt h
Ġf ran
m is
Ġen core
il i
Ġo Ã¹
le ction
Ġa insi
Ġde v
Ġ1 5
Ã© lÃ©
ĠgÃ©n Ã©ra
n es
Ġc or
Ġtou te
i re
o pp
Ġav ant
o ci
end ant
Ġsu is
Ġp ay
ti tu
si onn
Ġn on
Ġde puis
an c
il itÃ©
Ġcon t
Ġm al
Ġmon de
ain es
en ne
Ġcomm un
Ġj our
Ġcon n
Ãª te
res se
eu re
Ġl ors
ces s
ĠÃ ī
Ġb eau
Ãª tre
Ġf ois
it er
in t
e ment
Ġre p
ĠrÃ© p
Ġnom bre
Ġd onc
j our
Ġs al
Ġgran d
i ques
Ġn i
Ġtou tes
an ces
ri c
Ġd ont
li g
Ġb as
ou te
Ġf em
om me
Ġren contre
Ġa b
Ġc our
fi c
Ġ1 2
ĠU n
Ġn ouve
Ġc ert
pÃ© ri
j ours
g an
Ġac c
ra is
ĠÃ §
ri er
an n
ĠV ous
o li
Ġle urs
Ġb on
ĠÃ§ a
ab les
ve mbre
Ġin s
Ġa g
er n
Ġ201 7
Ġdonn Ã©es
Ġgra tu
Ġin tÃ©
Ġmo is
Ġf i
en ces
ant es
tÃ© s
at ure
ĠC e
Ġl iv
g ra
v is
on e
Ġ1 4
Ġ 0
ne ment
ĠM ais
ĠC on
o de
m er
Ġmo ins
es tion
Ġf il
Ġa s
Ã§ ais
Ġcon tre
a re
Ġa prÃ¨s
rÃ© e
utilis ation
Ġp ouvez
ĠÃ© v
Ġm et
p te
Ġ1 8
ĠÃ©g alement
Ġ [
ou pe
pÃ© ci
Ġph ot
u er
Ġen f
Ġaut res
ĠrÃ© s
E S
Ġv er
Ġp ouv
Ġ1 7
t a
Ġpro p
as se
n et
Ġso it
Ġpub lic
te z
l s
Ġg ar
Ġtou jours
e b
Ġ1 6
Ġme ille
an ge
mb le
ĠÃ©t ait
ac t
ĠdÃ© v
Ġpo li
Ġre l
ch Ã©
ate urs
ĠÃ© c
d ent
li er
Ġ1 1
Ġav oir
Ġ201 6
Ġprof es
is se
di tions
Ġc ro
Ġsa voir
is es
Ġ1 3
d er
a ille
ra tion
om mes
Ġre cher
qu er
Ã» t
di c
Ġn avi
Ġquel ques
Ġno vembre
Ġ201 5
ĠdÃ© b
ĠâĢ ĵ
ve z
ill et
ĠP l
Ġv ers
O N
m ar
Ġpre mi
vi er
ci p
Ġv a
m Ã©
g er
P our
Ġm i
Ġd om
t res
li que
Ġdiff Ã©r
ri r
Ġl ong
ĠQ u
an ti
Ġ ent
Ġcom ment
ĠS i
Ġs pÃ©ci
Ġ &
el opp
ag n
ĠP ro
Ġal ors
Ġra pp
Ġser a
ĠN ous
os e
p ort
Ġnavi g
Ġcom pr
il li
Ġpay s
rÃ© s
Ġch ar
di tion
Ġj ours
ti ve
Ġpos si
ur o
ati que
m ier
Ġl Ã©g
Ġa ff
Ġte ch
Ġm ain
d enti
Ġm om
Ġ .
Å ĵ
Â °
Ġ ...
Ã ī
ra it
ĠPar is
ac c
Ġ201 4
Ġp i
ul t
20 1
Ġ ro
v ous
Ġpas s
ri b
Ġ k
gan is
Ġj ou
a Ã®
ĠA u
Ġsi mp
Ġch er
ag ne
Ġm oi
o bre
Ġpri x
t h
Ġc ap
Ġil s
Ġm us
Ã© p
g es
Ġm at
ais s
Ġs c
ĠrÃ© alis
Ġprodu its
Ġpro jet
ĠA l
a de
in es
c oup
le ct
ie urs
v re
ĠA r
iv ers
Ġcel a
Ġl igne
pte mbre
ct obre
i mp
Ġau tre
Ġpersonn es
aut res
m an
Ġcomp te
res s
r Ãª
d re
Ġn Ã©
ser v
i Ã¨re
Ġcha que
E R
Ġav ait
Ġf am
ro s
Ġpl an
Ġa fin
c teur
Ġc oup
Ã© b
cri p
an vier
Ġsu pp
c ont
Ġfran Ã§ais
Ġpl ace
Ġt Ã©lÃ©
Ġr est
Ġf er
o Ã»t
Ġch ez
J e
Ã´ t
or ti
Ġsu iv
t ant
Ġpar f
Ġm ai
us es
c c
Ġqu and
Ġv oir
g n
f s
Ġd ou
Ġfor um
ĠdÃ© p
r is
Ġtrav ail
V ous
et s
l a
ĠdÃ© j
Ġf aut
o d
qui pe
v ers
Ġprofes sionn
oi x
Ġs ais
elle ment
I n
Ġnouve au
Ġac cep
Ã© li
Ġmom ent
b les
Ġm ont
a ur
a z
r il
Ġdis pos
ist oire
Ġpre mier
ĠrÃ© f
tÃ© ri
il les
ent es
Ġcon st
Ġpeu vent
ĠU ne
rÃ© sent
Ġre g
Ġpr in
Ġservi ces
ĠdÃ©v elopp
ra ph
b e
Ġbeau coup
a ch
Ġpro b
00 0
l o
Ġo ctobre
Ġjus qu
f r
ĠT h
ĠE lle
te l
Ġcon se
Ġ201 3
Ġse ptembre
Ġju in
ag er
pr ise
Ġse m
ce mbre
h ui
Ġs itu
ĠR e
Ã ¯
Ġs oi
et tes
o le
Ġder ni
1 0
Ġj anvier
pe ct
p on
Ġv rai
Ġplus ieurs
p s
Ġrecher che
Ġp or
Ġmais on
Ġb i
Ġb es
Ġin di
Ġl oc
Ġc ours
Ġd ur
! !
Ġa i
Ġinform ations
Ġservi ce
or is
oi res
Ġpeti t
E N
Ġb ou
tic le
â Ĥ
ĠdÃ© s
âĤ ¬
Ġqu alitÃ©
Ġave z
I l
u c
el on
Ġgran de
o re
Ġj am
Ġd oit
at h
Ġv oy
Ġm ag
Ġdro it
ĠO n
-- --
con om
Ġen v
Ġi ci
Ġcon tin
i ons
Ã©c ur
Ġc ul
Ġtro is
Ġn ature
Ġsou h
A N
Ã¨ ne
or i
Ġv en
Ġparti e
si ons
Ġin st
3 0
Ġv ol
Ġex p
N ous
Ġcon tra
Ġm ess
en n
Ġnouv elle
ĠdÃ©c ouv
Ġtro p
Ġre t
ĠdÃ©j Ãł
Ġm is
1 1
Ã ĥ
Ġparti cu
ction s
qu Ã©
v ant
Ġd it
u d
ĠdÃ© f
Ġe mp
ri que
c is
Ġc et
Ġmar s
ĠdÃ© cembre
Ġm en
c ul
Ġsu ite
ien s
Ġ201 2
pon ib
Ã©v rier
ti er
Ġ X
g Ã©
Ġcon ten
Ġau c
l u
p ons
Ġj ourn
ati ve
ouv ent
og raph
jour d
ang er
ain t
Ġch e
ri e
Ġat t
gra m
Ġa ur
l og
am b
Ġl Ãł
Ġmo y
l et
tif s
g ie
Ġj eu
Ġmo d
un es
om b
olu tion
Ġsouh ait
ĉ Ċ
Ġt y
ĠÂ» ,
Ġfem me
ati s
r ent
Ġju illet
com p
Â »
Ġri en
u it
fi er
C h
v Ã©
Ġar ri
T I
ve c
om m
al i
res sion
Ġf ond
i ch
Ġc i
Ġjam ais
Ġpremi Ã¨re
ĠÃ© p
Ġav ons
Ġp ra
Ã´ le
ĠD i
C e
Ġs orti
Ġ Y
am ment
Ġsoci Ã©tÃ©
Ã§ on
1 9
Ġimp ort
o il
Ġav ril
Ġl ib
o w
ui re
Ġs ol
Ġenf ants
Â ©
c re
Ã¨re ment
ar t
Ġv ille
el l
Ġo p
fic ation
Ġc an
Ġtr ouve
ant Ã©
Ġp le
Ġ3 0
Ġdem ande
w w
Ã¨ g
alitÃ© s
Ġpouv oir
us s
ĠD es
ĠnÃ© cess
o v
se ment
x e
Ġm ati
Ġapp ar
olog ie
ill er
Ã© d
Ġs Ã©cur
ĠÃ© tu
Ġra is
m o
Ã© ro
Ġli eu
Ġvi dÃ©
Ġre tr
eur es
ite ment
Ġn um
ve au
Ġpers onne
Ġin f
Ġtech n
cep tion
is me
Ġf Ã©vrier
Ġp ort
Ġ ess
a k
Ġt en
Ġann Ã©es
pÃ©ri ence
is tre
a h
Ġsy st
e urs
ĠD ans
ra s
n ation
Ã©r ence
Ã¨ le
in form
5 0
se z
in ter
Ġf ais
Ġc ent
i ti
Ġs p
Ġa oÃ»t
Ġ Z
Ġdis ponib
Ġm Ã©t
1 2
Ġc ad
n ier
ar ge
Ġn ot
Ġpr endre
Ġn ation
onne ment
Ġt our
ĠS t
Ġet c
Ġor ganis
A R
al y
Ġm er
Ġac tiv
Ġm illi
Ġc eux
Ġv iv
le c
Ã¢ ce
Ġte x
Ġparti r
Ġcel ui
Ġc Ã´
Ġcon ditions
ĠÃ© lect
Ġpoli tique
Ġpo int
Ġdem and
ĠM on
Ã©t ait
Ġs Ã©ri
ĠC ette
Ġpr om
Ġ z
Ġrep rÃ©sent
A r
.. ..
Ġh ab
Ġp orte
Ġs au
Ġl og
Ġmi eux
Ġc al
Ġex emp
a ff
t ent
at ri
Ġder nier
t out
Ġcon fi
Ġtr ouver
min ist
Ġp endant
Ġb onne
au d
us t
Ġc oule
c le
Ġres pons
Ġpro gram
oc u
Ġv eu
Ġm ise
Ġs ens
Ġr ou
Ġes p
Ġgr oupe
Ġch ois
ĠC ar
Ġh um
Ġmet tre
j ou
Ġ eu
I N
c er
I S
oc k
pi de
ĠIn ter
Ġs elon
U R
ai r
Ã©n Ã©
f or
Ġp age
Ġpossi ble
Ġsu jet
Ġt on
ten ir
b o
Ġgratu it
ĠrÃ© se
Ġconc ern
vi ent
1 8
Ġfil m
a di
r ont
Ġ201 1
tÃ© e
ti en
ĠÃª tes
ci en
1 5
ol es
Ġa ch
Ġqu estion
S i
u ite
Ġfam ille
Ġpar ten
Ġprodu it
p ul
Ġf ourn
Ġra pide
Ġc ou
ven ir
Â Ń
Ġf ac
Ġch oix
de z
ĠÂ» .
Ġs ouvent
Ġprin cip
Ġaccep tez
Ġc in
d s
Ġ Ġ
Â «
Ġren cont
in tÃ©
l les
rib u
Ġrapp ort
ais e
ĠS aint
m and
ĠdÃ© m
co le
ur i
Ġou v
l ar
Ġre f
j e
Ġ2 4
m ail
pr ises
Ġen se
Ġs ign
re t
Ġdro its
Ġni veau
Ġun ique
Ġpropos e
Ġc uis
ot h
Ġ2 5
Ã¨ te
Ġmo di
Ġdes s
Ġf l
Ġre mp
Ġeff et
Un is
is c
1 4
Ġs our
Ġt ant
Ġpeti te
Ġvrai ment
g rÃ©
k e
Ġpi Ã¨
Ġac tu
or ation
ĠP h
Ġl im
b ilitÃ©
Ġbes oin
Ġres te
lÃ© ment
ĠrÃ©g ion
Ġv oit
ĠS e
A n
ï ¿
ci er
Ġs ommes
Ġcert ains
Ġcom b
Ġt a
u el
Ġpas se
Ġs ites
p es
vi r
Ġ1 00
li e
par t
iss ant
ï¿ ½
Ġc elle
Ġser ont
om e
Ġsu b
ten ant
ĠdÃ© t
Ġfem mes
ac tion
Ġpour s
j ec
crip tion
Ġpr is
t t
ĠN e
Ġb r
aiss ance
Ġutilis er
u g
ab ilitÃ©
ra ge
1 6
ten tion
ĠprÃ© f
v Ã©e
Ġr is
le x
Ġje une
re g
au te
as si
ĠE x
is tes
au tre
i le
Ġf ut
Ġvis ite
Ġphot os
a me
Ġin c
mb l
l oi
E t
ac k
Ġad ap
Ġ +
A l
Ġch ose
Ġje unes
er re
Ġnavig ation
ĠR Ã©
Ġnot amment
Ġass oci
Ġdes tin
R E
y n
Ġann Ã©e
Ġfa Ã§on
pe c
Ġexemp le
Ġcad re
ĠT ous
qu oi
1 3
Ã©ri que
1 7
Ġinter net
fi que
Ġc at
Ġsyst Ã¨me
du ction
Ġc er
ĠsÃ©cur itÃ©
d it
Ġre ce
Ġsur tout
Ġw eb
r y
Ġsem aine
Ġcon ne
Ġan im
ĠrÃ©s ult
Ġau jourd
Ġbl og
si dent
Ġt ot
Ġ201 0
i f
o rer
as ion
al er
" ,
u le
Ġgr Ã¢ce
x im
mb res
ĠrÃ©p ond
Ġcon tr
l us
Ġfa ci
Ġh omme
Ġsi Ã¨
Ã «
ĠÃ© ch
it aire
Ġse con
uro pÃ©
Ġcon si
ĠsÃ© lection
Ġmo t
os si
Ġh eures
T E
Ġpo in
Ġcom pos
Ġgar anti
du c
ati f
ph one
Ġl oi
ĠIl s
o te
Ġre m
aÃ® tre
Ġp Ã©ri
ra in
Ġb ar
g ent
Ġr Ã¨g
Ġtrav ers
Ġdire c
av oir
Ã© ment
U ne
ĠÃ© conom
D e
Ġcol lec
D ans
Ġin v
ĠdÃ©b ut
Ġl it
ure r
enn ent
Ġnouv elles
end u
oi e
age ment
o ff
ĠV i
Ġfor me
ĠC an
Ġp u
Ġv al
Ġar tis
tic les
te ction
at t
er a
Ġeff ec
Ġb Ã©nÃ©
Ġcont ac
Ġh aut
a mp
Ġsimp le
ĠA c
ĠC l
ĠrÃ© c
oy er
Ġ %
Ġprop ri
es p
Ġseu lement
L E
Ġ ord
Ġpar c
ar m
il es
ĠP age
d uire
i Ã¨me
Ã© rÃ©
Ġsal le
it al
Ġcul ture
an e
Ġpas ser
Ġbas e
au teur
ĠrÃ© serv
Ġman iÃ¨re
Ġs antÃ©
Ġf ace
Ġmar i
Ġparticu li
Ġconst ru
ĠdÃ©couv rir
am bre
Ġi d
Ġin d
tin g
Ġty pe
ue il
A u
on ce
Ġf ont
ri Ã¨re
e ff
Ġex pÃ©rience
in d
o ti
Ġnombre ux
Ġpl ais
Ġal l
Ġpar ce
Ġseu l
i tions
Ġg estion
2 2
ĠÃī t
ri g
ĠD Ã©
Ġd ocu
ici le
ou b
ard in
Ġ5 0
os es
Ġd ist
ĠD E
Ġpo pul
ac es
tÃ©ri eur
Åĵ u
Ġb elle
ĠS er
Ġjus te
ĠJe an
Ġme mbres
ĠG r
y ant
ro p
Ġv ente
Ġc r
tion n
Ġrec onn
ĠF or
Ġinter nation
Ġmat Ã©ri
as t
Ġm ort
o ph
Ġv ale
Ġb ois
Ġf rais
C om
Ġsu per
Ġf ra
Ġres s
ĠM ont
Ġv Ã©
ĠR en
Ġreg ard
ĠdÃ©velopp ement
ĠdÃ© ci
d ess
rais on
Ġt able
Ã©ri c
ul ti
ĠbÃ©nÃ© fi
Ġfonction n
Ġad resse
Ġp res
/ /
2 4
Ġg Ã©
Ġcomm ande
Ġform ation
Ġa id
rÃª t
Ġv oul
Ġch ange
O R
Ġliv re
Ġim m
lic ation
ĠT r
Ġb o
p t
ĠÃ© quipe
Ġp an
ĠdÃ© si
Ġl ien
ĠcÃ´ tÃ©
Ġvoy age
Ġapp el
ann Ã©e
ab lis
P ar
Ġi denti
l ab
Ġc entre
Ġd Ã¨s
Ġdonn er
ch i
Ã¨ tres
ĠdÃ© fin
Ġb out
Ġoff re
" .
en si
ĠsÃ©ri e
Ġv ue
Ġ #
Ġdev ant
Ġpours ui
s y
Ġmeille ur
c ture
Ġpr Ã¨s
Ġrencont res
Ġs ci
Ġvi ol
Ġen g
Ã©g or
Ġqu oi
Ġas sez
l ais
ier re
Ġv u
ĠN o
Ġv it
alis ation
Ġg l
Ġcor ps
s p
Ġch au
ien ne
o ins
Ġpub li
A C
cl us
Ġcar te
Ġg ouver
ĠP e
Ġ19 9
Ġp ai
r ant
w s
Ġquel que
Ġf r
a Ã¯
Ġd onne
A S
ĠmÃ© di
ĠprÃ© v
ĠdiffÃ©r ents
m ment
âĢ Ŀ
o que
Ġauc un
Ġmo b
Ġconcern ant
p endant
Ġg en
Ġac comp
Ġpro ch
Ġrais on
ĠvidÃ© o
Ġ elles
fi Ã©
Ġtra itement
Ġf ab
Ġg ros
ĠC ont
ul aire
Ġcom pÃ©
Ġh ommes
Ġret our
Ġp ense
Ġparf ois
Ġmin u
qu el
Ġmes ure
e e
ci e
l Ã¨me
m Ãªme
Ġpr end
Ġ4 0
vir onnement
a que
Ġplais ir
Ġd oi
ĠC es
y s
Ġse c
v ie
2 5
Ġe uropÃ©
Ġparf ait
ĠgÃ©nÃ©ra l
Ġcons titu
: //
Ġ 000
6 0
s ence
ac tiv
Ġl ang
Ġch oses
uro pe
Ġs Ã»
Ã© lection
Ġti tre
Ã© qu
Ġ200 9
ille z
Ġ >
Ġca mp
Ġaut om
or ter
ati ves
u li
mÃ© di
d ro
Ġj eux
h istoire
Ġv Ã©r
Ġpeu x
ran d
O S
Ã« l
Ġp ie
Ġ âĤ¬
Ġ eux
8 0
ĠC ol
av ant
di o
te mps
ĠP rÃ©
Ġc ir
qu ant
oti di
Ġt Ãªte
ti m
Ġser ait
2 3
Ġprob lÃ¨me
C ette
uer re
Ġcher che
Ġte l
ill age
Ġmo de
Ġor ig
de c
o x
Ġdi vers
Ġmar que
Ġprop re
Ġmain tenant
Ġphot o
ag it
Ġcomm en
alis te
Ġaut our
et er
ĠâĢ ¦
Ġcuis ine
Ġb ut
ge ment
use ment
ou d
Ġmar chÃ©
Ġcomm erci
Ġg ens
c k
ĠÃ Ģ
ĠC o
s uite
a tre
ni ques
ĠÃīt ats
p ond
5 4
Ġf eu
en f
Ġconsi dÃ©
Ġf Ã©
Ġtr ouv
Ġqu es
on ces
oi ci
ati ques
Ġcli ents
A L
Ã¨ mes
Ġprogram me
Ġs us
i de
Ġlors que
Ġ2 3
ite z
oc c
Ġc ri
pr it
Ġques tions
s es
Ġsu ff
ven tion
an ci
ment ation
i a
ĠAn n
Ġconten u
ĠÃ© lÃ©
Ġh eure
Åĵ ur
denti alitÃ©
Ġmess ages
res pond
ĠS h
Ġqu otidi
Ãª t
Ġnouve aux
Ġl arge
Ġpl u
Ġh y
el a
Ġf ille
rÃ© es
si d
Ġl oin
Ġpeti ts
ut Ã´t
ĠprÃ© cis
Ġma j
in c
Ġre com
ou re
Ġcons ul
Ġb at
minist ra
t on
Ġp ens
a ill
I L
Ġcl asse
Ġ us
g u
ĠA d
Ġre v
au l
Ġt ourn
is ation
Ġl o
y si
Ġentre prises
ĠgÃ©nÃ©ra les
Ġin dÃ©
O U
al le
ĠâĢ ľ
Ġav is
Ġl um
aÃ® t
Ġdis c
Ġjourn Ã©e
k i
tÃ© es
ti l
Ġv endre
ĠA m
Ġp ol
n Ã©
Ġar ticle
Ġ2 2
Ġs enti
di e
Ġan g
ar ticle
Ġcor respond
h eure
Ġt est
Ġr om
Ġapp r
ĠM e
ĠA vec
Ġar ticles
Ġutilis e
Ġte mp
ĠÃ ¢
ĠCh ar
Ġpro tection
Ġth Ã©
Ġtrav aux
a f
Ġpass Ã©
ĠmÃ© dic
Ġpra tique
ĠCom m
ĠP as
onn es
Ġd ate
se ur
4 0
Ġv ac
ĠB l
in f
Ġp ap
Ġt oi
ot s
ran ce
aille urs
7 0
ic ation
Ã§ u
3 9
Ġl iste
Ã© quipe
Ġa yant
Ġcon te
du it
Ġcli ent
ti ers
ĠcrÃ© ation
Ãª tes
Ġsitu ation
Ġpoin ts
cÃ© d
Ġpl utÃ´t
y le
Ġch ac
ĠA ut
O M
o h
ĠdÃ© pl
Ã¢ te
i x
Ġ2 1
Ġpropos er
ense mble
au v
ĠT e
oci ation
Ġmus ique
Ġ )
tr u
u p
m m
ac itÃ©
g ne
Ġderni Ã¨re
Ġf ort
Ġcoule ur
ĠrÃ©se au
ĠA pp
Ã© ch
ĠcrÃ© er
Ġ2 6
I I
it ation
Ġseu le
Ġcompr is
Ġma Ã®
Ġeffec tu
Ġnavig ateur
ard s
Ġminu tes
Ã© l
at oire
ĠG u
ti ent
Ġpour rait
on de
h ic
our g
en ir
Ġse x
Ġgrand s
_ _
z e
er ie
b es
ili eu
Ġauc une
ĠW eb
Ġchar ge
Ġrel ation
ĠM an
Ġpuis s
tiv es
7 8
Ġmeille ure
acc Ã¨s
Ġ2 8
Ġliv raison
inform ation
Ġb an
or ig
di d
olog ique
am me
ti e
Ġpro tÃ©
Ġal ler
Ġ x
Ġoff res
Ġex c
Ġpour quoi
il ier
h ab
r ou
Ġch ambre
Ġvi ent
Ġo pÃ©
Ġam Ã©li
occ asion
ici el
Ġh tt
or itÃ©
Ġmess age
h Ã´
ĠprÃ©sent e
oli tique
ĠO r
on es
---- ----
ais on
Ġm ulti
ai de
mis sion
or de
M ar
Ġch em
Ġr Ãª
Ġmoy en
ĠInter net
Ġlib er
ig ni
Ġmon tre
ĠrÃ© ser
au tÃ©
ĠC or
cri re
Ġau prÃ¨s
Ġa li
Ġsy n
al og
ri m
pos ition
9 0
re ment
I C
ĠÃ©t aient
ĠCon se
Ġs ac
anc er
it able
ĠÃ© qui
a x
ĠD Ã©c
ĠS ur
Ġse mble
Ġpersonn el
Ġr endre
R A
Ġcomp lÃ¨
ĠÃ©tu di
Ġveu t
2 6
ĠS u
Ġob lig
ĠC ons
Ġn uit
Ġple in
is er
Ġprofessionn els
r ons
ur ent
Ġn oir
it h
an che
Ġs oir
Ġen reg
Ġmon di
ĠdiffÃ©r entes
ĠPl us
av ais
ĠfranÃ§ais e
Ġdom aine
Ġ2 7
au che
Ġver sion
Ġcont act
ib le
er m
Ġn orm
ĠS on
r om
Ġv ari
Ġparti cip
Ġpr ise
Ġvac ances
in er
in aire
bo ok
U E
Ġpersonn elles
âĢ ¢
ex p
Ġs igni
Ġviv re
TI ON
Ġsimp lement
Ġparten aires
Ġentre prise
is ode
Ġan ti
ĠD u
Ġcert aines
Ġrest aur
n o
Ġsais on
Ġ â
Ġca use
Ġt ent
ĠÃ©t ran
ĠO u
Ġr end
Ġter re
oi gn
ĠdÃ© g
I T
Ġm or
Ġj ardin
Ġcontin u
Ġres pec
on ie
cess oires
n ov
ĠnÃ©cess aire
Ġconne c
ĠT ra
ace ment
Ġmati Ã¨re
h Ã©
C on
ter n
is ser
Ġcons omm
Ġinst all
Ġr ue
in dre
and es
en g
Ġcontac ter
Ġpri v
2 9
vi ron
Ġ200 8
Ġ is
Ġcha mp
ĠT out
m en
Ġrece voir
4 5
Ãª mes
ag ner
Ġt end
Ġpersonn alis
Ġb al
it aires
Ġh ist
par ation
ure au
f ie
v al
Ġdirec tement
ue ur
Ġv ais
Ġprojet s
Ġrapide ment
Ġam is
ou n
ĠrÃ© v
Ġpar ler
Ġh istoire
ch ar
ĠS a
re c
isse z
Ġparti ci
Ġgouver nement
Ġli re
Ġm erci
Ġper form
Ġeff ic
or me
me di
Ġnum Ã©ro
Ġmilli ons
ĠvÃ© hic
Ġbl anc
Ġt aille
j oin
ĠDi eu
Ġde vez
ĠintÃ© ress
Q u
Ġg ui
par tement
Ġactiv itÃ©s
ĠrÃ© un
Ġ Åĵu
dition n
ins t
ĠÃ©t ant
ĠB ar
ĠFor um
Ġsouhait ez
Ġter rit
Ġl un
Ġal le
ĠrÃ©alis er
at es
i me
Ġdoi vent
Ã¨ de
ĠpÃ©ri ode
Ġconf ir
Ġnombre uses
Ġsem aines
3 3
Ġb ord
Ġph ysi
2 8
Ġam Ã©ric
qu ent
Ġun ivers
Ġqu atre
Ġmod Ã¨le
sy ch
ces si
ve ment
Ġ6 0
entre prise
Ġco de
Ã©m a
qu elle
t ation
ĠspÃ©ci alis
in Ã©
o pÃ©
Ġsoci aux
Ġat te
2 1
2 7
ĠprÃ© sident
ven u
Ġ2 9
Ġquel qu
Ġse in
Ġtechn ique
ĠrÃ©p on
Ġc it
ĠrÃ©sult ats
ri x
Ġvale ur
Ġpoursui vant
ĠÃ© ner
Ġqu ar
Ġfor ce
di que
Ġi dÃ©
Ġparticu lier
g ique
h e
h omme
O n
Ġb Ã¢
u les
Ġf ig
Ġsu pÃ©ri
Ġe mb
Ġli bre
Ġaut ant
ĠR Ã©p
Ġtex te
f ois
se ments
c ar
Ġt ard
Ġcontr Ã´le
Ã© lÃ¨
Ġg uerre
ay s
Ġy eux
ograph ie
l y
Ġs pect
ou tes
ĠM in
ĠdÃ© mar
aly se
Ġimport ant
Ġris que
Ġense mble
Ġmo ts
Ġm ouve
... )
f ait
ĠsÃ» r
Ġob jec
Ġconse ils
Ġmati n
Ġconf ort
Ġcat Ã©gor
ven ue
Ġtech niques
ĠM erci
Ġv ont
Ġc m
Ġprom o
onn er
Ġpl ate
Ġcol lection
i ff
Ġutilis ation
ĠpiÃ¨ ces
duc ation
Ġen suite
olu tions
Ġla quelle
Ġaid er
ĠG o
ri mer
Ġsu i
E L
Ġc Åĵur
Ã© tu
p a
ad es
Ġcommun ication
Ġrespons able
Ġm il
ĠM us
h t
Ġcro is
Ġv ite
Ġvi a
Ġt ri
ist ance
Ġsorti e
Ġex pl
Ġf le
for me
Ġd oute
ar ri
ch Ã©s
f rique
Ġs tra
Ġp ati
Ġim ages
i ers
ur b
Ġdisponib le
Ġsou ff
ĠmÃ© dec
am our
ment er
ar de
ai me
P ro
Ġbes oins
ĠA prÃ¨s
h um
s on
ĠdÃ©c lar
ĠdÃ©c is
er gie
ra Ã®
Ġenf ant
Ġth Ã¨me
A M
n ous
Ġou ver
Ġen ti
ur os
y l
Ġpermet tre
Ġchac un
Ġvol ont
Ġorig in
Ġter me
ous e
ve ur
ron ique
ĠsiÃ¨ cle
Ġag rÃ©
orig ine
Ġunique ment
able ment
Ġs port
Ġn Ã©g
lÃ¨ mes
tive ment
t al
Ġn eu
ous s
oup es
Ġemp l
Ġpos s
Ġaur a
Ġcompr endre
Ġp Ã¨re
y on
ub lique
iv es
ĠĠ ĠĠ
ĠM o
Ġpermet tent
ĠÃ©c rit
A c
Ġutilis ateurs
en ez
Ġdur Ã©e
si e
en nes
Ġcan did
ne ments
ĠmÃ©t h
9 9
Ġf av
a pe
Ġpro g
Ã©b er
Ġcar act
Ã©c u
ĠS Ã©lection
ĠintÃ© ri
a pos
u ve
ĠS ite
ĠConse il
ois ir
7 5
Ã©n Ã©ra
ro log
Ġmag as
Ġnation ale
Ġfaci le
ĠCom ment
v res
A T
ab ord
ur g
og le
vis ion
Ġo c
er ce
D E
or ganis
ĠdÃ©t ail
Ġla isser
et t
Ġp ot
ad a
3 5
Ã¨ que
Ġg u
A m
Ġacc ue
Ġapp are
Ġconfi dentialitÃ©
Ã¨ les
Ġ ]
y th
en de
ĠÃ© le
ĠP olitique
2 00
s se
Ġan cien
jou ter
Ġpart age
Ġcoule urs
ati fs
Ġa im
crip t
as e
Ġco p
Ġp ages
D es
ĠrÃ©pond re
ad resse
k y
Ġaur ait
jet s
f ace
ĠprÃ© sence
Ã¨ rent
Ġindi vi
ri ce
Ġex tra
Ġv ois
Ġse cteur
Ġre mar
in ateur
Ġ200 7
ĠrÃ©f Ã©rence
l in
Ġma xim
Ġprofessionn el
Ġf ai
B on
ĠM al
Ġchois ir
Ġacc ord
Ġ *
ĠC rÃ©
Ġf rÃ©
Ġm Ã¨re
Ġgen re
er g
Ġen fin
Ġsy mp
Ġgran des
Ġau g
ĠÃ©t ablis
fi ques
a prÃ¨s
Ġass ur
Ġprodu ction
Ġsa medi
o o
qu Ã©e
ĠS al
ĠC ro
A P
EN T
Ġcl assi
Ġl et
Ġp en
Ġpart ager
Ġo f
enti el
ĠtÃ©lÃ© phone
Ġk m
3 6
R e
4 8
ĠA b
ĠP r
Ġst yle
Ġh Ã´
Ġa mb
li r
Ġcl ub
ra l
ain te
Ġess ay
Ã©r ences
Ġpar ents
ĠSer vi
Ġch anger
z z
t ro
ĠÃ© lÃ¨
ĠdÃ© ta
ĠB r
Ġg amme
ar ch
201 8
as h
que z
Ġdes ign
Ġtex tes
Ġst ock
Ġderni Ã¨res
Ġpossi bilitÃ©
Ġter min
Ġvoit ure
Ġt Ã©m
in ture
ti ce
i ent
Ġpermet tant
Ġsoi ent
ĠB el
A d
Ġat ta
Ġex clus
Ġv Ã©ri
cc Ã¨s
ĠPl an
Ġou b
ĠvidÃ© os
es tiv
ter min
titu de
in te
ĠB ien
Ġdisponib les
Ġre tra
Ġs olution
Ġper mis
ĠrÃ©se aux
Ġdonn Ã©
ĠF em
Ġl ut
h Ã©s
ra le
7 6
ĠEt ats
ille urs
ouver ture
Ġd ossi
Ġprof iter
ro che
Ġma ch
ĠÃ©t at
Ġcomp agn
Ġv e
Ġress our
s c
ve ill
ac er
Ġpar mi
ul ture
ĠCon ditions
qu is
Ġpro v
cÃ© der
rai ent
Ġchau ff
Ġo pp
Ġcontin ue
Ġsa v
Ġc elles
Ġpeti tes
Ġimm ob
Ġfin anci
ee k
Ã©ra p
Ġs h
ti ls
Ġpour rez
i ce
ĠdÃ© li
Ġf ils
Ġh ors
Ġdi man
ci dent
Ġ201 9
3 8
ch ant
ous se
Ġpar am
Ġsuiv re
ves tis
Ġrecom mand
Ġob tenir
A prÃ¨s
Ġre pr
ti t
ois e
Ġp oi
ĠÃ©lÃ© ments
Ġmeille urs
oil Ãł
ĠS ud
C E
Ã¨ se
Ġt aux
ap on
il itÃ©s
Ġr Ã´le
Ġconfi ance
Ġr oute
Ġm ilieu
ar gent
4 4
Ġco eur
Ġche f
Ġhab it
ac tÃ©
ort s
an ne
Ġcol lab
Ġb e
Ġt omb
l ai
Ġpar le
Ġb ons
Ġs ensi
ent rÃ©e
minist ration
m a
Ġcomment aires
Ġdiff ic
y c
ĠFran Ã§ais
orm ais
Ġple ine
ĠC ela
ra tions
Ġre lig
ci ens
or k
Ġfonction nement
l and
ĠAl ors
dess ous
Ġad ministra
Ġc am
Ġpropri Ã©tÃ©
lig ne
ĠA ss
Ġderni ers
ac tu
Ġconse il
Ġsc ol
ig e
Ġm auv
l ent
Ġconstru ction
Ġs atis
Ġprob lÃ¨mes
Ġdemand er
Ġse xe
u y
Ġretr ouver
Ġcons Ã©qu
Ġmari age
ais se
Ġsoci al
lic ations
p ro
or Ã©
ust ri
Ġ8 0
igne ment
o des
Ġe mail
ti me
Ġchem in
Ġp at
a ment
u elle
isse ment
m atique
Ġremp l
i onn
amb res
u me
Ġdispos ition
er ne
Ġres pect
p end
Ġven ir
Ġsc Ã¨ne
ws let
i o
ĠÃ©conom ique
s titu
Ġren dez
ivers itÃ©
c s
Ġsoci ale
Ġf our
ance ment
Ġle quel
cu p
ro y
Ġsecon d
Ġtrans port
ĠÃ©v Ã©
ribu tion
Ġca de
li quer
estiv al
Ġf ro
ve ux
I E
u te
ĠgÃ©nÃ©ra le
Ġspect ac
ww w
3 4
o ot
iv er
ĠdÃ© part
Ġpres que
Ġe uros
ĠSÃ©lection ner
6 5
or ique
us se
us ion
Ġren se
Ġsui vi
Ġdocu ment
Ġex iste
char ger
R O
Ġdis par
all er
ĠmÃ© m
e mb
Ġpr est
it ter
Ġdiman che
in ation
Ġb ureau
Ġjou er
au me
Ġm eu
re f
ĠF in
Ġliv res
Ġpos ition
Ã¢ tre
Ġtrans form
l am
Ġsi m
Ġacc Ã¨s
Ġstra tÃ©
Ġai de
emp loi
ĠD is
Ġman if
Ġquotidi en
ĠÃī p
Ġab s
ĠvÃ©r itable
Ġso le
Ġg auche
qu Ã©s
Ġin iti
ar itÃ©
Ġpie d
Ġconn aissance
b res
p le
Ġf ru
Ġlong temps
ĠÃ© vi
ro it
inform ations
d its
Ġ4 5
Ġsp or
ĠsÃ© jour
Ġle cture
Ã© cole
A U
ĠbÃ¢ ti
ib li
de x
Ġdire ct
Ġenv ie
Ġdeux iÃ¨me
ul ation
Ġcap it
ĠrÃ©pon se
Ġfab ric
M ais
Ġt ari
ouv rez
Ġsorti r
ĠrÃ© alitÃ©
v ille
Ġenv oy
cre di
ĠS oci
A G
Ġconsul ter
Ġfait es
Ġpai ement
Ġcert aine
Ġdur ant
tÃ© ra
Ġtrouve rez
ar s
ĠV otre
ĠI s
ĠN otre
ti ne
ĠprÃ© c
Ġs ait
lis e
l ant
Ġdi ri
a ci
ĠL ib
ter ie
7 9
Ġapp rÃ©
D Ã©c
Ġfi x
Ġplu part
qu et
ĠdÃ© pos
ĠrÃ©g uli
Ì ģ
is sent
es se
Ġso li
Ġdiff icile
ĠN ord
Ġde venir
l age
Ġsole il
Ġm Ã©c
ĠÃ© qu
Ġcommun autÃ©
E x
Ġmin istre
Ġg ard
c el
Ġcaract Ã¨re
av ait
Ġrou ge
Ġ uti
i k
Ġmal adi
Ġmo der
N E
Ġpropri Ã©t
Ġb le
a iller
Ġmat ch
Ġ3 1
Ġa mi
ĠL ire
Ġ! !!
ĠR ou
s h
6 8
Ã¨ tes
ach at
ĠcrÃ© Ã©
b at
Ġp resse
Ġpe au
Ġfaci lement
eu illez
Ġl u
Ġnature l
m at
ĠpiÃ¨ ce
Ġparticuli Ã¨rement
ĠM ich
Ġou i
c teurs
c rit
Ã© rer
f e
met tre
d o
oc ra
O r
Ġch iff
ti lis
ĠÃ ĥ
Ġcommun i
p rÃ©
olog ies
Ġh aute
Ġconn aÃ®tre
Ġpour ra
Ġvendre di
qu Ãªte
Ġs igne
Ġcomm une
ĠmatÃ©ri el
f t
Ġesp ace
Ġdire ction
Ġter rain
ĠÃ©tu des
Ġch at
ĠG rand
ouver te
Ã§ ois
Ġpub lique
Ġt es
onn Ã©es
ĠrÃ¨g les
ĠdÃ© partement
on y
Ġann once
r Ã¨s
Ġutilis Ã©
acc ord
Ġtra ditionn
Ã¨ ge
Ġfonctionn alitÃ©s
ĠL iv
ĠNo Ã«l
ĠM a
S E
Ġsci enti
Ġaut oris
atri ce
Ã©n ergie
Ġrep ro
ĠdÃ©s ormais
P h
en v
Ġen c
ti fication
Ġf ins
conom ie
C H
h a
itÃ© e
ĠRÃ©p ublique
l an
Ġann onces
Ġa illeurs
Ġlors qu
ch arge
rÃª ts
l ande
Ġti ers
Ġ3 5
Ġmag ni
Ġn u
Ġ19 8
... ]
O L
om bre
Ġ ir
Ġs ang
b um
ti ver
Ġmar ques
ite ur
ĠamÃ©li orer
Ġindivi du
g ue
Ġmouve ment
ĠJ u
Ġoff ici
Ġsour ce
ĠlÃ©g ales
ĠrÃ© ussi
A vec
Ġdro ite
Ġman que
pp e
ĠS and
Ġim age
Ġai me
Ġcontra t
Ġid Ã©es
ĠÃ© cl
yn am
F R
es prit
y st
Ġv illage
Ġa st
Ġt al
ĠMar ie
Ġcompr end
in a
Ġp al
Ã©b ec
alis er
ĠTh e
Ġpro cess
i cher
actÃ© ris
Ġrom an
Ã©ri e
ai e
ĠCom me
7 7
us er
Ġs olutions
Ġsu ccÃ¨s
ĠF ace
ĠM er
Ġsal on
Ġpro che
Ġcert ain
Ġm as
Ãª che
li Ã©
Ġlong ue
ction n
ord re
Ġpoli tiques
c r
Ġj oli
Ġv oix
Ġactiv itÃ©
ĠG Ã©nÃ©ra
Ġo cc
Ġcon serv
Ġsupp lÃ©ment
Ġz one
ĠÃīp isode
Ġex pos
ĠQ ue
Ġconn aiss
Et at
Ġli eux
Ġl iens
ĠB on
Ġrel ative
Ġs ort
x te
N otre
im age
ĠP er
an a
Ġst atis
Ġphysi que
r ist
Ġ7 0
in tÃ©rieur
Ġcent res
activ itÃ©
6 6
Ġso ins
9 5
Ġen viron
Ġatt end
Ġc ra
Ã© di
Ġoff rir
oule z
Ġgra ph
form Ã©ment
Ġnum Ã©rique
Ġlang ue
f Ã©rence
ĠGo ogle
an im
Ġsuiv ant
Ġou tils
ob jet
Ġcons ac
Ġex pÃ©ri
ro ss
Ġcomment aire
201 5
ĠÃ© dition
Ġpremi ers
ĠP or
ĠdÃ© termin
Ġim mÃ©di
ĠC H
Ġmoy ens
Ġmin im
ĠC ap
ĠEn tre
Ġp sych
olog iques
Ġmodi fier
Ġb ain
fic ations
Ġprofessionn elle
Ã¨ ve
Ġt ran
Ġ200 6
ĠAn g
Ġconten us
ti r
Ġde vient
Ġth e
Ġdom icile
en ant
h y
Ġsitu Ã©
Ġcl ass
Ġdev rait
Ġdou ce
ab l
Ġre mb
Ġd ra
Ġv eux
ĠP i
p ens
on om
Ġv ir
Ã© tique
Ġlog iciel
mp or
Ġch ambres
Ġcomp let
ĠM ag
ill Ã©
Ġcontra ire
Ġnation al
Ġch ale
Ġfi ch
c tu
wslet ter
Ġtrouv Ã©
Ġd os
ĠMais on
as tique
ol Ã©
ĠP ierre
Ġhab itu
ĠP re
avant age
et Ã©
U S
i eux
v ain
onc Ã©
Ġmoy enne
âĢ¦ ]
tre r
utilis ateur
Ġ '
Ġcal cul
ĠrÃ©ser ve
Ġpour tant
n ent
Ġhtt p
Ġliber tÃ©
id enti
Ġ9 0
Ġpra tiques
app ar
ĠU S
Ġind ustri
Ġm Ãªmes
ac cep
ĠÃ©tran g
ur ation
Ġlum iÃ¨re
Ġprocess us
Ġen vironnement
ĠB e
Ġcomm ence
D I
Ġpap ier
di re
Ġm ur
Ġme mbre
c ons
ĠE urope
ci ence
Ġgr oupes
ct ures
Ġmis sion
ass ociation
ign es
it re
Ġre ven
ar a
ud g
oi le
4 9
M E
d is
Ġform ulaire
Ġjou eurs
3 7
Ġs orte
ĠÃ©lÃ¨ ves
ĠV al
ĠT V
Ġf en
Ġf ou
Ġbi ent
E urope
Ġc u
ĠB ou
a vez
Ġpro t
Ġen dro
3 1
Ġmod Ã¨les
Ġcomp ar
ex pÃ©rience
i tif
Ġes c
Ġautom atique
ĠL A
ari at
Ġgaranti e
it ant
Ġsouhait e
Ġch ance
Ġsoi rÃ©e
ĠA g
in i
Ġcontr Ã´
ie z
Ġcin q
Ġcin Ã©ma
. ,
am a
Ġretr ouve
Ġper man
Ġp Ã©n
Ġ and
Ã©t at
f ric
r en
an o
Ġav aient
en sion
ĠT u
3 2
Ġfam ili
Ġgar de
hÃ©s itez
ĠnÃ©cess aires
Ġo eu
Ġcli quez
ĠD ire
Ġlun di
Ġv ic
ĠL E
ĠrÃ© sid
Ġconc ours
Ġpro cÃ©d
Ġressour ces
Ġsu c
Ġrapp el
il os
dess us
ĠC entre
ĠL ou
ĠT ri
ail les
orde aux
Ġpopul ation
Ġgratu itement
4 6
es te
Ġvi de
ĠdÃ© n
Ġenreg ist
m ande
ar es
ĠL i
id Ã©e
Ġmo teur
ot o
Ġpe ine
Ġouv ert
ĠdÃ© di
ĠÃ© n
Ã¨ tre
Ġmal grÃ©
is sion
Ġc ab
res ser
Ġcro iss
ag Ã©
Ġdou ble
ĠQu Ã©bec
ist Ã¨re
ke ting
ĠM en
Ġles qu
5 5
ti mis
Ġpro c
Ġrest er
Ġpr Ãªt
Ã´ me
Ġmulti p
Ġpos t
Ġpass age
an i
ĠF l
ĠL ors
* *
Ġp ou
Ġrespons abilitÃ©
Ġc Ã©lÃ¨
esp ace
app r
ĠM ac
Ġsou tien
c ent
Ġsy mb
Ġqu elle
M erci
ĠcatÃ©gor ie
ĠC our
id es
Ġmont ant
Ġcons ult
Ġfich ier
Ã§ ons
Ġactu ellement
Ġm un
Ġexc ell
an ie
Ġcoup le
li ers
Ġa j
h eur
ra t
ur Ã©
V otre
ĠE sp
it y
ĠP ays
A pp
Bon jour
Ġcon vi
oc ation
Ġv oulez
ĠR ob
ĠA ff
ĠV er
intÃ© rÃªt
al u
os s
cu pÃ©
ĠP rix
ĠA t
Ġchange ment
Ġw ww
Ã¨ nes
Ġcon d
0 1
Ġex ception
ser ver
ĠCan ada
Ġ[ âĢ¦]
tr uc
Ġfilm s
Ġb onnes
ic ro
m ation
Ġl ic
Ġam oure
M on
ĠG ra
b er
Ġmanif est
ĠM ois
is ter
ĠR Ã©g
ar tis
ouv elle
Ġar ch
Ġtra in
Ġess enti
Ġb el
Ġmaxim um
I R
Ġj uri
Ġaccomp agn
Ġdiffic ul
ex pl
Ġh Ã©ber
alog ue
Ġm ains
Ã¨ ce
Ġcha uss
Ã¢te au
Ġp eur
Ġpos te
Ġconn u
ĠÅĵu vre
Ġgratu ite
oule ur
Ġmagas in
Ã©t ais
. "
s ur
Ġac cessi
Ġform at
nov ation
Ġutilis ons
v age
Ġla b
Ġparc ours
Ġbou tique
ti fi
Ġte ls
ibli oth
Ġcar actÃ©ris
alis me
Ġdossi er
Ġst at
isc ine
Ġid Ã©e
du ite
Ã©ra tion
ĠG ar
os ition
C I
Ġf Ãªte
ð Ł
Ġfais ant
Ġex ist
m Ã©e
Ġp atri
ĠG ran
Ġg agner
ot te
Ġnouv el
xim itÃ©
ĠdÃ© lai
Ġinform atique
ras se
O UR
8 8
Ġdi x
in on
en ligne
Ġh or
Ġcomb at
Ġmar che
uri eux
am Ã©li
uis se
Ã©n agement
Ġse mbl
ĠreprÃ©sent e
Ġcamp agne
is Ã©
m agne
Ġcon cep
b on
Ġpuis que
d a
Ġtrav aill
Ġad ul
Ġren for
Ġb udg
Ġdi pl
Ġch oc
ti tion
mo ine
ĠM at
Ġpl ac
b l
re ux
Ġsuff it
ĠdÃ©cis ion
Ġse cre
Ġw eek
Ġa ctions
ur ant
h i
Ġv as
Ġterrit oire
Ġ! !
Ġ =
Ġplan Ã¨te
R I
O T
d el
ĠÂ ©
Ã Ģ
Ġf ant
Ġmes ures
Ġstatis tiques
Ã© ros
Ġprop res
6 9
os t
Ġtrav ailler
Ġaut or
Ġche veux
Ġpartici per
ad ministration
ĠS ign
A D
ri ques
Ġfil les
ci eux
app el
p our
Ġconn ais
Ġimport ante
Ġpri vÃ©e
ĠT outes
Ġd ynam
Ġ erre
Ã¢ ge
Ġrencontre r
Ġp il
Ġcar tes
Ġre join
ten u
ĠFace book
imp orte
Ġsu d
ĠComm un
m un
Ġs il
Ġvolont Ã©
ĠB eau
Ġn our
ĠN ation
Ġpro ximitÃ©
ĠrÃ©sult at
Ġmer credi
ĠdÃ©ci dÃ©
ti Ã©
Ġinternation ale
Ġins titu
ĠS ac
Ġgl ob
Ġc ouv
ĠeuropÃ© enne
ĠE st
ĠdÃ©tail s
tiv itÃ©
tel lig
g Ã©e
Ġqu ali
Ġc y
Ġsupp ort
Ġdocu ments
Ġ( ...)
Ġbeau tÃ©
Ġg az
Ġpl ans
Ġquar tier
ici p
l Ãł
ĠT er
Ġinst ru
s ons
Ġpor ter
Ġla isse
Ġcomm and
Ãī t
Ġpas sionn
Ġali ment
in ce
Ġre Ã§
um es
ĠmÃ©di as
Ġparti es
Ġn aissance
Ġs oup
off re
in o
ĠrÃ© duire
u els
Ġs ouv
Ġtrans f
Ġre pos
Ġa te
ĠbÃ©nÃ©fi ci
ang es
Ġb Ã©b
S u
x ion
Ġdi v
Ġte lle
Ġqu anti
l itÃ©
Ġarri ve
4 7
Ġm ent
de mment
Ġpar is
res si
ĠCh e
ĠmÃ© l
ĠR oy
ĠrÃ©serv Ã©s
T out
C ar
Ġass urer
Ġdess us
Ġbo Ã®
Ġenv oyer
Ġanim aux
os er
ĠimmÃ©di ate
Ġf all
ĠA insi
Ġim ag
Ġsujet s
Ġtemp Ã©ra
i che
Ġin cl
oisir s
m age
Ġmo dÃ©
mar t
ĠÃ©lect ronique
ĠdÃ©f aut
ĠÃ©c r
Ġcomm erce
Ġre Ã§u
A TION
tÃ©ra ture
Ġpermet tra
P S
Ġs ent
Ġloc ation
Ġcit oy
: :
Ġeffic ace
Ġsal ari
ur ance
Ġcol lÃ¨
O u
lle magne
rit ure
ĠR et
oir s
m on
Ġv oie
end ra
Ġb ran
Ġm m
Ġre ti
ites se
ĠprÃ©sent er
A ut
Ġconte mpor
ĠÃ©lect rique
du its
S ur
A ss
Ġin j
de ur
Ġpuiss ance
Ġempl oy
Ġb anc
che ment
Ġ4 8
te lle
Ġjeu di
lÃ© g
De puis
Ġan aly
ĠmaÃ® tr
u ff
B log
Ġ iss
ci pe
ĠB en
rop ri
Ġtot al
at a
ĠmÃ©c an
ĠprÃ© cÃ©
Ġconsomm ation
Ġpublic s
ti Ã¨re
onn Ã©
Ġf aud
Ġm anger
p or
ĠPro f
ĠE lles
Ġv in
? ?
Ġmoder ne
Ġfor te
Ġrel ations
Ġg o
ĠT our
Ġris ques
Ġutilis ant
e d
Ġex tÃ©ri
enf ant
Ġcap acitÃ©
l l
truc ture
k a
u il
Ġv ra
Ġac cessoires
Ġco ord
Ġcomp ter
ĠÃ©v iter
Ġcor rec
ub lic
Ġf isc
app lication
Ġproch aine
Ġpart out
Ġty pes
ĠrÃ©alis Ã©
Ġidenti fiÃ©
Ġpoi ds
Ġst and
is l
ĠagrÃ© able
cc ueil
Ġv o
ĠQu and
Ġent raÃ®
Ġgaranti r
ĠNe w
ĠIn form
Ġcour t
ent ure
5 8
ĠR Ã©s
Ġpor tes
g Ã©s
mbl Ã©e
Ġmus ic
Ġr ub
Ġalle z
ĠN os
au tes
Ġpos e
Ġproch ain
Ġcontin uer
ĠdÃ©velopp er
ra ges
Ġdess in
ten ces
Ġp Ã©d
Ġind is
Ġma il
Ġb ras
Ġapp lication
Ã© dÃ©
Ġcomp t
on ge
ra m
in et
E T
ĠC li
Ġsecon de
I M
ĠvÃ©hic ule
Ġau teurs
ĠS c
ĠF orm
Ġdiri ge
ri ch
ust rie
c les
ĠC ode
Ġder riÃ¨re
Ġexception n
Ġtot alement
Ġpubli Ã©
ilos oph
Ġt op
an alyse
Ġro b
Ġphot ograph
Ġcommen cer
at ta
Ãªte ments
utilis er
ch ent
ĠSand ales
t o
Ġc iv
ĠTe ch
h ors
Ġord inateur
ĠmÃ©m oire
ĠN on
Ġmob ile
R Ã©
ĠG e
pa rer
ais es
qu Ã©es
y ez
v itÃ©
Ġinternation al
k ing
ĠrÃ©guli Ã¨rement
Ġret ourn
igne ments
actu alitÃ©
] .
ĠJ av
Ġsur face
ou x
Ġsi x
ĠrÃ© d
Ġpen ser
ad ap
Ġs omme
Ġutilis Ã©es
Ġv ig
Ġtel lement
ĠJ us
Ġ5 00
Ġn ett
Ġex er
Ġor ient
al ise
Ġadap tÃ©s
rÃ©s il
ĠB o
ĠrÃ©alis ation
Ġprof il
ĠServi ce
Ġ200 5
Ġmagni fique
ĠâĢ Ķ
ĠJ eux
Ġrep as
L ors
Ġrais ons
ad er
Ġpersonn ages
Ġach eter
an cÃ©
Ġass ure
en vironnement
Ġ[ ...]
ĠQ ui
un is
v a
ur r
Ġb elles
Ġ3 8
ĠB i
ĠÃ© vent
or g
9 8
Ġp a
Ġgratu its
les s
ĠgÃ©nÃ©ra lement
ĠcomplÃ¨ te
ĠrÃ© uss
Ġparfait ement
Ġbi o
tr Ãªme
au g
Ġpe inture
imp ort
Ã¨ ces
Ġang lais
t or
ĠCont ac
ĠC as
Ġ7 5
Ġb ra
ons es
ĠN ic
ĠM ad
Ġad op
Ġclassi que
Ġdispos e
ĠB er
Ġcompagn ie
Ġf re
Ġsatis f
Ġin ten
S e
Ġb our
Ġpan ne
ĠsociÃ©tÃ© s
Ġsouv enir
Ġdom in
Ġtou che
le ur
Ġob jets
Ġcha Ã®
Ġter mes
C es
ĠS ky
Ġast rolog
ĠdÃ©p end
Ġs tructure
b all
Ġp iscine
ĠdÃ©m ocra
Ġins pi
ĠB ordeaux
a vec
Ġvale urs
Ġsyst Ã¨mes
Ġval id
Ġrem erci
onne ur
n om
ex ist
ĠdÃ©c or
ĠÃ© d
ici els
ĠC am
Ġv ert
e use
Ġa p
Ġat tention
Ġcr ise
Ã©g Ã©t
w e
Ġbient Ã´t
ĠDe puis
Ġconc erne
Ġchois i
Ġpr Ãª
u aire
acc ueil
Ġfav oris
ĠE T
Ġconst at
Ġil lus
itu de
i Ã¨res
ĠgÃ© rer
ill on
ĠrÃ©f lex
oil es
Ġce pendant
Ã´ te
Ġt om
ĠL yon
ĠVi dÃ©
Ġpl ainte
Ġsau f
Ġlim ite
Ġra cis
ĠP al
ow s
Ġcour se
Ġ0 1
in tes
Ġd avantage
er ts
ĠP ers
Ġne wsletter
E C
di a
g ar
ĠT Ã©lÃ©
Ġfam illes
Ġar rÃª
ĠrÃ© par
all ation
Ġtrav aille
tal ie
ĠPrÃ© sident
Ġpremi Ã¨res
7 4
Ġinform ation
ĠM i
Ġper du
ĠRen contre
Ġex per
oy age
ag og
ag ue
Ġutilis ateur
Ġti ss
Ġre d
Ġenti Ã¨rement
ĠdÃ©c ouverte
Ġri g
Am Ã©rique
an dic
O C
aire ment
Ġla iss
S S
Ġcli quant
Ġa vi
ĠQu el
Ã©ri ques
Ġlo gement
Ġcomp lÃ©ment
and is
Ġense ign
ĠFran Ã§ois
Ġtend ance
ou er
Ġco Ã»
Â ²
im m
imp ression
Q UE
ĠN ouve
ĠTr ans
Ġc re
Ġbon heur
Ġco in
A F
ac tions
| --
ĠSign aler
ro ck
Ġtr ou
Ġpouv ons
emp l
ĠT oute
Ġver re
at ur
0 9
E M
ch Ã©e
Ġmais ons
Ġparam Ã¨tres
ch at
in di
Ġre le
Ġspectac le
Ġv itesse
. )
ĠO b
Â ¨
alis tes
v o
si denti
Ġmondi ale
Ġfer a
illi r
as i
ve ille
E sp
Ġcir cul
ro g
en c
ĠcompÃ© tences
oin t
Ġfourn ir
Ġgui de
Ġapp ro
Ġc ib
Ġregard er
ĠintÃ© g
ĠS ans
ĠÃ© mo
ĠrÃ© cupÃ©
Ġ20 00
Ġs tu
Ġpie ds
Ã§ ant
Ġmar di
ĠJ ourn
m s
D F
0 6
ĠP ort
Ġobjec tif
Ġfonction s
Ġcl air
Ġh auteur
Ġtrois iÃ¨me
ĠrÃª ve
Ġop tions
ĠprÃ©sent ation
Ġpl antes
T ous
v Ã©s
ĠrÃ© ception
Ġor gan
A B
Ġcon dition
ess es
Ġhabit ants
Ġ4 6
Ġfourn isse
reg istre
ĠP aul
ĠV ille
g ies
Ġin t
us Ã©
Ġg oÃ»t
Ġartis tes
Ġsuff is
erci ce
Ġde me
pr en
Ġform es
ang Ã©
Ġfru its
uis ine
Ġmeille ures
Ġveu illez
o ch
ivers aire
Ġa ir
Ġpos er
Ġdire cteur
chi ers
Ġdes c
Ġb ru
t te
Ġac teurs
Ġcal me
Ġn ord
ĠC al
ro issant
Ġaug ment
organis ation
ĠV euillez
ĠprotÃ© ger
ĠS ec
Ġd Ã»
Ġch aud
ĠÃ©tudi ants
it ent
Ġeff ets
itÃ© es
Ġdist ance
Ġca f
ar k
Ġv illes
Ġcon ception
cher che
Ã©li bat
a uss
ge ments
rÃ©sent ation
Â» ,
Ġmaladi e
Ġcour ant
âĢ ĵ
tre am
ĠP eu
Ġpri vÃ©
ĠV oir
Ġble u
Ġg ross
ĠcÃ©lÃ¨ bre
Ġfi chiers
Ġrec ue
Ġmach ine
Ã©v olution
l ine
Â ®
Ġv oilÃł
Ġc rit
C omme
Ġc ru
ĠS uisse
Ġtechn ologie
ĠG en
Ġv end
ti ennent
Ġlet tre
Ġpoli ce
ĠS antÃ©
Ġvis age
ĠdÃ©f ense
Ã©g al
ĠI N
ob ile
Ġs an
ĠR ec
p re
a j
5 9
vi ennent
ĠD om
ĠCh ine
us tra
Ã©tu de
Ġin vestis
Ġpouv ait
Ġloc aux
Ġad ress
4 2
tru ction
Ġm Ã¨tres
__ __
h Ã©r
Ġgard er
si eur
Ġex ig
il isation
Ġlut te
I A
r ouvez
Ã© ducation
ct oire
ĠbÃ©nÃ©fi cier
ĠBel gique
âĢ ī
ĠE l
Ġutilis Ã©s
7 2
Ġforum s
ĠB log
ĠrÃ©g ime
Ġf oot
Ġ3 6
Ġv oici
as ter
0 8
ex c
Ġper d
Ġrec ru
Ġhtt ps
Ġso in
Ġc Ã©rÃ©
Ġcher cher
Ġm icro
Ġ ul
ru p
Ġfait e
Ġmin i
ĠJ ac
Ġcon sent
Ġindis pens
ĠCom p
Ġhy p
ĠbÃ©b Ã©
cep ti
Ġpas sion
s te
ĠM es
Ġtechn ologies
Ġqu it
Ġv Ã©gÃ©t
jec tif
ic k
ul er
x es
ĠMich el
ĠprÃ© par
ĠrÃ© el
ĠD U
ĠN i
se urs
ĠmÃ©t al
am es
Ġch ap
Ġch ans
Ġfac il
Ġpuis se
re ur
ci pl
se ille
ĠmÃ©dec in
port s
ul le
g ner
Ġmar ch
ĠE N
ĠF ond
Ġal bum
Ġb ande
Ġparten aire
Ġ200 4
c al
ĠcrÃ© dit
ole il
st ru
or es
ra bles
ĠidÃ© al
ĠtÃ©lÃ© ph
c a
Ġaff aires
ĠdÃ© co
ĠindÃ© pend
Ġpay er
Ġposs Ã¨de
O P
Ġ3 9
m Ã©s
Ġcade au
as ser
Ãīt at
Ġs or
ĠprÃ©sent s
Ġt ap
Ġcroiss ance
ĠPh ili
ĠfÃ© min
Ġcontinu ant
Ġpriv il
Ġcon ver
Ġe au
oit ation
Ġrestaur ant
T S
oub li
ĠC onc
Ġmilli ers
Ġp ois
Ġbout on
Ġm ises
Ġr yth
ĠCh rist
Ġjus tice
Ġpro ches
ch et
Ġfin alement
Ġaff ir
Ġj a
ĠAc tu
enti ss
ra ine
4 3
li quÃ©
Ġm ass
Ġt o
Ġde mi
Ġam our
Ġpre uve
Ġv ent
Ġpeu ple
at Ã©gor
Ġenreg istre
onn Ã©e
Ġten ir
ĠÃ©tablis sements
Ġa ra
ci ences
ĠS p
ci enne
ing t
u tÃ©
ĠvÃ©hic ules
ĠÃ©vÃ© nements
Ġfai ble
I V
A frique
ur a
opÃ© ration
Ġper dre
Ġph ilosoph
Ġprin cipe
4 1
Ġf aute
on ique
Ġd ig
lique z
Ġmun icip
E st
oub lie
ĠO p
Ġa mp
0 5
Ġhist orique
Ġb illet
Ġemp loi
Ġas pect
onom ie
ĠMon de
aler ie
Ġfait s
Ġc os
ĠSoci Ã©tÃ©
Ġpatri moine
Ġa it
0 2
lection s
Ġfle urs
A t
ĠÃ©qui pes
Ġpublic ation
Ġou til
Ġm am
f ort
E lle
Ġp om
Ġjou e
B ien
ĠdÃ©c oration
ch ives
a S
Ġcar riÃ¨re
tis me
i ance
ĠapprÃ© ci
Ġcommun es
ir itu
a w
Un ion
Ġli Ã©s
Ġen tier
Ġapp orter
P lus
ĠC G
v el
Ġinter dits
te ments
ti mes
ablis sement
Ã©p oque
Ġscol aire
cu le
g Ã©n
r un
ĠimmÃ©diate ment
ĠO ff
Ġag ence
ĠP ol
rÃ© t
Ġen d
I G
ati n
Ġper te
onc er
Ġdur able
ub e
Ġri che
Ġf estival
Ġde voir
Ġten u
ĠdÃ©fin i
I P
Ġcomp lÃ©
l Ã©e
Ġendro it
o od
Ġqu ant
Ġvi eux
Ġpra ti
ĠA ir
Ġappr endre
Ġassoci ations
Ġins cription
Ġretr ouv
Ġpl age
ĠrÃ¨g lement
ĠDÃ©c ouvrez
C l
Ġv oire
ĠrÃ© duction
ĠC ours
av is
Ġappare il
Ġc Ã©libat
andic ap
il an
Ġcons cience
ver se
ĠcomplÃ¨ tement
Ġrec ette
Ġconne xion
ĠpropriÃ©t aire
' s
Ġheure ux
Ġs om
ĠM Ã©
Ġmontre r
ĠCh aque
i ve
Ġ urb
ĠĠĠĠ ĠĠĠĠ
Ġdivers es
Â ´
un ivers
ĠmÃ©th ode
d om
Ġm ens
ĠV oici
A v
or tement
ĠC ert
qu ette
Ġfer me
c ou
Ġri ches
ĠintÃ©ri eur
Ġsou mis
telle ctu
Ġ ðŁ
fi Ã©e
ĠLou is
Â Ĵ
Ġtable au
nation al
Ġmaj oritÃ©
end s
ra teur
ol lar
ĠrÃ©v olution
ĠL it
ĠSky rock
Ġl ignes
i p
ite cture
Ġparticuli ers
u elles
ĠsiÃ¨ ge
at aire
Ġ- -
ran ger
ro ir
Ġtr uc
Ġab ord
ĠB as
ĠF il
ri me
Ġfro id
Ġren ouv
ac comp
ol d
m ain
Ġstat ut
Ġno te
Ġc Ã©lÃ©
5 6
Ġre vient
Ġh a
oris ation
Ġvis ites
ĠdÃ©si r
ai mer
ĠP S
Ġl our
Ġab us
Ġb us
ĠdiffÃ©r ence
Ġm Ã©r
Ġg agn
I ER
Ġfond s
Ġvis ion
Ġm Ã©n
Ġconnaiss ances
are il
ossi ble
Ġd o
Ã© sie
Ġracis tes
ĠI I
Ġmar keting
ĠÃ©t ab
Ġfor ces
7 3
ĠÃ©qui p
ĠA li
ate au
ĠD ES
ĠR es
Ġmom ents
Ġfais ait
Ġjourn al
Ġdi men
Ġfabric ation
Ġa ction
ne z
Ġpour ront
ĠB an
Ġdev is
7 1
ĠS ch
d ans
ins cription
ric itÃ©
Ġra p
Ġsoli d
Ġsyn dic
Ġfor cÃ©
ra y
Ġdemand Ã©
ĠF re
S au
Ġd oc
Ġpol y
Ġv ien
Ġsus cepti
Ġde venu
Ġrecher ches
un g
Ġneu f
ĠsÃ©ri eux
rÃ© al
ĠtÃ©m oign
Ġch im
Ġpersonn age
Ġat ti
ĠP C
ĠC ent
Ġp ierre
Ġt rib
ĠM Ã©t
Ġfab ri
ĠCo okies
Ġp Ã¢
g i
p o
ac te
ĠCe pendant
ig ue
Ġent endu
Ġorganis ation
ĠfrÃ© qu
aut ant
ĠN ouvelle
olog ue
b y
ĠI mp
ĠT erre
qu ettes
Ġ3 00
ĠrÃ©serv ation
ĠÃ© lÃ©ment
li m
ĠsupÃ©ri eur
ĠmÃ© tier
Ġconse ill
Ġl ux
Ġsigni fie
Ġcont ribu
Ã©n om
A ff
ait re
Al ors
Ġsuiv ants
Ġse ction
ĠspÃ©ci fique
ĠprÃ©cÃ© dent
hÃ´ tel
ĠF er
ĠC er
l as
Ġprof onde
Ġal tern
Ġw ith
m ont
Ġutilis Ã©e
Ġconnec ter
N e
ĠR om
ĠÃ© cri
ar n
ĠS Ã©n
ĠintÃ©ri eure
I D
N os
Ġb less
ense ignement
our ir
ĠS y
az ine
Ġminim um
Ġra sse
U N
Ġde hors
ĠAut res
Ġpr on
Ġra y
vis or
F rance
il is
Ġ15 0
ri el
Ġconst r
Ġt andis
8 9
pi ration
Ġpass ant
l it
Ġa jouter
Ġpri m
Ġpublic itÃ©
Ġfonction ne
Ġfen Ãªtre
ĠA frique
rÃ© h
entre r
Ġrec ettes
ĠtÃ©lÃ© charger
Ġbien s
ĠprÃ© al
um Ã©
Ġpropos ons
Ġg enti
Ġpai x
ĠS oleil
Ġcomm andes
Ġ ant
Ġobjec tifs
ou f
g r
Ġach et
Ġquanti tÃ©
Ġbe aux
ĠS am
ĠP uis
Ġou tre
m n
ĠV os
oi ff
Ġhum aine
Ġoblig atoire
p ital
Ġ <
or ie
Ġprincip al
Ġa jou
Ġin dic
A g
ĠFem me
Ġv entes
Ġveu lent
Ġch in
ĠintÃ©ress ant
Ġt Ã¢
ĠS te
ĠB ra
Ġexp lique
i ra
ve urs
Ã© conomie
ĠvÃ©ri fier
Ġcorrec tement
aS cript
ri d
Ġinj urieux
Ġ ï¿½
ĠW i
or tÃ©
alis Ã©
Ġst ation
entiss age
In ter
ec tu
ĠfÃ© dÃ©
Ġpl aces
ĠV is
ĠJ oh
Ġre venir
ussi e
Ġb iblioth
Ġpr ises
mi Ã¨re
ĠAn ti
ĠMen tions
ind ows
Ġp ression
Ġti ent
Ġappar tement
at ures
Ġloc al
ĠamÃ©ric ain
g Ã©es
ib les
Ġreg r
ti le
Ġr endu
I s
ussi ons
ĠdÃ© ch
Ġarri ver
Ad visor
ĠrÃ©p onses
au ff
Ġob serv
fi ant
Ġouver te
ĠvÃ©r itÃ©
Ġno ter
Ġconf ig
ĠFem mes
ci d
Ġv oud
Ġro y
os ph
ti ens
ĠM ode
ar c
Ġz ones
in Ã©e
Ġvis iter
ĠAnn onces
Ġperform ances
b ourg
ĠlÃ©g isl
Ġv iens
arri vÃ©e
ay e
ond es
ur Ã©e
ĠC et
A b
Ġ @
p Advisor
ĠrÃ©sid ence
ol at
heure usement
ĠÃ©tu de
Ġvoy ages
ĠopÃ© ration
mo ins
ui de
c ol
ĠdÃ© r
r ine
Ġsim il
ĠL un
Ġapp lications
Ġclasse ment
Ġin tellectu
Ġprogram mes
Ġa fric
Ġdom aines
ĠprÃ© paration
esp Ã¨re
Ġcommen cÃ©
veill ance
ou e
Ã© lect
ro is
Ġabs olu
w itter
ĠpÃ©d agog
l Ã©es
Ġent our
Ġcomp orte
at aires
Ġ ital
ori z
Com ment
b r
Ġla it
tream ing
p el
ĠdÃ©b at
o quer
Ġph arm
ĠR ome
ill a
Ġsuiv ante
^ ^
exist ence
e ments
Ġcon tient
k er
Ġdispos itions
Ġaff ich
Ġqu asi
Ġb ro
ĠmaÃ® tre
Ġvisite urs
Ġcomp ortement
Ġv aut
form es
ort un
ch Ã©es
g al
ag ent
Ġb ac
M S
Ġcaf Ã©
os Ã©
ĠstratÃ© gie
en registre
ti fic
ĠS es
ĠMar oc
ĠdÃ©c l
Ġcrit Ã¨res
Ġci el
ĠprÃ© parer
> >
Ġd ollar
Ġcu ir
Ġplate forme
Ġes pÃ©
Ġtari fs
del Ãł
Ġv ingt
Ġsupp rimer
Ġcro ire
ou che
ograph ique
ouv rir
0 4
ĠmÃ© tiers
au de
ĠC a
t ons
Ġoub lier
ĠbÃ¢ti ment
Ġco Ã»t
0 3
Ġpan ier
g ues
av enir
Ġd on
Ġdestin ation
ĠeuropÃ© en
Ġac cÃ©der
Ġsenti ment
as cript
inst allation
ĠB rÃ©sil
Ġ Ð
ce mment
Ġro i
Ġcri tique
ĠCh amp
Ġb re
ĠB al
ĠC re
Ġpersonn alitÃ©
Ġt re
Ġaut o
ĠCl ub
tu ces
ven tions
ĠcaractÃ©ris tiques
ĠintÃ© gra
ay er
alu ation
Ġdonn ent
Ġres se
Ġar t
ĠAu teur
Ġf ron
Ġconc ert
ĠthÃ© Ã¢tre
g o
ol as
ĠM aur
Ġpouv ant
Ġp au
ĠPour quoi
ĠJ apon
Ġparticip ation
Ġten ue
oli que
Ġl ance
Ġus age
Ġconte xte
Ġocc asion
Ġv oi
L A
Ġan ciens
ti se
ĠC uisine
D Ã©
Ġen j
it aine
b i
Ġautomatique ment
Ġcollab or
!! !!
Ġlic ence
Ġop tim
9 6
ĠIn s
Com menter
Ġter rasse
bo x
o e
Ġex am
Ġperform ance
Ġconse iller
Ġfin al
Ġscienti fique
Â» .
ĠV ie
rÃ© n
Ġse pt
ol a
ĠÃ¢ ge
tiv itÃ©s
Ġc oupe
ĠtempÃ©ra ture
p as
lu ence
ĠH istoire
Ġb oul
Ġsoci ales
Ġbudg et
avi d
hui le
ĠJav aScript
ass urance
Ġcomp tes
Ġmilli ards
ĠprÃ©v u
ĠGr oupe
Ġimmob ili
Ġplan Ã¨tes
ĠÃ©ner gÃ©
ĠA s
Ġde g
m ais
Ġrece v
Ġsu g
ĠAn im
h onneur
Ġfr Ã¨re
os tic
ri ez
ob ilier
Ġchale ur
o ft
ĠH er
Ġk il
es ti
Ġh om
Ġch ant
rig ht
Ġop timis
ve aux
Ġob jet
Ġch ien
Ġj apon
ĠD el
S t
Ġsecre t
ĠPh ot
Ġla c
on ction
a ments
Ġte lles
Ġimmob ilier
Ġmo tiv
-------- --------
g lise
ili bre
ĠCh ris
Ġfran co
Ġg al
ĠrÃ©g lement
Ġsitu Ã©e
Ġfut ur
U tilis
ĠT ur
Ġmin istÃ¨re
Ġlog iciels
ĠS E
0 7
opp osition
Ġ5 5
in iti
Ġach at
Ġatt endre
im ag
in aires
Ã©ro port
ĠcontrÃ´ ler
En tre
ĠG al
R AN
ise z
Ġcap able
L ire
Ġ4 3
ĠdÃ©ci de
Ġcour rier
Ġparten ariat
Ġdynam ique
Ġm and
V oici
Ġassoci ation
Ġ1 20
Ġbl oc
Ġp ous
at oires
d ra
ĠX V
Ġth erm
Ġch asse
Ġsp iritu
ĠÃ©ner gie
Ġt ar
Ġpl at
Ġrense ignements
ĠC N
un er
ĠprocÃ©d ure
un i
ag Ã©e
d uis
ex position
Ġ $
fi dentialitÃ©
Ġvra ie
Ġtra ite
Ġjuri dique
Ġvir tu
ro ph
Un iversitÃ©
us sion
ĠchaÃ® ne
Ġconc urr
ĠEn fin
Ã ¼
ĠF ab
Ġse rez
ven ant
Ġex position
Ġcon vient
ti enne
Ġ3 4
Ġvien nent
me ub
Ġhum ain
Ġau rez
Ġesp aces
v aux
ouv re
Ġrejoin dre
Ġconsent ement
le xe
Ġessay er
ĠÃ©c oles
Ġorganis Ã©
ĠH ar
Ġviol ence
ass in
Ġ: :
Ġcapit ale
se au
est er
emp le
ie ur
Ġconcep t
ĠMar s
Ġmarch and
ĠP os
ĠR o
ĠCom mission
Ġm ine
Ġtent er
k et
Ġfin i
ĠgÃ©n Ã©
ĠPe ti
Ġno tes
Ġf as
ĠforcÃ© ment
Ġfin ancement
Ġjeunes se
Ġh andicap
y cl
Ġph Ã©nom
Ġcon vain
Ġs tru
Ã´ mes
aul t
Ġsign es
Ã©s us
Ġdis cu
ĠÃ©v olu
P E
Ã©cur itÃ©
âĢ ľ
ĠmÃ©l ange
ĠB our
ministra teur
au di
I F
Ġra dio
ai gn
cont res
Ġinst ant
Ġs mart
Ġsc Ã©n
h er
u ellement
Ġd ois
ist ant
ran ge
Ġr and
Ġquotidi enne
l aire
Ġmoi tiÃ©
Ġl is
ĠprÃ©sent es
ĠmatÃ©ri aux
Ã©m atiques
Ġremb our
Ġes prit
Ġpropos Ã©
an cien
Ġg our
Ġmar chÃ©s
ag ers
Ġtran qu
Ġlet tres
Ġb oule
Ġvoyage urs
Ġaccessi ble
Ġmondi al
ag nes
ĠM or
igne ur
Ġapp elle
Ġf oi
ĠS tra
omm age
Ġautor itÃ©s
Ġservi r
ĠsupÃ©ri eure
is tique
ĠrÃ© vÃ©
Ã¨ che
Ġt abl
Ġ0 5
ĠM od
Ġprivil Ã©g
Ġaff ec
ĠhÃ´ tel
k s
Ġpour raient
ĠL ond
av ons
Ġcond am
Ġfin ale
ĠÃ©le vÃ©
Ġlesqu els
Ġdev ait
Ġc ath
ĠMont rÃ©al
J u
ĠtÃ©lÃ© charge
e ction
Ġnature lle
Ġdisc ours
Ġadul tes
ĠTh Ã©
ĠÃ İ
or ge
Ġp Ã©t
ĠA vant
ĠMar tin
Ġvig ueur
Ġref us
n aire
Ġ ï
anc Ã©e
Ġsa vez
ch ir
Ġmodi fication
ĠGran de
Ġch anti
am i
ĠTr Ã¨s
che z
Ġdemand es
Ġat tra
pr is
C ont
ĠD eux
Ġprincip alement
ĠopÃ© rations
Ġmo des
m oi
Ġmauv ais
Ġdi min
Ġt or
Ġf id
ien nes
mer ce
Ġsorti es
Ġtoute fois
ĠsÃ© par
ĠdÃ©mar che
Ġbou che
ĠmÃ© tÃ©
Ã©c ran
Ġdi ver
ĠprÃ©sent Ã©
Ġrespons ables
Ġ3 3
it ations
lis s
201 4
cl am
M A
ĠconsidÃ© rer
ĠC ON
b ilitÃ©s
Ġpl a
Ġtot ale
Ġsci ences
Ã©v elopp
urg ence
Ġpor no
Ġh ier
ĠdÃ©couv re
m atiques
ĠboÃ® te
amÃ©li orer
artis te
qu in
ari o
Ġ3 2
ret agne
Ġchar me
Ġrespec ter
Ġrel atives
Ġmo indre
ri mÃ©
Ġgratu ites
ai der
Ġann oncÃ©
Ġex ac
ind ustrie
Ġcertaine ment
Ġimp ossible
Ġmus Ã©e
Ġp ouss
1 00
ĠT oul
Ġdi z
ĠC ong
Ġconstr uire
Ãª cher
Ġmultip les
oy ez
201 7
c an
Ġvic times
Ġch rÃ©
ri ent
Ġter r
Ġpro s
ĠprÃ© cÃ©d
ĠL ang
OS T
ĠrÃ¨g le
Ġm ul
d ou
ĠM ai
T M
ĠÃ ®
ĠG estion
a rer
Ġl ois
Ġapp lic
l ation
Ġ4 9
Ġgros se
a ve
ob jectif
Ġp Ã©
Ġpens Ã©e
Ġf an
Ġexer cer
ĠdÃ© lais
ra teurs
An n
M ENT
Ġb y
Ġappare ils
ĩ a
id itÃ©
an moins
I RE
ĠAu jourd
oc cup
ens es
Ġrem ise
ĠS A
Ġre b
ass ade
ill ant
o Ã¹
ĠM Ãªme
Ġ- >
b ert
Ġprofes seur
Ġc lÃ©
T h
ĠO ui
ĠrÃ©c ent
Ġb all
o z
n Ã©s
ĠÃ©t ape
Ġdifficul tÃ©s
Ġpromo tion
Ġimp res
aut om
ra b
ĠÃ©vi demment
di r
ra c
Ġv Ãªtements
le y
Ġconf Ã©rence
t y
en tique
ou ter
Ġcoup s
Ġsour ces
Ġp Ãªche
olu me
ĠV ol
Ġf it
r Ã´le
eur os
Ġpl omb
Ġviv ant
d on
Ġdist ribution
Ġ5 8
Ġce ci
ron iques
Ġtari f
P l
aff aires
Ġdoi g
ĠE s
o eu
ot on
Ġpopul aire
ĠrÃ©s istance
Sau ter
ĠrÃ©flex ion
ad ore
Ġb is
ten ance
Ġsus p
ĠH e
Ġman i
Ġcl Ã©s
ĠÃ©lÃ© g
Ġcro y
Ġmen tion
ul l
Ã©rap ie
au f
R et
di ction
pÃ© dition
Ġvi ctoire
ait es
ĠprÃ©c ise
Ġcommuni quer
ne y
Ġchauss ures
ĠJ eu
Ġm u
ĠrÃ© cemment
Ġcomp ati
Ġ7 8
Ġcir cons
ig h
an itÃ©
Ġra di
Ġprincip aux
Ġm ig
P as
ĠÃ© m
ex tÃ©rieur
Ġni veaux
ĠC ulture
Ġcollab oration
et tre
us age
ĠAr t
Ġj oie
ĠJ Ã©sus
Ġmor ce
Ġavant ages
Ġjou eur
Ġr ang
Ġconstitu e
g Ã©rie
Ġapp orte
ĠA v
ĠrÃ©g ions
Ġin tellig
Ã® le
Ġarri Ã¨re
Ġex trÃªme
Ġord re
Ġd ange
Ġl ar
ann once
Ġuti le
ĠextÃ©ri eure
Ġro se
ite urs
Ġsur prise
Ġform ations
C A
Ã©ri r
ĠgÃ©nÃ©ra tion
ĠrÃ©uss ite
ag nement
Ġser r
us te
ĠM ain
in ique
ĠsupplÃ©ment aires
Ġoc cup
er ni
ĠA lex
Ġfra g
Ġt Ã´t
Ġsecon des
Ġmer veille
Qu and
Ġinv ite
ager ie
.... ....
Ã©t ablissement
Ġtrans par
g y
ric ulture
Ġsalari Ã©s
h an
Ġl ancer
ĠdÃ©clar ation
G r
T ER
Ġcommerci al
Ġdist ribu
tis sement
Ġfi che
ĠÃ© cole
Ġlarge ment
ĠS em
Ġban que
Ġconc ent
um er
ĠdÃ© fi
ap es
âĢ¦ )
O ui
Ġtr om
Ġfaud ra
ĠPhili ppe
p it
Ar t
t ail
ĠC E
ĠÃ©c ran
Ġpati ents
Ġscienti fiques
ĠI m
Ġdeg rÃ©s
Ġin clus
entre tien
Ġh as
Q U
Ġf ili
et e
ĠS ciences
ĠRou ge
ĠrÃ©un ion
ad ministrateur
ag u
on te
di ques
op tion
ĠP o
ĠL og
y right
ĠM ilieu
Ġfle ur
ĠH y
ĠÃ©conom iques
ĠC i
ĠcatÃ©gor ies
Ġn at
os se
S I
og ne
Ġfav or
oli e
Ġsuiv antes
Ġpuis qu
Ġh e
Ġretra ite
c te
Ġenvoy Ã©
ais sent
fi Ã©s
Ġcap ital
aff ich
Ġvoul u
Ġci vi
Ġs inon
Ġaccep ter
Ġins crit
V D
Ġutilis ez
Ġro be
Ġchoc olat
ĠÃ©p oque
j u
Ġrapport s
ĠR ussie
ĠintÃ© rÃªt
Ġmen tionn
Ġrem ont
Ġrenouv el
R ES
Ġmus ul
Ġconnec tÃ©
Ġmil itaire
ĠRÃ©g ion
al lÃ©
Ġmen u
6 4
ĠW indows
Ġseu ls
Ġcon formÃ©ment
n el
Ġadap tÃ©
Ġkil om
m ine
ĠP RO
S P
Ġprob ablement
l d
ist an
rolog ie
ĠS elon
Ġr u
expl oitation
Ġg ri
it ons
or y
ĠC D
Ġin cont
Ġf u
Ġcar b
Ã©r ant
Ġbas se
Ġ ^^
Ġau teur
end rier
ub liÃ©
Ġfourn it
cri vez
Ġl ende
Ġbl anche
Ġlog ique
Ġfond ament
Ġcade aux
h iver
Ġsyn th
ĠU tilis
Ġent rÃ©e
Ġtest s
Ġindi quÃ©
ĠB ern
Åĵu vre
Ġeffectu er
Ġal li
n ique
an isme
Ġl Ã¢
ing s
Ġvoul oir
Ġar ts
h or
T C
ins crire
Ġcent rale
ĠÃ© crire
Ġsu it
ĠÃ©quipe ments
Ġlim ites
Ġ200 3
Ġchange ments
Ġra cont
Ġpublic itÃ©s
sidenti elle
ĠIn st
stitu t
ĠMar seille
our t
un ion
ĠJoh n
f er
Ġcommerci ale
ĠP ic
Ġan cienne
Ã§ a
ĠmÃ©th odes
ĠprÃ©f Ã©
lic itÃ©
Ġsimp les
Ġmont agne
intÃ© rÃªts
g a
ĠrÃ©f lÃ©
ort h
ĠAn d
u ves
Ġpor tÃ©e
ĠÃ©tablis sement
ĠY ork
mb ler
Ġfr om
ĠLors que
ut ation
Ġparti s
Ġamoure ux
ĠCan al
ri ers
Ġin tro
ob tenir
Ġann iversaire
ig u
Ġper tin
cr its
Ġhum ains
d f
Ġcomm er
on i
ĠE mp
Ġrev ue
Ġam en
ab sence
Ġdem ain
intÃ© gra
Ġl yc
ĠÃ© lections
sse mblÃ©e
Q ue
ol f
ĠâĢ ĺ
Ġfinanci Ã¨re
Ġdiff usion
Ġgr is
Ġpersonn elle
A ccueil
Ġre vi
C et
ĠD roit
lÃ¨ ve
e y
ĠD onc
Ġabsolu ment
Ġdollar s
Ġpar ole
Ġ3 7
onn Ã©s
Ġconsult ation
v et
Ġcon duite
Ġsupp ression
6 2
ux elles
Ġsour ire
Ġser veur
Ġprest ations
Ġcompos Ã©
le ine
Ã©c riture
Ġ4 4
an cier
agn ol
Ġsitu ations
ĠC ou
Ġ6 5
Ġhyp oth
Ġau dio
& #
ĠL Ã©g
Ġbat terie
R en
Ġnom s
Ġ ..
ĠE m
co ol
Ġve ille
Ġlende main
ĠC el
avi er
ĠServi ces
ĠL u
ul aires
ĠS eu
Ġser t
Ġchiff res
ĠIn f
est ation
Ġn oire
Ġinc roy
Ġ200 2
Ġcir cu
Ġl oisirs
ĠdÃ©b ar
ĠH D
Ġappel Ã©
Ġryth me
oles c
Ġv ote
ĠD im
Ġartis tique
Su jet
Ã´ tel
D ate
Ġso yez
ĠconsÃ©qu ences
Ġti tres
ĠR E
Ġmauv aise
ĠSu per
ib ilitÃ©
vie w
ag ence
Ġme ur
Ġph ase
, ...
Ã©v Ã©
Ġatte int
Ġfig ure
Ġt rÃ©s
Ġdeme ure
ĠP AR
Ġdispos ez
te ls
ĠD avid
att end
ĠcompÃ© t
ĠexpÃ©ri ences
r s
Ġan alyse
Ġcontinue z
Ġcon Ã§
ĠF estival
identi tÃ©
Ġac tiver
Ġfacil iter
ĠMin istre
Ġmat ern
os itÃ©
ĠP at
Ġr ent
Ġpl astique
ill ages
Ġorigin al
th e
ĠS ol
Ġexcell ent
ign er
en i
ĠvÃ© lo
ĠL o
c m
ĠdÃ©clar Ã©
m Ã©es
f aire
Ġparf um
Ġrec tification
ĠE uropÃ©
Ġt ab
Ġrub rique
ĠamÃ©ric aine
8 5
ĠA llemagne
201 6
ĠR el
Ġsol aire
u ant
av ance
D u
ar r
ĠRe cherche
Ġen vis
P rÃ©
ob le
ow n
ĠpropriÃ©t aires
Ġoff iciel
con te
Ġv ar
ĠÃ©trang Ã¨res
Ġf aux
ĠRoy aume
6 3
um ul
ĠexpÃ©ri ment
en viron
Ġe aux
ad is
ĠspÃ©ci fiques
p in
Ġex tÃ©rieur
and re
ass urer
ĠdÃ©di Ã©
ĠmaÃ®tr ise
Ġab and
Ġc ouverture
ier res
I TE
ĠTh i
P e
Ġt ente
Ġinf Ã©ri
ĠH aut
ĠD em
ĠspÃ©ci aliste
ĠtÃ©lÃ© vision
ĠY ou
Ġf ar
ĠJac ques
O B
Ġsymp ath
Ġins crire
6 7
ĠcÃ´ tÃ©s
S T
ag ir
Ġcomp lexe
Ġoeu vre
li min
yst Ã¨me
ĠC oupe
Ġle cteurs
ot t
Ġp ont
Ġport able
Ġprincip ale
ĠprÃ©al able
Ġate liers
Ġremb ours
Ġd ates
l on
Ġreconn u
ange ment
Ġcollec tif
ĠB ro
Ġat ten
Ġju di
Ġport ant
Ġdev ra
Ġchauff age
ra Ã«l
rib uer
ĠsÃ© ance
ĠdÃ©v oil
i z
ĠdÃ© tr
ĠdÃ© te
Ġapp roche
Ġfor Ãªt
pl us
ie use
Ġp ire
ass Ã©
Ġcandid ats
ĠLond res
ph ones
Ã¨ ques
Ġdis ting
Ġgo Ã»
Ġall ait
U L
Ġtom be
j a
Ã´ ne
Ġlong ueur
P er
Ġin vent
Ġre qu
Ġerre ur
ĠlÃ©g umes
M al
Ġar gent
ĠdÃ©p Ã´t
ĠB ri
ard ins
rÃ©t aire
Ġpossi bles
Ġach ats
mi di
!! !
iv al
U T
Ġparfait e
U M
Ġdi agn
ĠInter national
Ġ5 9
Ġche val
Ġlit tÃ©rature
Ġin ves
ĠrÃ© paration
Ġc Ã¢
ĠH aute
Ġm ys
Ġfa me
Ġmort s
ĠT ru
Ġop tion
fie z
ĠintÃ© grÃ©
all Ã©e
Ġlang ues
Ġcel lu
at er
ĠindÃ© pendant
av al
di er
Ġbanc aire
Ã©t ranger
Ġtra iter
Ġas tuces
Ġdispos itif
T r
ĠI talie
ĠÃ©nergÃ© tique
qu ie
du ctions
Ġsc ul
av ascript
et h
Ġs it
ĠDÃ© f
â Ħ
accep te
arm Ã©e
ĠrÃ© pÃ©
ro b
ĠT rier
Ġpos i
Ġindispens able
Ġj oin
ĠintÃ© rÃªts
ri re
Ġsu cre
Ġfin ir
ĠRÃ© fÃ©rence
ĠmÃ©dic aments
Ġsal les
Ġpubli ques
ol ation
Ġb Ã©n
Ġgraph ique
Ġm assi
ĠPe tit
rai de
Ġpossi bilitÃ©s
Ġco qu
Ġdis cipl
ĠIn c
OST FR
Ġin nov
Ġ0 6
Ġr oul
Ġpersonn els
Ġpau vre
ot tes
y e
Ġpe int
Ġpropos Ã©s
ĠMus Ã©e
ĠrÃ© ellement
jou x
Ġt res
Ġjoli e
B E
f a
Ġcons iste
Ġin qui
ume ur
ut ri
or ges
Ġob ten
Ġnavig uer
Ġalle mand
Ġinstall ation
Ġle cteur
Ġcherche z
Ġparticip ants
Ġd ouleur
Ġn et
vis ions
ĠÃ©vÃ© nement
ĠM y
Ġenc our
ĠB ois
Ġprof it
ĠAc cessoires
ĠCrÃ© ation
o tes
In form
de ment
ĠprÃ©f Ã©rences
Ã©dÃ© ration
Ġdans e
Ġentre r
C O
d ation
ĠcrÃ© e
ou ch
or iques
Ġmeu ble
Ġfeu illes
Ġfor tement
ĠSt ar
ĠA R
Ġactiv Ã©
Ġren v
Ġson d
v ence
Ã© dition
Ġtour isme
Ġre mettre
Ġrapp elle
ti g
ĠM A
Ġvoit ures
a cie
Ġloc ale
S er
ĠMus ique
ĠdÃ©j e
ul tÃ©
Ġul tra
ur ier
Ġaut h
ĠL oire
Ġcr Ã¨me
met ure
Ġra re
Ġfall ait
F ran
c un
y a
Ġloc ales
ĠJ our
r ome
ĠS alle
Ġchar gÃ©
ac tiver
Ġnorm es
tionn el
ĠÃ© mis
in vestis
aur ais
ĠmÃ© d
Ġmag azine
P A
Ġsatis fait
ĠG l
ĠL ab
ĠhÃ©ber gÃ©
Ġpers pec
ĠrÃ©d action
Ġv olume
Ġprin temps
Ġtomb er
ill Ã©e
v in
Ġqu Ãªte
Ġent end
Ġpl ong
ĠÃ©t oiles
Ġcour age
i dÃ©
C C
ade leine
Ġpris on
Ġsom met
Ġcitoy ens
tra it
m ise
ig ht
Ġtra dition
Ġgra ve
Ġ os
est es
n ie
ĠG Ã©
Ġdi ab
Ġdou x
import ance
Ġrest ent
Ġm ille
ony me
Ġf Ãªtes
Ġm yth
Ġatte indre
ad Ã©m
ĠNic olas
ĠH ol
Ġenj eux
Ġviol ation
Ġra c
Ġlong ues
exp ression
az z
i eu
ĠA k
i res
O k
Ġcomb in
Ġdis p
Ġactu elle
ĠJ ardin
Ġt oit
ic ations
ĠGr Ã¢ce
ĠdÃ©fin ir
Ġre mis
ĠVidÃ© o
Ġall ons
Ġcap ac
ĠprÃ© nom
ĠCh ambre
ĠreprÃ©sent ant
Ġag ents
Ġnouveau tÃ©s
ĠD ou
Ġmeu bles
gn Ã©
I X
ĠB ur
es sionn
mp e
Ġapp li
A fin
d y
T T
Ġb ais
Ġdi am
Ġju ge
ĠnÃ©g oci
Ġar r
ch a
âĦ ¢
Ġrepro duction
Ġn ul
Ġ6 8
Ġarri vÃ©e
Ġcon Ã§u
Ġeng age
Ġb u
r in
u alitÃ©
Ġsa ur
Ġj ur
An g
g ard
ĠPar ti
j i
Ġf ol
Ġpleine ment
Ġpoin te
ĠdÃ© rou
ĠlÃ©g Ã¨re
Ġra conte
ra p
Ġconfort able
ori ent
ĠNo vembre
Ġprincip ales
ĠGÃ©nÃ©ra l
f eu
Ġpos ter
Ġbr ut
Ġtal ent
ĠÃ©v olution
ne ur
T e
i as
Ġb ateau
Ġcomp lex
l ong
ĠD Ã©velopp
Ġen vers
ĠdÃ©c Ã¨s
est aur
ar re
ĠrÃ© alise
Ġd anger
Ã¨ nement
Ġ4 00
ĠdÃ©li v
ent raide
Ġb aisse
Ġport rait
Ġ19 78
Ġm asse
Ġatt entes
5 7
ĠAnn uaire
al d
com mun
Ġ0 2
Ġsci ence
ĠCli ent
enregistre ment
Ġf us
AG E
Ã©cu tion
ĠfranÃ§ais es
un al
Ġinter ne
Ġpati ent
Ġp s
ĠL in
oc t
Ġ6 4
Ġcol is
ĠÃ©p re
Ġimp os
Ġrec ours
ĠTri pAdvisor
Ġdu re
T outes
ĠP L
Ã©tu des
6 1
ĠD ate
oc cu
Ġ er
Ġcor re
C omm
Ġli Ã©es
Ġco ff
ĠcÃ©libat aires
ĠS im
ap t
i i
op yright
Ġchau de
ĠT unis
Ġ1 000
Ġac qu
Ġcomp rÃ©h
Ġtr ouvent
ĠBr uxelles
Ġh os
ent raÃ®
ĠMon sieur
Ġhist oires
5 3
al on
Ġrepr endre
li ge
C ons
ĠL ux
Ġaim Ã©
ĠB at
9 1
ĠÃ©ch anges
Ġst y
Ġimport ants
ĠspÃ©ci al
Ġil l
Ġâ Ĩ
Ġp ure
m Ãªmes
m y
Ã©t aires
Ġne ige
ĠM ath
Ġti tu
in ess
Ġbo ite
ĠPar c
Ġen ne
Ġinter prÃ©
ĠChar les
an es
ĠPro duits
ox y
at tention
tionn elle
rÃ© g
Ġcli quer
Ġcivi le
ĠC Ã´te
Ġqu itter
Ġl ancÃ©
C rÃ©
ĠqualitÃ© s
F or
Ã¨ne ments
ac Ã©
Ġf act
II I
I ls
Ġret ard
Ġlesqu elles
O D
V F
Ġt ac
Ġarri vÃ©
Ġacc ueil
Ġprofessionn elles
Ġmach ines
Ġmagas ins
ĠÃ ¨
ĠCro issant
Ġpr en
V OSTFR
titu tion
Ġm urs
Ġexper ts
ĠSÃ©n Ã©gal
F F
Ġa Ã©ri
ĠP ant
g on
ĠL im
is Ã©e
oy en
Ġrev anche
di ents
D Ã©p
T u
ĠS an
Ġas si
Ġindi que
g in
Ġretourn er
Ġr entrÃ©e
eng age
Ãª tres
ĠdÃ©couv ert
Ġgar Ã§on
Ġnorm al
Ġcomm ission
in v
Ġc oiff
Ġeffectu Ã©
Ġv ain
Ġfi xe
Ġja une
p are
Ġs aint
ĠC amp
Ġes tim
Ġcl airement
DÃ©c ouvrez
Ġra t
inter vention
appr entissage
ĠL une
Je an
eu e
Ġdes cription
Ġlog o
le z
exc ell
Ġav enture
Ġfran ch
Ġ0 8
Ġmont er
ponib le
Ġj et
a pÃ©
ĠprÃ©f Ã©rÃ©
ĠL ong
Ġapp ropri
Ġdisponib ilitÃ©
N o
Ġcy cle
O ff
Ġst age
Ġ0 9
or atoire
AR D
Ġcent aines
di en
Ġaim er
Ġhum aines
Ġcab inet
ĠA P
ĠlÃ©g iti
ĠprÃ© sid
Ġexclus i
Ġ200 1
ou dre
crip tions
ĠCert ains
ir l
ti Ã¨res
Ġentre tien
Ġchiff re
ins tant
Ġd ent
H istoire
Ġimport antes
Ġdess ous
Ġch Ã¢teau
ĠÃ©lect riques
Ġdestin Ã©es
Ġsou lig
du le
Ġven u
Ġp el
5 2
Ġconvi vi
Ġlux e
ĠX X
ĠE d
Ġsub st
Ġchin ois
Ġvas te
Ġra cc
Ġreven us
ĠB le
Ãª tement
ĠfrÃ© quent
Ġex ter
Ġsau ve
Ġf ati
iss ante
Ġcon server
onn ier
ĠAff aires
Ā Ā
Ġcoord onnÃ©es
Ġmati Ã¨res
Ġaccue ille
ĠD VD
ĠP rÃ©sentation
ĠT able
Ġuti les
Ġac tes
Ġcapac itÃ©s
s tÃ©
m ie
ĠContac ter
P ierre
env oi
Ġrec ons
Ġv ul
ĠcompÃ© tition
B as
mes tre
Ġchale ure
Ġexac tement
ĠN oir
ĠS ou
ĠdÃ© lic
Ġlo gements
Ġform ule
Ġj ui
in ion
ĠÃ©ch app
ĠS T
Ġ5 6
Ġerre urs
en e
Ġ4 2
Ġsymp a
Ġlang age
ĠD ocu
b it
Ã© le
Ġcha mps
Ġaspect s
5 1
Ġmouve ments
Ġtiss u
pr endre
Ġces se
Ġartis te
Au jourd
Ġp Ã©r
am s
Ġconf ront
Ġsuper be
or Ã©e
oi gne
ĠÅĵu vres
aff aire
Ġrembour sement
ĠindÃ© si
g l
Ġta xes
9 2
Ġcontra ts
Ġfoot ball
ic a
Ġimpres sionn
ĠG uerre
DÃ©c roissant
Ġ u
ĠrÃ©alis Ã©e
Ġl in
cÃ© lÃ©
ĠÃ©ch ange
ĠN ature
ĠD Ã©m
Ġsou tenir
ann age
ar me
Ġavi ons
ĠN et
Ass ociation
ric k
ric ol
Ġate lier
Ġt ut
Ġsign al
ex ception
du cteur
Ġter res
Ġmam an
Ġkilom Ã¨tres
Ġfac ture
ĠsÃ©lection ner
Ġth Ã¨mes
ĠForm ation
Ġsenti r
Ġfa veur
au tÃ©s
Ġb ilan
Lors que
i al
Ġremar qu
n a
Ġcorrespond ant
ĠE ss
Ġnum Ã©riques
Ġpar ent
Ġliber tÃ©s
ĠCons ul
ĠN or
atÃ©gor ies
hÃ© tique
Ġdifficul tÃ©
ĠÃ ĩa
app elle
Ġeng agement
ĠApp le
Ġtra duction
ag s
Ġstand ard
Ġinc onn
Ã´ ts
Ġra ss
Ġaff aire
ĠÃ©t apes
l Ã©s
Ġdis que
Ġses sion
c tes
ler ie
our ce
Ġplu ie
Ġre voir
Ġpar king
U ni
Ġaccomp agner
O G
ĠdÃ©velopp Ã©
o Ã¯
ĠP resse
Ġpersonnalis er
ex ercice
T ri
ĠCroissant DÃ©croissant
Ġb ains
ĠT witter
Ar chives
n Ã©e
Ġrecom mande
Ġcat alogue
Ġcon duit
ĠS ous
ĠP ra
Ġcomb ien
Ġc itÃ©
ar rÃª
Ġconn aÃ®t
V os
Ġeff orts
Ġle ader
j ug
Ġf ront
ĠF i
Ġpr ennent
Ġag ric
P L
ĠH en
ĠToul ouse
Ġnett oyage
Ġre venu
ĠL igue
Ġfran ce
Ġbar re
Ġhas ard
en ch
dro id
Ġchans on
Ġvoul ait
au re
Ġan ne
Ph one
Ġen ch
ĠMar c
ĠEsp agne
ven us
Ġlit tÃ©
Ġvis u
d us
ĠspÃ©ci ale
Ġouv rage
S A
Ġparticuli Ã¨re
Ġbr Ã»
Ġh i
Ġapp ort
ĠB re
ĠAn ne
Ġsign ature
Ġst ric
con que
Ġmont age
ĠN om
h ier
ĠlÃ©g Ã¨rement
Ġpot entiel
h o
Ġmaladi es
er v
ĠM ic
ĠD r
Ġaux qu
Ġactu el
T ra
Ġbas es
Ġv Ã©cu
y pe
x i
Ġch angÃ©
Ġ: )
Ġopp ortun
Ġqu in
Ġdirige ants
Ġcan adi
Ġdonn Ã©e
Ġmat h
ĠD on
Ġtest er
ĠC liquez
Ġclient Ã¨le
V E
di es
ĠPeu t
gram me
s ous
Ġcollection s
inf o
Ġrestaur ants
rai re
ĠR Ã¨g
Ġrecue illi
Ġme me
Ã©rap eu
d ence
ĠprÃ© t
Ġac cident
Ġha usse
ti ge
ĠspÃ©cialis Ã©
adi o
av enture
Ġress enti
ĠÃ© duc
Ġ4 7
Q uel
V euillez
ĠG re
ouv oir
ran te
Ġ8 8
Ġpro stitu
ĠC in
oute z
Ġartis an
] ,
Ġcour riel
Ġprog ressi
Ġav oc
Ġport ail
ĠdiffÃ©r ent
ĠsÃ©ri es
c itÃ©
ti fiÃ©
ce voir
Ch aque
Ã´ les
Ì Ģ
ĠJ uli
Ou est
Ġcollec te
Ġimp rim
Ġcli mat
eff ectu
ct or
Ġculture l
t rÃ©
Ġlaiss Ã©
al a
ati vitÃ©
Ã¢ me
ĠRob ert
g re
ĠsupplÃ©ment aire
Ġvoul ais
ĠM me
atis ation
quis ition
ĠspÃ©cialis Ã©e
ĠrÃ©cupÃ© rer
at te
ĠcrÃ© ations
Ġen quÃªte
ser t
Ġ5 4
te lier
Ġ9 9
ic acitÃ©
Ãª ches
ĠThi Ã¨s
ten sion
uc lÃ©
Ġs treaming
Ġfa Ã§
Ġc ur
ĠH or
Ġmis sions
Ġtrans mis
Ġinv itÃ©s
ol ue
F A
ag ram
Ġdisc ussion
ri cole
o pe
ĠC L
h tt
Ġmus ici
I B
Ġtransf ert
Ġdou che
Aff icher
onn ant
Ġsol d
ĠB retagne
Ġoff rent
ĠDes ign
Ġpense z
Ġam Ã©n
Ġpartici pe
Ġm ou
ĠlÃ©g er
ve iller
Ġpublic itaires
A llemagne
Ġcommerci ales
tra tion
ti fier
ĠmÃ©dic ament
Ġtr ouvez
oris er
il iser
Ġbi ais
ĠrÃ© novation
Ġdestin Ã©
Ġven deur
ĠdÃ© ri
Ã© ti
ass es
ĠB ay
Ġsur veillance
ud ence
ĠM ax
d ite
Ġtourn er
ĠMac ron
Ġsau ver
ĠP an
ĠCar te
Ġprincip es
ĠN orm
Ġam ie
Ġfai bles
ĠrÃª ves
Ġcam Ã©ra
ĠâĨ Ĵ
Ġcom itÃ©
ĠmÃ©dec ine
Ġfamili ale
ĠprÃ© s
Ġpro duire
Ġpuiss ant
Ġrestaur ation
ĠNation ale
ĠdÃ©cis ions
eff et
Ġmani pul
Ġr ares
b ec
Ġ9 5
ouver tes
Ġpl aÃ®t
ord inaire
Ġsou d
vi Ã¨re
ĠprÃ©v ues
it a
ĠrÃ©p ert
ces sion
Ġal er
Ġa qu
Ġst ress
Ġfra pp
ĠP DF
Ġ2 50
Ġar mes
C S
Ġav er
Ġ ign
Ġcandid at
Ġg uit
Ġorigin ale
Ġpor tÃ©
Ġvic time
Ġreti rer
ĠCh auss
ĠCont act
en ser
Ġfran c
ĠD ra
Ġch ute
v ue
Ġcont ent
ĠDÃ©f ense
ĠrÃ©c it
ĠRen contres
ĠD ani
Ġscol aires
En fin
Ġtra fic
ĠL uc
Ġs ki
Ġexig ences
ĠA N
Ġcontempor ain
h am
Ã¨ vres
ĠÃ© ti
ĠV I
ui le
Ġfinanci ers
Ġcircul ation
Åĵ il
Ġeffec tivement
Ġv ali
Ġh Ã©ros
hab itude
ĠL ES
Ġacc ro
enf ants
Ġchac une
s Ã©
si er
Ġamb iance
Ġ6 9
Ġti rer
Ġall ant
ĠdÃ©t ente
Ġcon duire
u Ã©
ai es
âĢĿ ,
ĠNation al
ĠCanal Blog
Ġs ch
Ġs ing
Ġsouvenir s
Ġb oute
ĠH um
ĠdÃ©fin ition
Ġl y
ĠS Ã©
ĠInform atique
man uel
Ġ> >>
Ġch ir
ĠprÃ©cis ion
uss es
res sions
Ġp ur
c ure
Ġou vre
Ġt oil
ĠS ex
ĠcompÃ© ti
lis te
Ġtap is
Ġpat ron
Ġfin ancier
Ġmon u
Ġb rit
Ġsec teurs
Ġjudi ci
t ures
ĠM ex
n am
Ġsex y
ĠS ar
Ġinter n
Ġ0 3
Ġadap tÃ©e
Ġen vir
asse ur
Ġconn ue
Ġconsi d
8 2
ĠB ir
onne z
Ġclassi ques
m l
Ġreg ret
Ġarch ite
ĠPar t
L iv
ĠdÃ©ch ets
b an
l ing
Ġfournisse ur
Ġrelig ion
as tr
les se
Ġsais ir
Ġs el
Ġmain tenir
Ġmot o
Ġpol lu
Ġassur ance
ci ent
ou Ã©
Ġtoi le
Ac tu
ionn at
Ġouv rir
le urs
am en
arri ve
z a
ig er
Ã©c oute
O b
Ġdi alogue
Ġcircons t
ĠrÃ©f Ã©r
in age
ĠrÃ© clam
A ssemblÃ©e
audi ence
ĠPar tie
ĠdÃ©je uner
esp oir
Ġfra Ã®
Ġcal endrier
Ġremp lir
Ġ0 4
enti n
Ġchar ges
Ġar bres
Ġvari Ã©tÃ©
Ã¨ vre
Ġconsul tez
si f
Ġam ateurs
Ġ q
Ġent endre
Ġv ise
Ġc oton
C P
Ġpropos ition
ĠBl ack
ĠS ainte
ĠAuteur Date
Ġbl an
Ġï Ģ
Ġin titu
om Ã©t
Ġp ain
Ġs inc
de urs
Ġri re
o vi
ĠreÃ§ oit
Ġfournisse urs
Ġcours es
Ġatt endant
Ġcon form
ĠP ap
ĠLa urent
Ġun s
ĠCh er
Ġde vi
ette z
In dex
ĠspÃ©ci alement
Ġjourn aliste
Ġreconn aissance
Ġappar tient
Ġconten ant
Ġorganis ations
Ã©ch ange
ĠrÃ©serv Ã©
Ġla issez
Ġaliment aire
ĠAr ts
Ġstru ctures
ali ers
Ġtransform ation
ĠprÃ©v ue
ĠPr in
join t
ĠL Ã©
ĠI P
ser ie
Ġas se
ctionn aire
Ġch iens
ĠS U
Ġclass es
di um
ĠÃ© chÃ©
Ġpropos ent
en is
Ġau quel
ĠïĢ Ĩ
ĠAl l
Ġh er
ĠprÃ© vention
ĠBl anc
S a
Ġr ues
Ġob tenu
IN E
in eux
Ġ ....
ti ble
Ġenregist rÃ©
Ġb ref
Ġf un
let erre
ĠrÃ© comp
ĠB Ã©
ĠT op
Ġaccue illir
ĠC P
Ġg lis
ĠV an
ĠBan que
Ġdis tin
ĠdÃ©couv rez
ĠCe ci
ĠrÃ©f orme
grÃ© dients
ĠS pÃ©ci
c in
or ld
ĠMar i
Ġlyc Ã©e
ĠA st
ĠP op
ct s
C ol
om as
ex per
Ġd at
ĠindÃ©si rables
E s
ace ments
ass age
M I
Ġatt ribu
Ġinf os
Ġc lic
Ġdess ins
ĠPour tant
erci ces
Ġc oc
ĠDÃ© cembre
ĠC O
ĠEn f
Ġnom mÃ©
Ġhy per
ten ue
Ġmi di
vi es
Ã©v iter
o quÃ©
v Ã©es
Ġrempl acer
ver sion
Ġapp ris
Ġbru it
Ġsur f
ab onnement
Ġp Ã¢te
r ants
ĠD an
Ġenseign ants
Ã© tiques
ag Ã©s
ĠAu tre
Ġdirec te
Ġsit ue
Ġac tif
Ġ6 00
C T
Ġh uit
w ork
ĠC R
Ġgar age
T oute
ra stru
je ction
Ġdiff us
Ġsimil aires
ure aux
n eu
ĠK ar
un iversitÃ©
or a
ĠC OM
Ġra l
m ique
Ã©c uti
Ġphot ographie
Ġmag ie
ĠM ay
Ġdiscu ter
Ġpriv Ã©s
ĠN Ã©
Ġreg arde
Ġex ige
app ro
Ġaur ont
ĠidÃ© ale
Ġpouvoir s
r ise
ĠB onne
ĠA mb
ĠspÃ©cialis tes
Ġterrit ori
Ġg ay
Ġon g
iter ran
meub le
Ġr usse
Ġser aient
ĠS Ã©curitÃ©
Ġmar oc
Ġlib res
tionn elles
Ġ5 7
Ġcop ie
Ġtranqu ille
Ġl ing
u ter
Ġman quer
Ġdossi ers
Ġav ent
Ġretra it
ĠPre mier
ci ers
Ġsenti ments
Ġtrou bles
all en
S h
ist res
Ġoc cident
Ġpub lier
ame di
m onie
Ġvis ant
d Ã©e
A vant
ate lier
ĠÃİ les
ĠA ide
Ġinst allÃ©
ri es
Ã©t aire
Ġchanti er
ĠDÃ© partement
Ġm aire
ou li
ĠextrÃªme ment
ĠV ente
Ġjus tement
Ġculture lle
h Ã©ber
Ġs able
ĠprÃª ts
ĠprivilÃ©g i
tin s
ĠcollÃ¨ ge
Ġno v
ĠI II
ĠdÃ©si rez
Ġm ang
ĠLib er
Ġfer meture
ri ces
ĠD oc
Ġbiblioth Ã¨que
G E
m osph
Ġfour ni
all age
Ġmen er
IL L
Ġde venue
Ġ8 5
Ġsou ci
Ġadress es
Ġm Ã¢
Ġfonction ner
Ġcherche urs
ĠSe igneur
ĠrÃ© di
Ġdivers itÃ©
rup tion
oli ques
al ie
ch ons
onne ments
ĠconsÃ©qu ence
ĠÃ©cl ai
ĠDire ction
Ġtable aux
r Ã¨te
ĠG ab
Ġpot enti
Ġsuscepti bles
Ġrencont rÃ©
Ġf ans
ali mentation
ĠmÃ©tÃ© o
Ġh Ã©s
Ġpe in
end a
Ġmo tifs
Ġentre pren
Ġpays age
ĠF A
Ġgour mand
ĠUS B
Ġmil itaires
anne au
Ġenf ance
s u
Ġphilosoph ie
ĠS yn
tu gal
ra ble
lic ite
el d
Ġ14 0
oph e
hÃ´ ne
Ġincont ourn
ĠLe ur
ay ant
y p
Ġ18 0
ĠC A
au jourd
ĠPers onn
Ã©ra l
C al
Ġsil ence
Ġa per
Ġconstru it
ĠpÃ©t ro
Ã ¡
L C
Ġintellectu elle
f l
Ġc ens
M adeleine
r ite
Ġcontac tez
ĠCom itÃ©
Ġsign Ã©
Ġs Ã©n
Ġst ade
oure ux
ĠP ublic
Ġo ise
Ġfr Ã¨res
k m
Ġadul te
ap h
ĠconsÃ©qu ent
Ġr ond
Ġ 00
inc ent
Ġcar t
Ġexp liquer
Ġin gÃ©n
dÃ© c
Ġm ac
Ġcent ral
Ġfant as
ĠÃ© lab
tis te
Ġd ites
Ġv oil
Ġsur vi
ĠreprÃ©sent ation
ĠÃ© limin
m ant
Ġb Ã©t
Ġperman ent
Ġc ancer
Ġo ct
Ġach etÃ©
Ġe mm
Ġtransport s
olog ne
ĠA ccueil
Ġsimp li
ĠPh oto
M e
k o
ĠA cc
en a
Ġca che
ĠrÃ© elle
y m
ĠDire cteur
9 3
ĠJ ours
ĠV ers
app ort
oeu vre
il ib
az on
Ġopp os
Ġconfig uration
ĠB ref
Ġmal heureusement
ĠsÃ© ances
Ġtemp or
Ġj ardins
ĠPar ce
. -
ĠS w
Ġde grÃ©
ati e
c y
Ġtou cher
ĠnÃ©cess itÃ©
Ġinternation ales
ra se
ĠrÃ© action
ĠAn droid
Ġidenti fier
ter ies
ti es
ĠEn se
Ġp sy
Ġche fs
ĠL um
ĠrÃ©ussi r
vi ce
Ġconsomm ateurs
Ġh onn
Ġper fe
:: ::
Ġdiagn ostic
ais ons
am in
ĠmÃ©dec ins
Ġm orte
ĠÂ °
Ġrappel er
cie use
ĠM Ã©d
hum anitÃ©
Ġn uclÃ©
Ġconc lus
Ġassoci Ã©
us ter
ou i
Ġplate au
ĠSal on
Ġ6 6
ĠS tu
ĠO li
ĠphÃ©nom Ã¨ne
Ġfi dÃ©
Ã©v aluation
Ġesp Ã¨ces
te ch
Ġbran che
hÃ© sion
Ã©t aient
Ġenti Ã¨re
ĠPal ais
Ġpoursui vre
Ġ9 8
Ġdev raient
Ġty p
| |--
In stitut
âĢ¦ .
mÃ©di aire
Ġre jet
Ġsensi b
S elon
Ġ el
Ġnature ls
y r
Ġbat aille
ĠGu y
ĠBern ard
Ġsensi ble
ini um
c une
eff icacitÃ©
% .
ĠnÃ©cess ite
Ġcent ra
a a
Ġcamp ing
Ġpar oles
ex pÃ©dition
ĠEx p
Ġcer veau
Ġjou Ã©
f on
oule urs
Ġm ol
Ġsmart phone
ser ve
Ġrou ges
ĠÃ©mo tions
Ġcomp li
b erg
tr ont
ĠSe ine
tÃ© ph
com me
ĠcomprÃ©h ension
ĠDÃ©velopp ement
Ã©g lise
Ġir rÃ©
ĠR em
m ans
Ġcollec tive
Ġjapon ais
Ġtech ni
ĠMat Ã©ri
Ġprest ation
arch itecture
onn aie
ĠS ports
Ã©n us
Ġinstall er
Ġre prise
ĠrÃ©f Ã©rences
v ait
ĠÃ©trang ers
mi ques
ob e
Ġa cier
Ġet re
Ġcin Ã©
M a
Ġdom mage
Ġcer tific
Ġaccompagn Ã©
Ġenregistre r
Ġincroy able
ĠE v
Ġli Ã©
or p
Ġme c
Ġsolid aritÃ©
Ġg uer
o tel
ag i
Ġad mi
Ġch ante
Ġ16 0
ĠA lle
Ļ ¥
Ġcollec tivitÃ©s
Ġoffici elle
ĠbÃ¢ti ments
it ch
hab it
or ent
ĠL ac
ĠS port
ĠNouve aux
p ers
M T
Ġpublic itaire
ĠPro tection
Ġoc cu
ĠD Ã¨s
ir t
Ġimp orte
Ġtransform er
lis me
Ġm oul
rÃ© d
d ing
si Ã¨re
Ġconfir mation
Ġamoure use
ĠF Ã©dÃ©ration
v ail
op timis
Ġoff ert
Ġen ce
ĠA L
Ã©t h
Ġconcurr ence
Ġtabl ette
Ġs tim
ĠC at
ĠT ex
or ce
Ġh u
Ġcour te
Ġancien nes
Ġlim iter
Ġm agn
onc tu
Ġd orm
Ġprom en
ĠrÃ© duit
Esp agne
Ġg agne
V oir
Ġp iste
Ġorganis Ã©e
u tion
Ġg are
ĠJ ack
app areil
ĠP ri
ĠdÃ©termin er
ĠF am
ĠToute fois
Ġo re
E U
Ġpeu p
Ġv ins
tu be
ĠMan agement
ĠGr en
Ġnaturel lement
Ġmes urer
Ġcon g
ĠÃ© lus
Ġdouce ur
ann Ã©es
Ġpersonnalis Ã©
ĠLiv raison
Ġin uti
Ġen le
ĠrÃ© tro
ĠPro vence
Ġre li
Ġorganis mes
h ous
Ġinstitu tions
Ġtra ce
) :
ĠC ath
ograph e
Ġfl ux
Ġrece vez
Ġemp run
ĠA D
Ġphysi ques
Ġprob lÃ©
Ġ5 3
Ġc ant
Ġvi ande
b as
Ġcou cher
ues tions
ĠR i
ĠdÃ©s activ
Ġrecru tement
Ġprofonde ur
Ã©lect ricitÃ©
Ġb ag
qui de
Ġno tion
Ġimport ance
Ġt ur
ĠS P
ĠB us
ois issez
Ð °
ĠmÃ©can ique
F i
ic s
ri en
ĠconsidÃ© rÃ©
ĠIn dex
Ġbout ons
ĠcÃ´ te
ĠP orte
ĠbÃ©nÃ©fici ez
ĠS ui
ĠR ock
Ġpro te
Ġpropos itions
9 4
Ġconf Ã©rences
ĠdÃ©m ont
Ġmod alitÃ©s
Ġrelig ieux
Ġsecre ts
ou est
Ġdange reux
o tion
iss ait
cl av
Ġemploy Ã©s
v oire
ĠÃ©v Ã¨nements
Ġb aign
Ġven ez
ĠE ch
Ġfaud rait
Ġpar lÃ©
ĠD Ã©b
fi Ã©es
dÃ© pend
lis ation
Ġcas e
emb ourg
Ġreconn aÃ®tre
R Ã©s
Ġis lam
is Ã©s
Ġdonn ant
ĠÃ©p isode
an aly
Ġrecueilli es
Ġ ur
Ġdimen sion
ĠÃ© mer
Ġcon ven
ĠM aster
Ġcou che
s ol
Ġter ra
Ġprof ond
Ġinv itons
ti an
) |
ac teur
on or
um inium
Ġautre ment
Ġpl af
Ġac te
im ages
Ġpl ats
Ã¨ dent
ann ique
ili ation
ow e
Ġval able
Ġco opÃ©ration
t ers
ĠA qu
ĠÃ©tab li
en quÃªte
o f
ĠM Ã©di
Ġst ar
Ġrenfor cer
ĠT i
ĠM os
Ġpl as
Ġcol or
Ġsou cis
Ġrep ort
ou ff
Ġpr enant
Ġocc as
Ġre con
IL LE
ĠC os
Ġac quis
Ġass urent
ĠarrÃª tÃ©
ĠeuropÃ© ens
Ġfac teurs
lo w
arm onie
is mes
Ġsport s
Ġspor tifs
âĢ ¯
Ġf ine
Ġb ulle
ĠFranÃ§ais e
alis Ã©e
D C
Ġmet tant
E l
ĠbÃ©n Ã©v
ille ur
Ġfor fait
ĠPhot os
Ġpopul ations
OU S
ĠmÃ©t rop
s bourg
Ġhor aires
cess oire
off rir
Ġspor tif
pel lier
ĠM oi
AN T
Ġf urent
D i
Ġpro long
Ġimm ense
ĠmÃ©dic al
o ok
Ġsigni fic
ĠS au
Ġf at
ĠCel ui
ch auff
ĠprÃ©f Ã¨re
Ġl ancement
ach eter
fin i
ĠM ON
Ġin Ã©d
sc endant
Ġn utri
ul te
ĠP endant
ĠS atur
es pÃ©
Ġvis ible
ĠJ o
ã ģ
ch ette
Ġinstall ations
Ġmu tu
D A
ĠcoÃ» ts
aimer ais
Ġstock age
ol is
asse ment
Ġendro its
Ġcircu it
Ġsembl ent
Ġpom pe
ĠconsidÃ©rer ons
ĠÃ©t age
Ġmess agerie
om p
Ġac tive
At tention
For um
b ri
en ci
gi Ã¨ne
Ġtraditionn elle
Ġm Ãª
Ġpos tes
h ist
Ġch i
ĠrÃ© mun
Ġaccessi bles
end ue
Ġpubli Ã©s
iss es
ĠprÃ©cis Ã©ment
Ġmod ern
ĠR ien
ĠB ourg
ar rÃªt
Ġqu elles
Ġy ou
Ġtrans mission
Ġnour riture
Ġterr oris
Ġac tifs
Ġass is
Ġstu dio
k in
Ġgross esse
ang le
ol y
Ġde b
ĠDis ponible
Ġtend ances
Ġh iver
ĠI ci
serv ation
ĠE lect
Ġal g
Ġsy stÃ©
ĠM c
Ġtrav ailleurs
ĠdÃ©m ons
Ġp ierres
Ġinter dit
ĠdÃ©c ro
O I
Ġres pi
Ġpropos Ã©es
Ġpl ant
ĠN um
Ġregr oupe
Ġmo teurs
n y
rib ue
ĠD isc
Ġg alerie
ĠnÃ© anmoins
u tÃ©s
Ġara be
a o
ress Ã©
ĠB D
Ġbas Ã©
Ġlo ok
Ġc rain
Ġsuis se
Ġv oile
ĠH omme
Ġten sion
Ġmob iles
ent end
Ġouver ture
ĠÃ©lect or
ĠP rom
ĠA ussi
Ġ11 0
investis sement
Ġrais onn
Ġchap itre
ab y
ĠB oh
Ġexclusi vement
Ġplac Ã©
Ġad olesc
Ġinform Ã©
cÃ© dÃ©
Ġsuffis amment
Ġsec rÃ©taire
Ġorgan ise
ĠT ou
Ġautom obile
Ġtraite ments
Ġro ck
Ġcol Ã¨re
Ġtra itÃ©
Ġter ri
aler ies
ĠreprÃ©sent ants
al s
hous ias
at ch
Ġpr Ãĥ
Ġoff rant
Ġ13 0
Ġsatisf action
ĠGra tu
ĠdÃ©pl acer
ais sez
inform atique
si ez
Ġk g
ĠdÃ©f endre
Ġmanifest ations
aut oritÃ©
ĠC ouleur
Ġpromo tions
Ġra m
201 3
ar ticles
Ġmys tÃ©ri
ĠrÃ©c ol
ĠcoÃ» te
Ġinf lu
DÃ©p Ãªches
on dÃ©
ak e
oubli ez
ĠF aites
inf luence
Ġfid Ã¨le
H E
Ġmand at
ac o
Ġoub liÃ©
Ġne z
affich age
ic o
ĠdÃ©mocra tie
Ġriches se
ex emple
Ġprogram mation
ĠÃ© l
Ġsouh a
Ġviv ent
is Ã©es
ĠsiÃ¨ cles
Ġcommun aut
ĠrÃ©s olution
Ġaime z
Ġ7 7
Ġproc Ã¨s
Ġinform er
Ġd ents
ĠdÃ©m on
. Â»
Ġbillet s
A V
9 7
ĠrÃ© si
Ġbi joux
C onc
Ġv oc
Ġlut ter
Ġmodi fications
I mp
Ġban ques
Ġex pÃ©
Ġis ol
d Ã©es
ĠC onne
ĠB ureau
Ã® te
ĠThÃ© Ã¢tre
p ir
ĠÃ©n orme
ĠBr un
Ġdoig ts
Ġadap tÃ©es
Ġconsac rÃ©
Ġjourn Ã©es
Ġali mentation
Ġappar aÃ®t
ĠJourn al
ve il
ĠcrÃ© Ã©e
Ã©m ission
ĠL oisirs
ĠB elle
Ġpro cÃ©der
ĠL oc
v ages
P ubliÃ©
Ġvie ille
ĠCon f
h ib
Ġcer tes
an ique
ĠL oi
Ġpr enez
tellig ence
ĠV ir
Ġp oign
ĠrÃ© t
Ġcandid ature
Ġmatch s
ĠbÃ©nÃ©fi cie
Ġdis ent
ĠrÃ©gion al
I talie
Ġmet tent
Ġdestin Ã©e
Ġen rich
ab lir
Ġassoci Ã©s
to ine
Ret rouvez
Ġh ommage
201 2
ĠrÃ©fÃ©rence ment
Ġre par
Ġhist oriques
Ġcontac ts
r Ã¨
il er
ĠdÃ© con
Ġprim aire
ĠF OR
Ġ0 7
Ġessay Ã©
au le
Ã©n ie
Ġess entiel
Ġcompos ition
ĠcomplÃ© ter
â Ĩ
Ġmain tenance
ch age
Ġso eur
Ġminu te
Ġ6 2
Ġessenti ellement
Ġdou ze
ĠLun ettes
ĠhÃ´ tels
Ġm ons
ĠLiv re
in novation
Ġmo tif
Ġmal ade
Ġn ar
Ġtour ne
pl ay
Ã©m atique
Ġ! )
C ert
ĠCon tin
Ġglob ale
Ġaug menter
Ã Ī
ĠdÃ©r oul
Ġrecev rez
Ġpar lement
Ġsoli de
ult ures
ĠĠĠĠĠĠĠĠ ĠĠĠĠĠĠĠĠ
ĠR ich
g uer
de mn
Ġjourn alistes
Ġrap ides
Ġanim al
Ġ4 1
oun t
Ġrec ul
anim ation
assade ur
Ġan c
ĠÃ©n orm
ĠA V
J avascript
Ã©b Ã©c
Ġintern autes
ĠC ab
Ġfi ches
end roit
Ġmai rie
ĠN antes
Ġcommerci aux
ast roph
ok ie
at or
Ġra ff
Ġpri me
Ġven ue
ĠrÃ©alis Ã©s
U B
Ġch ron
ci de
an die
M P
Ġconserv ation
ĠdÃ©ci der
c ter
ĠprÃ© sidentielle
Ġins crits
Ġf ier
Ġpass Ã©e
ĠVidÃ© os
T he
am Ã©nagement
ĠdÃ©cl en
Ġb and
aut o
ĠM AR
Ġpr udence
o ter
env oyer
Ġb ureaux
un itÃ©
ti les
ĠGen Ã¨ve
Ġaur aient
Ġmen ace
Ġinter vention
o tique
ĠD Ã©p
Ġconse ille
ĠS ystÃ¨me
Ġblanc s
Ġch ances
i ki
n ant
t able
Ġcon vers
ĠdÃ© gra
Ġac teur
N on
ĠR os
Ġvoi es
O rient
Ġrempl acement
Ġin com
gy pte
Ġpays ages
ĠV e
____ ____
M es
ĠE c
ĠÃ©lÃ¨ ve
Ġfourn ies
D erni
Ġretr ouvez
inst aller
Ġdomin antes
Ġps eu
Ġ199 9
Ġfi able
D eux
ĠrÃ©s oudre
or ama
c Ã©e
ĠrÃ©v Ã¨le
ord s
Ġcro issant
ĠsÃ» re
Ġb eur
un d
ĠU N
Ġag ir
t ait
R Ã©p
ol l
Ġc ass
Ġcellu les
che c
ang lais
u lier
ĠÃ©p is
Ġvisite ur
Ġsa vent
op ath
ĠChe f
ri che
li ance
ĠÃ©conom ie
Ġg el
Ġvoy ez
co p
ĠtÃ©lÃ©charge ment
Ġmar quÃ©
ĠF aire
Ġchois issez
ĠT rois
ĠN ap
par avant
activ itÃ©s
or dÃ©
ĠV enez
Ar ticle
Ġconf lit
u ie
Ġr entrer
Ġra dic
enti ne
Ġrelative ment
ricol age
S aint
ur age
ob lig
te xte
ĠE r
ustra lie
B C
ĠA ux
C ela
Ġcouv ert
ou ts
Ġco tÃ©
ĠDani el
Ġpo che
Ã©ch app
In s
Ġexpl oit
ĠTunis ie
T rÃ¨s
ch on
ĠÃ©quip Ã©e
Â ª
ha us
Ġpr Ãªte
Ã©ra ble
Ġstric tement
pp ort
Ġau di
ĠT aille
hÃ´ pital
Ġmil it
ra k
rai rie
< /
Ġs ages
Ġmo bilitÃ©
Ġal lÃ©
âĢ ĭ
Ġpens Ã©
S Ã©lection
Ġquel s
ĠMin istÃ¨re
ĠC ir
ĠTe le
ĠNouve au
Ġastrolog ique
r itÃ©
Ġmaj eur
ĠP anneau
Ġdimen sions
ac le
and a
Ġcontin ent
Ġquar tiers
Q ui
or b
Ġfond ateur
ar o
Ġh oriz
Ġpar all
Ġmag ique
a el
m ages
Ã´ mage
ill y
o ol
ut on
ĠindÃ©pend ante
Ð µ
Ġaccep tÃ©
Ġdisc ussions
ĠÃ©c ologique
Ð ¾
our ces
ĠTru mp
ac tif
Ġg out
a che
Ġcli m
Ġregr oup
ess entiel
Ġla issant
ĠGr oup
Ġfor tes
Ġvir us
ĠA h
ĠI mm
ill ons
ĠÃª tres
endre di
Ġgraph iques
Ġaliment aires
ex Ã©cution
ĠrÃ©c ente
amÃ©li oration
Mar ie
Ġman ge
intÃ©gra tion
ĠCon fidentialitÃ©
fi ci
Ġsymp t
iss ons
Ġc av
ĠLit tÃ©rature
Ġmorce aux
Ġ7 6
Ġnature lles
ĠC C
Ġpor n
Ġver sions
ro t
Ġsouhait ent
ĠTech n
Ġr angement
ond issement
Ġâ ĸ
n on
Ġpartici pÃ©
Ġc oul
ou is
Ġremar quÃ©
Ġm yst
ĠH eure
ro id
Ġpou dre
M ich
y rÃ©n
L ES
ĠR adio
Ġ5 2
ing ton
Ġprog rÃ¨s
Ġconfir mer
Ġchans ons
Ġcomprend s
Ġpl ante
ĠG i
ag raph
ĠM E
C OM
am ine
T U
tu e
ĠPor tugal
r ines
ab ilitÃ©s
Ġri de
ĠmÃ©r ite
ograph iques
Ġoptim ale
Ġdiffic iles
Ġ8 00
Ġn ette
i tifs
ĠP sych
ĠM oyen
cri min
ĠsÃ© qu
Ġappar tiennent
Ġconfir me
ã Ģ
ĠÃ©c outer
g arde
d oc
ĠP ay
ĠGr Ã¨ce
ĠLiv res
ĠW h
Ġexceptionn elle
G ar
ĠSem aines
l ets
. ).
Ġd Ã®
ĠG uide
anci enne
atÃ©gor ie
onn iers
Ġscul p
ĠÃ© ditions
Ġform er
Ġpos ses
ier ge
ĠDes cription
Ġpopul aires
Ġpil ote
ĠdÃ©p enses
Ġsomme il
Ġdispos er
gu Ã©
Ġnation ales
cul aire
ĠtÃ¢ ches
is tiques
vis ible
aur ait
Ġautoris ation
Ġpl ages
yrÃ©n Ã©es
T A
ĠrÃ©ser ver
Ġl ot
ĠActu alitÃ©s
an tis
Ġcont ribution
ĠL ille
Ġc ord
Ġcar net
Ġtrib unal
ĠmÃ©dic ale
re ts
Ġpos itif
ĠM un
Ġactu alitÃ©s
ĠA U
ĠsÃ©rie use
ĠdÃ©pl acement
ur gie
enn is
ĠTV A
ou ette
Ġpl aque
Ġph rase
Ġquasi ment
ag riculture
ill Ã©s
ĠdÃ©c rit
ĠF ig
Ġaugment e
l aires
pe au
ĠreprÃ©sent ent
Ġaff i
al uer
ab s
ell ent
Ġsuscepti ble
htt p
Ġmanifest ation
id er
Ġcollabor ateurs
Ã© conom
ĠT ar
Ġl ente
ĠfrÃ©qu ence
ĠdÃ©c enn
ĠUS A
ex iste
adap ter
inf os
Ġp istes
Ã©t ant
Ġdis ait
Ġv ues
ĠRet rouvez
Ã¨s es
a e
land ais
u ation
Ġconstitu ent
w ay
Ġfinanci Ã¨res
Ġpanne au
al cool
ĠEsp ace
ag on
ĠÃ© loi
ĠQu elle
.. ...
Ġsensi bilitÃ©
ci Ã¨re
Ġcuis son
ros oft
ĠContac tez
atta que
adÃ©m ie
v an
ĠS il
ouf les
Ġpremier Le
Mon trer
ĠP ont
Ã©qu ilibre
ĠrÃ©pon du
Ġre met
Ġcirconst ances
Ġv an
Ġutilis ent
ĠÃ¢ me
M C
ĠM eu
ĠE ff
Ġag ences
âĢĿ .
Ġexp ert
ĠprÃ© cip
Ġver tic
Ġprof ite
Ġb er
atri Ã¨me
Ġexcell ente
ĠP ub
ach et
ĠdiffÃ©r ente
re use
ĠthÃ© orie
Ġcommuni quÃ©
Ġsympath ique
Ġfra u
Ġr up
ati ne
Ġconc erts
che ur
Ġr ur
Ġpersonnalis Ã©s
Ġcommand er
ĠJe unes
ĠGe orges
ĠH ome
Ġcomm is
Ġad hÃ©r
ĠUn ivers
Ġcitoy en
ĠtÃ©lÃ©ph onique
Ġcar rÃ©
ĠRÃ© seau
Ġ om
Ġt ome
Ġplan i
Ġesc ort
ment aire
ĠTh omas
ĠPre miÃ¨re
O Q
Ġgl ace
Ġinstru ctions
E mp
ĠH am
ĠdÃ©di Ã©e
Ġfabric ant
Ġre j
Ġmi x
ĠJourn Ã©e
Ġpropos ant
Ġterrit oires
ar b
Esp ace
Ġb andes
ĠN eu
Ġar gu
oli d
ast rologie
ĠAr chives
Ġprov ince
ĠS N
Ġcad res
) ;
Ġlab oratoire
e me
Ġconn us
ĠdÃ©f is
ĠP Ã¨re
P R
ar que
tifi ci
8 6
utilis e
Åĵ urs
Ġsatisf aire
at ar
Ġcat astroph
Pro f
ar riÃ¨re
ĠapprÃ©ci Ã©
8 7
Ġfais ons
Ġti ens
li ques
Ġmoder nes
lan tique
ĠC u
ĠH ond
ĠcrÃ© dits
âĢ Ķ
Ġven us
Ġtitu laire
C o
Ġ8 9
Bien venue
ic ale
Ġdipl om
Ġco ach
Ġs ombre
Ġen qu
ug i
b ien
ĠQuel ques
ĠdÃ©c ouvertes
Gr Ã¢ce
ĠS tÃ©ph
p age
Ġp ul
Ġclub s
Ġidenti tÃ©
it z
Ġco des
Ġdev ons
ĠM am
ĠFond ation
ĠMex ique
in Ã©s
Ġm ourir
Ġtra ces
ose ph
8 3
er oun
Ġsac ri
Ġpar venir
S ite
Ġciv il
ĠAl ain
ĠdÃ© par
entre prises
ĠA z
Ġfru it
Ġmas cul
Ġ|-- â
Ã ¶
ĠB u
Ġoblig ations
B A
ĠK h
Ġg Ãª
Ġdiz aines
ĠE p
Ġtu er
Ġiss us
Ġ {
m al
et nam
Ġtraditionn el
ab ri
titu des
ĠÃ© pi
ĠN ouv
ĠM et
T RE
j ourn
Ġpri or
Ġrel atif
Ġaccomp agne
Ġfame ux
c ro
Ġ6 3
Ġsigni fication
H Ã´tel
Ġc yc
Ġes time
ĠcÃ©rÃ© monie
Ġcri min
ĠO K
Ġk it
ĠcollÃ¨ gues
Ġcompos Ã©e
Ġprof ils
ĠÃ©lect roniques
ĠCommun autÃ©
ĠR ose
Ġimp ression
Ã¨ lement
Ġav ance
ĠCon formÃ©ment
Ġen vies
Ġg rec
atri ces
Ġab onnement
ass istance
Ġrecherche z
ĠV oilÃł
is on
Ġsouff le
Ġresse mble
an Ã©ment
ĠMont pellier
Ġs in
Ġp are
Ġav enir
ĠEn suite
Ġ8 6
Ġsens ation
qu ait
ar y
Ġdocument aire
Ġ9 6
Ġappr end
Ġinf o
Ġhum an
ĠpropriÃ©tÃ© s
Ġlab el
c or
Ġorganis er
h ommes
Ġfro ide
ĠStra sbourg
Ġprodu cteurs
ĠprÃ©sent Ã©s
Ġmusic ale
Ġsc and
Ġpo Ã©sie
l os
l its
Ġcri tiques
Ġex Ã©cu
Ġ7 9
Ġb ri
" :
Ġrup ture
Ġpar agraph
res sent
ĠprÃ© occup
ĠOr ganis
Ġbr ill
Ġgross es
qu illage
ER S
e v
ĠMaur ice
ĠN ice
ĠÃ©qui pÃ©
Ġl ouer
ĠL Ãł
Ġrejoin t
Ġtourn Ã©e
Ð ¸
Ġanim ations
Ġf oyer
ĠPar lement
empl acement
Ġnat al
eu t
Ġc ous
Ġver tu
Ġch aise
ul Ã©
tin Ã©ra
ate aux
Ġm ili
Ġun i
Ã© die
Ġad vers
Ġoub li
ĠLux embourg
âĢ ĺ
Ã© der
Ġf ur
Ġserr ure
or ies
ag a
Ġpens Ã©es
at o
an teur
Ġmont Ã©e
ĠÃ©mis sions
Ġfavoris er
Ġ6 7
Ġfeu ille
I QUE
Ġmor ale
Ġpar aÃ®t
Ġcontempor aine
F in
Ġt ables
Ġf ic
ĠfidÃ© litÃ©
Ġra f
Ġar m
ĠÃ©tran ge
tre et
Ġindivi dus
ĠT om
Ġsol lic
ĠOu v
Ġcor ri
Ġmob ilier
Ġrepr end
ĠS yl
ĠT or
enf ance
C F
ĠE UR
Ġser v
ĠdÃ©b ats
j ac
Ġaff icher
ĠCi el
it ale
âĤ¬ âĦ¢
Ġtravaill Ã©
Ġrenfor ce
j an
P rÃ©sentation
Ġsond age
Ġquit te
8 1
en ue
Ġmain tien
Ġcommun ications
ĠeuropÃ© ennes
Ã©n ager
Ġt ours
ĠPant oufles
r lande
ĠSh ow
Ġnu its
ĠÃ©vent uellement
ĠÃ©t ro
Ġpriv Ã©es
l ot
Ġav anc
Ġtrans ition
Ch ar
Ġ7 4
ĠIs raÃ«l
uff is
in k
Ġh ar
ĠcÃ©lÃ© b
M en
ĠÃ©cr ite
it te
Ġremerci e
Ġsign aler
ĠPi Ã¨ces
ac tive
app rÃ©
ĠT BE
ĠÃ©c oute
Ġd ite
ĠÃ©quipe ment
ĠamÃ©ric ains
- )
Ġc aisse
Ġv ag
Ġrecommand Ã©
hy p
Ġtrans mettre
u ent
Ġdispar ition
ĠspÃ©ci ales
Ġl Ã¨vres
Ġann uel
ĠscÃ©n ario
ĠF RAN
m il
ĠÃ©tudi ant
b Ã©
Ġrou tes
Ġproch aines
Ġoeu vres
Ġsor tes
Ġtraditionn elles
Ġcon vention
ĠV Ã©nus
Ġindustri elle
Ġvide o
ĠCG U
ĠÃ©vi dent
Ġf lex
opp ing
l at
Ġar om
Ġmusul man
Ġre prises
Ġali ments
Ġara bes
Ġvi ce
Ġ199 8
eng agement
Ġpours uit
Ġtermin Ã©
di ctions
Ġcompr enant
ĠG ouver
p ri
hum our
Ġrepr is
Ġp ommes
ĠPl uton
ys te
Ġsec ours
Ġj oy
Ġoff er
Ġsais ons
ĠMal grÃ©
ĠP oint
Ġr oule
Ġli Ã©e
ĠdÃ©p annage
ĠComment aires
Ġplaf ond
en sions
ĠD ig
iss age
Ġch ronique
ign oirs
Ġa si
ĠÃ© lu
ar ts
Ã©tÃ© o
ĠrÃ©g ler
ĠV en
imp act
q Y
Ġpas sent
ĠC ity
Ġil lÃ©g
Ġf asse
UR E
Ġfron tiÃ¨re
ci a
ĠdÃ©m Ã©nagement
Ġl oup
M an
ĠD Ã©s
ĠM oh
Ġch Ã¢
Ġli ve
ĠrÃ©g l
cid ents
D U
T O
pons able
ĠM il
ĠL et
Ġc oute
ras ser
Ġouv rages
Con fidentialitÃ©
C an
Ġquel conque
Ġoff erts
ĠprÃ© cieux
Ġlib Ã©ra
ag o
Ġp oul
aut orisation
Ġinv itÃ©
Ġculture lles
Ġgagn Ã©
Ġb ris
pe ur
Ġinter ro
Ġremp li
Ã¢te aux
ls ace
Ġconstat er
ĠF ont
B l
Ġpri oritÃ©
ais ie
Ġmass age
ĠW e
ĠAng el
Ġ8 4
ĠP oi
Ġcol on
ĠCro ix
Ġdis ant
Ġc le
ĠA fin
ĠH ong
Ġcompos ants
ĠSatur ne
ĠprÃ©cis er
con c
Ġfin ance
ĠdÃ©ta illÃ©
ĠRÃ© union
8 4
Ġmet s
Ġven ait
amb iance
ou c
Ġca us
t rice
ĠSy rie
Ġexceptionn el
ĠC y
ã ĥ
alis Ã©s
ĠtÃ¢ che
man ie
tin es
Ġy a
Ġrapp ro
mosph Ã¨re
Ġver te
ĠprÃ© venir
Ġes ti
Ġpuis sent
ĠÃ©chÃ© ant
ĠA G
ad ers
Ġfonctionn alitÃ©
ĠChauss ures
ac les
itu Ã©
Ġsoi rÃ©es
Ġinf ir
enti s
di al
Ġtot alitÃ©
Ġvois ins
ĠS av
Ġ9 4
ĠUn iversitÃ©
ĠJu in
Ġrand onnÃ©e
Ġar b
ĠCor Ã©e
Ġm it
Ġs Ã©v
Ġtruc s
Ġref user
id Ã©es
Ġsupp orts
Ġaff iche
ag rÃ©
qu ier
ill aume
ĠL igne
ĠD Q
ch box
Ġjam bes
Ġnavig ateurs
Ġre lÃ¨ve
Ġcompr om
Ġb roy
ign on
Ġperspec tive
Ġdiab Ã¨te
ĠprÃ© pare
ĠX IX
Ġag ricole
Ġextra ordinaire
Ġli quide
ĠR P
Ġconc l
M ai
ment aires
ouv rage
ic al
Ġri viÃ¨re
S on
Ġeffic aces
ĠÃ©volu er
Ġd rÃ´le
Ġpl acer
ĠðŁ ĺ
Ġemp Ãªcher
Ġp un
pos itions
r ui
ĠBar b
ĠÃ©qu ival
Ġpermet tront
Ġ7 2
ord inateur
Ġinternation aux
ĠdÃ©pos er
Ġpuis siez
Ġdestin Ã©s
ĠL y
Ġper t
ui vre
Ġmeur t
C ON
tu me
Ġaccep te
appr endre
it age
pe ction
ĠO uti
ess ayer
Ġfer ont
Ġconf orme
Ġg re
ĠA S
H omme
a jouter
u ge
Ġbon us
el lo
B B
Ġcomporte ments
ow er
Ġcorrespond ent
Ġsecond aires
Ġp es
Ġc ible
ar mes
ĠAr ch
ĠÃ© ducation
al bum
Ġjudici aire
ĠdÃ©c ret
Ġapplic ables
in qui
ĠE sc
Ġch ers
ĠBle u
ĠD I
Ġinten se
Ġvoud rais
ĠPlus ieurs
ĠD onnÃ©es
ĠBoh Ã¨me
b log
Ġv acc
Ġdocu mentation
Ġi P
Ġmont rÃ©
int ro
h in
Ġcl aire
Ġju gement
Ġn er
ĠC AP
Ġexist ence
Ġex ercice
ĠCh ap
ĠAl gÃ©rie
Ġcoup les
ĠpÃ©dagog ique
Ġcons om
Ġsac s
Ġs tÃ©
ĠprÃ©cÃ©d ente
ĠprÃ©sent ent
Ġtherm ique
ag as
Ġr onde
g iques
la h
Ġno tification
ctionn aires
Ġre pÃ©
Te ch
ri Ã¨res
Ġconn aitre
ĠCl aude
Ġbeur re
ĠM as
Ġp onctu
Ġgra s
Ġindustri el
Ġital ien
ĠR hÃ´ne
Ġperman ente
Ġauth entique
ĠV oy
Ġn orme
Mar s
in ateurs
ten us
Ġfin it
ĠW al
Ġprofes sion
ĠM el
ass oci
. :
Â ·
Ã©g alitÃ©
Ġlim itÃ©e
ĠD j
ĠdÃ©mocra tique
Ġp ack
app roche
M o
Ġv illages
Ġest hÃ©tique
ĠMad ame
Ġv endu
ĠH all
app liquer
' '
Ġcro it
Ġtermin al
ĠsÃ©cur isÃ©
Ġimp act
ĠRe p
Ġv ocation
Ġvalid ation
ol o
Ġdipl Ã´me
ĠWi ki
bre r
Ġch Ã´mage
ĠJ Ã©r
Ġheure use
ĠBeau coup
Ġinter dite
autom ne
off res
ĠM ach
AN D
Ġar tifici
Ġpubli Ã©e
Ġperman ence
ĠP ok
ag eux
Ġpassionn Ã©s
ĠB E
P H
ĠTur quie
Ġtr Ãĥ
ges tions
anti ll
Ġparam Ã©
an ou
Ġi Phone
Ġexpos itions
dÃ©pend ance
Ġrob ots
ro Ã¯
Ġsembl ait
ĠdÃ©c lin
ĠlÃ©g ale
imm obilier
ĠprÃ© server
si ve
ct ur
ĠO ne
ĠÃ©p ouse
Ġperfe ction
ĠK e
ĠcomplÃ©ment aires
ĠChar te
ĠOp en
Ġchar te
Ġdipl Ã´
Ġindispens ables
ĠÃ® les
Ġ17 0
Ã® t
rim Ã©s
ĠPl ace
ĠÃ¢ gÃ©es
Ġavant age
ĠJus qu
ay a
Ġajou tÃ©
ĠPar mi
ensi f
Ġ( Â«
Ġsav ait
Ġin grÃ©dients
ne us
Ã©vÃ© nement
ĠPe ignoirs
Ġsex uelle
Ġbrit annique
ure z
anti e
ac Ã©e
ĠR estaur
Ġv ague
ĠÃ©conom ies
j us
Ġclass Ã©
ci des
Ġpro cÃ©dÃ©
dÃ© qu
uy er
iblioth Ã¨que
S O
il de
Ġroy aume
Ã§ ait
Ġsou l
Ã´ tre
Ġv rais
Ġn Ã©e
G A
ot a
Ġcont ribuer
Ġfen Ãªtres
ĠtÃ©moign ages
ct rice
Ġco okie
mi ers
ĠRÃ©fÃ©rence ment
ĠD Ã©rap
ĠX IA
ĠAt tention
ĠInform ations
eu le
ĠDÃ©rap ant
arrÃª ter
s a
Ġorig ines
Ġch ats
Ġdom mages
Ġcompati ble
Ġf olie
ig ration
Ġexemp les
b n
Ġl ou
Ġg on
ĠbÃ©t on
Ġfut urs
Ġeffic acitÃ©
in ations
Ġrepos e
Ġimmobili Ã¨re
Ġtra duit
Ġc ultures
OQ I
Ġst ars
ĠXIA OQI
Ġjou ets
ĠM ot
ill Ã©es
AN S
Ã©ch elle
ĠdÃ©fini tivement
x ww
Ġmodi fiÃ©e
tic s
Ġexpl o
Ġde viennent
Ġqu atriÃ¨me
ĠrÃ©p utation
Per lÃ©es
utilis ateurs
Ġg Av
xww qY
V A
ĠC ad
Ġsold ats
Ġra rement
ĠspÃ©cialis Ã©s
Ġas c
ĠP atri
Ġmagni fiques
Ġprom ouvoir
OR T
Ġprend s
Ġdisponib ilitÃ©s
Ġexp ress
tis ation
og a
Ġprop or
Ġtr ente
onn ance
Ġsug g
Ġboul ot
Ġg am
d d
ĠChrist ophe
Ġretrouv Ã©
Ġf uite
ot age
Ġau paravant
a Ã©roport
ge ois
w are
Ġp ant
Ġinter ven
ĠgÃ©nÃ©ra ux
un n
Ġbi z
Ġchamp ionnat
ĠHen ri
Ġa dÃ©qu
Ġv allÃ©e
Ġcar re
I voire
si ble
ĠI V
ad el
Ġlim itÃ©
ch ange
ĠV incent
Ġfron tiÃ¨res
AU X
Ġsouhait er
ĠrÃ©flÃ© chir
c tive
v oi
ĠÃ© pr
ĠPro gramme
onn age
Ġcomm iss
Ġex ercices
Ġartis ans
Ġche vaux
Ġf um
Ġpublic ations
Ġfort s
Ġbien venue
Ġaj oute
vi ens
Ġdesc end
Ġg este
m ond
in vent
ĠÃ© tern
Ġqu eue
ĠU r
Ag ence
l or
Ã© qui
Ġspor tive
ĠprocÃ©d ures
Ġsouff rance
ff e
Ġpois sons
ĠE X
ais seur
Ġcib lage
du les
Ġf ir
ĠG h
Ġa igu
ĠRet our
ĠBon jour
or ne
Ġaug mentation
M er
accomp agnement
[ ...]
Ġressour ce
ĠÃ©t ats
ĠAu cun
vi du
Ġtal ents
O ctobre
Ġlun ettes
Ġex cl
ĠFl or
ĠProf essionn
ad o
ĠAr ticle
ĠS aison
oth Ã©rapie
ĠAr m
it rine
ĠAnim aux
Ġvisu aliser
P aul
Ġse ins
Ġcl in
ĠNe ws
orig in
Par is
ac cÃ©der
Ġpois son
ĠdÃ©velopp e
Ġtent ative
ĠnuclÃ© aire
v oy
P i
ĠPor no
Ġfamili al
en vie
ĠConsul tez
Ġconform itÃ©
ĠC amb
Ġar rÃªt
ĠRÃ© f
Ġconstitu Ã©
Ġcer tifi
Ġdiz aine
Ġcollec tÃ©es
Ġfil tre
Ġpa use
C L
Ġins ol
Ġincontourn able
Ġpro ven
Ġbr un
olog ues
D is
aiss elle
li p
ĠF oot
Ġcl a
mÃ©di a
Con formÃ©ment
Ġguit are
ex tra
A s
u tes
ĠCol omb
R S
b ou
n d
Ġp ousse
ĠT est
Ġd ose
ĠÃ©v alu
Ġ ).
ĠD ivers
Ġcommer ces
Mich el
Ġmaxim ale
Ġavent ures
Ġoise aux
ĠmatÃ©ri els
ag Ã©es
S al
ais ser
Ġgar s
Ĺ ı
Ġc ry
ĠQu ant
Ġarch ives
ĠdÃ©si gn
Ġplan Ã©taires
Ã® tre
En se
Ġc umul
lo que
c Ã©s
auv res
Ġpeup les
ac quisition
i pp
ul Ã©e
Ġ8 7
ĠEm manuel
Ġca uses
Ġsus c
Ġsymb ole
ĠPeti te
att ente
Ġpanne aux
ĠD ub
Ġco ol
initi ative
ĠsÃ©lection nÃ©
Ġmusici ens
ĠJ up
... ).
Ġser veurs
Ġs Åĵur
as pect
ĠSe ptembre
ĠF ort
ĠdÃ©pos Ã©e
ac Ã©s
ĠB io
Ġsour is
Ġindustri els
ĠPat rick
Ġcer cle
er o
Ġra men
âĨ ĳ
ĠS ites
Ġpein tre
Ġc iter
Ġf e
out ant
ĠN ov
Ġcoup er
Ġs eni
Ġprof itez
Ġbas Ã©e
ĠpÃ©ri odes
ĠR ap
Ġeu t
Ġvie il
ces seur
ĠÃ¨ me
v Ã¨ge
Ġcaract Ã¨res
ĠFil m
Ġb oire
Ġtiss us
Ġla ve
Ġin con
Ġassur Ã©
Ġta xe
Ġdispar u
ĠS oph
ĠcrÃ© ativitÃ©
Ġpersonnalis Ã©e
af Ã©
Ġle ver
ĠÃ©ch anger
Al gÃ©rie
Ġspor tives
g en
Ġb en
Ġinter venir
Ã©quipe ment
ĠT re
Ġp aire
opÃ© ra
Ġmi roir
o che
T Ã©lÃ©
Ġindividu elle
Ġassure z
Ġvali de
Ġpar l
Ġinvestis sement
ĠsystÃ© matique
Ġsc Ã¨nes
ĠM ess
ier ry
Ġt ube
ten s
ĠCh at
Ġentour age
Ġh Ã©r
di aque
ĠH ab
Ġenv ah
Ġemb ar
ĠrÃ©serv Ã©e
Ġse mi
u z
Ġsau vage
tic k
** **
it anie
Ġtra itÃ©es
Ã©r ard
Ġgr Ã¨ve
Ġspectac les
end er
feu ille
avi on
Ġbel ge
Ġindi quer
Ġti re
Ġis ra
Ã©n i
Ġpro venant
Ġj al
ĠN ombre
ign ant
s ans
ĠM ur
ĠC Ã©
Ġ12 5
Ġconseill ers
ĠV ill
ĠA vi
ĠÃ©qu ilib
A z
Ġcontra intes
ĠU l
Com itÃ©
Aut res
ĠJ ou
Ġmon te
ĠSt ock
Ġenc ad
Ġref use
er ine
atin g
Ã® tes
ĠrÃ©s ist
lis sement
ĠRÃ¨g lement
Ġm ous
Ġsal aire
ĠO ctobre
ĠÃ©qu ilibre
ĠT ch
ĠG ir
ĠPar ten
ysi que
Ġanaly ses
Ġ12 8
inter est
Derni Ã¨res
ĠL ar
Ġmar cher
Ġapp els
te mp
n elle
oigne z
ou til
us h
c tez
ĠR ue
Ġconsid Ã¨re
Ġpos Ã©
en di
tu de
Ġphotograph ies
ĠT rib
Ġrou es
Con ditions
Ġgar Ã§ons
Ġtrans por
tionn els
Ġimp li
m ois
Ġjus que
Ġg la
ĠCor se
ĠD ro
Ġfourn is
Ã´ ture
x x
ĠRÃ©s ult
Ġpro ph
Ġil lim
ler a
ĠSe con
ĠB ang
v ol
Ġsynth Ã¨se
Ġprogressi vement
C D
ĠU ran
Ġvul n
in telligence
ĠL av
ĠsÃ» rement
Ġrecommand ations
ouv Ã©
Ġface book
out h
ĠCom merce
Ġcon jug
ĠD ur
ex t
M ont
ĠE S
ĠMic rosoft
ĠÃ©v o
aur a
Ġglob al
Ġmont agnes
\ '
ĠN ations
ĠrÃ©alis Ã©es
is h
M M
a qu
ĠNe pt
ĠHond a
Ġrec ouv
ĠCon fÃ©rence
Ġenregist rÃ©s
Ġhaut s
ĠV O
Ġconnais sent
Ġav ais
Ġconcent ration
Ġappel Ã©e
ren contre
Ġli qu
omb res
ĠCh Ã¢teau
Ġcomplex es
Ġv ib
oe il
P D
Ġcomp arer
int age
imp Ã´t
ĠrÃ©f ugi
adap tation
ĠrÃ©g i
M us
Ġlong s
ine use
h om
Ãī glise
ĠL LC
f re
Ġr Ãĥ
og o
app lique
Ġcl avier
Ġsol s
Ġsub li
Ġb assin
tel l
p ent
ales tin
Ġinc ap
ĠChris tian
ĠP ou
Ġesp agnol
v ise
am as
Ġexp liquÃ©
ĠAu g
ĠrÃª ver
ĠdÃ©mar ches
ĠCommun ication
Inter net
ĠR ay
Ġvar ier
ĠprotÃ© gÃ©e
Ġinform atiques
Ã©n age
rastru ctures
om be
Ġbou tiques
ĠÃ© par
Ġpert urb
m Ã©t
v it
tra tions
Ġnorm alement
ĠGÃ©nÃ©ra les
ĠP ai
IN G
Ġg irl
Ġexp li
ĠLang ue
ĠÃ©norm Ã©ment
P re
e p
ĠBien venue
ĠmÃ©n age
ĠF C
Ġsensi bles
Ġ199 0
ĠDem ande
ĠG MT
Ġ199 5
min aire
ĠDis ney
ti ss
Ġh aine
p rix
Ãª ter
ch eter
ab il
Ġprodu cteur
g entine
Ġ20 20
Av ril
Ġqu Ã©bÃ©c
ĠC eux
Ġ9 3
Ġgaranti t
Ġin time
ĠF our
Ġsoup lesse
Ġsuiv ent
Ġsimp licitÃ©
Ġatte inte
Ġsav ons
Ġcommun autÃ©s
ĠAk is
Ġdev riez
Ġmin istres
Ġprot oc
Ġann onc
ĠMin i
Ġbo x
Ġcol l
ĠmÃ©t ro
ĠÃ® le
op s
Ġdispos itifs
Ġab ou
Ġessenti elles
at ou
ĠÃ©v aluation
atis Ã©
Ġal ent
Ġrec ycl
Ġp auvres
Ġnoir s
ĠEn g
Ġaff ront
Ã Ń
Ġc urieux
Ġchamp ion
vers itÃ©
me aux
ĠB es
Ġconcern Ã©s
ins piration
he im
ĠAkis met
Ġtra its
Ġm g
Ġac cÃ©lÃ©
occu per
Ġt ox
Ġvol et
Se ptembre
c ade
z y
A h
Ġrecher cher
ĠB oul
intÃ© resse
Ġcontraire ment
est res
Ġchauff e
ĠF R
ĠCl assi
ol ine
ette ur
ĠC oup
Ġrecommand ons
E cole
ĠarrÃª ter
ĠgÃ©n ie
Ġla v
ĠdÃ©b it
Ġbat tre
Ġautoris Ã©
Ã© re
Ġh uile
cÃ© dez
Ġdiscipl ine
uy ez
ĠEuropÃ© enne
en die
Ġv entre
Ġcom Ã©di
Ġp av
ĠP au
c as
ĠprÃ©fÃ© rÃ©s
Ġpo p
Ã©g ard
Ġpl onge
E D
IN T
Ġdonn era
Ġfaute uil
Ġl oy
ĠQ U
Ġen s
ĠRe d
ĠstratÃ© gies
Ġpos itions
ĠA Ã©roport
Ġcomp liquÃ©
co pe
Ġd Ãĥ
Ġz Ã©ro
ĠAm azon
Ġjoin dre
uti n
ĠÃ©lÃ©g ant
ĠCong o
Ġc og
ra ts
ign ons
ony mes
Ġad ore
Ġun itÃ©s
Ġar bre
ĠP rÃ©sent
Ġtra it
f ran
ĠtÃ©moign age
P ers
Ġt ub
P r
t tes
Ġmusul mans
ĠcompÃ©t ence
b a
Ġouver tes
ĠP H
An d
Ñ Ģ
Ġ7 3
ĠgÃ©nÃ©ra tions
Ġmotiv ation
fait s
ine ment
ill ent
Ġgaranti es
Ġth Ã©matiques
Ġmaj eure
ĠDi ff
lo re
qu Ã©rir
ĠW orld
ĠrÃ©glement ation
Ġc ouver
ĠÃ© dit
ĠJ am
ĠG az
ĠfÃ©min in
Ġdi vis
ER T
hÃ´ tes
O p
ex pÃ©ri
b ack
Ġtr iste
od y
ing ue
Ġcont ente
Ġliv rer
Ġv ern
ĠM ulti
ĠF r
organis me
is si
Ġ7 50
Ġremar que
Ġt chat
ĠPos te
ĠdÃ©c roissant
Ġlour d
j Ãł
al it
Ġtermin er
m aster
Ġtrans p
ĠAnd rÃ©
de o
ĠLE D
Ġl istes
Ġs Ã¨che
Ġdom es
Ġ( +
C onne
app ui
c am
ĠprÃ©sent ant
Ġimp rÃ©
ĠdÃ©p asser
Ġl une
Ġs ain
Ġdis cre
ra ction
onn ais
Ju illet
Ġpour rais
ĠAut o
Ġman agement
Ġv enti
Ġesp Ã¨ce
ĠÃ©pre uves
Ġconcern ent
Ġinc ar
ĠV it
iss ue
Ġvis ibilitÃ©
alog ie
f il
Ġdi vision
Ġcompr ennent
Ġfac ilitÃ©
Ġai ment
ĠpÃ©ri ph
an Ã©
ĠJ anvier
ossi bilitÃ©
Ġgr ille
Ġbut s
Ġatta que
Ġapplic able
ĠmaÃ® tres
F orm
or able
Ġpro duis
Ġper pÃ©
Ġb ron
ĠM r
Ġob st
Ġsui vez
Ġref aire
Ġ7 00
mb lement
Ã©ri es
ex trÃªme
Ġdev ront
Ġfisc al
Ġmo dule
ct ation
ay ez
Ġsoi gn
ĠB os
Ġmusic al
Ã© lab
Ġbis ous
ĠdÃ© lÃ©
ĠprÃ©sent Ã©es
Ġdev rez
Ġs ouver
Ã©c rire
ĠQ uestions
ab elle
ĠJu illet
ur l
A insi
as te
aff iche
ĠW est
Ġseu les
Ġsty les
Ġauxqu els
ĠV Ã©
Ġmaj or
ĠprÃ©cÃ©dent es
Ġfin ances
Ġp df
ĠP ologne
Ġam us
Ãª ts
g h
Ġag ent
Ġfl or
V I
C opyright
z aine
Ġhy dra
Ġpassionn Ã©
Ġs core
ĠdÃ©c ol
Ġextra it
orte z
Ġbl ack
ĠÃ©cr ans
ĠMÃ© dec
ĠdÃ© lÃ©g
ĠM ali
Ġmar qu
ĠAv ril
ĠstratÃ© gique
Ġ19 80
Ġch ic
Ġven ant
Ġexclus ives
Ġrense igner
ĠC Ã¢
Ju in
ĠEn core
Ġsu cc
Ġ10 8
Pour quoi
Ġpersonn alisation
J anvier
ph e
at Ã©ri
Ġremarqu able
Ġracont er
Ġter mine
Ġvi vement
isse ments
Ġqu art
Ġpla ques
ĠP R
Ġchir urg
um s
ĠG ard
in n
ĠB ac
ĠB lu
Ã ³
ĠO rient
Ġfer mÃ©
ke a
Ġpous ser
Ġas pi
ĠM u
ĠTr ouver
Ġprest ataires
Ġpri Ã¨re
ĠP ME
ond re
Ġsau ce
tÃ©ri eure
Ġgu Ã©r
Ġintitu lÃ©
Ġfall u
Ġg astr
ite d
ĠJ oseph
Ġpi ano
Ġz o
ĠpÃ¢ tis
A scendant
Ġpo itrine
aff ir
ĠSu Ã¨de
v ard
ĠRe g
Ġsa chant
Ġcli matique
Ġarri vent
âĢ¦ ).
onn erie
Ġprofes seurs
ĠAl pes
ĠdÃ©sactiv Ã©
a us
Ġp ath
Ġfisc ale
Ġvo ter
d Ã©s
Ġcor p
Ġdes truction
tu eux
Ġdi ct
ĠJ ames
Ġfin ition
ĠprÃ© voir
ĠcÃ©libat aire
ĠH ommes
Ġimp lique
Ġpap iers
Ġprog ression
Ġproc ure
Ġ3 60
ak ar
tes te
Ġgouver n
Ġrec ord
ĠOli vier
Ġacc us
ĠlittÃ© raire
Ġreg ar
Ġnum Ã©ros
Ġde ven
Ġh umeur
Ġv ies
appar tement
fi ce
Ġs ab
Ġlarge ur
Ġtourn oi
Ġt ailles
ĠlÃ©gisl ation
No vembre
n ac
Ġcol le
Ġ9 7
aci fique
Ren contre
Ġconst ate
Au tre
Ġill um
ĠCin Ã©ma
Ġconf lits
ĠPro jet
Ġrespons abilitÃ©s
Ġalle mande
ĠÃ©cl at
am is
av aient
lar ation
A uc
P uis
ĠAm Ã©rique
Ġmorce au
ine z
ct ori
ĠAn toine
Ġresse mbl
ĠgoÃ» ts
g et
Ġgra ves
ĠA C
ĠrÃ©pert oire
Ġfl ash
Ġnorm ale
Ġafric aine
ĠC it
Ġc uri
ĠintÃ© resse
Ġsalari Ã©
Ã¨g re
Ġsympt Ã´mes
Ġconserv Ã©es
Ġf ri
Ġgra v
Ġcompar aison
Ġrele ver
c ler
Ġpropos Ã©e
isse ur
ces se
sh irt
Ġhabitu des
Ġterri ble
ĠP ois
iss ance
Ġpersonn ellement
ug by
Al ler
u f
tu des
ĠÃ©le vÃ©e
Ġmassi f
T P
â ĸ
ĠS O
Ġempl ois
Ġsecond aire
Ġcath olique
Ġass ister
Ġcertific at
il Ã©
Ġm onnaie
Ġ5 1
Utilis ateur
Ġre ct
Ġess ais
ĠC elle
Ġe uro
age z
Ġser ais
Ġc ess
Ġle ctures
ĠP A
Ġst abilitÃ©
D S
ĠsÃ© jours
ai d
ĠTour isme
Ġcr ist
Ġpal ais
ĠL ic
Ġcontra ctu
Ġconsac re
Ġconvain cre
si m
Ġver ts
ĠGu illaume
ĠdÃ©p utÃ©s
ern ant
ĠG RA
ĠIn d
Ġt ort
Ġr entre
un ique
ĠreprÃ©sent er
ĠEn t
Ġtu Ã©
ĠRen nes
Ġindividu el
ĠexpÃ© di
r or
w an
ĠFran cis
op ie
ĠA ra
ac ute
com merce
Ġquit tÃ©
or ations
ĠMer cure
m ann
Ġconse illÃ©
P os
Ġ8 3
Ġm Ã¨ne
Ġexclus if
Ġra vis
Ġoptimis er
ue z
ĠJeu di
ĠL ion
Ãª le
Ġinstru ment
TM L
ri ra
ume urs
Ġbi ologique
Ġunivers itaire
Ġsh ow
ĠP ot
omm Ã©e
Ġaltern ative
Ġle aders
Ġmauv aises
A oÃ»t
ĠT E
Ġpos tÃ©s
Ġcl Ã´ture
Ġagric oles
ĠAut om
allen ge
Ġouver ts
ĠL or
ĠF ac
Ġenne mis
ĠgÃ© ographique
ĠapprÃ© cier
ĠM oul
pos er
ol s
rÃ¨ tement
Ġal uminium
iti Ã©
Ġqu ad
ĠF N
ou ille
ĠO U
Ġun itÃ©
ĠI T
Ġag it
Ġdirec teurs
oc Ã©
Ġmili eux
ill ard
Ġth Ã©rapeu
Ġaid ent
Ġtrans forme
inst alle
ĠS orti
ĠIn de
ĠdÃ©v oile
Ġexclus ive
Ġs ons
Ġparc our
ĠC ri
Ġ17 8
ĠtempÃ©ra tures
Ġdis crimin
Ġinvestis sements
lÃ¨ vement
Ġaccord er
ci r
ĠB ert
ah a
te x
ĠN ik
ĠQu alitÃ©
Ġadop tÃ©
Ġmar ine
P olitique
V is
ĠrÃ© chauff
cel et
Ġpromo tionnelles
ĠN ath
Ġimp Ã©ra
Ġliv rÃ©
h u
Ġconnais sez
Ġman uel
ĠFond s
Ġchaleure ux
. |
erre ur
Ġc ock
ĠS ta
ĠB ob
Ġorganis me
ĠprÃ©v oit
Ġt olÃ©
ĠT al
Ġposs Ã©d
ĠdÃ©r oule
ĠMar ine
Ġant Ã©ri
Ġfabric ants
effectu er
Ġpart agÃ©
ĠintÃ©ress ante
Ġin tu
ĠÃ©ner gies
ouli Ã¨re
in tention
C atÃ©gories
ĠÂ» )
Ġaffir me
Ġv el
Ġd or
Ġmi ra
Ġann uelle
Ġphotograph e
Ġde tte
g nes
il d
ĠS amedi
ĠW illi
n aires
Ġp li
di ce
ĠrÃ© tra
Ġsu ici
AC T
Ġsur prises
ĠdÃ©c al
cri vant
w a
accep ter
' t
Ġvol s
Ġdorm ir
Ġra yon
it ables
ĠrÃ©gion ale
ier ie
rÃ©d Ã©ric
m Ã¨re
Ġper Ã§
Ġatta ques
qu o
Ġg ro
oy ant
D em
ĠPro duit
Ġcas ser
ĠHol lande
An ne
i ze
Ġadministra teurs
Ġt endre
Ġgra ines
Ġfon dÃ©
V i
Ġ13 8
Ġde dans
ai gne
ec k
Ġadap t
Ġ11 8
ĠAss ociation
Or ganis
aut or
Ġjuri diques
arm on
eff acement
Ã© rÃ©s
Ġcon tiennent
Ġm y
ĠÃ©tran ger
Ġb omb
ap er
ur ne
R ec
ĠV Ã©r
aff icher
ĠintÃ©g rer
gard er
Ġmont res
Ġsigni fications
Ġres sent
ĠcrÃ© ateur
Ġde tail
Ġoff rons
ĠAr tis
Ġj eter
gn on
Ġ10 5
Ġam ateur
ro l
ing Ã©n
ra ss
Ġ9 2
Ñ Ĥ
Ġp neu
orient ation
ĠEt at
ĠM Ã©l
Ġport ent
Ġinstru ments
QU ES
er b
Ġence inte
Ġl ol
Ġser vent
Ġper c
Ġcam ar
Ġtravaill ent
ĠV iv
Ġexter ne
201 9
Ġinf luence
Ġph p
Ġv esti
EN S
identi fier
ul ations
Ġboute ille
ĠP E
Ġad resser
ĠdiffÃ©r ences
ĠNorm andie
t ar
Ġadministra tive
ĠentraÃ® ne
ĠpÃ©tro le
ĠCom pte
Ġpass Ã©es
Ġ/ /
ĠlÃ©g end
AN CE
Ġtour istique
tu g
Ġfranch ise
Ġne ws
ĠPl ay
Ġoffici ellement
Ġf oule
exp rimer
s oci
ĠC V
ci al
Ġad mis
Ġord inaire
Ġconstitu er
an Ã©e
Ġpo il
OB IL
s ite
inter prÃ©
ĠMain tenant
Ã©tÃ© r
ĠCert aines
Ġconvers ation
R em
F Ã©vrier
ĠFran c
Ġrend ent
Ġparagraph e
in dÃ©pendance
Ġdo tÃ©
cep tions
ĠL ui
Ġloc ations
ĠcomplÃ©ment aire
Ġinter ventions
Ġth Ã¨se
ĠP oli
tes se
h oriz
ĠÃ©pis odes
x y
Ġraisonn able
Ġgo ogle
Ġsupp orter
Ġd ame
Ġp neus
ĠT itre
gl om
V oilÃł
in ions
Ġsur pris
Ġtour istiques
ĠDim anche
Ġun iques
Ġball on
Ġchem ins
n Ã©es
Ġadap ter
Ġma x
Ġche v
ĠS o
= =
D onc
ĠrÃ©s umÃ©
Ġ199 7
Ġjourn aux
em ark
m itÃ©
rai res
cul ture
Ġanim Ã©
Ġconsomm ateur
Ġpar ois
23 3
ĠP le
Ã©p re
L ouis
Ġess ai
ĠF eu
M oi
ĠA fric
di os
Ġculture ls
end ront
op ro
Ġexp lications
ĠSE O
ĠN ote
ĠG ui
Ġlibre ment
ĠÃ©cr its
apt ateur
ches tre
Ġent housias
Ġfu ture
M Ãªme
Ġaid es
A ide
v u
ra its
ĠA vis
ĠBour se
ĠlÃ©g al
Ġf ib
Ġdou b
ĠindÃ©pend ants
ĠprÃ©sent Ã©e
Ġparticuli Ã¨res
% ,
in ts
Ġcos mÃ©
ol et
Ġbois sons
Ġbal ade
as y
Ġsp ati
Ġpersonnalis Ã©es
Ġs pe
ad Ã©
Ġbour se
pr its
uis ent
Ġgr en
V al
ĠtÃ©m oins
lis tes
I ON
inter ro
ĠDom inique
ĠcÃ¢ ble
Ġblog s
Ġeng agÃ©
Ġmob ilisation
Ġcroiss ante
ie uses
ĠdÃ©t our
201 0
ĠM Ã©tÃ©o
Ġappar aÃ®tre
Ġrel ais
ĠA p
Ġconseill ons
ĠbÃ©nÃ©v oles
Ġpar ts
Ġpar adis
qu ets
Ġsur pr
Ã©lÃ¨ ve
Ġra b
im ie
Ġmerveille ux
u che
Ġmodi fiÃ©
Ġcro ix
Ġexper tise
d r
Ġbal ades
Ġpar aÃ®tre
Ġc yl
ĠB all
Ġblan ches
ĠT ourn
av re
empl oy
ar bre
Ð ½
ur y
s ter
pe ti
Ġst able
Ġnation aux
Ġvie illes
Ġg olf
ĠÃ©t h
Ġmar iti
Ġadministra teur
Ġvalid er
ul g
P rix
Ġgenti l
ĠCh em
le m
Ġatt endu
Ġfran chement
ait e
ut s
Ġar me
Ġd oul
anim aux
d en
identi fication
ĠLe g
Ã©c ri
Ġman ches
Ġf lu
Ġd il
âĢ Ń
ĠL is
Ġsoup le
ĠchaÃ® nes
Ġs aut
Ġla ine
tis seur
Ġappel er
Ġfranco phone
ĠP V
ĠG ros
Ġfa Ã§ons
Ġin tr
Ġpay ant
hÃ©ber gement
Ġcant on
Ġ9 00
ĠB ig
oz y
ĠÃ© tions
ĠÃ©vi dence
h op
Ġvoy ager
f ond
ar th
B O
Ġp ic
ore l
ĠfÃ©dÃ© ral
Ġcombin aison
ĠP Ã¢
ĠlÃ©g ende
Al pes
Ġv illa
ĠM P
ĀĀ ĀĀ
ĠM ah
E glise
ĠT TC
Ġenvir ons
un a
Ġdonne z
Ġpsych ologique
Ġmunicip al
Ġ; )
Ġfac iles
Ġl anc
ĠL os
ab and
ĠdÃ©p utÃ©
ĠB ibliothÃ¨que
ĠprÃ© visions
ĠTra vail
us ine
Ġhor aire
ĠÃ© co
ĠM ise
ex amen
Ġd igne
Ġa che
ĠBir chbox
Ġpseu do
Ġress orti
ĠJuli en
ĠGouver nement
ĠM ul
ĠB is
ĠchrÃ© tiens
ondÃ© ment
Ġb il
ov ation
ulti me
ĠIm ages
on ome
qu ante
Ġri z
201 1
j on
Ġchemin Ã©e
owe en
Ġretr ouvent
Ġconn ait
ash ington
Ġform id
ĠCh ez
n ess
Ġd ons
ĠW all
Inform atique
ĠD Ã©t
Ġrelig ieuse
ĠConc ours
Ġurb ain
Ġinter view
ĠC ra
Ġconcern Ã©
ĠÃ©tab lir
Ġt onnes
Ġcommen cent
Ġcl inique
ĠprÃ©c au
ĠA f
ĠconsidÃ© rÃ©e
Ġparis ienne
Ġpay Ã©
L ib
ĠC r
sid ence
ĠR T
ĠTh aÃ¯
ĠSac s
ĠparamÃ© trer
uis e
Ġessenti elle
Ġgen res
Ġremerci er
Ġmine urs
Ġtri mestre
en u
ĠTh ierry
ori els
Ġinspi rÃ©
Ġurb aine
Ġcan apÃ©
u eux
ĠÃ© mission
vent e
ĠP oin
ul aritÃ©
Ġ- --
Ġtrans action
ĠI dÃ©
Ġbiblioth Ã¨ques
in ves
Ġre lie
s ant
ouve au
Ġjur y
Ġapp liquer
ĠNept une
F OR
olÃ© on
ĠH u
Ġoblig ation
Ġad o
Ġsou ligne
Ġl Ã©
Ġpar lent
ĠPar k
ĠMod Ã¨le
ul ateur
Ġcas se
Ġcro ient
ĠD iv
ĠB M
ur itÃ©
ĠL ien
Ġ199 6
Ġmal ades
Ġchar gÃ©e
om o
o tÃ©
Ġparti cul
Ġg estes
act urage
c ra
Ġg ain
am itiÃ©
Ġdouce ment
Ġcro ise
ĠP en
Ġlum ineux
ĠAng lais
B eau
arr Ãªte
Ã©ro Ã¯
Ġsoi gne
ĠMÃ©d iterran
Ġd ys
il y
Ġprog resser
ĠcÃ©lÃ¨ bres
Ġh all
ĠF ra
ĠprÃ©f Ã©rence
entraÃ® nement
ort ant
Ġvolont aire
Ġalent ours
Ġassoci Ã©e
ĠâĢ Ŀ
ĠStÃ©ph ane
Ġ14 8
Ġiss ue
ri ment
av oc
Ġsaur ait
g Ã¨ne
Ġet h
Ġconc asseur
Ġrapp roche
Ġcon ducteur
ail s
Ġ orth
ĠR am
Ġfer mer
Ġfac teur
Ġvoy ant
Ġcomb ats
S L
es seur
200 9
ĠmaÃ®tr iser
Ġexam en
Ġg lu
ĠF leurs
Ñ ģ
cl Ã©s
Ac cessoires
as ie
Ġprof ondÃ©ment
ĠA M
Ġpauvre tÃ©
oi ent
Ġau d
Ġterra ins
y o
en aire
Ġmilli on
w eb
Ãī S
t aire
Ġsages se
Ġparti elle
ĠnÃ©g atif
Ġ ~
Car te
Ġparall Ã¨le
P endant
Ġatt ente
Ġproch ains
G u
Ġpass Ã©s
L O
l ocu
Ġen n
ĠC F
Ġcher chent
ĠF Ã©vrier
Ġre ine
tr uire
A li
ĠC opyright
ĠrÃ¨g ne
Ġinc ons
Cert ains
at tra
ĠR oi
Ġser ai
ĠS ark
ais issez
ĠmÃ©di a
Ġp areil
ar tement
clus ion
IS E
Ġvirtu elle
vi ces
Ġab onnÃ©s
ĠÃ©pre uve
Ġd ouleurs
ĠrÃ© actions
Ã©c lai
ĠintÃ©ress Ã©
Ġp ress
Ġsp ont
Ġloin t
in cl
S ous
ĠC ade
oi vent
Ã´ tÃ©
Ġbl o
Ġtechn ologiques
Ġsan itaire
T R
emp Ãªcher
Ġdoc tor
d itÃ©
eff ort
Ġvoi ent
ĠS mart
Ġper tes
Ã©r on
re urs
os ex
ĠA sie
Ġfond Ã©e
Ġmon sieur
ĠO N
op le
Ġfrom age
y ons
Ġpl ain
ct oires
ĠH Ã´tel
Ġa is
Ġret ours
Ġaccomp agnement
ĠInst agram
Ġso ph
Ġprin ce
Ġconten ir
Ġadministra tif
Ã©rÃ© es
ative ment
Ġi de
el li
Ġch al
Ġref lÃ¨
m ag
ĠEx pl
Ġm ousse
ĠTele charger
Ġad ditionn
Ġtest Ã©
w ood
Ġde l
Ġla tin
ĠG Ã©rard
ĠrÃ©gion ales
hab itation
A A
achet eur
ab onner
bo ard
Ġcit ron
Ġfix Ã©
ĠnÃ©cessaire ment
Ġcondam nÃ©
act Ã¨re
Ġpar u
Ġprati quer
Ġconc lu
vi c
Ġst ages
Ġray ons
ĠrÃ© agir
Ġcar ton
ĠdÃ©pl acements
ĠRich ard
c tif
u k
Ġartis tiques
Ġeffic acement
organis er
b us
Ġtr oupes
ĠP OUR
ĠrÃ©c entes
ĠG alerie
Ġempl acement
Ġvois in
ĠA ub
Ġcour ir
ali for
Ġcan al
ĠâĤ¬ .
em me
aci eux
Ġâ Ļ¥
Ġappar aissent
ĠA oÃ»t
ori al
ĠD erni
lar g
ĠJup iter
c ell
ĠNe wsletter
Ġ11 5
Ġoblig Ã©
ĠBeau tÃ©
ĠM ass
ol itaine
Ġgui der
exper tise
ĠprÃ©t end
in os
Ġparc s
ĠCam eroun
Ġhum ide
Ġsimil aire
form ation
am or
b ar
ĠN iger
Ġar chÃ©
Ġ|--â Ĺı
ĠB ain
ĠN C
ĠrÃ©un ions
Ġmatern elle
ri ct
En vie
Ġviol ences
ĠCong rÃ¨s
ĠAnn once
Ġremont er
ĠUran us
ac cessi
ĠS UR
Ġsitu Ã©s
Ġress ort
as es
ĠL iste
Ġtent Ã©
ĠLib an
Ġja unes
Ġgenti lles
Ġma quillage
Ġreconn aÃ®t
ĠR G
d am
ak i
Ã§ ants
Ġrest era
Ã İ
l oc
Ġ10 6
indi vidu
Ġvingt aine
om ie
ocÃ© an
Ġrest os
ent endre
Ġdu o
Ġin demn
ĠL ot
un s
Ġus ine
ĠdÃ© sert
ĠK en
ac ances
Ġtra ditions
Ġh onor
Ġbus iness
Ġconclus ion
Ġp ince
it Ã´t
Ġmen Ã©e
ĠÃ© b
ĠreprÃ©sent ations
Ã´te ls
Ġdiam Ã¨tre
ĠrÃ©alis ations
Ġsa ura
ĠrÃ©p ublic
ol er
Ġposi tive
Ġpr it
Ġmass ac
ĠprotÃ© gÃ©
ĠpÃ©dagog iques
m Ã¨tres
ace uti
k raine
omm aire
F S
l aise
di ff
Ġcri me
Ġexpl os
ĠentraÃ® ner
Ġposs Ã¨dent
ĠBer lin
Ġconver sion
ĠR ol
Ġrel ax
Ġh autes
Ġmus Ã©es
ĠOu est
Ang leterre
Ġgu eule
ĠW ashington
Ġcoiff ure
quipe ment
app orter
ĠComp agn
ĠF ant
Ã©d iteur
Ġavi on
Ġca cher
Ġmet tons
d in
Ġn av
Ġce inture
ĠJ ui
ĠLi bre
B el
Ġh eb
Ġpour cent
ĠrÃ©p and
ĠS cience
ois es
ĠS ant
Ġrom ans
ran ces
ĠO rig
Ġcompos e
Ġsurf aces
Ġavoc at
ĠdÃ©par tements
c f
ĠM ix
ĠE ric
ĠÃ©v oque
ac un
Ãª que
Ġrac ines
Ġc ig
ni ti
Ġpouv ais
ĠG au
ĠAss oci
Ġg rÃ©
Ġtechni ciens
Ġpub lie
ĠsÃ©lection nÃ©s
C ES
Ġag ressi
Ġappel Ã©s
ã Ĥ
AR T
Ġhabitu ellement
Ġcommunaut aire
it an
ĠH ug
Ġin dex
Ġe lect
Ġcas que
F O
Ġsusp ension
Ġtranspar ence
ĠAqu itaine
ab a
Ġcouv re
m it
Ġcap ables
Ġenv elopp
rab ie
Ġav ancer
ĠMo di
Ġaffi chÃ©
Ġconst ante
tro duction
ĠrÃ© jou
E lles
Ġm ate
ĠAg ence
ĠC M
ĠPas cal
mp er
Ġtabl ettes
Ġisra Ã©li
Ġmari Ã©e
ĠdÃ©cenn ies
ici en
Ġcamp agnes
ĠNor vÃ¨ge
ĠdÃ©ta chÃ©es
Ġg end
Ġpai ements
G o
Ġtr oupe
In f
ĠMich ael
Ġcou ture
Ġiniti atives
Ġchin oise
ĠrÃ©s olu
Ġplong Ã©e
J eux
ĠÃīt at
Ġtechn ologique
ub a
Ġim meuble
Ġpersonn alitÃ©s
Fran Ã§ois
Ã©pre uve
ĠS ing
id s
! )
Ġappar tements
Ġesp oir
au teurs
Ġl ancÃ©e
as c
ĠLors qu
ĠJus tice
lÃ¨ che
Ġse mbler
Ġh onte
is lam
Ġ16 8
Ġfix er
I O
ĠdÃ©c r
ĠF ourn
Ġver rou
d ont
Ġcuri ositÃ©
Ġaccue illi
ens Ã©
ĠdÃ©cl are
Ġfin ancer
Ġlar mes
ĠG U
eng ager
ĠÃ©c ou
Ġlim itation
et o
Ġmont rent
ĠV oyage
Ġ15 8
Ġprov oquer
Ġchim iques
Ġn oy
Is raÃ«l
Ġcom Ã©die
Ã© rÃ©e
Ġch Ã¨re
Ġiss u
Ġill ust
Ġm os
Ġfig urant
Ġmyst Ã¨re
Ġperform ant
ĠCh oisir
ĠdÃ©p asse
ĠAm Ã©ric
Tr ans
r Ã¨tes
ess ources
ĠAu cune
an at
el er
Ã©tu di
ĠÃ©d itÃ©
Ġin oubli
Ġindi quant
ĠAn aly
Ġital ienne
A telier
Ġcol onne
Ġ199 4
Ġpati ence
Ġdoig t
Ġple ins
ĠCol lection
Ġconfir mÃ©
ĠOr dre
Ġcompagn ies
an z
ĠdÃ©s activer
Ġfig ur
ou tils
Ġre tenir
ĠM obile
Ġdis ques
T rier
Ġeff ort
dom ad
Ġtoil ette
O K
Ġconstitu tion
Ġan onyme
oles cent
Ġbr illant
ĠMad rid
Ġac cessoire
bec ue
Ġb att
ĠrÃ©alis ateur
Ġastrolog iques
Ġpsy chi
Ġd ress
ĠV endredi
c cident
eu ve
Ġp ais
ten ez
n ale
Ġop tique
Ġcarb one
Ã¢ ts
Ġar mÃ©e
que mment
Ġ- ----------------
ch ait
as tien
di versitÃ©
ale m
Ã©r arch
ĠGu inÃ©e
Ġprob able
ĠMo z
ĠRÃ©s er
Ġm out
av oue
Ġprot Ã¨ge
Ġfati gue
Ġin n
ad or
au cun
ĠR ab
Ġconsac rÃ©e
S ans
ĠB Ã¢
ĠN E
pt ures
ĠGÃ©nÃ©ra le
Ġapp or
ĠL ocation
ĠH ist
EN CE
Ġou t
Ġfar ine
Ġpro vient
ess ai
Ġappro fon
TI QUE
ĠT ags
ĠadhÃ©r ents
Ġrest ant
Ġpratique ment
ĠS inon
ĠF L
ĠcÃ©lÃ© br
ci le
ĠdÃ©si gne
Ġalg Ã©ri
us cule
ĠM aÃ®tre
Ġg er
Ġmus iques
ĠT F
Ġca ve
Ġus ages
R IS
am Ã©
Ġroman tique
p ie
Ġvis ibles
Ġmin Ã©ra
Ġmi el
Ġg ig
ni Ã¨re
ĠF e
Ġcour ts
ĠMon aco
S ui
Ġla mpe
ĠS lo
ĠdÃ©c rire
Ġins uffis
op inion
Ġsuiv ie
Ġsouha itÃ©
ĠsÃ© paration
Ġsymb oliques
an y
Ġble ue
Ġcin Ã©m
Ġten ant
ĠrÃ©pond ent
Ġpharm acie
Ġb iÃ¨re
Ã© si
Ġc ann
in verse
Ġrou e
Ġrespec te
rog ation
ĠmÃ©di Ã©v
ĠâĢ ¬
V idÃ©
ĠS om
Ã©t ablir
ch ets
Ġst ations
ins crit
Ġsal ut
Ġch anteur
iss on
Ġvoul ons
Ġgu Ã¨re
wslet ters
Ġexter nes
Ġn ob
ĠGar antie
ex ac
pl an
Ġab sence
ĠÃ©le vÃ©s
ĠProf itez
Ġmonu ment
Ġr itu
ĠsÃ© duire
Ġconstru cteur
Ġprov o
Ġdiver si
Ġpre uves
Ġment al
Ġpour riez
lÃ¨ ge
Ġmig rants
Ġpro vis
Ġl its
ĠP yrÃ©nÃ©es
ĠF ront
ĠAl bert
Ġactu els
. ),
Ġmar ge
Ġimp lant
an k
ro se
Ġiniti ative
ann iversaire
Ġamb iti
Ġtrouv ait
ĠcÃ©rÃ© b
Ġciv ilisation
Ġsymb olique
on se
is ti
ĠÃ©cri vain
ĠrÃ©par tition
ĠrÃ©volution naire
Ġ13 5
Ġai ent
am er
Ġass ist
App le
Ġdiff user
Ġcul tiv
Ġimp Ã´ts
app li
Ġanaly ser
Ġmonu ments
a xe
Ġc out
Ġn oires
Ġrat tra
ĠAuteurDate Sujet
Ġadolesc ents
est ations
Ġinter vient
ĠW C
Ġbr ou
Ġaut oritÃ©
ĠrÃ© duite
occu pe
Ġlib Ã©ration
ĠTe mps
Ġch air
ĠV in
Ġ10 9
ĠAst ro
ĠCath erine
Ġat h
Ġs k
or n
end o
ense z
ĠApp r
ĠCh auff
Ġvisite z
ĠÃ©ch elle
AL L
CH E
ĠðŁ Ļ
cel one
dit ation
at ti
inter mÃ©diaire
Ġpil otes
Ġore illes
m erci
Ġb ol
g as
ag ra
ĠÃ© ro
Ġong let
ĠMatÃ©ri el
en contre
Ġin aug
ib lement
Ġ urgence
entre pren
Ġmor al
Ġattend ent
Ġnett oyer
ĠCh oisissez
uss itÃ´t
Ġex al
ĠrÃ©c ents
cie uses
rai rement
Ġlum iÃ¨res
ĠspÃ©ci aux
tis sements
Ġ13 9
ĠG PS
e lez
mp es
Ġpens ent
Ġo v
ĠImm obilier
Ġrec ueil
ĠMer credi
ĠSim on
Ġb ateaux
S C
ĠRen dez
Ġprom is
Ġinuti le
eu f
di Ã¨re
ĠfaÃ§ ade
Ġphp BB
Ġaffich Ã©s
av er
acc ro
Ġb ite
ai m
arri ver
N A
Ġ12 9
ĠInter nation
Ġcou ches
g rer
Ġeffectu Ã©e
Ġp y
ĠN u
Ġcol oris
ĠD ist
Ġson ore
ĠdÃ©c oup
Ġcong rÃ¨s
ĠB ru
alis ations
Ġchat te
ĠEn vironnement
AS S
Ġfant astique
Ġimp rimer
rat oire
Ġcommand Ã©
Ġencour age
Ġtra Ã®
T er
Ġimp ati
ĠmÃ©n ages
b al
Ġinter nes
Ã©l as
Ġfol le
tif ie
Ġva peur
Ġcoqu ine
ĠF rÃ©dÃ©ric
Ġcoff re
ĠvÃ©ri fication
Ġauth enti
Ġorigin ales
Ġimmobili ers
ĠlÃ©giti me
si dÃ©
Ġprom et
ĠbÃ©nÃ©fi ce
Ġcompt able
ly mp
al ier
mb les
An ti
Ġalbum s
ĠcrÃ© ant
ĠVi etnam
ĠM O
Ġtour istes
ab eth
pos t
Ġcont ribue
ĠbÃ©nÃ©fici ent
Ġp omme
ĠF ire
Ġgar antis
Ġ199 2
R P
ĠS uite
Ġvi ve
Ġvit rines
rom p
Ġarr ondissement
Ġnette ment
Ġre quis
Ġcri mes
ĠL iens
Ġti r
ĠRoy al
Ġbanc aires
Ġpoli ciers
Ġexp rimer
Ġes prits
ote ls
ĠV ierge
ĠdÃ©f end
Ġtomb Ã©
Ġiniti ale
Ġparc ourir
Ġa Ã©ro
P art
b aye
ĠtÃ©m oin
Ġch Ã¨que
ĠA jouter
ĠrÃ©v ol
ĠBrun o
D Ã¨s
SI ON
ĠGratu it
ĠXIX e
Ã© par
li ent
Ġsav ais
ĠS yste
Ġre de
Ġentrepren eurs
ĠS MS
ti fications
ĠSam s
Ġren dement
Ġdispos ent
Ġfl ot
n ot
du ites
ĠM AN
ĠMar chÃ©
aiss es
cr ites
ĠÃİ le
' ,
Ġpl aire
Ġ14 9
Ġg aleries
in itÃ©
ĠP u
Ġ11 6
Ch rist
Ġfid Ã¨les
ĠEmp loi
ĠsiÃ¨ ges
Ġang le
Ã ¤
Ġ15 9
oure use
Ġcon gÃ©
ĠCh a
ĠT ot
L M
ĠGren oble
ĠcrÃ© ateurs
Ġremar quer
ĠS el
Ġessenti els
ĠextÃ©ri eurs
ĠP in
Ġpi ra
ĠO Ã¹
Ġexp ression
ĠComm ande
Ġment ale
Ġense ignement
Ġfort une
S M
o ine
Ġcul te
ĠrÃ©fugi Ã©s
ro w
Ġper les
ĠopÃ© rateurs
s me
Ġmen Ã©
Ġrespec tifs
Ġens ole
ul teurs
ĠintÃ©g rÃ©e
am Ã©ric
ĠSark ozy
ĠinfÃ©ri eure
ĠdÃ©g uis
Ġclass Ã©s
Ġtr ent
Ġeffectu Ã©es
com mand
ras es
ac Ã©es
ĠR Ã©volution
ver gne
Ġ? ?
Ġver ra
Ġt unis
ĠU V
b onne
ĠGre en
onn u
Ã©t end
ame d
ON U
Ġpi zz
Ã©b astien
ĠPeti tes
Ġlin ge
as p
Ġcont ro
Ġva mp
ro i
te au
Ġad hÃ©
ĠSoph ie
ĠMar keting
ac ts
ĠS m
Ġtra jet
m Ã¨tre
Ġperspec tives
ĠD ess
Tri pAdvisor
ĠrÃ© no
appar ition
e uses
Ġsal ons
tinÃ©ra ire
Ph ot
Ġrasse mble
Ġcon cevoir
ĠFRAN CE
ĠCol lec
Ġnour rir
Su per
il ie
Ġindic atif
or ant
pi ers
ĠI le
Ġne w
ĠS oi
ĠcÃ©lÃ© brer
ĠF ou
ĠB ah
ĠT el
c tivitÃ©
Ġfonctionn ent
ĠdÃ©lic ate
Ġju ger
Ġf es
Ġlib Ã©rer
Ġadministra tives
Ġcock tail
ĠSu pp
Ã Ĥ
ĠB ul
Ġab sent
Ġhi Ã©rarch
Ġf usion
Ġaut onome
5 00
B S
ur Ã©s
Ġsex uel
Ġ19 70
Ġfer ait
att ends
oblig ation
lis es
Ġ3 50
ĠH TML
Ġ11 9
ti ment
ag isse
ĠP ie
ĠTech niques
h Ã©rence
Ġm n
Ġent rain
Ġeffectu Ã©s
S uite
en cer
aut h
Ġex haus
ob servation
T V
anc y
Ġcapit aine
ĠÃ©trang Ã¨re
ĠS Ã©rie
Ġpuiss ante
Ġoffici els
Ġhu iles
Ġte le
ouve ment
Ġpers u
al ors
Ġchim ie
Ġtempor aire
Ġorigin aux
l ateur
ĠLa ur
is olation
Ġfi ction
Ġcombat tre
Ġfabri quer
Ġfavor able
ĠSex e
Ġser re
Ġcons ole
ensi ble
the me
ru tement
Ġar tic
r ue
se aux
Ġm ic
ĠAu dio
Ġsug gestions
b is
h ub
Ġsal ope
Ġma ill
ind res
hi p
ĠinfÃ©ri eur
L uc
ĠH T
Ġbl oquer
Ġc ouss
b lÃ¨mes
ĠO s
ĠFran co
ĠPh arm
J ac
ĠLiber tÃ©s
an v
mes ure
ĠI D
p al
s auf
ra ux
Ġad orÃ©
Ġnavi re
ag iste
tu mes
ĠchrÃ© tien
ĠFam ille
Ġplas tiques
Ġatt ent
ĠP Ã©ri
Ã©r isation
Ġcons Ã©cuti
ass o
D Ã©s
Ġtra itÃ©s
Ã©clai rage
P M
Ġla Ã¯
Ġimp rimÃ©
Ġracc our
aut onomie
Ġbar s
Ġrel atifs
ĠPre mi
ag issait
Ġmin ce
Ġadop ter
ĠrÃ©mun Ã©ration
Ġti ennent
pe dia
Ġp c
Ġjou ent
Ġor ange
Liv raison
Ġpas sions
Ġdi eu
P ort
vie ws
Ġrig ueur
ĠP res
ĠrÃ©cupÃ© ration
ci ation
ĠT H
Ġimag iner
f onction
ĠÃ© lection
or iste
ĠD ata
ĠD enis
Ġpr ouver
Ġpoign Ã©e
Ġfi le
ĠConse ils
ĠRes ponsable
ĠNet work
Ġconsom mer
Ġj azz
Ġra ce
ĠK it
ĠPh il
Ġprend ra
ĠK i
Ġoptimis Ã©
Ġ8 2
ĠdÃ©tr uire
Ġord res
hab il
Ġbal con
ĠMÃ©diterran Ã©e
Ġav ancÃ©e
ĠÃī cole
Ġaper Ã§u
ĠCu ir
ĠD re
Ġper ception
ĠDÃ©fense ur
Ġm Ã¨
Ġsa tell
cr ite
j o
ĠM ee
Ġamen Ã©
A Z
ĠD ar
ĠV ar
Ġsub ir
Par ce
Ġp ut
Ġop inion
Ġpeint ures
ĠdÃ©s ol
Ġexp rime
Ġbais er
ĠUn ion
lec teurs
ĠT ype
ĠL G
Ġaff ili
P lan
ĠÃ©v aluer
Ġ13 6
P C
ĠM is
ĠT ok
Ġdro gue
ul f
ĠIn stru
ĠÃ©v Ã¨nement
Ġvari Ã©s
ĠNouv elles
Ġchois is
ĠFA Q
av ie
Ġsang u
Ġsou pe
Ġgl oire
Ġb aise
ĠmodÃ© ration
T ube
enti r
ĠprÃ©par Ã©
Ġtyp ique
rÃ© tion
ĠB L
v ants
accep tation
ĠRe vue
Ġpa quet
D R
z o
b ie
Ġappar tenant
ĠAmb assadeur
ĠAngel es
m od
ĠcrÃ© atifs
Ġcommun s
Ġincl uant
Ġ12 6
Ġneu fs
Ġsac rÃ©
ĠOr d
vi a
ell ation
Ġling uis
ĠNap olÃ©on
ĠÃ©p ous
Ġp in
Ġc itation
Ġprov in
Es prit
Ġca hier
Ġo cÃ©
Ġfond ation
ht ml
Ser vice
Ġd ata
ĠÃ©t onn
cep ter
Ġcas ino
ĠfÃ©min ine
Ġpoly val
" )
et re
tu p
Ġcer tification
Ġfor Ãªts
Ġquin ze
ĠThaÃ¯ lande
e re
Ġdeb out
Ġch ang
aur ai
Ġlu dique
Ġconvain c
Ġa yez
ĠrÃ© cep
Ġfi abilitÃ©
ĠprÃ© ju
Ġmai g
Ġenregist rÃ©es
it ure
Ġsou tenu
ĠIn tÃ©
Ġplate formes
Ġmas que
ĠboÃ® tier
au ph
um a
Ġmarchand ises
Ġ14 6
Ġpouv aient
Quel ques
duc teurs
ĠproblÃ© matique
Ġindi quÃ©e
ss es
ress es
Ġfonctionn aires
que ur
Con se
Ġcon ces
Ġposses sion
m as
aug menter
M aison
yst Ã¨mes
Ġdesc ente
ĠF Ãªte
ĠO k
Ġaut onomie
Ġmulti mÃ©dia
Ġdoc teur
Ġj oint
ong let
Ġinf rastructures
Mal grÃ©
Ġab onner
rig ue
ra d
ĠBar celone
horiz on
TE L
ĠÃī lect
ĠAr bres
Ġsur vie
ĠprÃ© avis
ĠP Ã©r
ĠrÃ© ductions
Ġappar ence
g han
Ġtrans actions
200 8
l ante
ge ant
ari um
Ġmob ilis
Ġbord s
ĠfrÃ© quemment
ĠMar k
Pe ti
ĠSams ung
ri ons
att endre
ash ion
Ġs ph
ĠJ on
ĠOu ver
Ġprotoc ole
ar iste
ĠD ec
ĠF Ã©
Ġgentilles se
Ġ10 4
Ġcour tes
Ġpar lant
Ġli aison
Ġsex uelles
D roit
Ġmen aces
Ġpass agers
ob jets
Ġfili Ã¨re
Ġgran di
IC E
aug mentation
Ġex ten
Ġch ou
ic ales
Ġrec ense
ĠDÃ©c laration
Ġtou chÃ©
ok e
ĠdÃ©ta illÃ©e
Ġvend us
T EN
ĠS ab
ph p
Ġvari able
Ġf Ã©v
ĠgÃ© ant
Ġrecommand er
Ġoccas ionn
Ġ }
Ġtr ous
Ġjus tifier
ĠrÃ©pond ant
Ġ up
ĠdÃ©clar ations
Ġpollu tion
ĠDÃ©c oration
Ġvis itÃ©
ĠGRA TU
Ġpass ages
Ġvol ant
Ġaj us
Ġdimin uer
Pe tit
Ġ15 5
ĠS ource
Ġob tient
ĠrÃ©guli Ã¨re
Ġrob ot
se ctes
ĠS all
ĠdÃ©pend ance
A ir
h ad
fi ants
Ġpap a
Ġins tin
Ãī cole
Ã©lab oration
ĠR og
enf er
Ġami tiÃ©
id on
ĠÃ©g al
ĠBus iness
ab ulaire
gn y
Ġemploy Ã©
Ġexist ent
Ġvuln Ã©ra
Ġapp ortÃ©
ĠTech nique
Ġillus tre
V enez
ĠÃ©cl air
ĠR EN
m us
uis ant
Ġorig ine
es clav
el ier
Ġh al
Ġtourn ant
Ġop inions
j eu
Ġloc alisation
Ġfai m
ĠPor n
Ġm ait
ul ar
ĠR H
Ġfas cin
ue use
Ġt as
Ġsol des
Ġjoli es
Ġmilit ants
A lex
Ġf ous
Ġat titude
Ġg Ã¢teau
Ġtransmis es
ti a
th ur
Ġsim ult
oli ve
Ġin no
ĠrÃ©un is
aine ment
ĠprÃ©cÃ©d ents
oxy d
ĠS auf
Ġboule vers
ri gÃ©
av Ã¨re
Ġprom esse
ĠCN IL
ĠMar cel
Ġpens ais
........ ........
Ġf oc
Ġca chÃ©
rab lement
Ġparticip ant
Ġvit esses
Ġpri ori
ĠsÃ© rÃ©n
Ġa lÃ©
ph Ã©m
sionn aire
Ġauxqu elles
ab e
ĠdÃ©fini tive
P al
Ġ15 6
ĠMag as
Ġser vant
ĠP ubliÃ©
ĠSi mp
ĠG old
Ġver rez
Ġinves tir
ad y
Ġth er
liss ant
Ġsouver ain
ĠdÃ©lÃ©g ation
Ġc uivre
Ġh armonie
qui Ã¨me
IS ON
ĠVen ise
ĠM iss
aiss ant
> <
Ġdu e
fin ition
Ġbou cle
ĠPAR IS
un di
Ġen ver
ĠF ils
ĠO range
Ġl uc
ain issement
ĠsÃ©lection nez
ĠconÃ§ ue
ĠtrÃ©s or
Ġpers o
Ġth Ã©matique
Ġaccord s
ĠR ac
Ġ17 5
Des cription
im s
Ġlog istique
Ġfil tres
ĠrÃ©c its
Ġpo Ã¨te
Ġreconn us
Ġsoci aliste
ĠAlex andre
Ġcarb urant
ĠS C
Ġhos pit
or re
Ġg Ã¢
Ġas tÃ©
ĠOu tre
ĠVers ailles
Ġiss ues
ĠDro its
ĠrÃ©flÃ© ch
c our
analy ser
Ġterroris me
Ġformid able
Ġco ins
ec ture
Ġpar rain
ĠS olid
Ġ16 7
ĠgoÃ» ter
ĠC op
pos e
ex er
ĠW ar
Ġent rÃ©es
ĠÃ©lect rom
M Ã©
Ġextra its
Ġm ad
Ġcrois iÃ¨re
Ġsil en
ĠphÃ©nom Ã¨nes
Ġrense ignement
ob iles
ĠdÃ©pos Ã©
Ã©lÃ¨ ne
ĠCon te
Ġindi quÃ©s
Ġreconn ue
Ġavanc Ã©es
interprÃ© tation
Ġfran cs
Ġemp Ãª
Ġs pl
qu ants
Ġvis uels
Ġfra ppe
Ġeng ager
f ord
in ets
Ġh eur
Ġ10 7
Ġremp lis
1 20
Ġob sc
Ġr Ã´les
mi le
Ġcompagn on
Ġquali fiÃ©
ĠgÃ©nÃ© reux
A I
ĠrÃ©s ister
ĠmÃ©dic aux
ĠCons titution
R Ã¨g
Ġvig il
ĠDom aine
al titude
Ġ16 9
ĠprÃ©cis Ã©
ĠMun icip
ĠÃ©ch antill
ĠdÃ©li cieux
ti lle
ap s
mi de
ĠhÃ©ber gement
f rance
ĠH igh
ĠdÃ©g Ã¢ts
ĠrÃ©s istant
Ġ ),
ra les
ĠAlle mand
Ġw h
Conne ctez
el ine
Ġdemande z
ce au
Ġhoriz ont
Ġhum our
imp ose
Ġhy dro
OBIL IER
ar mer
ĠC atÃ©gories
In de
artis tes
Ġinter face
ĠdÃ©faut s
ĠperpÃ© tu
Ġsau vages
til itÃ©
Ġes tiv
Ġ17 9
Ġpermis sions
ĠTou jours
est Ã©
Ġsais ie
Ġord inateurs
ath lon
E P
Ġ17 6
Ġmet tra
Ġdemand ent
Ã©l ande
Ġman che
Ġno tice
ĠBourg ogne
ĠAstro theme
Ġsyndic ats
Ġob s
Ġopportun itÃ©s
ĠsÃ©rÃ©n itÃ©
om Ã¨tre
ĠV illes
ĠAr n
Ġviol ent
ĠCrÃ© dit
Ġvi f
Ġtu y
aur Ã©
ĠamÃ©ric aines
Cl aude
J us
Ġride aux
ĠT ro
Ġpsych ologie
ĠTer rit
N ouvelle
Ġprov oque
Ġbudg ets
or gan
Ġdi rig
Ġcouv rir
ĠFre e
Ġsec s
Ġdirect rice
Ġfix ation
Ġin tention
Ġconst amment
Ġsex ualitÃ©
ĠmÃ©can ismes
ĠÃ©quip Ã©s
R C
Ġsal aires
ann ing
Ġoffer te
u Ã©e
Ġb ad
oct obre
ĠPe inture
ĠG ame
opp ortun
Ġtraditionn els
Ġmoyen nes
ĠcomplÃ¨ tes
Ġoccu pe
Ġf eux
Ġj anv
Ġcons oli
ĠAnn Ã©e
atte indre
C liquez
Ġ14 5
tin ation
au tique
Ġcoord ination
F er
Ġpo ches
ĠÃ©tudi ante
Ġch aises
Ġ16 5
Ġ11 4
is tÃ©
et ter
onn et
Ġnouveau tÃ©
ĠA tt
ĠH eures
Ġpost ale
ĠP om
Ġass istance
Ġincl ut
ĠDon ald
Ġsurvi vre
ĠespÃ© rons
ti tions
ĠC afÃ©
ograph ies
Ġin temp
Ġsou mettre
ĠmÃ©tÃ© or
Ġp ape
Ġjou et
ros se
av ent
Ġ16 6
AR L
pos Ã©
Ġrembours er
Ġcon join
Ġsou tient
= "
U X
re au
ĠÃ©g ale
ĠAff icher
ĠrÃ©g lage
Ġsub stitu
Ġme cs
pi re
ĠInform ation
ĠHar ry
ĠbÃ©nÃ©fi ces
Ġdispar aÃ®tre
er ies
ch ers
agn ole
Ġacc orde
Ġcollec ter
Ġcomprom is
B ou
di ens
ĠK ing
Ġt ch
ĠC oc
Ġtra h
Ġh orm
Ġv Ã©tÃ©r
Ġfre in
Ġn oix
ap tis
Ġmath Ã©matiques
Ġtrans met
Ġab ond
k ina
Ġrapp orte
Ġchois it
activ ation
Ġoeu fs
o dique
alog ues
OU T
Ġabs olue
ĠT im
ins titu
Ins crivez
e ctions
ĠN O
Ġplan che
ossi er
ĠrÃ©flex ions
ref our
Ġdes ser
Ġmag ist
ĠrÃ©un it
P ays
Ġindividu elles
ĠBM W
M O
el in
ĠM Ã©m
ĠrÃ©g ulier
Ġsub i
Ġpours uite
Ġci me
ĠÃ©v olutions
Ġmul titude
ĠDan emark
ĠmystÃ©ri eux
ĠdÃ® ner
li re
ĠH ad
ĠðŁĻ Ĥ
Ġsupp ose
ne au
Ġpopul aritÃ©
M ari
ĠAr ticles
ti Ã¨me
ĠcontrÃ´ les
Ġser ons
ĠActu alitÃ©
Ġsou viens
intÃ© grer
R L
rig Ã©ra
Utilis ation
Ġvern is
Ġc ac
Ġex cessi
ĠSt and
b ons
p df
Ġacqu Ã©rir
j oignez
y er
Ġpou ces
ac teurs
u u
as on
eu l
ab o
v ons
Ġv ole
Ġt ennis
c ad
Ġhe ct
Ġpourcent age
ĠÃ© di
IG N
Ġarch itecture
Ġreg istre
ĠS ah
ate g
w n
Ġcap ture
Ġcorri ger
ĠOuti ls
Ġc enti
Ġimp er
Ġ12 4
Ġn oct
ĠD J
oun d
Ġab at
ĠvÃ©r itables
ĠAd resse
ĠÂ §
ĠS pe
acc ent
ĠprotÃ© gÃ©s
ĠR och
Ġcomplex itÃ©
ĠC itÃ©
Ġcon v
Ã© vent
Ġent er
ĠU s
ĠA ustralie
Ġcomm Ã©m
Ġ? ??
Ġform Ã©
Ġgui des
Ġtrom pe
je ctions
Ġopp osition
ĠdÃ©b ute
ĠgÃ©n ial
Ġcel l
Ð¾ Ð
ĠE ur
Ġcontact ant
Ġstand ards
C a
Ġb ur
Ġref uge
Ġbran ches
L oc
ĠdÃ©b uter
Ġbat teries
Ġinconn u
ĠrÃ©ser ves
Ġm l
ĠdÃ©li b
Ġfat aliste
p res
Ġvis uel
Ġim mer
Ġconfi denti
k g
ĠH P
Ġinf orme
Ġpharm aceuti
ĠCÃ¢ ble
V O
b urg
Ġf Ãªter
ĠMal heureusement
Ġfourn ie
Ch ez
Ġtransform Ã©
ĠG il
Ġrelig ions
Ġappropri Ã©
Ġid entique
pect s
Ġmens uel
ri a
Ġaffront er
Ġob server
Ã© en
Ġfi bre
h os
Ġpas sez
Ġc Ã©ra
ins er
Ġamb i
Ġ ultime
Ġla ver
ĠR ace
200 6
ar te
Ġv ign
ĠCre ative
ĠcrÃ© di
ĠdÃ©s espÃ©
ĠLun di
ĠColomb ie
t le
Ġvol er
Ġengage ments
Ġenle ver
oy Ã©
le ver
ob s
Ġne ur
Ġcou lis
Ġseni ors
A qu
ĠÃ©p au
ĠrÃ©vÃ© ler
ĠMai rie
or ith
Ġt Ãªtes
ĠÃ©d iteurs
en cre
Ġt Ã©n
Ġse p
ĠY ves
ul tes
Ġhe in
on a
de m
ĠdÃ©c la
Ġrest Ã©
ĠÃ©tudi er
ili ers
mb er
dic ation
Ġmaj eurs
ĠP il
Ġre charge
Ġi c
Ġinter locu
onn iÃ¨re
Ġmar quer
Ġexemp laires
ĠM icro
Ġavoc ats
ĠEnf ants
E B
ĠH al
Ġsuc cessi
Ġt ue
Ġph rases
TE UR
emb allage
Ġ!!! !
tu ce
ĠSu pÃ©ri
Off ice
Ġs n
Ġsign er
ĠSer ge
Men tions
Ġsolid aire
Ã¨ ges
ĠE cole
Ġsex uels
ti cien
Ġsmart phones
H A
Ġparti ellement
ss is
Ġsou mise
ĠMe illeur
Ġsupp os
ropri Ã©tÃ©
Ġappro xim
s tes
ĠN am
Ġbac tÃ©ri
ĠP a
hum iditÃ©
Ġta ches
ĠA th
Ġam ende
Ġro bes
ĠiP ad
ĠAng leterre
li en
am ar
si fs
ĠS af
Ġunivers elle
ĠÃ© puis
Ġactu elles
Ġvalid itÃ©
rs quo
Ġs pÃ©
Ġmentionn Ã©
od ge
Ġconcep ts
Ġsond ages
D isc
Ã´ nes
Ġban li
Ġemp Ãªche
Ġporte feuille
ĠFoot ball
Ġa ussitÃ´t
Ġave ug
onn ent
Ġcor ruption
illet tes
Ã©b Ã©
Ġju il
Ġles b
ĠrÃ© els
n elles
inser tion
ac tifs
TI N
Ġang laise
ĠBer ges
ĠÃ©loi gn
E m
Ġs oix
ĠEn v
Ġcellu le
IN ES
ĠT w
ĠDi am
Ġeng agÃ©e
Ġsouff re
Ġchanti ers
ĠtÃ©lÃ©ph ones
Ġchant er
ĠP et
o ver
ier t
Ġappr entissage
Ġinvestis seurs
ad ou
Ġmilli ard
ĠLog iciels
Ġproven ance
% )
ĠM ore
Ġfor ment
cul er
Ġfac ultÃ©
ĠmatÃ©ri au
Ġtri om
ĠI t
ce vez
D D
X X
medi a
A LE
Jac ques
ĠNÃ© anmoins
ĠGe orge
ĠBri and
Ġguer res
ĠB TS
Ġpoli cier
ĠdÃ©but s
Ã©c art
Ã©m ique
Ġgar dien
Ġrelig ieuses
Car actÃ¨re
Ġbou ger
ĠJeunes se
Ġunivers itÃ©s
Ġb ot
Ġcircu its
c ur
Ġins crivant
v ais
ĠMÃ©t rop
intÃ©gra litÃ©
Ġti rage
b our
oi ement
ĠCh ic
Ġrest ri
ĠMaur itanie
Ġex tension
ang ers
Ġ----------------- -
Ġfrag ile
Ġra vi
Ġ19 60
Ch oisir
Ġp ist
ac ent
Ġh ard
ĠmodÃ© rateurs
se y
pp er
Ġdisting ue
Ġdu quel
out ch
Ġprim or
ph ab
C TION
» ¿
Ġins criptions
and er
ĠD S
end rait
Ġco que
Ã©m on
ĠsupÃ©ri eures
Ġsoulig ner
ĠÃ©clai rage
ĠrÃ©tra ctation
ĠM aire
ĠD A
200 7
Ġsan itaires
Ġoblig atoires
Ġpar quet
ĠB R
ĠB ad
ĠLang ues
Ġrat ta
ĠV ert
ens itÃ©
ĠCon vention
Ġmen tions
ro vi
ĠC ant
ĠL as
Ġtemp le
ĠmÃ©can isme
ap is
ph onie
ĠFin lande
Ġg Ã¨re
Ġpoul et
Ġcig are
Ġb aie
Ġsur veiller
Ġ? )
Ġsens ations
Ġgouver nements
ti bles
y mn
Ġmo dules
roÃ¯ des
ĠP Ã´le
ĠF onction
.... ..
ĠtÃ©lÃ©ph on
glom Ã©ration
Ġinterven ants
ĠfÃ©v r
A sie
agas car
Ġaltern atives
ĠSt ore
Ġpal ette
ĠRe cher
s ance
Ġseu il
Ġp oup
Ġn ulle
ĠdÃ©termin ation
ĠbÃ©b Ã©s
adel oupe
Ġtranspor teur
ĠMon tre
Ġamp li
optimis ation
il a
Ġcon serve
og ram
Ġpos tÃ©
ĠRou manie
is ion
Ã¨ ves
Ġtra verse
Ġinst ants
ĠprÃ©cÃ© demment
ĠdÃ©mar rage
Ã©le vage
ĠB ag
ĠComm ons
ad option
... ,
Ġassoci Ã©es
h al
Ġacc ent
ĠsystÃ©matique ment
in dex
Ġspiritu elle
Ġhonn Ãªte
Ġcon vo
Ġent ra
ĠCan nes
H er
R es
Ġf au
au rer
ue illir
ĠprÃ© texte
ust om
Ġres tre
Ġcontinu ent
Ġn az
Ġun es
ĠH el
Ġfa usse
ĠPr enez
ĠEntre prise
Ġillus trations
Ġfondament aux
Ġpl ur
ĠV ienne
Ã©c outer
Ġchar ger
ĠprÃ©v us
am ines
Ġmar quÃ©e
Ã©t onnes
Ġmin Ã©ral
Ġtab ac
Ġlente ment
h h
F aites
vi dÃ©
ĠspÃ©ci fic
Ġp ique
Ġcomp ens
oly mp
Ġcent aine
RÃ© fÃ©rence
ĠXV I
ĠÃ©g ard
ĠVi ctor
Ġtrou ble
Ġfact ures
S oci
ĠBou tique
ans ion
Ġst agi
Ġinten s
ĠA telier
Ġmyth ique
r r
R Ã©g
Y S
it res
Ġexpl oitation
ĠnÃ©goci ations
Ġboute illes
ĠdÃ©f aite
Ġchois ie
ĠN ot
ĠG arde
Ġapport ent
M ain
ĠV end
ensi ve
Ġsub s
Ġ11 7
Ġde venus
Ġco te
Ġcons ci
Ġbo ok
Ġpl ait
ĠF rais
Ġman iÃ¨res
pi ce
ĠrÃ©p arer
Ġunivers itaires
ail li
rais ons
Ġs and
ĠS k
ĠmodÃ© rateur
ATION S
Mar tin
Ġheb domad
ĠDoc teur
Ġprin cesse
cip ation
Ġdou bl
S aisissez
Ġform ats
Ã©li min
M ag
Ã Ĭ
Ġpo ker
ĠtolÃ© rance
Ġaugment Ã©
Ġcour ants
Ġd r
Ġvol umes
Ġcollec tifs
j amin
ouv ant
Ġad os
ĠCon ver
ĠAd aptateur
ĠMa j
ins tru
Ġplani fication
te in
ant aine
ĠCan adi
ĠFlor ence
Ġdiscre t
as o
ĠÃ©lect ricitÃ©
ĠSur tout
Ġdra me
H y
ĠrÃ© vision
Ã©lÃ© ments
and s
Ġdi ctionnaire
ĠQu oi
ĠdÃ©g ust
+ +
ĠF ar
pr Ã¨te
Ġchar m
Ġfer mÃ©s
ack y
E ducation
ĠG R
ĠO pÃ©
or Ã©s
we et
p Ã¨re
ĠP asse
ĠD o
se e
Re cherche
Ġconstat Ã©
ĠR essources
Ġdis sim
II e
Ã© loi
Ġpar ap
Ġpromen ade
ĠD er
Ã´ tres
Ġmar in
Ġprochaine ment
Ġvoil a
meub les
Ġb alle
Ġfabri quÃ©
Ġ14 4
ori Ã©tÃ©
Ġstock s
Ġb Ãªte
Ġplu me
Ġsa veurs
Ġaler te
Ġaccompagn Ã©e
ĠcÃ©rÃ© ales
ĠlÃ©gisl atives
ĠW ord
Ġbl onde
ĠRen Ã©
Ġus agers
Ġplomb erie
Ġsoi gner
Ġoc cupÃ©
Ġaffir mÃ©
Ġbaign oire
F il
Ġfas c
ĠH i
C N
Ġcorrespond ance
Ġplomb ier
ĠprivilÃ©gi Ã©
Ġ12 3
ĠRen ault
am el
ĠStu dio
ĠmÃ©th od
ĠrÃ©clam ation
ran de
rie d
Ġmeur tre
Ġlar ges
E v
ĠH O
Ac adÃ©mie
Ġde c
Ġb rÃ©sil
Ġsouhait ons
Ġbless ures
D G
Ġp end
alis es
Ġob lige
ĠPS G
ĠT emp
Ġnot oriÃ©tÃ©
Ġ12 7
ĠinterprÃ© tation
C G
ĠVer sion
ĠrÃ©si de
p ins
Ġ15 00
ori ale
Ġunivers el
Ġcry pt
t oi
Ġfig ures
ĠnÃ©g lig
omÃ©t rie
as tre
ĠG are
ĠIn gÃ©n
ĠMe mbre
Ġquali fiÃ©s
Ġappare mment
Ġsu rement
Ġconn ues
Ġvol on
Ce pendant
Ġtrom per
Ġf oie
prÃ© sident
ï ¼
Ġl an
Ġsupp orte
Ġd ign
ĠM and
Ġ15 4
ri enne
ĠM az
ate l
Ġexpl orer
ĠCh ant
Ġinter rog
Ġat outs
ari ats
Ġrespect ant
Ġscand ale
y t
ĠW eek
ES T
je uner
Ġfeu illet
ĠconsidÃ© rablement
un k
c lÃ©
re uses
ul sion
Ġclim atisation
Ġcon j
... |
Ġref usÃ©
ĠS M
ter a
ak er
ret te
Ġ199 3
Ġra v
ourn er
Ġmang a
ĠAut riche
Ġemb lÃ©
Ġsauve garde
Ġpuiss ants
Ġchim ique
Ġg e
Ġpro viennent
Ġr endant
Ġchau des
III e
Ġprovis oire
ur ie
ĠJe une
Ġmont Ã©
Ġplaisir s
Ġch or
aÃ¯ que
Ġ6 1
atis me
Ġparis ien
Ġrenforce ment
Ġten us
Ġcin quiÃ¨me
Ġfut ures
Ġpar vient
Ġch aine
Ġdig itale
us alem
Ġgra mm
oy s
ann onces
F C
Ġcri ti
Ġtoil ettes
ic aine
ĠL an
ĠDi pl
ĠBo ok
Ġtac tile
ouv Ã©e
Ġtr istes
Ġp air
exp liquer
an niques
Ġoff ensif
uc k
ĠCG V
ĠdÃ©s agrÃ©
Ġpor c
Ġd en
Ġbless Ã©
b in
Ġremp ortÃ©
Ġparam Ã©t
ĠR Ã©d
ĠprÃ© serv
Ġr usses
ĠG raph
ĠIn troduction
Ã¯ n
ĠP AS
ĠPro pri
Ġpl ay
di ct
Ġtran che
ĠEnse mble
Ġenv oie
Ġa iles
Ġjapon aise
ĠÃ¢ gÃ©
ĠprÃ©sid ence
S ituÃ©
ĠCh i
ĠPar fois
Ġvit re
Ġin tra
Ġsol itude
Ġsoigne usement
ĠP eter
Ġsp amme
Ġprot est
Ġlic enci
en rich
an ner
ĠM ang
ĠFab ric
Ġprop ag
Ã©d rale
Ġm Ã»
Ġlib rairie
Com p
à ¸
Ġsoci o
Ġcrain te
Ġt atou
ant h
Ġro ses
ĠRe f
ock ey
Ġsymb ol
ch ron
Ġ13 4
te liers
ĠdÃ©sir s
ĠLic ence
Ġremerci ons
on ais
Ġafric ains
k h
gu Ã©s
Ġvirtu el
u yant
inter net
Ġ% .
ab ilis
fi cie
Ġneu ve
Ġn Ã©s
Ġdes crip
it o
all on
Ġserr urier
t an
Ġl us
Ġamp les
Ġgouvern ance
S yn
ri ve
) ...
di ale
ĠB ab
Ġchau diÃ¨re
Ġtourn age
w ard
ĠR D
Ġju gÃ©
I ran
u tÃ©e
Ġ13 7
ĠdÃ©p ass
Ġj avascript
Ġg ang
Ġmanif este
Ġav enue
Ġref roid
Ġrev it
ĠpÃ¢ tes
ĠrÃ©v Ã©lÃ©
Ġoccas ions
Ġcatastroph e
T Ãī
Ġn or
ĠÃ¢ gÃ©s
ĠContin uer
ĠdÃ©g uster
I EN
y pes
ou ches
ob i
ende ur
H um
n ose
Ġl oisir
ou ement
si ers
Ġk i
ĠmÃ©tal lique
it oy
Ġo e
Ġb ret
ĠR apport
veill ant
uni or
lis er
ĠPatri moine
Ġa f
ĠJ azz
Ã©cuti f
Ã©ri fiez
Ġs at
il ation
Ġang lo
Ġbais ser
ĠfÃ© lic
z er
Ã¢ t
der ie
g alement
Ġfranco phones
Ġne wsletters
Ġrempl acÃ©
Ġvag ues
ĠMon te
Ġchar bon
Ġsour i
ĠCom pt
Ġbiz arre
B ook
Ġspamme urs
Ġcl os
Ġcol oni
Ġti rÃ©
Ġrecue illir
ag Ã¨re
ĠZ one
F P
ĠE mb
Ġfin es
Ġhy bri
ĠTer min
ĠCol lÃ¨ge
Ġabord able
Ġla issent
Ġre z
erm ain
OUR S
ĠWilli am
Ġinstall Ã©s
Ġve d
ĠE li
affich ent
Ġanim ation
tug ais
J eu
serv atoire
ĠdÃ©bar que
ĠAP P
ĠMeu ble
ĠR and
ĠV TT
Ġant h
Ġp Ã´le
ĠspÃ©ci alitÃ©s
Ġ4 50
Ġad ministration
Ġconcern Ã©es
Ġlit res
ĠdÃ©termin Ã©
ĠPol y
Ġc uire
el Ã©
Ġajou tÃ©e
ĠM ans
âĤ¬ .
ĠMar y
Ġinstall Ã©e
Ġdiv orce
Ġdoc tr
hyp oth
n um
au cune
Ã©c rit
ĠdÃ©bar rasser
ĠC S
Ġtravers er
ĠdÃ©fin it
Organis ation
Ġde lÃł
in ois
Ġsoumis es
ĠdÃ© l
vi ers
Ġassur ances
Ġb est
auth enti
ĠL ut
Ġi kea
Ġconvain cu
d rome
chi ve
Ġsenti ers
Ġla ser
Ġdiscipl ines
Ġacc ordÃ©
Ġpubli Ã©es
l ants
en ergie
ch o
ĠC onn
Ġri ch
Ġplan cher
ast ers
au rez
Ġfab rique
Ġ erg
g ence
imm igration
us anne
Ġpar ait
Ġar mÃ©es
emp Ãªche
Ġcer tifiÃ©
Ġcoc o
book ing
iv itÃ©
ĠEntre tien
Ġenvis age
Ġfrau de
Ã» te
Ġbless Ã©s
Ġ ondes
Ġdirec tives
Ġheure usement
Ġacc usÃ©
IR ES
ĠG illes
Ġai dÃ©
ĠG ro
Ġparticip ent
inst all
ĠD akar
lis Ã©e
Ġjui fs
EL LE
Ġc ub
Ġconnec tÃ©s
Ġobten ez
ĠS Ã©bastien
Ġten ues
Ġweb master
Ġdevoir s
Ġexp lic
Ġvolon tiers
ill ette
22 1
C R
ĠÃ©t onnant
Ġno tions
Ġchauss ure
Ġastrolog ie
ĠÃ©t oile
ĠP AC
ĠS treet
ĠT ari
Ann once
je ct
Ġcu ill
dÃ© p
Ġ19 45
Ġfl am
ĠR od
Ġcol lect
ĠD urant
ĠT RA
ĠprÃ©sid ente
ar tÃ©
ĠdÃ© chi
Ġnom bres
Ġref er
Ġre quÃªte
Ġver d
ro vis
ĠP Ã©
ĠspÃ©ci alitÃ©
Ġcou gar
rigÃ©ra teur
Ġang ois
ĠYou Tube
ous ses
ĠS pect
rÃ©t ariat
ĠM ade
ĠRo che
ĠlittÃ© raires
aÃ¯ d
ĠdÃ©tr uit
ĠA j
ĠÃ©v olue
ĠCont rÃ´le
ĠTrans port
Ġgra isse
Ã©v Ã¨nement
cul aires
Ġvar ie
ĠÃ©crit ure
Ġb ul
mp h
Ġve iller
inform er
Ã©p isode
ĠPois sons
Ġass ass
re ction
Ġm ature
ĠC alifor
Ġ( "
Ġregard ant
Ġa de
ĠV F
ĠCons truction
Ġdirige ant
ĠspÃ©cifique ment
alis Ã©es
Ġint Ã¨gre
Ġrenouvel ables
ĠDÃ© co
Ġproc urer
3 00
Ġ14 7
ak h
out ent
ĠHaut s
d eux
ĠA mer
Ġloc ataire
Ġconte mp
ĠLit res
Ġv este
ra tif
Ġe conomie
Ġ17 4
Ġchir urgie
Ġband ouliÃ¨re
Ġ olymp
Ġ! "
Ġter roir
cu les
Ġassur Ã©e
f ais
Ġatti rer
ante au
inter national
ĠOff res
ĠMoh amed
Ġl ent
Ġcuis in
Ġre dÃ©
Sal ut
Ġprofessionn alisme
Ġdiri ger
ĠCer tes
Ġb ug
arch ite
Tr ouver
D ire
TI S
ĠP ower
Ġre tenue
ec c
ĠsÃ©rie usement
Ġtourn Ã©
Ġpar i
ĠprÃ© con
ĠO S
ĠlÃ¢ cher
Ġpro jection
Ġprior itÃ©s
Ġdi rait
oud ite
Ġfu ir
inÃ© a
Ġtravaill ant
u ites
Ġs et
Ġremar ques
Ġte am
Ġdis s
Ġfon de
Ġchar gÃ©s
Ġdisting uer
IS S
Ġense igne
ĠaÃ©ri enne
Ġp alestin
12 3
IS T
Ġpure ment
Ġf oul
ĠQu els
lo ge
ĠMe ille
Ġdev ises
Ġvit rine
Ġpos tal
Ġbio diversitÃ©
F aire
Ġsur mont
Ġph osph
ĠintÃ©ress antes
pr Ãªme
tr ans
Ġcl aires
ĠrÃ© cl
Ġfl uide
Ã©ch anges
Ġorganis Ã©es
Ġs te
T rois
Ġ oign
âĢĻ âĢĻ
pe aux
Ġ198 9
ĠD ay
Ġcr ises
Ġretour ne
Ġcommer Ã§ants
ĠBur kina
Ġh ol
Ã©m otion
Ġquali fication
ĠintÃ©gra tion
Ġcommun ique
Ġislam ique
A W
ob il
Ġcan aux
ĠTr ouvez
Ġf al
fi ent
Ġ17 7
Ġsoli des
Ġartifici elle
eto oth
Ġbar becue
Ġenvoy Ã©s
ob tention
ĠAt ta
Ġf oss
ĠD am
Ġd un
Ġcircul aire
lÃ© ans
En suite
Ġab onnements
c ence
ĠPol ar
Ġsyndic at
Ġrecycl age
ir ent
exp lique
ĠfrÃ©quent ation
ĠÃ©limin er
Ġv Ã©c
Ġrend us
Ġhect ares
ci ale
Ð º
Ġm our
ĠC AR
Ġastrolog ues
Ġg orge
ĠI dÃ©es
ak a
Ġraf raÃ®
ĠW in
Ġposition nement
Ġquanti tÃ©s
ĠÃ© man
ĠprÃ© dÃ©
ĠDi dier
Ġn atur
ĠF leur
en fin
om ique
ĠdÃ© ser
ĠB and
H z
Ġob Ã©
B en
D enis
Ġav r
Ġcam ion
ĠÃĥ Âª
ĠInst allation
ĠB lo
Ġmol Ã©c
Ġambiti eux
Ġap ais
Emp ire
tim itÃ©
ĠmÃ© ditation
Ġfa usses
ĠLi eu
ĠÃ©chapp er
ĠH amb
ric ot
Ġspect ateurs
Ġrembours Ã©
Ġs ale
An im
EM ENT
Ch ambre
ĠapprÃ© h
ren ch
ĠespÃ© rant
Ġex trÃ©
ĠG ris
ĠconÃ§ us
Ġregard s
ĠJui fs
ou jours
ĠM ilan
ĠrÃ© veill
ĠP ierres
jec tifs
Ġdou tes
Ġtrent aine
ĠS un
ob Ã©
Ġcher chant
Ġneu tre
ĠB rig
anti ne
Ġautom ne
l ations
Ġcol ler
pro f
ĠD ame
ĠMÃ©dec ine
Ġa ustra
Ph oto
C ap
r us
OR I
Ġstatis tique
ol aire
ĠAn ton
ycl opÃ©
ri p
ĠSt yle
ĠOff re
, .
Ġass orti
Ġlit tÃ©ra
Ġcy cl
ĠB ell
ign an
Ġsan ctions
Ġcorre ct
Ġglis ser
ĠdÃ© ni
ĠIn v
tern itÃ©
Ġintellig ent
F ace
ĠLÃ© on
aÃ® tra
ĠthÃ© Ã¢
ĠproblÃ© matiques
Ġmus cles
Ġrasse mbl
ĠrÃ©comp ense
Ġentrepren eur
Ġcamar ades
Ġv intage
ES S
ĠMos cou
Ġar bit
P O
Ġsubst ances
ill itÃ©
Ġvari ations
ĠM ouvement
ĠN uit
fic ateur
Ġsuffis ant
Ġtar di
vi demment
ill us
Ġt Ã©l
av es
av ril
Ġfi ables
Ġdirec tive
ĠJ an
aÃ¯ ti
S inon
Ġplac Ã©s
Ġbulle tin
J ourn
ĠFran k
Ġsol aires
lis Ã©
imp lant
ĠCh acun
ĠAli ments
Ġgon f
A vis
Ġ2 20
ense igne
ĠC lar
ap our
Ġsau ter
Ġcandid atures
M i
bn b
Ġse g
Th Ã¨mes
Ġcontra inte
Ġpouss Ã©
ĠdÃ© tection
Ġlog os
Ġrap iditÃ©
A IN
Ġs oc
ĠE conom
Ġf oncÃ©
Ġin comp
ĠF u
Ġvo tÃ©
Ġcomp lets
Ġw c
B ra
ĠS ie
ĠO ut
Ġ16 4
E d
v ains
Ġfame use
B i
Ã© chec
Ġrel Ã¢
Ġsatisf ais
Ġnom in
Ġdiri gÃ©
N Ã©
a ou
asse mblÃ©e
Ġdonn Ã©s
i um
Ġb lÃ©
ĠrÃ© alitÃ©s
Ġsuper bes
Ġfix es
Ġenseign ant
Ġclic s
P OS
ĠSt ation
Ġadap tation
Ġrepos er
Ġul tÃ©rieure
E ss
ĠI tal
ĠA UT
Ã©t ro
Ġdesc endre
C or
ĠS AS
ac cident
Ġ15 7
ĠÃ©pi ces
. ;
ĠComm erci
ĠcollÃ¨ gue
Ġchante use
ĠD R
Ġcontribu ent
ĠIns crivez
Ġb ricolage
sidenti el
ĠS ER
Ġcomb us
Ġafric ain
Ġcli p
ern ier
are ils
ĠC atÃ©gorie
Ġreport age
pi ques
Ġmar gin
Ġs age
Ġ199 1
ĠM S
lis h
Ġscul ptures
ĠF O
app ropri
ĠprotÃ© ines
Ġs ois
Ãª ne
[ /
uri ers
Ġdisc rÃ©tion
Ġang les
Ġexist ant
ĠSÃ©n at
ĠI CI
Ġmus culaire
Ġtermin Ã©e
Ġend omm
Ġb ec
ĠC ler
ĠIs abelle
ĠCH F
Ġcorre ction
am user
Ġsol o
Ġdessin Ã©e
h eures
ĠdÃ©f aill
ĠSoci al
Ġplace ment
d ay
Ġc Ã©
ĠS ub
Ġver res
Ġeffectu e
ĠEntre prises
Ġcommiss aire
Ã¨ ches
ĠvÃ©gÃ©t al
Ġrenouv ellement
ĠV acances
Ġfais aient
ĠTe am
ĠrÃ©g ie
ĠrÃ©sult ant
er oy
ĠF act
Ġcib lÃ©es
ĠĠĠĠĠĠĠĠĠĠĠĠĠĠĠĠ ĠĠĠĠĠĠĠĠĠĠĠĠĠĠĠĠ
exac titude
i ale
ĠT ut
ĠH ors
Ġviv ants
n s
ule ux
Ġtomb Ã©e
ĠDim ensions
Ġan alogie
Ġti endra
Ã©nÃ© fici
Ġconvivi alitÃ©
Ġpat tes
Ġrele vÃ©
ĠamÃ©li oration
Ġcontinu itÃ©
Ġsh opping
Ġconsult ant
âĢ¦ âĢ¦
Ġbra celet
ĠHeure usement
ĠC AN
ine uses
Ġdig ital
Ġcontribu tions
Ġtex ture
ĠMon dial
Ġidenti fiant
Ġappli quÃ©e
Ġfavor ise
ĠLin ux
ĠLong ueur
B L
Ġcon tes
ess ence
Ġoccu per
ãĢ Ģ
ĠdÃ© fic
ĠMÃ©t h
Z Ã©lande
Ġm ettez
Ġcomp teur
ĠJÃ©r usalem
ĠsÃ© cher
outch ouc
ĠC ul
pa rez
Ġindividu els
ĠRec rutement
ĠdÃ©pos Ã©es
Ġlour de
T H
or o
Ġrem onte
Ġcop ine
at mosphÃ¨re
Ġconvivi al
y an
ont rac
Ġval orisation
Ġrappel Ã©
ĠM ER
che cs
ob el
ĠcrÃ© Ã©s
int endo
ĠintÃ© resser
Ġmusic ales
b io
Ãĥ Âª
ĠvÃ©ritable ment
ĠNath alie
Ġco opÃ©ra
Ġren ommÃ©e
Ch oisissez
vision nement
ĠÃ©d iteur
Ġhuman itaire
Ġn ations
ĠP it
ĠP ost
hum ain
ĠdÃ©rou lement
ĠSecon de
Ġdom ination
ĠdÃ©p ression
Ġong les
tr y
Ġroul ant
Ġ10 3
And rÃ©
A lsace
S ac
Ġemp re
onom ique
ĠExp ress
com mande
Ġasi atique
ĠS H
ot ation
Ġrob inet
ĠPers onne
it ures
ran g
net Ã©
Ġdestin ations
e k
Ġp Ã©p
ĠI rlande
ĠCl aire
Ġh Ã¢te
Ġdu rer
ĠL and
ĠS D
Ġind ustrie
ĠTra vaux
ĠT Ã©l
ĠrÃ©serv ations
Ġf Ã©ri
Ġf rig
ĠÃ© chec
ĠR ub
ins truction
ĠcrÃ© atures
Ġpart agent
l ins
Ġa Ã®
Ġchar mant
hÃ©s ite
Ġsil h
Ġre vers
ĠsÃ© journ
B ref
Ġcon joint
ĠÃ Ĥ
ĠsÃ© minaire
Ġfil et
Ġconsac rer
el age
lis t
Ġy oga
h armonie
or atoires
ac y
Ġaut oc
ĠM ou
ĠA si
Ġri v
anim al
P N
ul Ã©s
ĠVoy ages
ĠS por
tÃ© n
Ġpr Ãªtre
Ġti roir
Ġmi xte
Ġactu alitÃ©
G rand
ĠnÃ©g ociation
Ġimag in
Ġcess Ã©
el ler
ĠMÃ© tiers
tig ieux
ON G
ĠBl anche
excell ence
Ġje an
ĠÃ©tro ite
ĠMee tic
Ġpil otage
Ġintellig ence
as a
Ġattribu Ã©
Ġsch Ã©ma
Ġincap able
M AN
at ric
ĠCh Ã¢
Ġeng agÃ©s
ag Ã¨res
Ġsouff rir
ĠS S
Ġquotidienne ment
Ġpro di
enti er
Ġbon jour
Ġsc r
!!!! !!!!
Ġtechni cien
Ġcar diaque
Ġde co
ĠrÃ©gion aux
Ġamb ition
Ġsubst ance
ĠR is
occup ation
Ġressenti r
D im
Ġb ourg
ĠsÃ© duis
ĠFl ash
Plus ieurs
Ġinter mÃ©diaire
ĠprÃ©occup ations
E E
isc ines
Ġpai e
Ġap res
off ice
ĠfrÃ©qu entes
ĠCh ron
ĠcÃ´ tes
Ġemb allage
f ox
ien ce
Ġconcurr ents
Ġmariti me
ĠdÃ©mar rer
Ã©m an
00 3
Ġchap elle
Ġobst acles
s al
ĠHong rie
Ar ticles
ĠFont aine
VidÃ© o
er ont
ĠÃ© lecteurs
Ġtra ductions
Ã©li co
Ġexemp laire
accomp agner
ĠT ab
Ġtra duire
cl ai
ĠespÃ© rer
Ġse ctions
ĠCom mand
ach el
es cal
ĠC ast
Ġ198 8
Ġadvers aire
Ġfamili ales
Ġarom ates
S antÃ©
ĠA y
ĠextÃ©ri eures
ĠGal ax
A Y
N H
ne urs
Ġvol ets
Ġten sions
ĠVi deo
n ers
ĠÃ©pau les
g mail
ĠV all
Ġconf ection
Ġ it
arge ur
Ġsuc cession
ĠSc rap
imp os
Ġfer rovi
Ġbre vet
ĠA ur
Ġinoubli able
Ġprof itÃ©
t op
og Ã¨ne
fi eld
Ġ7 1
ath Ã¨que
Ġvari Ã©es
Ġasse mbl
Ġcoute au
Ġrespec tivement
Ġtr oub
Ġfall oir
ĠAir bnb
Ġmanipul ation
e reur
Ġs ulf
ann a
ĠlÃ©g alement
Ġpharm a
Ġm Ã¨tre
Ġman quez
Ġpol Ã©mique
n is
par ole
Ġla s
Ġn uis
ilis ations
ĠStar tup
id a
TI C
heure ux
Ex p
Ġbour geois
gra ph
ablis sements
Ġesti mÃ©
ĠðŁĺ ī
Ġm aux
ĠdÃ©pl ace
ĠRom ain
Ġimmobili Ã¨res
enregistre r
ĠE h
ĠE uro
Ġvis uelle
ï »¿
tr Ã¨s
ris ti
Ġvra ies
Ġglu ten
Ġqu alit
Ã¨ ler
Ġis olation
Ġrepro duire
Ġdys fonction
C entre
Ġense ignements
ĠMad agascar
aÃ® ne
D ame
Ġdes sert
ĠrÃ©ser voir
" ...
In st
imag ination
ĠConte mpor
lÃ¨ ne
ĠcaractÃ©ris tique
u ki
ĠD uc
ĠInternation ale
c rÃ©
ore ille
L it
all ait
app uie
gar ie
Ġra ge
Ġall Ã©e
Ġpar as
ac cÃ©lÃ©
Ġr ange
Ġal cool
Ch er
e ct
Ġun is
ĠB ible
ĠQu elles
Ġcanadi en
ĠP acifique
ter r
Ġcompt abilitÃ©
hy giÃ¨ne
Ġa x
Ġme x
ok o
c tives
Ġs w
ĠrÃ© ci
or am
ĠprÃ©c ises
ĠPra tique
ĠAr d
Ġrappro cher
ĠsÃ©rie uses
Ġciv ils
ĠB ox
ĠÃ©lect ro
RI X
ĠchrÃ© tienne
ĠL aissez
Ġcl an
ĠrÃ©un ir
ĠpÃ©n Ã©t
Ġmarchand s
Å Ĵ
Mar ne
Ġcommand ant
ĠP ass
ĠIn stitut
ĠgÃ©n Ã©tique
Ġspectac ulaire
st an
ĠvÃ© los
ĠRe al
r ure
B e
ĠprÃ© co
Ġtoit ure
R ob
Ã©r y
Ġstation nement
ĠPic ture
Ã© pi
... ),
ĠPrÃ© f
Ġdynam iques
ĠCon tre
Ġopp oser
fi ction
Ġarri vÃ©s
Ġo k
ĠN oire
im a
Ġconc ret
Ġanim Ã©e
Ġinspi ration
ĠGl ob
Ġp ig
ĠO h
Ġvari ent
ch auss
Ġconf usion
Ġindic ations
ĠC MS
ĠA ccÃ¨s
ĠV EN
ĠChamp agne
i mb
Ġpoi vre
Ġenqu Ãªtes
ĠS treaming
aud it
ar tier
Ġmajor itaire
ĠC art
Par mi
Ġsenti er
ĠDocu mentaires
Ġpropos era
Ġindi ff
A ux
hor reur
Ġl isse
Ġliv raisons
ĠvÃ©gÃ©t aux
ĠmÃ©trop olitaine
Ġar ra
ons oir
Ġtra um
Ġcar rÃ©s
ĠrÃ© veil
ĠT o
ĠconsidÃ© ration
ĠFin ance
ĠG er
Ġweb cam
adap te
E c
Ġac ous
Ġpo Ã©tique
Ġorgan ique
pte z
Ġcanadi enne
Ġcommuni quÃ©es
ĠLi ve
Ġcab ine
Ġrang s
Ġcommun iste
Ġhandicap Ã©es
en cÃ©
Ġpi x
ĠintÃ©g rÃ©s
M L
W h
Ġi mb
Ġaj outez
ĠPsych ologie
I rlande
mar k
Ġin visible
Ġch roniques
Ġesp Ã¨re
h ol
ĠL ag
Ġport abilitÃ©
Ġnation alitÃ©
Ġimp ose
h ouse
Ġf Ã»t
Ġch allenge
Qu elle
ĠcrÃ© atif
habit at
ille ment
ĠintÃ©ress Ã©s
ĠChar lie
1 50
Ġ> >
ĠCrÃ© er
ĠMi di
Ġpous siÃ¨re
Ġtal ons
ĠÃ©t ages
ĠChe v
Ġtom ates
Ø §
Ġra s
Ġta x
ĠdÃ©voil ent
ĠrÃ© elles
oy ers
cis ion
Ġgaranti ss
Ġenvironnement ale
ĠS n
ĠrÃ© initi
Ġemm en
Ġbanli eue
di v
Ġdi rais
ĠB erg
ĠI denti
Ġdimin ution
ĠdÃ©liv rance
or tÃ©s
Ġn aÃ¯
C ou
ĠM oto
I ci
oi es
ĠP O
ath on
Ġmas ter
Ġais Ã©ment
ad ox
Ġform ules
Ġarchite cte
exer cer
Ġex tr
Ġconc entrer
Ġcour onne
Ġcoup able
Ġsuper ficie
Ġrub an
ur ances
hab itu
Ġbloc age
tu di
Ġvolont aires
ĠtÃ©m oigne
Ġconcl ure
ĠintÃ©ress ants
ĠMar que
ĠÃ©p ais
Ġpais ible
Ġr h
Ġimag ination
Ġtub es
ĠM IN
Ġconfi Ã©
ĠintÃ©gra l
ign Ã©e
Ġenvoy Ã©e
ĠYou tube
os ter
Ġent rÃ©
Ġcan on
Ġenti tÃ©s
ĠCompagn ie
c ast
ĠN av
Ġins u
rie urs
p ot
am an
ĠN ett
az ines
inter face
A mb
Ġbien faits
Ġfac ettes
N I
qu itÃ©
ĠH otel
ĠH Ã´tels
l ate
Ġin ox
Ġenf er
Ġt v
Ġrest ait
ĠmÃ©can iques
ĠS oud
ĠcinÃ©m at
Ġre ten
Ġr ugby
Ġcli chÃ©s
ĠÃ©v ac
Ġautoris Ã©e
ĠC offre
ĠL aval
ĠdÃ©c ri
ĠrÃ©alis te
ĠDig ital
G en
ĠJ ord
empl ois
ĠdÃ©con ne
ĠC DI
eng agent
armer ie
ĠdÃ© Ã§
ĠdÃ©termin Ã©e
ĠSui vez
H D
v ert
Ġb or
Ġra jouter
. âĢĿ
ĠB Ã©n
Ġcollec tivitÃ©
Ġdis pens
Ġfa une
aler te
Ġexpos Ã©
1 10
E X
ĠH os
Ġpe indre
Ġces ser
ner a
inter n
onc Ã©e
Ġimp ecc
dom in
Ġtranqu illitÃ©
Ã©ra tions
b eau
imp oser
Ġautoris Ã©s
ĠB BC
ĠdÃ©c om
Ġsou ter
Ġven deurs
ĠH ier
aille ur
Ġconstru ite
Ġatta chÃ©
Ġmunicip ale
Ġcontribu Ã©
Ġb ibli
Ġrend ue
Ġminim ale
ĠInf os
Ġvoc abulaire
ĠD OC
Ġsign Ã©e
v ette
Ġa ig
ti ciens
ĠM Ã©c
Ġch o
ad hÃ©sion
ĠdÃ©cro issante
a une
Ġse re
ĠI ran
Ġc itÃ©s
C atÃ©gorie
ve u
ic an
ic erie
Ġaut rui
ili aire
Cont ac
Ġj ob
Ġdans er
Ġcul p
ĠÃ©lector ale
ĠÃ Ĭ
esclav age
Ġman us
Ġcit ations
rid ge
Ġterroris tes
ĠMan uel
ĠMag azine
ĠGran ds
ĠSN CF
re lle
Ġmon des
ĠJav ascript
ou ge
ĠJ ud
ĠdÃ©c ors
optimis er
Ġsculp ture
ĠE P
Ġte inte
enne mi
Ġviv ante
Ġrub riques
Ġvi endra
ĠAc tivitÃ©s
Ġl ob
Ġter rib
ĠMar ia
Ġestim ation
ĠI S
Ġam Ã©nagement
Ġpart agÃ©e
ĠSeu l
Ġmaill ot
g el
ĠdÃ©mon trer
Ġramen er
T able
ari os
ili ppe
Ġpass ait
In tÃ©rieur
ĠdÃ©n om
Ġcli matiques
ense ur
Ġport raits
Ġconstitu Ã©e
ĠWh ite
ul teur
pe z
Ġann uaire
ĠsÃ©n Ã©gal
Ġsignific ative
iv ern
Ġb ob
ĠB ill
cu it
Ġbou ge
ĠthÃ© orique
un t
mar chÃ©
Ġcal ci
Ġcou pÃ©
Ġparlement aire
ĠDI Y
Ġcol loque
ĠFil ms
H L
Ġgu ilde
ĠhÃ´ tes
Ġbient Ãĥ
ĠSyn dic
ĠCad re
Ġconfir mÃ©es
Ġsoulig nÃ©
Ġs co
ĠdÃ©s inscrire
ori el
ĠdÃ©ci dent
Ġgagn ant
ĠC lÃ©
ĠA ction
Ġins crivez
Ġhab ite
ĠRock y
on al
Ã©lÃ© g
ĠHer bes
ĠR Ã©c
Ġco hÃ©r
Ch ip
pit aux
Ġregret te
Ġorig inaire
ĠboÃ® tes
ĠL if
ph ine
opportun itÃ©
ĠrÃ© formes
Ġiniti al
Ġpotenti els
li eu
Ġgr ise
Ġcompagn ons
ĠAcc ord
Ġav ancÃ©
Ġac adÃ©m
Ġac cidents
ĠCade aux
entrepren eur
Ð »
Ġre dÃ©c
Ġbra vo
Ġtravaill ons
Ġhom osex
Ġaband onnÃ©
S ou
Ġte int
ad s
Ġ... )
Ġpertin ence
Ġinnov ations
Ġsensib ilisation
o ques
Ġp is
Ġde uil
vi dence
ĠAr gent
ĠRÃ©sult ats
ĠdÃ© ter
ĠM acky
em mes
Ġspiritu el
Ġprostitu Ã©e
Ġlum ineuse
dou ard
imag ine
Ġmaig rir
A ustralie
Ġs aine
Ġph ases
hy dra
ĠprÃ©cau tions
m or
es que
ĠdÃ©c Ã©dÃ©
Ġjoin ts
ĠS us
Ġcens ure
, ,
Ì Ĥ
Ġjus tifi
ĠProf esseur
:::: ::::
Ġann oncer
ĠJu lie
ĠBen jamin
E ff
S ec
an nes
al ition
Ġann on
AM A
ĠEnt rÃ©e
ĠÃ©th ique
si eurs
V er
ĠrÃ© vis
ĠE RA
ĠT rÃ©s
Ġprom esses
Ġdign itÃ©
Ġval oriser
ol ais
ĠÃī c
ĠIns cription
Ġalli Ã©s
d ente
Ġcon quÃªte
Ġm Ã¨res
om es
ĠT es
amp leur
Ġt un
Ġprodu ite
Ġcomment er
Ġposs Ã©der
Ġvin ai
ĠHor ror
ĠMari age
Ġmen us
F I
P P
i Phone
Ġimp Ã©ri
Ġimp oser
Ã©t ape
ĠPrÃ© sidentielle
Ġatti re
Ġbas ket
oc ent
Ret our
Ã§ age
v ation
ĠIn di
Ġsoi e
Ġparti el
don Ã©sie
i fi
od o
Ġchaleure use
Ġrev Ãªtement
ul ant
Ġinstitu tion
ĠMÃ©t aux
ĠRG PD
ĠU ni
onn aies
am ille
Ġdev aient
b ois
an Ã§on
le g
appar ence
og ue
Ġvoud rait
Ġd a
Ġn oble
Ġplan ches
Ġmention ner
ex tension
ĠMar ne
Ġorient ation
ĠP ack
Ġtra ins
Ġrou ler
Ġbal ance
Ġvo tes
ĠR SS
ron e
ĠX avier
ĠM ots
ĠtÃ©lÃ© char
Ġsouhait ant
ï ¸
si de
p g
Ġmatin Ã©e
Ġhabit ant
Ġplac Ã©e
onn a
Ġexceptionn elles
Ġmodes te
Ġparfum s
Ġfib res
ĠIdÃ© al
Ġc ut
acc al
Ġorganis Ã©s
ĠB ricolage
Ġdent aire
tin Ã©
Ġoff ice
ĠPV C
ar ra
quipe ments
effectu e
re d
Ã©t age
ĠGu adeloupe
ĠHamb ourg
ĠComm une
Ġfle uve
ĠR a
Ã©c ologie
ar g
ĠD en
ver tissement
ĠdÃ©velopp Ã©s
ĠMus ic
ops is
ib er
Or dre
A lle
ĠS oins
ĠA lsace
ĠdÃ©c line
Ã©p aisseur
Ġsan ction
ĠfraÃ® cheur
id ation
anci ers
Ġassur ant
ĠdÃ©te cter
ĠDou ble
Ġdiff usÃ©
ĠK ong
IT Ãī
ĠM ol
Ġfer mÃ©e
Ġnos tal
g net
Ġpar d
Ġb ous
Ġb ack
ĠD a
ĠdÃ©si gner
Ġta mp
Ġval oris
Ġdat ant
ign ent
ĠSec teur
Ġpo d
ĠgÃ©n Ã©rer
Ġcherche ur
Ġarchite ctur
Ġt rÃ©
Ġmer c
ghan istan
Ġcar n
Ġloc ataires
ĠNi veau
Ġentour Ã©
Ġm ut
ab iliser
end ance
Ġex ister
Ġam ies
Ġm ill
ĠintÃ© rieurs
ger ie
ĠJus te
Ġb aptis
Ġ3 000
Ġpi le
Ġcons cient
19 0
Ġouv riers
ĠAss urez
A jouter
N ote
Ġ9 1
AC E
Ġrempl ace
ĠdÃ©partement al
n els
ti vez
Ġn ue
itu Ã©e
ĠsÃ© duction
cler c
ĠC uis
ĠJ and
Ġpe aux
Ġbi jou
tu aire
ĠCh ili
ĠN ancy
Ġajou tÃ©s
ĠT on
ĠmÃ© pris
ou les
Ġmob il
Ġoccident ale
C M
ĠdÃ©but ants
Ġl Ã¨ve
Ġpant alon
Ġc ris
ag en
ĠÃ© te
OU V
Ġexpos Ã©s
Mar c
Ġuti l
Ġd ating
vis ibles
Ġray onnement
ĠM ati
ĠB ol
ĠL ap
Ġg ame
ĠI mage
ĠBl ue
Ġb apt
di eux
Ġ! ).
Ġmen uis
ĠCou ture
ĠU E
Ġ' '
Ã©m ie
IT S
Qu ant
Ġco tis
Ġbou dd
ĠsÃ©cur isÃ©e
ak s
Ã©ros itÃ©
ĠJ ules
D T
l ac
Ġca mps
esp Ã¨ce
Ġ11 3
ĠPort ail
di eu
ĠFl ori
habit ants
ĠP rim
ĠH ill
ĠrÃ©un i
ĠfraÃ® che
ĠFac ultÃ©
Ġno eu
clai rage
Ġb Ãª
ĠJ os
Ġasse mblÃ©e
Ã¨ bres
ch ants
ĠÃ© phÃ©m
ĠO FF
ĠPar tic
ĠN at
Ġinves ti
En f
Ġcomb att
ĠCli ents
Ġc est
ĠLa usanne
Ġtex tile
ĠrÃ©gi mes
pl ace
Ġrasse mbler
Ġdistribu teur
ĠmÃ©trop ole
ĠPot ter
ĠE uros
cul ation
ĠAlle z
Ġg Ã®te
hist orique
A cc
ĠdÃ©c oupe
ond s
Ġconf ie
Ġsur n
ul tÃ©s
c ap
ĠmÃ©d aille
exper ts
Ġterritori ales
Ġbroy eur
Ġar g
Ġpos Ã©e
ĠgÃ©n Ã©rositÃ©
Ġ13 3
ath ie
ke y
Ġtre mp
Ġ( âĢ¦)
av erne
M ac
O pÃ©
Ġph are
ĠAr gentine
ĠMath ieu
ĠBert rand
Ġbloc s
Ġdistin ction
ĠPremi um
, âĢ¦
Ġv aisselle
rou ge
Ġpr u
Ġcompati bles
Ġt ol
Ġin novation
Ġesp agnole
ĠBra vo
Ġh armon
ĠV ari
ing ues
AN G
Ġstock er
ĠJand uz
am ende
ĠmÃ© lo
Ġconc rÃ©
Ġsol itaire
ĠCG T
erv ation
A K
Ġdonn ait
Ġrob uste
Ġvert us
es tim
Ġle Ã§ons
Ġpan ique
Ġalli ance
d age
y ne
ĠO lymp
Ġ19 18
ĠApp el
gar dez
Ġmoul in
ĠdÃ©mons tration
Ġtransp orter
ie re
ues tion
Ġrev ues
ĠBe aux
o tiques
ĠS avoir
ĠE ditions
Ġro tation
ĠdÃ©velopp Ã©e
Ġconfort ables
ĠNi ke
p rÃ©sent
ul a
Ġten ait
Ġaccompagn Ã©s
b ra
ĠLe cteur
Ġtrouver a
ĠdÃ©g age
ĠLÃ©g isl
ĠBay ard
opath ie
E UR
Ġtr on
ĠV oit
ĠV allÃ©e
ĠprÃ©f Ã©rable
dic ations
Ġdomin ante
ĠPeti ts
D om
Ġb oit
UE L
ĠN intendo
Ġâ Ļ
Ġfre e
Ġd une
pec tive
ĠPr ince
ĠCont enu
Ġcir que
Ġperd us
At lantique
ĠMÃ© dic
Ġpoly ester
Ġr anger
ĠCl asse
Ġvolont airement
Ġou est
ĠÃ©g lise
ĠF on
commun ications
er ai
qu a
Ġb ail
ac cessoires
Ġfili ale
ĠM AG
ĠK ur
ĠDÃ© jÃł
an ches
Ġcap teur
Ġfournit ure
Ġpl ug
Ġcon fier
Ġ urg
Ġl inÃ©
... "
Ġstru ct
ĠRog er
b el
Ġindi rec
Ġval oir
G e
ĠT ours
Ġachet eurs
Ġlour ds
ĠdÃ©gust ation
P rÃ©sent
Ġsim ulation
ĠP LA
Ġfabri quÃ©s
ĠA B
Ġliv rÃ©s
ĠTh ies
P age
w in
Ġent raine
ĠrÃ©par tis
Ġle Ã§on
Ġin Ã©g
ĠMar di
ore lle
ĠRou en
ĠaÃ©ri en
ĠdÃ©cr ites
m ons
Ġb oy
Ġman ne
Ġnu ances
us tin
ĠR CS
ĠK y
Ġpol ar
Ġopportun itÃ©
ĠN Y
Ġrem or
Ġaid era
ĠrÃ©par ations
ĠE ducation
ex port
Ġmodern itÃ©
cu its
Ġappar ition
Ġ8 1
Ġnom me
va quie
ĠF F
con fort
ber ge
Ġexam ens
Ġdess iner
Ġcop ains
ionn ats
Ġterritori ale
ĠPay Pal
anc a
uff et
Ġgig antes
Ġb ass
ĠmÃ©di atique
Ġb av
ĠdÃ©p it
ĠreÃ§ oivent
employ eur
Ġa xes
ĠO f
Ġblog ue
Ġchamp ions
ĠCH RIS
Ġ198 4
accal aurÃ©
T rouvez
U P
o lement
Ġpris onniers
Ġpassionn Ã©e
or ange
Ġimp osÃ©
Ġca outchouc
Ġcher chÃ©
ĠÃ©cri vant
l otte
o Ã®t
Ã ĩa
ĠdÃ©si re
Ġprim aires
Ġmar ron
Ġsol de
erie z
": "
b ut
li Ã¨re
Ġh Ã©tÃ©
Ġinc endie
Ġposi tifs
Ġling erie
Ġse igneur
ĠCh ambres
are t
Ġporte urs
Ġren ovation
AF F
ĠprÃ©al ablement
4 00
t age
Ġs pons
ĠT ant
orm al
Ġper m
Ġtri o
ĠParten aires
Ġcouver ts
ĠG ri
S pÃ©ci
p ol
ĠG our
ven ez
ĠSu z
Ġble us
Ġincl ure
Ġplong er
Ġfaibles se
ale ur
ĠJ E
ĠimmÃ©di at
ĠD urÃ©e
ĠJ er
activ es
Ġth Ã©rapie
is ant
ist a
Ġ4 54
ĠmÃ©dic ales
ĠstratÃ© giques
ĠTok yo
appel er
Ġhab itation
Ġmul tic
ĠquÃ©bÃ©c ois
ĠCalifor nie
inter diction
rou ille
an iste
Ar c
iter ie
Ġexc ur
Ġcrist al
i ro
Ġen com
iss Ã©
ĠdÃ©b utÃ©
ĠsupÃ©ri eurs
Ġsubli me
end es
Ġmusici en
ĠF ord
ĠdÃ©t endre
ĠUtilis ez
Ġmate las
v il
Ġd angers
um Ã©s
th Ã¨se
Ġassur Ã©s
Ġcontempor ains
ĠXX e
Ġpo Ãªle
Ġconnaiss ait
tor al
Ã ±
Ġh Ã©roÃ¯
iss a
Ġconcern Ã©e
ĠB oud
Ġchamp ignons
ĠBe ach
Ġfacil ite
Ġch rom
ici ens
Ġfournit ures
ĠF ait
Ġprodu ctivitÃ©
Ġdemand ant
ĠB ord
ĠCon ception
Ġcin quante
ĠAnim ation
Ġrequ iert
Ġjui f
p oint
ĠdÃ©ta illÃ©es
Ġachet ez
Ġju ges
Ġrelie f
si r
Ġdestin ataire
Ġsug gÃ©
Ġmons tre
a oÃ»t
i an
di alement
ĠE dition
Ġad joint
ĠtÃ©lÃ© vis
Ġrand onnÃ©es
ĠB rit
ĠSon y
Ġli tige
Ġcompr en
ak istan
ĠÃ©volu Ã©
Ġre tenu
Ġh ui
ĠF rÃ©
ĠâĢ º
Ġargu ments
ge ance
Ġapp lique
em ail
ĠreprÃ©sent Ã©
ĠA mp
ĠsÃ© pare
ĠFin ances
Ġatten tivement
Ġf autes
Ġsu ites
mb lÃ©
ĠG auche
ress ant
Ġcon formes
tern el
Ġ2 30
ĠprÃ©sent ations
Ġpres tigieux
Ġposs Ã©
ĠÃ©qu itable
rastru cture
Ġes clav
ve illes
ĠUn ies
Ġro che
expl oit
Ġrich esses
Ġl ots
Ġprodu ctions
resse ur
Ġperd ue
N O
ĠLe urs
ĠLi Ã¨ge
Inform ation
Ġillum inations
ph a
ĠJean ne
Ġb rig
Ġal inÃ©a
zz zz
L oire
v elopp
Ġred out
ĠNum Ã©rique
P AR
Ġl enti
ĠK er
ov a
or al
Ġfa ille
ĠrÃ©uss it
ĠÃ©tab lie
â Ļ¥
ĠrÃ©sid ences
ĠÃ©lÃ©g ante
ad os
avi ons
ĠOff ice
ĠVI H
Ġess ence
ĠMe mbres
Ġenti tÃ©
Ġsuici de
avoc at
li a
Ġautom atiques
unn ing
> </
Ġla urÃ©
ari a
qu age
Ġc reux
ĠsÃ©cur iser
Ġvain queur
fi a
ĠconsidÃ© rÃ©s
ĠhÃ©ber gements
t our
ĠÃ©v ite
Ġrecher chÃ©
vÃ© nements
Ġrecom men
Ã§ oise
Ġhabit at
Ġsoud ain
ĠF ried
Ġexp ressions
f ig
ĠÂ» ).
Ġfonctionn el
Ġhist or
Ġenne mi
ĠBÃ© lier
ï¸ ı
Ġh Ã©m
ch amp
Ġtranquille ment
Ġat mosphÃ¨re
ĠPro gram
Ġinform Ã©s
ris me
Ġquar ante
enc our
i onner
ĠV illage
Ġexp rim
Ġ198 7
ĠFig aro
C amp
Ġh ome
ĠT Ã©m
Ġan onymes
for um
Ġtravaille ur
ĠrÃ¨gle ments
ĠLet tres
at rie
Ġprest ataire
ĠingÃ©n ieurs
1 30
li b
ĠDisc ussions
ĠRace Chip
ĠD G
Ġfer ai
ĠdÃ©pl oiement
ĠEss ayez
Ġconclus ions
ĠPai ement
s Ã©e
Ġtranspar ent
Ġgastr onomie
16 7
Ġsort ant
Ġcroy ances
qu ons
ĠÃ©t ais
ĠY ann
Ġav iez
Ġcons ens
A E
ir ont
Ġpos tu
Ġence intes
C er
ĠF Ãªtes
Ġessay ez
ĠStra tÃ©
B retagne
ĠAn dre
ĠnÃ© o
ustra tion
ĠPrin cip
ci per
ĠÃī ditions
accalaurÃ© at
Â §
is tÃ©ri
Ġj um
aller y
Prof itez
Ġclin iques
g os
Ã©quipe ments
Ġc Ã©der
Ã¨ vement
ĠCh amb
Ġgran dir
En core
ĠconsidÃ© rable
Main tenant
ĠreflÃ¨ te
Ġin fini
co in
Ġ198 5
Ġrevi end
ou chement
Ġsa chez
uti litÃ©
ert y
ong es
pl o
Can ada
ĠS els
ĠprÃ©fÃ© rÃ©e
Ġc auche
ĠC uba
ĠM ission
Ġess aie
ĠAb d
ĠRec ettes
an chÃ©
ar in
peti ts
ci Ã¨res
Ġdev rais
Ġcop ier
ui es
Ġdou ces
cie usement
ĠmÃ©d iterran
Ġ! |
onc Ã©es
ĠChar ente
ĠTrib unal
tu euse
Ġport s
V ie
og es
con ne
Ġradi ateur
B r
Ġl oyer
in dique
Ġon line
Ġinv itation
ĠB out
Ġs aga
ĠrÃ©g ulation
Ġpl anning
ĠI rak
ĠÃ© met
emp run
opp oser
14 4
ĠM b
D Ã©b
eu il
ui ra
ĠSU D
Ġfix Ã©e
Ġsurpr enant
Ġr Ã¢
ĠÃ©quival ent
ĠInstru ments
W eb
Ġman ager
Ġrig ide
ĠUr b
Ġgar dÃ©
Ġnot aire
Ġâ ľ
EL L
Ġroy ale
ĠF eux
Ġpron oncÃ©
Ã©lico pt
Ġd ensitÃ©
ĠA ssemblÃ©e
Ġex port
ach ats
AF P
Ġcalci um
ĠE L
Soci Ã©tÃ©
Ġ3 30
Ġcor de
I DE
lÃ© ments
enti elle
op er
ĠDi ctionnaire
ĠMartin ique
Ġintitu lÃ©e
ĠInf o
ĠFOR UM
Ġcime tiÃ¨re
U D
Ġso eurs
ĠNum Ã©ro
Ġport ables
ĠSal v
pir ant
B o
ĠMais ons
Ġsais i
ĠÃ©cl aire
Ġmutu elle
Ġt witter
ĠdÃ©fin ies
ĠPers onnes
Ġspiritu alitÃ©
ĠI niti
cep t
Ġ19 50
Ġrasse mblement
Ġoptim al
ob ie
Ġvoul ant
ĠcosmÃ© tiques
ĠMar che
ĠPro t
R el
Ġnavi res
Ġmer de
Ġdocument aires
Ġsoup Ã§
ĠdÃ© tention
ad olesc
âĢ¦ ),
Ġpou ce
Ġdevi endra
ĠNik on
10 6
Ġvit amine
ĠE au
der ne
Ġtrouv ant
Ġsort ent
Ġplac ard
w ich
Ġh op
ĠdÃ©si gnÃ©
Ġrenouvel er
Ġh onneur
op ter
aiss Ã©
ĠEx emple
Ġimpressionn ante
ĠP Ãªche
ĠM ine
ĠR eb
Ġcomp orter
Ġpo ils
Ġp oire
aimer ai
Az ur
g g
ib ou
Ã©vÃ© nements
ĠrÃ©tro gra
' .
ĠB O
Ġtourn ois
opp er
TION S
ti eux
ti ser
Ġdes qu
16 0
Ġmar ins
ĠRÃ© sidence
ĠFor ce
Ġcommerci alisation
Ã©l ine
rat oires
Ġra chat
ĠCar tes
Al ain
y pre
enti f
ĠÃ¢ mes
Ġorient ale
Ġdu c
ĠI L
Ġapp liquÃ©
ĠX L
Ġcoff ret
ĠC le
Ġat out
Ġsur p
âĤ¬ ,
Ġcentra les
Ġassis tÃ©
B ar
ĠdÃ© Ã§u
Ġdis cip
ĠCom pÃ©
Ġpan oram
Ġdiv or
Ġinten tions
Ġsusp endu
Ġan arch
Ġcuis ines
Ġdiagn os
ent ra
Ġprof ondes
Ġrur al
Ġrefroid issement
Ġweek end
Ġdistribu teurs
C omb
Ġintro duit
cra ft
Ġd in
ĠCre er
Ġquin zaine
ĠD C
Ġparticul aritÃ©
ĠO R
Ġrecons truction
iki pedia
Ġ our
vi Ã¨res
Ġgrande ur
Ġex erce
Ãī E
ĠmÃ©di ation
Ġautre fois
Ġadvers aires
ve y
Ãī ducation
ĠrÃ©f rigÃ©rateur
Ġconstru ctions
Ġv s
v os
Ġo deur
Ġco hÃ©rence
Ġab rite
tru cteur
ĠIN TER
tu elle
par tie
Ġsp acie
Ġmascul in
ĠLor raine
Ġb ague
ir ts
int he
Ġagric ulteurs
au dio
se c
Ġme e
ver sement
Ġab st
ĠÃ©le vÃ©es
Ġstatut s
ran che
Ġiniti alement
Ġphotograph es
ĠMix te
O ise
Ġre di
ic one
Aut om
S p
Ġj ac
ge ons
ĠS oit
Ġsa veur
Ã©qu ival
val uation
ĠCent ra
Ġ19 40
Ġgen oux
Ġpertin entes
t resse
Ġc au
Ġpo Ã¨me
T F
ĠC ah
Ġfant aisie
Ġracis me
ge ur
ĠCL I
ĠnÃ©g lige
Ġphilosoph e
dom aines
Ġb ombe
ĠT R
ici lement
AG ES
ĠcÃ©ra mique
Ġord onnance
ĠÃ©ti quettes
ang o
vise ur
Ġdiscrimin ation
Ġtou ches
Ġcha peau
ĠdÃ©pend ent
ĠdÃ© st
Ġdi eux
ĠStand ard
Ġnoct urne
pe cteur
ĠFre d
Ġindic ateurs
Pers onn
Ġgestion naire
cid ence
Ġmine ur
ĠVir gin
Ġved ette
ĠLib ye
ĠCent er
Ġsur veill
ĠRÃ©s istance
Ġencour ager
ur ants
Ã¨ tent
ab us
all ais
Ġcl andes
Ġman quÃ©
Ġ: -)
Ġcour ageux
oub lier
Ġpen sion
Ġadmi rer
C ours
Ġtra m
ĠcrÃ© ent
sionn Ã©
Åĵu vres
Ġimpressionn ant
ĠV Ãªtements
tel les
ĠDans e
Ġenregist rÃ©e
Ġadress Ã©e
arc Ã¨lement
Conc ernant
o tions
ĠR io
ĠOrganis ation
ĠM ort
ĠT aux
Ġst art
urr ence
Ġsal ade
Ġhypoth Ã©tique
un aux
ĠO l
Ġchar gement
ĠdÃ©di Ã©s
Ġremarqu ables
P or
Ġm p
ati can
Ġri di
ĠD Ãī
Ġcyc les
ĠB ase
ĠPh ysique
ĠO cc
endre z
Ġ tis
ĠdÃ©rou lera
Ġs ti
ĠagrÃ© ment
Ense ignement
Ġmunicip alitÃ©
P T
Ġcon ser
Ġsoi f
ĠCan on
Ġdynam isme
ĠsÃ©v Ã¨re
ĠlÃ©gÃ¨re tÃ©
Ġly cÃ©
es sion
ĠD ie
ĠF aso
cÃ© dent
ĠBl oc
A IRE
fi ces
Ġ19 14
Ġchauff eur
ĠmÃ©l anger
ĠdÃ©voil Ã©
Form ation
ou m
ĠsÃ© parer
Ġcomb ler
Ġdur ables
Ġv Ã´tre
ĠL am
ĠA mÃ©
ĠRe ims
I le
T ex
Ġparl ait
Ġv Ãªtement
ĠV el
Ġk ilos
Ġamen er
ad resser
ĠvÃ©gÃ©t ar
Ġinsol ite
Ġd orÃ©
at titude
ad mi
ĠSav oie
ĠAn th
Ar ts
Ã©rapeu te
11 6
Ġorgan es
n est
Ġfig urent
ĠÃ©tudi Ã©
Ġparis iens
SÃ©lection nez
ul ent
Ġcalcul er
om an
ĠG ib
ĠÃ©t endue
Ġeffec tifs
Ġnu ages
ĠrÃ© nov
pÃ© dia
Ġvi ole
Ġth is
Ġenvis ager
Ġh au
Ġco hÃ©sion
Ġtent ent
Ġneu tra
dÃ© m
co okies
Ġdev ais
Ġoe il
ĠC ass
ĠP interest
Ġgr oup
Ġmentionn Ã©s
ch s
ĠlÃ©giti mes
ĠrÃ©gl ages
Ġla me
t ario
ĠM ob
Ġanim ale
alle z
Ġlut tes
Ġscr utin
ĠV IP
y me
Ġn ain
ĠM Ãī
OS S
Ġtent atives
Ġfisc alitÃ©
ĠPhili pp
O li
Ġfum Ã©e
Ġpo Ã¨mes
Ġorganis ateurs
Ġboudd h
s aint
ĠC ARD
Ġco pi
inst ar
bon jour
ĠVÃ© lo
ĠpossÃ© dez
Ġobserv ations
ĠCha mps
Ġb ic
ĠZ o
sh op
Ġterres tre
N i
ten dez
ail y
ĠdiplÃ´ mÃ©s
Ġrec tifier
Ġcour g
Ġbois son
a cier
z en
ĠA mi
ĠL ie
ĠM agn
ĠsÃ©qu ence
Ġ17 3
off rent
ĠChris tine
Ġdiff icilement
ĠdÃ©f ectu
Ġmen Ã©es
Ġartisan ale
Contac tez
is sions
ĠV illa
Ġrencontre z
16 3
Ġcrois Ã©s
ign Ã©
Ġ14 3
Ar ch
Ġfl otte
abl it
er al
Ġb ig
Ġ2 24
Ġvoy ait
ĠMe dia
ai b
Ġre pl
Ġconsul tÃ©
Ġtri p
Ġnat ale
ar Ã©
ann uaire
Ġsav on
ĠC ancer
Ġg Ã¢teaux
ort ent
Ġtap er
Ġdo tÃ©e
Ġpart ant
Ġsupp rimÃ©
Ġmira cle
Ġsilh ouette
ou illes
Ġcomp licitÃ©
Inform ations
rou nd
A vi
B I
enc ad
origin alitÃ©
Ġa ire
Ġmis Ã¨re
ĠpÃ©dagog ie
Ã§ onnerie
Ġ16 3
Ce ci
Ġpermettra it
Ġfol k
Ġl ier
Ġindi quÃ©es
ĠRom an
ĠfÃ©dÃ© rale
ĠHen ry
Ġpart ent
ĠsÃ© duit
Ġbl oque
Ġgar n
Ġconcent rÃ©
ĠUl tra
Ġsatell ite
l en
Ġle x
Ġcy ber
ĠEx pos
Ġcapit alisme
Ġla tÃ©ra
Ġf lÃ©
Ġreconn aiss
Ġpens ait
ĠagrÃ© ables
land aise
Ġ Î
ill ers
Ġsub vention
Ġnour r
Ġh on
ec tivement
Ġremis es
Ġexpress Ã©ment
s en
U C
man e
Ġaj outant
ĠBlu etooth
om Ã©
ĠNature l
ĠlittÃ©ra lement
u al
ĠB asse
Ġretr ans
Ġl yon
Ġla vage
ĠI MM
ĠAn alyse
Ġrecru te
ĠÃ©duc atif
Ġs cript
Ġ15 3
ode ur
Ġpres ti
Cons ul
Actu alitÃ©s
Ġh ur
ran e
Ġfav ori
Ġadministra tifs
Ġgra in
Ġvis iblement
ĠSec rÃ©taire
Ġattent ats
Ġa re
ri els
Ġcon ventions
Ġan ec
Ġpri mes
Ġer ron
H P
Ġa lig
Ġconc entre
Ġpasser a
ch ettes
ĠPro duction
Ġcath Ã©drale
z i
Ġp Ã¨ler
Ġc ic
ap tiste
Ġparten ariats
Ġch Ã¨res
Ġacc umul
ACT UR
ĠM id
Ġgra vitÃ©
w ards
Ġe p
La urent
ĠmaÃ® tresse
ĠapprÃ© cie
Ġsoph isti
pre miÃ¨re
ĠÃ©nergÃ© tiques
Ã© rez
Ġm utation
Lors qu
Ġu k
Ġi OS
Ġfl ui
ĠD ol
ic itÃ©
Ġres titu
aci le
Ã¼ n
Bel gique
ĠastÃ© roÃ¯des
Ġac tivement
Ġmob iliser
ĠAli mentation
ĠvariÃ©tÃ© s
Ġcha os
Ġdiv in
ond er
Ġretrouve rez
ĠH ouse
Ġfl ou
Ġbat tu
V EN
Ġp uri
ĠB il
alle mand
ĠcamÃ©ra s
j eux
ĠM ons
Ġcour ante
ĠAr thur
ĠCro atie
Ġl isez
un tu
anchÃ© itÃ©
o a
onn ette
Ġvis ionn
ĠCo eur
ĠreÃ§ us
Ġfic tifs
I mm
ĠL O
Ġconstru cteurs
Ġ75 00
ĠintÃ©gra lement
x it
res sionn
Ġnavig uant
Ġaff ron
intro duction
Ġmad ame
d os
l ou
ĠP av
chÃ© ance
Ġjoy eux
Ġg il
ex clusion
Ġsp a
Ġaccord Ã©e
Ġp on
ĠcompÃ©ti tions
ĠCos ta
ĠPropri Ã©tÃ©
Ġar c
em ment
Ġmat uritÃ©
lus ion
Ġvide os
Ġcos tume
ĠtÃ©moign ent
c Ã©es
Ġmon Ã©taire
Ġam ont
Cl assement
ĠUtilis ation
h Ã©m
ner gie
ĠdÃ©t riment
Ġhebdomad aire
ne m
ĠT rop
Ã©v ac
Ġcorrec te
Ġcarre lage
Ġg Ã©rÃ©
Ġin fin
ri cien
Ġpl ai
Ġdev ise
Ġouv rables
Ġfisc ales
Ġhos pital
Ġp oub
ĠC up
Ġpro jections
ĠrÃ©s ulte
Ġta xi
au be
ros serie
Ġbr une
tens itÃ©
ra ke
Ġple urer
Ġobligatoire ment
Ġv ec
ri ens
ĠS um
17 0
gu ay
ĠthÃ©rapeu tique
Ġtrace urs
al liance
Ġpartage z
ĠdÃ©ri vÃ©s
Ġg uise
Ġchois issant
Ġchem ise
ul Ã©es
Ġ? !
Ġtro ph
ol fe
Ġdi ra
all ages
Ġrecommand Ã©e
ĠrepÃ© rer
ĠA ch
Ġfran chir
uel a
ĠaÃ©ri ennes
Ã©l ite
Ġapp ui
aff ront
ID A
Ġattra ctions
om ac
ĠL yc
ĠAc comp
Ġtitu laires
Ġp iles
re b
Ġfor es
Ġsou met
Ġtransf Ã©rer
Ġmentionn Ã©es
ster dam
Ġpu ce
Ġsymb oles
ACTUR AGE
F L
acc ueillir
re m
ĠSu pport
Ġabord er
Ġglis se
ĠPi Ã©tonnes
Ġcom te
Ġproduis ent
ni Ã¨res
Ġw e
Ġbou c
ĠEnf ant
ĠSi x
App r
ĠA chat
Ġindi quent
Ġpoi gnet
ĠS ARL
ĠV oyez
ate d
Ġsus pend
Ġboul anger
ĠGuy ane
C as
Ġpar adox
ĠS ang
Ġmar bre
eb e
11 5
and ra
in ge
ĠClassi que
Ã©ch anger
ĠCor ps
Ġenrich ir
ont o
ĠF ille
jec teur
Ġ198 1
TM AS
Ġchal et
d iteur
Ġvi ctoires
J ou
ĠdÃ© dic
ĠRÃ¨g les
ĠMagas in
hypoth Ã¨se
R oy
ob sc
ĠÃ¢ ges
Ġincom pl
ou ler
AB LE
Ġsur pren
Ġrac ine
14 0
Ġconvi ction
ĠL ettre
Ġdis ais
ĠLa f
ĠAut ant
ĠTex te
an ime
or gie
Ġf oyers
ĠV u
Ġses sions
Ar d
ĠrÃ© habil
ĠCh ir
Ġ11 2
ĠCHRIS TMAS
c endant
im meuble
Ġhypoth Ã¨se
ĠS ci
In a
gu Ã©e
Ġ198 6
Ġdra matique
Ġexcell ence
urb anisme
ĠreÃ§ ues
ĠGÃ© meaux
Ġg ir
ĠMach ine
Ã© o
ĠC aisse
ĠMar tine
ĠMo teur
Aut riche
Ġrej oign
ON S
ĠBal ance
Ġh otel
Ġcommande ment
Ph ilippe
not amment
d v
Ġman quent
Ġgenti lle
Ġher bes
qu ins
Ġ12 00
Ġimpres sions
ĠP IC
ĠA ix
ag ues
cipl inaire
ĠG uer
ĠÃ©g oÃ¯
Ġmont rant
Ġsynth Ã©tique
Ġaudi ence
ĠCar oline
I ES
ou cher
ĠB ow
oy Ã©s
Ġ" .
az a
Ġvertic al
ĠG T
ĠminÃ©ra ux
Ġtra itant
ĠÃ©v oquÃ©
Ġast ron
actÃ©ris tiques
Ã¢ ne
ĠspÃ©ci fications
Ġjou ant
Ġenregistre ment
Ġtranspar ente
Ġg liss
Ġqui conque
ĠRÃ©sult at
Ġnom ination
Ġbal les
ĠSem aine
ĠPorn hub
S amedi
P sych
d onc
u ils
ON N
ĠÃ©p oux
I K
Ġd ort
Ġmari Ã©
ĠmÃ©di ateur
ĠHug o
l ler
ĠprÃ© car
Ġnour rit
ĠEmp l
w er
Ġsur nom
Ġch ants
ol oc
Ã©lÃ© ment
ĠrÃ©p ublique
Ġl igue
Ġmo re
Ġy our
Ġpi Ã©t
11 2
TI F
A f
E uro
Ġpar ution
ar die
Ġp iscines
Ġad olescent
Ġsembler ait
Ġsur prendre
ĠI SO
Ġcomp act
Ġdemande urs
mm a
her be
ogram me
Ġimpecc able
Ã©n er
ĠdÃ©velopp eurs
ĠdÃ©fin ie
Ġinj us
ĠPrin temps
Ġsitu Ã©es
ĠnÃ©g ative
Ġfier tÃ©
Ġdomes tiques
Ġouv rÃ©s
Ġc ite
Ġbless ure
Ġma de
Ġaccep tation
Ġdra peau
ĠGir onde
ĠSyste m
Ġp it
Ġb asses
Ġsavoir s
atis tiques
Auc un
Ġcotis ations
Ã©p anou
ĠdÃ©s abonnement
con se
rai ries
ĠmÃ©t aux
Ġdemand ons
me d
ĠVi eux
Ġsoul ager
m ir
Ġg ab
Ġra d
em m
ĠfÃ©dÃ© ration
ĠInd ustri
ĠY am
ĠÅĵu fs
Ġesc alier
Ġcog ni
Ġn a
ĠP M
ĠJ osÃ©
ĠprÃ© servation
cl ave
Ġan ges
G O
c tÃ©
ĠTh er
Ġ% )
Ġsold at
tick ers
Ġregar dÃ©
ĠB ut
ĠrÃ©p ression
appli quent
Ġj ette
Ġbou cles
Ġred onner
ĠCa en
ĠRestaur ant
en ay
Ġc amb
ti o
tra ge
ess aie
Ġres piration
indi quer
g Ã©nÃ©ra
Ġs ombres
ĠF aut
Ġc assÃ©
is matique
ĠB aby
ĠH an
ĠÃ©p ing
Ġsu prÃªme
um age
Ġfl amb
Ġremp la
ĠV atican
Ġgra de
ong er
Ġcop ain
ĠÃ©n ig
Ġregar dez
Em manuel
Ġob serve
Un ivers
ĠAl ler
ĠBat terie
ĠdÃ©lÃ© guÃ©
Ġan ime
Ġca user
ĠCont ent
ung le
d ites
u Ã©s
ar is
Ġpas sif
ES CO
Ġexp rimÃ©
Ġgard es
ab lo
Ġdou ter
Ġemploy eur
or tÃ©e
Aff acturage
t Ãªte
hy per
Ã©r ent
ĠPL US
Ġpour rons
Ġvers er
ĠindÃ©pend ance
Ġtristes se
Ġrenv oie
Ġalg orith
il o
Ġinf ec
Ġpat ern
Ġfinanci Ã¨rement
Ġpron ostic
dÃ© jeuner
ĠIs land
aure au
Ġam or
ĠidÃ© alement
Se ine
ĠAu di
Ġbaign ade
Ġcon qu
Ġg ains
Ġautom atis
Ġcalcul s
H ab
Ġ Åĵil
Ġpo te
Ġpay Ã©s
Ġang ulaire
ĠT in
Ġdiff am
Ġvo eux
Ġren vers
ĠspÃ©cialis Ã©es
b u
Ġsoix ante
ĠE conomie
Ġvoy ance
ĠÃ©ch ang
Ġaccomp li
Ġinform ons
ult ats
ĠacadÃ©m ique
ĠCons ult
idÃ© al
ers on
ĠAr c
Ġexist ants
ri rez
form ance
Ġbrit anniques
ĠPoi ds
T our
Ġma ils
Ġcin quant
ĠGab on
Ġner veux
Ġaff ection
Ġidenti ques
ĠmÃ©m oires
Ġintens itÃ©
es c
Ġ ×
Ġcle f
ĠF un
Ġbou ff
Ġsuper fici
charge z
Ġhabitu de
Ã© enne
Ġn aÃ®tre
Ġenv oi
ĠmÃ©c onn
ĠdÃ©n oncer
ate forme
ĠH a
eur o
Ġk its
ĠÃ¢ gÃ©e
Ġpren ons
Ġf rai
ĠT N
Ġinnov antes
al g
ĠP ape
Ġindustri elles
ĠAnaly tics
Ã©v aluer
ĠdÃ©n once
ĠB ulle
accessi bilitÃ©
Ġfin esse
IN S
Ġbar res
Ġsembl able
H en
Ġc Ã´t
ĠC Ã´tÃ©
ĠdÃ©c ontrac
ĠdÃ©fin is
ĠmÃ¢ le
k ets
Ġenvoy ant
or chestre
Ġ? "
ĠreÃ§ ue
Ġb agu
Ġentre tenir
Ġunivers itÃ©
opÃ© rateur
ĠAmÃ©ric ains
M od
el i
ĠI r
Ġcomm od
Ġ5 000
Ġins crite
ĠDra gon
Ġdomes tique
er landais
ĠrÃ© conc
ĠIn vent
ĠIn stitu
ĠsÃ©lection s
Ġpres tige
ĠA ri
ure ur
ĠlÃ©g ers
ĠAc cepter
Ġchap itres
amor ph
Ġin attend
Ġdiv ine
ĠÃ©cri vains
Ġk e
10 2
Ġmatern itÃ©
Ġbag ages
Ġtou l
chÃ© ologie
Ġmur ale
Ġrevi ens
Ġallemand s
Ġm Ã©g
ĠF au
Ġal tÃ©
ĠEn d
Ã©g raph
Ġon ze
Ġmerveille use
ĠGab riel
ĠdÃ©cla rer
in Ã©es
uti le
Ġsilen cieux
b ul
m ence
le ments
Ġv ents
ĠDe b
Ġsub it
LE MENT
Ġmagn Ã©tique
Ġillim itÃ©
en cier
ĠH ub
Ġ" ,
th er
RÃ©p onses
Ġhau tement
ge z
mi rats
Ġsupp rim
Ġpor teur
Ġra vie
aill on
ĠPÃ¢ ques
D ivers
Ġatti rÃ©
ĠFrancis co
Ġf lore
ĠB oule
ĠF ut
Ġquestion naire
Ġmens onge
ĠSta de
Ġcar actÃ©
Ġ19 44
Ġver b
Ġamb itions
ac quÃ©rir
aut s
ĠMar ch
Ġcro iser
ĠSing apour
f emme
l ons
ĠC OL
Ġhabitu el
ĠamÃ©n age
Auc une
g ure
Ġins ou
Ġargu ment
y ou
ĠdÃ© range
T RO
Ġimm un
Ġabs orb
ĠCler mont
M B
s o
Pro vence
ĠS ont
Ġapp uy
Ġ; -)
ĠSt an
Ġaler tes
ĠC oiff
Ġdis ons
ĠRÃ©p ublic
Ġvali dÃ©
Ġpro ble
ĠPor tes
Ġmusic aux
interro ger
Ġn age
Ġb Ã©
Ġcrit Ã¨re
U r
Ġcom bles
ĠB Ã©bÃ©
Ġan tique
ins on
ĠgÃ© ographie
Ġpot able
ĠSte ph
A rabie
ar on
ĠSA INT
ĠP on
ĠLe cture
Ġsec rÃ¨te
Ġquar antaine
ĠprocÃ©d Ã©s
Ġconvivi ale
Ġride au
C in
T op
Ġaffich Ã©es
Ġparticu les
ah oo
ĠprÃ©fÃ© rez
Ġpr enne
all y
Ġro is
Ġgl y
ĠrÃ©sid ents
Ġcoqu ines
ĠprÃ©ju dice
f li
ĠE co
Ġoub lie
Ġimag inaire
Ġvul g
Ġpl ut
Ġvol can
Ġcal c
Ġrecense ment
M atÃ©ri
i el
Ġd an
Ġoffici elles
Ġstat ue
Ġs ainte
me z
Ġh Ã©ri
Ġcauche mar
ut ant
ĠvÃ©gÃ©t ale
ĠCOM M
ĠC oin
ĠK o
pons abilitÃ©
aband on
Ã©n aire
com ment
ik h
ang ile
ali mentaire
Ġtravers Ã©e
ĠprotÃ© gÃ©es
Ġsinc Ã¨re
M AR
Q uestions
g s
Ġ6 50
Ġconserv Ã©
Ġconsult ations
Ġreti rÃ©
Ġcompt ables
tu el
ette ment
Ġag ro
ĠAr ri
Ġ% ,
ĠÃ¨ re
Ã©re mment
ĠA teliers
ĠK n
Ġjam be
oth Ã¨que
Ġris quent
ĠJu an
app y
Ġamoure uses
m aison
Ġd og
Ch e
lis abeth
onne urs
Ġad min
ĠMer c
Ġmons tres
C V
o rez
en euve
ent housias
ĠConc ert
Ġmin uit
Ġexal tation
ul ine
Ġcel ib
Ġcap teurs
Ġconten ues
Ġremp orter
Ġsuffis ante
Ġpos Ã©es
Ġmal heur
Ġinconn ue
Ġde ja
ĠmÃ© chant
Ġmag azines
Am our
Ġlyc Ã©es
Ã©cri vain
ĠdÃ©sol Ã©s
ĠG olf
12 5
Ġcath oliques
ĠLo ve
origin al
Ġchang ent
L iste
tu elles
Ġfig urer
Ġrenv oyer
ĠPok Ã©mon
ĠP ensez
NE T
Ġcontra ste
ĠdÃ©co rer
Ġgour mande
P I
ar itÃ©s
om on
ge ot
Ġvi d
ĠK ir
vi ons
hic ules
Ġreport ages
ĠmÃ©t aph
Ġspect ateur
Ou tre
ĠdÃ©voil er
Ġanim Ã©s
Ġatte ints
aug uration
ĠL aisser
Ã©ch al
Ġenvoy ez
) )
ĠM ieux
ĠR h
Ã©th ique
inves tir
al ons
Ġbl ind
Ġfer ons
ĠBang ui
Ad ministration
ĠJÃ©r Ã´me
Ġcharm ante
Ð ĵ
ist ante
ĠW ars
Ġpe ines
Ġfais ais
Ġlab oratoires
ĠprÃª tres
Ġmunicip ales
en vis
act rice
ĠÃ©c ologiques
ĠLiber tÃ©
c tifs
p ic
fr ont
Ġpizz a
Ġfi Ã¨re
vie z
ac ter
Ġfin itions
Ġcol onnes
ĠEx tra
Ġsh ort
Ne w
ĠKen ya
ĠGalax y
Ġ19 0
Ġcol lier
Ġver be
Ã©d onie
Ġvit amines
Ġcord es
ĠFried rich
ĠÃī v
Ġbre v
Ġarr Ãªte
V ente
ent raine
Ġviv es
Ġm ien
om a
Ġinter p
Ġvoy ons
Ġdisc rÃ¨te
ocra tie
ĠrÃ©vÃ© lation
chauss Ã©e
c at
ĠTÃ©lÃ© charger
ĠC iv
Ġre vis
Ġtrib unaux
Ġincontourn ables
ĠC ur
ĠÃ©t end
Ġsou le
ĠCar re
ĠcÃ¢ bles
ĠT ome
ang a
Ġret omb
hab ite
ĠmÃ©tal liques
ĠrÃ©di ger
Ġrepar tir
ĠtÃ©l Ã©s
ĠD oub
Ġar ran
Ã©p aule
et c
Ġb amb
ĠR app
ces seurs
ĠmÃ©t ab
A ub
fa Ã§on
ĠSar ah
Utilis ez
Mus ique
Ġbapt Ãªme
Ġcro yez
P RO
vi d
Ġsu pers
Ġfro t
Ġf lÃ¨che
Ġexc Ã¨s
Ġfre ins
appro visionnement
Ġcoulis ses
ĠR u
ĠV au
ati cien
Ġcuis iner
Ġc ouverte
Ġpr ouve
Ġti er
ĠprÃ©cis ions
Ġvais seau
ĠSupÃ©ri eur
ĠD os
op a
ĠrÃ©ussi e
Ġcompati bilitÃ©
Ġaudio vis
ch an
ĠG a
ours es
Ã¯ s
Ġremp lie
Ġle v
ser ies
Ġpo dium
ĠMan ager
Ġdirect s
Ġesc orte
Ġcertific ats
Ġp p
ĠF rench
ĠMar io
ER G
Ġsyn onyme
Ġphysique ment
Ġsupport ers
G ra
Ġ198 2
pe tit
ĠrÃ©g al
ĠPÃ©r ou
B M
S Ã©
Ġd its
Ġtend resse
ĠCLI ENT
l ure
Ġch ouette
ĠR DC
Ġi ran
Ġvi rement
Ġvis ages
Ã©lÃ¨ ves
pro duction
D L
ff es
Ġconf ond
ĠW atch
ĠpÃ©n ale
ĠP ER
at u
Ġh igh
Ġbron ze
Ġs log
pr end
Ġfond re
Ġlib an
Ġmot os
ĠCont rat
El ys
ĠBul garie
Ġd ense
si me
ĠrÃ© veiller
Ã©r itÃ©
Pro blÃ¨mes
Ġluc ratif
ro c
ĠVi ol
Ġrecouv ert
v ues
Ġar mÃ©
Ġpo chette
Ġmin es
Ġpartage ons
Ġjudici aires
ĠingÃ©n ieur
ĠB la
Ġvi des
Ġboule vard
ci o
ĠE C
Ġca chÃ©e
Ġbl ues
ĠX box
Al liance
apprÃ© cie
Ġc age
ap it
ĠC ord
Ġin Ã©v
ĠD un
Ġma ur
Ġcour be
Ġexp lication
ry lique
Ġglob alement
D on
ĠÃ©vent uels
ĠrÃ©gl able
Ġcomp lais
Ġren oncer
Ġn an
ol uti
ĀĀĀĀ ĀĀĀĀ
P eut
Ġb os
ĠS F
ĠF an
Ġsau mon
Ġrou tiÃ¨re
Ã©chapp ement
ĠdÃ©fic it
ĠcaractÃ© rise
Ġcop ropriÃ©tÃ©
Ġnoy au
ro om
ĠL amb
ĠS pa
ĠB est
ĠQu atre
ĠChe val
Ġsom p
in al
in tensitÃ©
Ġno Ã«l
Ġretra itÃ©s
Ġextr Ãªmes
Ġfourn issent
Ġchauss ettes
indi ce
ste in
Ġassi mil
our is
ĠT arn
Ġ19 75
Ġvit alitÃ©
ĠÃ©mo tion
ĠintÃ©gra le
ĠU NE
ĠdÃ©p assÃ©
ĠpiÃ¨ ge
ĠSal ut
or at
Ġcomp as
Ġj olis
ass ainissement
ĠnÃ©g atifs
ĠG ames
Ġso vi
ak es
cher ie
Ġban quier
ĠP ix
ĠrÃ©s ine
ĠFire fox
ĠL NH
Ġest hÃ©
ĠCl oud
Ġviol on
ĠAli ce
N ouveau
ĠA cheter
Ġconnaiss ais
olog iste
Ġindi ces
Ġnutri tion
in cer
el la
ĠCons omm
Ġenqu Ãª
ch ante
im i
ath an
11 1
ĠdÃ©f ilÃ©
Ġmessage Sujet
200 5
Ġp interest
ai x
Ġet ait
as is
ĠR C
ĠcrÃ© atrice
En vironnement
opp os
Ġsem elle
Ġsensib iliser
Ġvinai gre
ĠN ou
tin a
Ġobten us
E au
ist ent
Ġpos ent
ĠcrÃ© ature
Ġform Ã©s
Ġench Ã¨res
et ta
ĠF iche
Ġti mide
Par ti
ĠAut our
erg ence
ĠrÃ©guli ers
Ġg ymn
Ġh ivern
Ġad orable
id is
rai ment
resse urs
' )
Ġb oss
ĠT P
ĠguÃ©r ison
ĠfÃ©ri Ã©s
v Ã©nie
ĠF ir
amb ie
Ġsent ez
Ġjui ve
Ġaver ti
Ġl ub
Ġcontra int
Ġprocure ur
e usement
ac on
C uisine
u zz
ĠG ay
Ġcons oles
ass assin
Ġcer titude
ĠGau lle
Ġvis a
abl anca
App el
Ġstu pÃ©
om i
ĠP ier
Ġimag inÃ©
Ġt Ã©
Ġaccomp lir
Ġautom obiles
Ġquotidi ennes
ĠForm ations
ĠcinÃ© aste
ĠpossÃ©d ant
ĠvÃ©tÃ©r inaire
Ġbou les
ardin al
on ciation
ĠF a
ĠR oute
Ġar mÃ©s
ĠprÃ©v oy
did as
Ann onces
Ġp oule
Ġmo elle
ise mbl
Ġfin alitÃ©s
Ġexpos e
avi g
one y
ĠCent rale
Ġo li
Ġim meubles
att le
ĠBl an
Ġpoi v
Ġment he
Ġconsent ez
________ ________
t ations
ĠU p
ni k
ĠdÃ©mon tre
ĠDi jon
ĠVis ite
D Ã©velopp
s ki
Ġf esses
Ġch Ãªne
Ġmar ie
Ġdem ois
Ġtant Ã´t
ĠdÃ©but ant
Ġ198 3
Ġdoctr ine
rake ch
es time
Ġg ants
Ġst ore
Ġjus tific
Ġpor tÃ©es
Ġm oule
ĠUn is
Ch auss
Ġmyth e
ĠC ay
tÃ© b
ĠEx per
Ġa h
ĠM ig
ĠlÃ©gend aire
oc aly
ĠU kraine
Ġrencont rent
ĠpÃ©ri mÃ¨tre
RÃ¨g lement
Ñ ĭ
Ġcar av
Ġgrande ment
Ġgra m
Ġclassi fication
Off re
Ġenn uy
ar gu
Ġno tifications
ĠSi Ã¨ge
Ġpres cription
ĠMAN OR
ĠdÃ© tÃ©ri
Ġor ch
Ġsign ale
ĠamÃ©li orent
Ġvois ine
ĠIs lam
ĠMeille ures
20 9
ĠarrÃª tÃ©s
Ġterr oriste
Ġtch Ã¨que
l ys
ĠR este
Ġaur ons
mÃ©di aires
ĠsÃ©par Ã©
Ġautor ise
Ġinst ance
ĠPublic itÃ©
ĠprÃ©f et
ĠON G
Ġbel gique
h ait
Ġconc ur
Ġrespec tueux
oun dation
Ġstock Ã©es
Ġsusc iter
S eu
ĠS oyez
Ġdist ances
ĠPas sion
Ġkm s
Ġd s
ac tes
Ġtra gique
Ġju pe
Ġch Ã¨vre
Ġsour c
ton ie
gr itÃ©
Ġachet Ã©s
as sent
ise ur
Ġ19 01
Ġcol lÃ©g
Ġconc rÃ¨tes
Ġpuis sions
Ġport ait
Ġintellig ente
A j
H ar
ĠLou ise
Ġfondament ale
ot ypes
orde ment
Ġexten sions
ĠRoch elle
Ġab Ã®
inter rogation
Ġtransf erts
Ab onnez
ĠJ ane
Ġfa ill
Ġgui dÃ©e
Ġdipl Ã´mes
ĠcÃ©lÃ©br itÃ©s
Ġath lÃ¨
O h
ĠS ystÃ¨mes
Ã©m ergence
ĠAl tern
OU L
Ġla iti
Ġorient ations
Ġ19 72
Ġmes se
Ġmer veilles
terie ur
ĠSeu lement
ĠP RE
ĠB or
ard o
Ġcompos er
Ġpix els
Ġc um
ĠO cÃ©
Ġann uels
Ġquotidi ens
Ġspl endi
b lÃ©
ĠA mis
ĠrÃ©s ume
ĠAss istance
ĠR appel
ĠgÃ©n Ã©rique
Ġe c
Ġ19 68
oil a
Ġcollec tives
Ġconvi ctions
Ġtop ic
ĠpÃ© chÃ©
oi ds
astr onomie
S alle
Ġindustri es
C our
Ġ Åĵ
Ġcompos ent
n ois
Ã© co
ĠF ich
C am
id o
Ġcos tumes
Ġraccour cis
est hÃ©
ill ante
Ġdou bles
sid ente
Ġenthousias me
Beau coup
Ġp ente
Ġt ete
Ġsur g
Ġin sectes
bl oc
ĠÃ©vent ail
Ġpron oncer
Ġr ondes
i di
ab ilisation
Ġr Ã´
Ġam er
roy able
ĠÃ©c os
Ã©rap ies
ĠScrap booking
AFF ACTURAGE
Ġca chÃ©s
ĠRay mond
Ġlinguis tique
ĠG N
mail s
Ġt urb
ĠF ru
par is
ĠÃ©c ar
ĠTh erm
Ġper mission
Ġcl o
ĠsÃ©par Ã©s
ĠHall oween
ph ot
ann ulation
Ãª tu
Ġcomp ortant
Ġpuiss ances
ĠBen oÃ®t
S av
ĠCom pos
Ġinc or
76 7
ĠCommun i
ar tic
ay ak
all o
Cl ub
ĠrÃ©t ablir
Ġs anc
te d
Ġla tine
Ġin ond
Ġtuy au
yclopÃ© die
A ction
ĠP N
Ġinuti les
N orm
ĠâĢ¦ )
orp ion
Ġsugg Ã¨re
vidÃ© o
J ET
ĠT ogo
Ġcl oud
Ġcompr ise
ĠhÃ´ pitaux
ĠAss urance
ĠPort o
Ġprolong er
si gn
Ġappro ches
ĠrÃ©chauff ement
Ġsimult anÃ©ment
Ġs qu
cro ix
Ġc rÃª
ĠA scendant
ĠcrÃ© p
Ãī c
Ġimm ig
ĠDÃ©c ouverte
Ġf oire
Ġb ah
end um
ĠÃ©c ras
erg ies
ĠÃ ´
Ġh ousse
Ġra tion
ier ges
Ġdiff use
Ġpros pection
Ġpri Ã¨res
Ġcompt oir
ĠCam ille
Ġinno vant
oc us
Ġrest Ã©e
Ġtrouv Ã©e
atta che
Ġviol ente
yl on
Ġtriom ph
E r
ĠdÃ©s abonner
ĠD al
Ġconst ant
Ġemp orter
ĠSÃ©lection nez
Ġtab ou
Ã©s ar
ph oto
10 1
ĠRÃ© alisation
Ġtra gÃ©
Ãī L
ĠHum aines
ĠrÃ©col te
Ġsu Ã©d
Ġson ores
ĠCh al
ĠPl antes
Ġcircons cription
ĠcarrÃ© ment
ĠinÃ©g alitÃ©s
m am
ou tÃ©
ĠP U
Ġse mestre
Ġcompos ant
Ġcra yon
ĠRÃ©d action
Ġf umer
Ġen cl
Ġpas si
ĠH ard
Rem arque
ĠB P
ĠdÃ©c ry
Ġliv ret
i ment
ĠO ccident
ord er
ĠRe ad
Ġtemp Ãªte
ĠBr est
ĠCal ais
ĠSeu le
ĠL CD
ine au
lic k
ĠZ e
Ġcuill Ã¨re
S ource
a ques
Ġhonor aires
P ER
R estaur
ai gner
aiss ait
cis me
Ġcab inets
h es
ĠS uc
Ġprop ul
charge ment
ĠTable au
Ġch Ã¢teaux
Ġi ra
Ġcomp agne
hy dro
Ġexclusi fs
ĠdÃ©lic at
ur Ã©es
Ġ2 80
ĠI ss
Ġbien veillance
emp ereur
Ġsyn chron
IC H
Ġroy al
Ġbre fs
v ois
ag issant
ĠA T
ab ou
app Ã©
Ġryth mes
Ġfranc ais
Ġla mpes
th ieu
lo ad
oxyd able
Ã Ĺ
Ġindi re
M ise
ĠdÃ© mission
ĠdÃ©couv rirez
ĠEx position
Ġcam ions
Ġpom pes
u lique
Ġv us
ov ie
ĠMatÃ©ri aux
Ġur gent
A vertissement
Ġt w
Ġdesign er
ĠIm ag
ĠthÃ©Ã¢ tra
S H
S oyez
ĠLe e
Ġdisp ers
expÃ©ri ences
H ome
v alle
ĠR Ã©v
S oins
Ġindi ce
C ro
ti ces
Ġv ill
ĠrÃ© utilis
Ġtal on
.; .;
G M
n il
Ġass iste
AC H
import ation
Gr oupe
Ġfondament al
ctori a
an itaire
Ġo xy
ĠN ant
og g
Ã©m as
ĠUn ique
Ġcompos iteur
Ð ²
al th
inf ection
m ap
Ġdu p
app lications
Ġcombatt ants
D ocu
Ġcomp tent
Ġ10 2
larg ir
Ġp ots
Ġdi Ã©tÃ©
Ġ12 2
Ġemploy eurs
Ġinspi rÃ©e
ĠcomplÃ© ments
ĠprÃ©car itÃ©
ĠC lÃ©ment
Ġcinquant aine
L ab
g round
Ġp Ã¨res
Ġs Åĵurs
Ġcl ari
opp ose
Ġrou tine
ote ch
Ġm ignon
ut ent
min aires
cl ub
Ġmen a
Ġeffec tif
Ġcouss in
Ġdi es
Ġman uellement
Ġass ise
CrÃ© ation
ĠT a
Ġche vel
Ġcompos Ã©s
ĠLum iÃ¨res
ĠinÃ©d ite
ĠExpl orer
ra te
Ġav ouer
ĠrÃ©pond it
Ġchauff er
Ġaj out
Ġcon cession
Ġcul inaire
Â® ,
ĠNouv el
ĠMÃ©trop ole
iss able
Ġpot assi
aj out
ĠJohn ny
ĠÃ©vent uelles
ar che
Ġr hum
AU L
Ġnu age
Ġterra sses
ĠbactÃ©ri es
de use
oc ations
Ġsais ies
htt ps
Ġpru dent
H all
ĠFran ck
illi ers
Ġvit rage
Ġrele vant
chet ez
Ġdiam ant
Ġphosph ate
ĠstÃ© rÃ©
ur rection
Ġcar tons
Ġreven di
allen ges
Ġferrovi aire
ales tine
Ġsous cription
Åĵu f
et y
Ã´ tes
Ġal ter
ĠAnn a
ĠdÃ©pos Ã©s
ĠPo Ã©sie
ĠLim ited
E V
Ġv ierge
ĠM I
ĠT ennis
ĠAl li
Ġfrapp Ã©
Ġyou tube
ĠG od
ĠrÃ©s iste
12 1
Ġarm oire
N om
ent er
Ġti ge
oli tion
ĠSe ction
Ġaud acieux
Ġin fi
oris Ã©
ĠexpÃ©riment Ã©s
Pos tÃ©
ĠprÃ©cis ant
P yrÃ©nÃ©es
h en
ĠB ach
ĠcrÃ© Ã©es
x ions
ON NE
Ġmascul ine
E conomie
Ġdispos ant
ĠcompÃ© tent
et a
ĠS ituÃ©
Ġdi able
ni fique
T oujours
ĠC oun
ĠP ossibilitÃ©
Ġri ve
ĠEuropÃ© en
le p
ĠR adi
ĠÃ©t ouff
Ġam Ã¨ne
Ġam ovi
oo dies
Ġattend us
Ġdiv ul
Ġc ali
ĠM Ã¨re
ĠV ic
Ġquali fier
u tention
ĠdÃ©s espoir
G Ã©nÃ©ra
L u
Ġor ale
Ġcamp us
ĠopÃ© rateur
Ġrequ ises
ĠcompÃ©ti tivitÃ©
Ġgourmand s
Ġb aby
ari ot
A IS
B ay
Ġpays ans
ĠrÃ©vol te
Ġann uler
est hÃ©tique
ag an
Ġver sement
ĠprÃ©f ecture
ĠscÃ©n arios
Q L
ĠC ENT
ĠS up
Ġimm atric
Ġbudg Ã©taire
ĠÃ©vent uelle
Ġmarchand ise
ill ac
par ents
ĠrÃ©pÃ© ter
ocaly p
Ġsub ventions
ĠindÃ©pendant es
Ġq q
ĠArn aud
ĠC ru
ĠF oundation
aut rui
Ġfor cer
ĠmÃ© lan
Ġt rim
ĠH Ã©lÃ¨ne
Ġutilis ions
Ġz en
ĠSimp le
ou rer
agn ostic
hÃ©r itage
Ġpartis ans
di enne
Ġdev int
Ġpoursui vi
Ġmyst Ã¨res
Jus qu
Ġc ure
ĠTÃ©lÃ© phone
Entre prise
Ġst aff
Ġpl ates
ON E
19 3
erg y
Ġdoul oureux
", "
Ġinter actions
pt un
enthousias me
en jeu
Ġos c
Lit tÃ©rature
Ġr us
Ġconf r
eter ie
v d
Ġexp licite
aj oute
ĠK its
OT RE
Ġtut oriels
Ġtra je
ru guay
Ġsyn drome
ĠPhot ographie
y ch
Ġadress Ã©
ĠSch ool
ĠBis ous
G uide
ent our
P ub
ĠP oit
Ġsur v
ĠE qu
Ġex acte
Ġbien fais
titu lÃ©
ĠdÃ©m Ã©nage
ĠsÃ»r s
D H
t Ãĥ
Ġfact uration
archite cte
ĠLÃ©gisl atives
ĠR ex
Ġentre tiens
ĠdÃ©fin itif
Ġsil icone
Ġtut o
B U
D M
w ell
ĠJ oe
Ġmag iques
ĠmÃ©m oriser
ĠLab oratoire
Ã©chapp er
ĠSecon d
Ġfem elle
Ġbi ologiques
IN TER
ĠâĤ¬ ,
Ġpotenti ellement
âĢĻ Â«
ĠP IB
18 0
ĠRD V
ouv ert
Ġver tes
ĠdÃ©p endant
Ġachet ant
autor oute
institu t
ĠH auteur
Ġprov oquÃ©
Ã©ron autique
. âĢĵ
dis ant
ĠChamp ionnat
orth ographe
ĠT it
ill usion
ser vice
TI V
Ġrecons titu
in ant
Ġpren ait
Y ves
Ġ3 65
ke d
h umeur
ar l
ol Ã©e
ĠAb del
P ress
Ġprofes sions
cons ultÃ©
r Ã´
as ile
Ġcap s
Ġval ables
ĠNeu f
ang ulaire
Ġ19 79
Ġcontac tÃ©
le vage
ch en
ĠB N
ĠCom pl
Is lam
Liv res
Ġmusulman e
Ġr umeurs
Ġaccue illant
ois se
Ġrep orter
Ġcalcul Ã©
Ġstu dios
rob ation
ĠprÃ©co ce
mb a
Ġam icale
Ġus ines
Ġdra gon
ĠArch itecture
tr ant
intÃ© resser
OR D
ĠC B
ĠP ris
Ġpont s
l ait
Ġpar ach
Ġdomin ant
Ġreb ond
ĠJam ais
Ġpl Ã©n
Ġpay e
Ġdiffus Ã©e
ĠpÃ¢tis serie
ĠL ud
itu anie
Ġsub issent
Ġlour des
ĠHy p
Ġc ire
ĠXV IIIe
p tes
Ġan al
Ġlum in
Ġjal ous
an os
ĠD OM
ense ignements
ĠRom ans
Ġgrec que
s oit
ĠdÃ© mis
ĠAu vergne
Ġcent enaire
ĠSoi rÃ©e
p ignan
Ġab rit
ĠdÃ©f av
ali a
ai g
L i
ĠÃ©v oquer
Ġsoir s
Ġautoris er
Ġaimer ait
Ġincons ci
Ġpresti gie
Ġm anteau
ĠtrÃ©s ors
Ġcommunaut aires
ĠaÃ©ro ports
T ype
am us
Ġfer ais
ĠXV IIe
ĠGlob al
ĠR Ãī
Ġouv rant
ĠLum iÃ¨re
ĠCir que
Ġincon v
se ill
ig Ã©ri
Ġmar ier
Ġconstitu tionnel
aci de
ĠmystÃ©ri euse
ĠJ oy
af ric
Ġdirig Ã©e
olog y
ĠlÃ©g Ã¨res
Ġfestival s
Ġhandicap Ã©s
ĠCoffre ts
ĠR w
Ġviv ons
ĠprivilÃ©g ier
L o
S port
si Ã¨res
ĠPar fait
ĠCer cle
Ġchasse urs
Ġp iv
ce ur
Ġform ulaires
Ġbar riÃ¨re
Ġre lÃ¨
Ġsous crire
ann y
Ġlim itÃ©es
ĠC off
Ġhum ides
E ric
p ine
ra g
Ġau dit
Ġmaj eures
Ġmath s
Gar onne
ĠL andes
ĠS ommaire
ĠIn tÃ©rieur
14 6
Ġopp osÃ©
Ġvain cre
ĠÃ©valu ations
D iff
ĠE V
Ġappropri Ã©e
Y N
oi gner
ĠprÃ© cieuse
ori a
H ello
Ġex pÃ©dition
ĠÂ» ),
Ġar ron
ĠPl age
12 2
ĠprÃ©fÃ©rÃ© es
Cert aines
Ġpharmaceuti que
v oit
ch able
Ġpours uites
Ġliber tin
Ġconver tir
Ġintro duction
Ġinvent Ã©e
ĠMax ime
Ġfantas mes
Ã¨ lent
Ġb its
se ction
Ġar Ã´mes
Ġass assin
Ġpasse port
ĠPoli ce
Ġp Ã©nÃ©
Ġpous sent
ĠD ark
ĠrÃ© utilisation
Ġh am
ĠMath Ã©matiques
ĠrÃ©di gÃ©
Ġd urs
onc ent
ĠCas ino
ĠR O
ĠbÃ©nÃ©fici aires
Ġsain ts
Ġchor Ã©graph
Ġpanoram ique
Ġpotassi um
Ġpro pice
vel ines
Ġdent elle
D urant
R ien
met s
ron es
isse urs
Ġcoul oir
N ic
ran dir
Ġcan ard
aff e
intÃ© gritÃ©
arch ives
Ġretourn Ã©
Ġhypoth Ã©tiques
ĠV ent
ĠLe x
Ġbord ure
Ġrequ ise
tinÃ©ra ires
Phot os
Ġtou chant
ĠQu artier
Ġx D
Ġsh amp
Ġmur al
l ui
10 8
Ġurb ains
Ġnob lesse
M at
ĠM adeleine
Ã©c l
oun g
Ġexclus ivitÃ©
Ġexist antes
Ġadditionn elles
* )
Ġco tisation
Ã©li e
or itÃ©s
Ġle vÃ©e
Ġis olÃ©
Ġdig it
T itre
ĠC og
off ici
Ġeng endre
Op en
c it
ĠJapon ais
Ġral enti
Ġventi lation
z ac
ĠS ug
ĠamÃ©li ore
ĠprÃ©t endre
ĠP akistan
ĠprÃ© lÃ¨vement
ĠPro che
Ġmil itant
ĠJou ets
Ġs Ã©c
Ġh arcÃ¨lement
ĠForum s
Ġtar te
ĠDerni Ã¨re
F M
Ġex Ã©cutif
Ġso bre
ard on
Ġatte intes
Ġfisc aux
Ġtor ture
ĠGRATU ITE
a ussi
Ġf lic
Ġsou tenue
ann oncer
alise z
Ġexploit er
ĠTE CH
ĠcrÃ© ez
Ġmod estes
19 6
Ġsign aux
Ġpropag ande
P oint
ce v
TI L
ĠbÃ©nÃ© fique
imag iner
implant ation
ĠBoud d
Ch amp
Ġop en
ov ol
Ġconsi gnes
Ġpropre ment
Ġintro duire
ant er
Ġcal end
Ġmaroc ain
Ġag enda
Ġbel ges
Ġreti re
ur n
ĠC AC
Ġin si
Ġcol orÃ©
ĠK al
Ġpropre tÃ©
Ã©ti quette
Ġcar ic
Ġnom mÃ©e
Ġag riculture
Ġindi en
Ġprimor dial
ĠM aÃ®
st r
Ġviol ents
Ġpropor tion
Ã©limin ation
Ġd us
Ġf ood
ĠJourn Ã©es
Ġrass urer
p x
s ource
ĠP iscine
Ġpl uri
ĠM oins
ĠF oire
ĠMar chÃ©s
ly wood
ĠÃ©lector al
al ine
ol ite
ĠR S
ic Ã´ne
ĠrÃ©p utÃ©
ĠrÃ©glement aires
i fs
UL T
Ġparlement aires
ĠB ot
Ġra j
ut able
ĠVend Ã©e
Ġac cÃ©dez
24 0
ĠAm our
Ġmondi alisation
Ġvari ables
ĠdÃ©mont rÃ©
Ġt asse
ous ser
Ġdispos ons
Ġexp ul
Ġbatt us
' "
c ourt
i Ã©
in demn
Ġren once
Ġcl artÃ©
Con fÃ©rence
Ġinsu pport
al arme
ĠFran Ã§oise
tis es
Ser vices
ĠDre am
Ġrest es
ĠApp uyez
Ġobten ue
Ġflex ible
Dem ande
Cou cou
l um
et ti
Ġn au
Ġtra itÃ©e
alog ique
ĠbÃ¢ti r
Ġv aud
Ġla tÃ©
ĠF M
âĤ¬ /
ha Ã«l
anim itÃ©
Aqu itaine
ĠK az
vis ionn
Ġvoyage ur
Ġmanifest er
ĠchÃ¢ t
ĠrafraÃ® ch
J O
Ġc Ã©d
Ġpro cesseur
Ġrecher chons
Ġpor tugais
Ġinv itations
Ġappel Ã©es
ĠdÃ©lic ates
Ġimpati ence
ĠS or
Ġinter mÃ©diaires
ĠÃ©p aisse
Ã Ķ
ON T
ame au
ĠApp artement
Ġlis ant
ĠS ens
ĠTra itement
Ġsouff rances
Ġdiver tissement
Ġoise au
an que
Ġre viennent
iss antes
Ġneu ves
A ug
ĠB ret
ĠF en
Ġfin alitÃ©
ign y
op es
Ãī R
Ġsatisfait e
Ġoffer tes
do tes
ĠWiki pÃ©dia
ĠPle in
ĠCh an
Ġservi ra
Ġci ment
ĠChar gÃ©
expl os
ĠChap itre
Ġsur s
Ġh Ã©las
ĠLe ague
Ġconcert ation
ĠLog iciel
Ġimprim Ã©s
ol us
Ġcar di
Ġprob abilitÃ©
alle y
Ġair s
Ġle vier
Ġimp ul
ĠrÃ©pÃ© tition
Ġsouverain etÃ©
Ġl ion
ĠF al
Ġ î
ab out
vir us
] [
ce aux
agu ay
d or
ĠÃ© lig
Ġin vers
cul Ã©e
Mar seille
Ġobserv Ã©
ĠdÃ©ter mine
L ien
Ġsph Ã¨re
Ġaffi ches
ĠRol and
m ati
Ġa ge
ĠJ es
Ġi di
ĠsÃ© lec
amb ique
Ġsor tis
Ġprote cteur
v ance
ĠG as
Ġmar re
ĠÃ©g lises
Ġtun nel
en ger
in iÃ¨re
ĠQ atar
ĠdÃ©s olÃ©
ĠgÃª ne
Ã©quival ent
Ġinter views
Ġbi ologie
Ġpres sions
ĠChar lotte
Ġexige ant
Ġgout tes
Ġgrav ure
is pr
ĠPar adis
atta quer
ĠcompÃ©t ente
mar keting
ĠAl b
ĠdÃ©g ager
Ġjardin age
ĠAssoci ations
10 5
Ġreconn ais
Ġadministra tions
Ġcle fs
ĠV entes
Ġcomp tant
ĠMet z
ĠdÃ© teste
ĠS ain
ĠagrÃ© Ã©
ĠSp iritu
Ġengage ons
Ġprostitu Ã©es
ĠTor onto
Ġ2 25
Ġpr ouvÃ©e
ĠÃ©p ic
ĠSoci ale
ĠrÃ©cl ame
ati ble
Ġ13 2
Ġconfir mÃ©e
Ġsauve garder
rÃª tÃ©
Ġinterrog ations
ĠBÃ©n in
Ġcau tion
n os
ra ctions
li ez
Ġdou dou
Ġvoul aient
Ġpan el
Ġmassi ve
Ġobten ues
ĠTechn ologies
ĠÃĬ tre
b ag
ĠdÃ©couv rent
Ġenj eu
ĠdÃ©gra dation
Ġther miques
f le
Ġde venant
Ġâĸ ·
ag enda
ĠS omme
Ã©par gne
ĺ ¨
Ġf use
Ġimp acts
Ġir rÃ©s
ĠquÃ©bÃ©c oise
ĠS Ã©ries
Ġfin is
AN TS
Ġrencont rÃ©s
17 5
Ġaffir mer
ĠSt ory
Ġmodi fiant
Ġfun Ã©ra
Ġb ann
cip ro
ĠexpÃ©riment Ã©
S uisse
ant a
Ġop us
Ġdemand a
Ġense mbles
Ġpu its
ĠAd am
ĠMe di
Ġzo diaque
Ġrab ais
ĠCh rome
Ġinnov ants
Ġpor tÃ©s
hÃ´ tels
ĠAl g
ĠFin ancement
ĠLim oges
Ġaqu atiques
G estion
Ġsu isses
sionn aires
eff ond
Ġillim itÃ©e
R om
Ġvieil lissement
Ġritu el
l ob
ĠC ry
Ġs per
ĠCan apÃ©
Ã© lu
Ġsa che
Ġser ieux
Ġtomb ent
Ġadop tÃ©e
ĠsÃ©qu ences
ĠL IV
adi e
Ġcre er
Consul tez
Ġuk rain
Ġt ueur
oli es
ore rie
23 2
Ġconsid Ã¨rent
orp tion
ĠAllemand s
m ad
ĠC Ã©line
urs us
Ġenvelopp e
Ġpl aine
Ġch ol
Ġor ph
Ġbro ch
ĠMam an
ĠPai x
Ġb oi
ell y
18 5
Ġint rig
ĠLyc Ã©e
Ġf out
ĠA F
ĠrÃ© form
10 3
ĠMÃ©t al
ĠiP od
k el
Ġremp orte
Ã« lle
ĠCN RS
Ġfrapp er
Ġroule au
Conse il
t aient
al ite
ac tique
eff ici
Ġfonctionn elle
Ġl ie
Ġc aisses
ĠnÃ©goci er
oi ce
Ġex act
ot ype
ĠCl assement
Ġcond uisent
Ġench aÃ®
Ġcouver cle
B N
t ous
iss ants
Ġfer mes
amb ition
ik a
Ã© te
al tern
ĠvÃ©ri fiÃ©es
Ġsouha itÃ©e
Ġmon op
ĠK im
Ġdispar aÃ®t
Ġvigil ance
ĠA vez
Ġfl amme
inc ar
ĠT apis
ĠEn registre
Ġon e
Ġtran ches
Ġenver rons
Ġv ienne
us ure
Ġin oxydable
Ġma xi
ĠultÃ©rieure ment
ĠcinÃ©mat ographique
O ccident
tis se
ĠdÃ©mar re
Ã©c ris
Pro gramme
ĠTot al
% ).
Ġv int
ĠS oul
ul li
Ġfl uc
Ġban niÃ¨re
ĠFin alement
cid itÃ©
Ġcroy ance
ĠPRO DU
l ines
Ġp ans
ĠR ic
ĠnÃ©cess itant
v p
Ñ ĥ
Ġg eek
ee d
Ġg Ã©rant
Ġarri vant
Ġesp oirs
entend ent
Part ager
Ġmat ches
utri tion
Ã©nÃ©fici ez
est o
ins titution
ĠH aÃ¯ti
ĠIl lus
Ã® mes
Ġcher ch
ï¿½ ï¿½
P at
Ã¨ des
Ġbl oquÃ©
ĠprÃ©f Ã¨rent
sid ences
Ġsix iÃ¨me
it Ãĥ
Ġtr Ã´ne
Ġ19 20
ĠRel ations
D O
V endredi
um ulation
Ġcitoy enne
ĠJus tin
ĠÃ©quip Ã©es
DÃ©s olÃ©
B onsoir
k es
ti mi
expl oration
Ġp ull
ĠP oul
Ex cell
Ġdig es
p ap
Ġn ou
ra ins
ver y
Ġrel ancer
ĠtÃ©lÃ© communications
ĠPh ilosoph
ĠMag iques
c p
Ġsing uli
Ġsimpli fier
T RA
ex ag
22 6
Ġtri ple
Ġdimin ue
Ġdoctor at
Ġsoc le
) (
ul ter
ĠhÃ´ te
Ġd oses
Ġs ir
mi Ã¨res
or ateur
ab is
app e
artis anat
ĠUtilis ateurs
ĠLÃ©g ales
Ġsa pin
ĠW at
Ġman uf
Ġmin uti
anc el
Ġcorrespond re
rÃ© ment
ĠnÃ©cess itent
ĠvÃ©gÃ©t ales
ĠMoul in
Ġb aies
ĠS olutions
Ãªt etÃ©
** *
Ġfrag iles
20 2
Ġinsol ites
Ġcompens ation
en vers
ĠC AS
ĠB A
av ille
Ġmal heureux
Ġbe un
Ġbrill ante
Ġridi cule
; ;
ĠC ond
Ġsou vient
onc Ã©s
ĠMan if
Ġlongue ment
ĠOb ama
Ġaltern ance
ĠRecher cher
B onne
ĠO ul
Ġconc rÃ¨te
Ġcro chet
23 5
Ġ tic
Ġj ai
Ġimp ar
Ġatt ribution
ĠmatÃ©ri elle
exp rime
8 00
Ġappar u
Ġs cep
pec tre
imag in
trait ance
Ġsauve gard
Ġtransp orte
ĠLangue doc
m ai
Ġb Ãªtes
ch imie
Ġco eurs
ĠIn dien
ĠCro is
?? ??
M ES
Ġp aille
it at
Ġpar s
Ġno tÃ©
Ġenvoy Ã©es
Ġvan ille
Ġdoub lÃ©
S c
S ex
Ġpri mi
Ġdiff Ã©remment
Ġfac ultÃ©s
Ġvit res
Ġplate aux
IM M
CP I
Ġamus ant
ĠantÃ©ri eure
Ġla pin
Ġcomb iner
ĠdÃ©fense ur
ĠcosmÃ© tique
ĠContempor ain
ĠS ach
Ġmar ches
Ġdemand Ã©e
Ġapporter a
Ġanne xe
Ġcigare tte
p ra
ĠrÃ© duits
ord ogne
Ġ24 0
ĠComm iss
ĠBre xit
Ġrecommen cer
ing er
Ġdire ctions
ĠCentra frique
Ġam ant
Ã©ra le
rit z
Pour tant
K E
ĠrÃ© essayer
oin ts
Ar gentine
ĠCor p
ĠBien nale
eu m
at Ã©
ĠG EN
Ġcont est
Ġtra cÃ©
Ã©p ouse
13 7
Ġcompos antes
oh n
ĠintÃ©ri eures
ĠSte ve
Ġmotiv ations
Ġdress ing
Ġb rosse
Ġj oign
ĠT rain
Ġex Ã©cution
ess a
ĠCom bien
Ġcommun istes
esp agnol
ouss illon
Ġatten dez
, "
ĠG E
ore x
ĠfaÃ§ ades
yp ique
o en
ir s
ĠâĢ ĭ
Ġdist ribuer
Ġvamp ire
Ġd Ã¢
ol ore
ĠF el
Ã©t oiles
Ġfonctionn els
Ġbru its
Ġconfront Ã©
ĠIntÃ© gra
l t
Ġcorrespond ants
ĠMi ami
ĠChamp ions
ĠC RE
ĠS ouv
ex trait
ĠdÃ©t ourn
Ġressorti r
ĠSie g
Ġs pi
ad an
ĠMar rakech
Ġfer met
Ġbou gies
Ġfac ult
Ġchamp agne
Ġtrom p
p u
u jet
si bles
tis tes
int ures
ĠBi joux
Ġgout te
ĠCollec tif
m ens
Ã©r ants
19 5
Ġall ong
Ġpan orama
Ġcompar atif
QUE T
ĠRel ig
V ide
Ġgra ce
Ġfi Ã¨vre
ĠM ous
ĠD ossier
sur tout
p orte
s Ã©s
Ġass istant
Ġfac ilitÃ©s
Ġfavor ables
our d
14 2
ient Ã´t
Ġenvir onnements
Ġfrig o
p op
Ġpro clam
Ġi tinÃ©raire
DE O
Ġincont est
ĠAutre ment
Ġcoach ing
Ġgend armerie
ent ends
ĠpÃ©ri odique
Ġrenfor cÃ©
ĠmÃ¢ ch
ĠF id
ĠÃ©v oluti
Pro duits
ĠMor gan
ĠÃ©tern elle
ĠN atur
ge oise
fi ance
Ġcrois Ã©
Ġpouss Ã©e
ti ez
ĠEn ter
ĠsÃ©cur isation
Ġsau vet
Ġparle z
Ġprot agon
Ġbro c
ii ii
ch al
oli vie
Ġcer cles
Ġcommis sions
ext asie
1 000
ĠE dit
ĠT en
ĠcomplÃ© tÃ©
ĠdÃ©ri ve
opath e
ĠSm ith
ĠAd ministration
Ġretourn Ã©s
Ġintellectu el
Ġgon fl
ĠTrÃ©s or
i at
Ġm iss
In tÃ©
RÃ©p ublique
ĠgÃ©nÃ©ra liste
Ġreconn aitre
Ġtrouv Ã©s
ĠLib Ã©ration
Ġlumin ositÃ©
N ord
f es
ch ester
Ġpar don
ĠS id
ĠT ER
Ġpros pÃ©
Ġdange reuse
RÃ©ponses Sujet
ĠÃ©ch o
ĠFab ri
mie re
ur ine
ĠA venue
App artement
" ).
ĠpÃ©r il
ĠprÃ©cip itations
Ã¨ nent
tÃ© ritÃ©
ĠD um
ph ants
Ġcar bon
ris que
ĠdÃ©s astre
L og
h onn
Ġm ast
us ta
ĠSc orpion
f oot
aff ec
Ġbr us
Ġcompos itions
inc endie
p ros
ĠH om
Ġ19 74
vent ure
ĠchÃ¢ ssis
ĠPoi tiers
Ġfascin ant
ĠG am
ĠdÃ©p enser
Com tÃ©
ord inaires
Ġrespec tÃ©
zz le
Ġaffich Ã©e
Jeu di
ĠA ge
av a
ĠÃ©t oil
ĠRe joignez
AL ES
t v
ĠÃ§ Ãł
Ġressembl ent
Ġbas que
Ġjam bon
Sh op
Ġcumul able
m os
ur ations
ĠP OL
Ġra tÃ©
oris Ã©s
Ġch asser
Ġinter prÃ¨te
Ġeng end
ĠÃ©le vage
Ġciv ilisations
Ġgouver neur
arch ie
Ġ= >
Ġchaud s
Ġd ames
ang ue
ĠAn t
Ġmodi fiez
Ġterre ur
Ġconnaiss ons
Ġore ille
Ġillust rÃ©
ĠÃ©ro tique
Ġcas ting
An toine
or teur
est a
ĠP DG
ĠP alestine
Ġam ours
Ġman uels
Ġtu Ã©s
adi er
ses sion
Re cevez
ĠdÃ® ners
qu and
ov o
ĠprÃª ter
ĠhÃ©r itage
ĠChic ago
d ata
u a
ĠV ern
che min
ins pire
Ġass umer
dic ateur
enc y
omÃ©t rique
Ãİ le
Ġ9 21
ĠMon diale
arn ing
tech nique
Ġch utes
Ġappr ouvÃ©
ĠCro ss
A fric
ĠH autes
Ġfon ciÃ¨re
Ġreb elles
ĠOuv ert
Ġcertifi Ã©e
Ġ19 30
Ġref ait
Ġaper Ã§
el ing
Ġper cevoir
mis tice
Ġinter venant
Ġbas Ã©es
h ou
ĠS oft
con tin
Ġ19 76
ĠMo dÃ©
Ġoffici er
Ġcib les
ĠRestaur ation
ĠP rime
id jan
M in
Ġc ents
Ġin times
ĠR ES
Ġbr in
Ġaccompagn ent
ĠopÃ©ration nel
Ġafric aines
E gypte
ĠS qu
Åĵ ux
AN C
Ġo deurs
Ġscol ar
Ġrappel ons
ĠÃ©lab orÃ©
ĠTch Ã¨que
Ġmassac re
RÃ©ponsesSujet V
Ġb ati
Ġac trice
ad mission
ĠH un
L Ã©g
Ġcou reurs
h uit
ag glomÃ©ration
onn aise
Ġinst ances
Ġpharma cien
Ġtier ces
V ER
ĠdÃ© tient
ĠS pr
Ġbr ise
Ġsembl ant
Ġsollic iter
Ġrestri ctions
Ġm angÃ©
ĠdÃ©c oul
Ġparent ale
Ġ ut
Ġc ustom
Ġa cide
Ġm ienne
22 3
Ġign or
Ġmarqu age
al o
Ġvi andes
Ġconc assage
200 4
ĠOuti l
Ġobst acle
RAN D
ĠpÃ©nÃ© trer
Ġ( -
Ġst rict
Ġab orde
Ġsupp oser
Ġfond ateurs
Ġpu te
23 4
Ġmut ations
tu es
Ġal liÃ©
ĠW il
M ATION
li ens
ĠâĢ¦ .
Ġsent ent
c ass
ĠT iss
ĠSant a
Ã©tudi ant
k en
ĠP ul
Ġi con
Ġsou ten
d le
as tes
ch ose
Ġmar ty
Ġris quer
ĠRen aissance
ĠÃ©tran ges
Ġmeu bl
ĠrÃ©no ver
S es
ĠS ouvent
ĠM M
int rigue
IT ES
ĠdÃ©c Ã©d
Ġven geance
ĠIMM OBILIER
p ente
Ġ10 80
Ġsp acieux
ĠTra v
ma j
Ġfix Ã©es
Toute fois
Ġfluc tu
ĠM ill
Ġfon te
ĠCent ral
ĠmÃ©tÃ©or ologiques
ĠinÃ©v itable
O s
ĠB ottes
Ġrest aurer
Ġaucun s
Ġsacri fice
at on
Ġfir me
Ġte intes
Ġan tis
ĠAl ger
Ġcou tume
ĠCont rairement
Ġv ot
Ġmon o
10 7
Ġinspi rer
ĠA gent
ise aux
xi Ã©tÃ©
h r
ĠsÃ©cur isÃ©s
ule use
ĠÃ©quilib rÃ©e
ĠD IS
ut o
Ġren om
Ġanim ateurs
Ġpens ons
Ġregroup ant
ĠdÃ© tent
ĠX IV
ĠCol le
abord er
Ġconces sionnaire
T hÃ©
Ġma Ã¯s
Ġclass Ã©e
Ġmam ans
iller a
p ier
Ġh aÃ¯
Ġten eur
oure uses
Ġabs ur
ĠChem in
f leur
Ġph yt
Ġ19 73
ES SION
ĠOn line
sh irts
bl anc
r ans
Ġp esti
14 7
ĠNic ole
Ġla mes
ĠH o
co lique
Ġtrans it
W S
Ġil licite
Ġrapp orter
exp ert
Ġcombin aisons
ĠCh ypre
are l
ĠNap les
ĠCAP C
ĠlÃ©gend es
S ch
v as
on du
Ġmo indres
ĠJ unior
Ġfl ag
ĠpÃ©ri ple
RÃ©s umÃ©
re e
Ġcon ditionn
00 00
Ġven ons
bl ou
ĠAj outez
f lex
Ġ _
Ġdes se
ĠP ages
ta Ã¯
Ġsuiv is
Ġindex ation
c Ã¨s
qu ance
ĠE DF
? )
w i
Ġc anc
Ġde ttes
or ing
ĠdÃ© lin
An cien
OU VE
P o
ill ants
Ġab ri
15 9
Ġemm Ã¨ne
Ġcouvert ures
il Ã©s
ri ble
ch t
Ġpro ie
Ãª ques
Ġcoup es
erce des
Ġrepas ser
â Ļ
Ġre change
tu it
ĠJ EU
emp ire
ov ine
Ġmas ques
ĠtÃ©lÃ©ph onie
Ġretrouv Ã©e
ĠirrÃ© pro
ĠimpÃ©ra tivement
U kraine
ĠC I
Ġj oies
ĠG P
app uyer
ovi c
ĠspÃ©cific itÃ©s
Ġb uffet
Ġti rs
AN E
ĠSh op
Ġgu Ã©rir
ĠR ica
ange z
ĠhÃ©s iter
ĠSaf ari
ĠEn tra
Ġauthenti ques
H eure
ĠH aw
ĠdÃ©pos e
Ġpassionn ant
ĠPart agez
MÃ© dec
Ġ19 77
Ġcor rig
Ġall Ã©s
Ġlic ences
Ġimprim ante
d ate
Ġa z
ĠthÃ© ories
Ġliber tine
Ġpertin ents
Ġcheval ier
ĠArtis tes
Ġfigur ines
qu oise
os cope
ĠA SS
ĠOuver ture
b lement
ac s
vi enne
enti els
Ġad minist
Ġref let
ĠentraÃ® nement
ĠCas ablanca
Ġensole illÃ©e
g rand
ch y
Ġpl uies
ĠE M
Ġsau vÃ©
ĠPar f
Ġtrans vers
Ġfab uleux
Ġrespect ent
ĠTrans ports
âĸ ·
Ġgro tte
Ġ âĢĻ
Ġav al
Ġso ft
yn Ã©sie
Ġvari ation
ĠAt lantique
Ġpa illettes
A ussi
Î ±
Ġcom ble
ĠPersonn el
2 000
Ġoffici ers
h el
ĠÃ© oli
enti ste
Ren contres
an ier
Ġcan ne
Ġrou tier
Ġmaroc aine
Ġeffec tive
Ġcharge ur
ĠBro wn
Ġlav abo
ĠSyndic at
R hÃ´ne
ant erie
ĠE g
Ġsommet s
pos te
Ġcontre faÃ§on
ĠBra ss
Ġd ise
Ġnom mer
ĠNouve autÃ©s
ĠaccÃ©lÃ© rer
p ad
ĠCh oc
Ġsou mission
Ã©m er
Au teur
anim ations
Comm un
Ġspati ale
ĠSec ret
ĠÃ© las
Ġgraph isme
Ġproc Ã¨de
ĠCamb odge
et on
se pt
aut aire
Entre z
ĠamÃ©n agÃ©e
asse z
ĠInd ustrie
N B
Ġpl umes
Ġ- ,
Ġra ces
ĠRÃ©gion al
SÃ©lection ner
ĠemblÃ© matique
Ġspe ed
z Ã©
re lles
Ġcass ation
c us
ĠJ O
Ġrou lement
Ġappr en
appr Ãªte
Ġdevi enne
H ier
Qu oi
ĠCap ital
Ġclass Ã©es
Ġinnov ante
b ol
Ã©d oine
Mar chÃ©
Ġinconn us
ĠdiplÃ´ mÃ©
ol k
ĠD or
Ġbar b
b untu
ĠdÃ© d
ĠV ue
ĠÃ©t anche
Ġmont ants
Ġsign atures
Ġindic ation
Ġconfig urer
m el
mis sions
ĠPro te
ynam ique
ĠÃ©quilib rÃ©
ĠMoz ambique
P OL
asse urs
Ġcro ss
ĠGo od
inv ite
ĠÃ©par gne
ĠÃī ric
ta pe
ĠexÃ©cu ter
c ard
ĠrÃ© cup
Ġconc oc
Or lÃ©ans
Ġrepro cher
ĠPic asso
re l
Ġsu re
Ġ3 20
EN D
Ġcorrespond ante
Peti te
b ay
uis s
Ġconf Ã¨re
ĠÃ©p aisseur
ĠDÃ© finition
ĠF ood
Ġchoc s
ĠbÃ©nÃ©fici aire
autom obile
Ġhybri de
it ait
Ġ19 62
ĠÃ©phÃ©m Ã¨re
en core
an ine
Ġg oodies
ĠFran che
Ġenvironnement ales
A IRES
r iller
ous in
Ġra bat
asse mbl
ĠdÃ©p Ã´ts
Ġempl acements
Ġracont ent
apprÃ© cier
Ġt ante
ĠS EC
Ġ5 50
Ġdou ane
omb rables
Ġincl uent
Ġconfront Ã©s
Ã©conom ies
us tes
Ġsupp rimÃ©s
ĠAm Ã©riques
p ress
ĠP RES
ĠO P
Ġrent abilitÃ©
Ġrecons truire
ĠRP G
ĠP Ã©d
ĠrÃ© cipro
Ġemb rasse
ĠMo derne
Ġlu diques
i fication
Ġb ottes
Ġre charger
end us
Ġmor ales
ĠSam uel
Ġarchite ctes
ĠPrim aire
Ġp aires
ĠF it
Ġi voi
fi le
Ġcontra di
ĠPeu geot
ĠGen e
ĠfrÃ©qu ente
Ġfondament ales
ouch age
Ġoccident aux
Christ ophe
b en
Ġva che
Ġsembl ables
ĠPop ulaire
ĠChauff age
v Ãĥ
w atch
Ġjuri diction
ĠcollÃ¨ ges
Ġf ailli
ĠL il
ĠB ons
ĠCh arge
Ġon cle
ĠMi ke
ouver ts
Ġbou quet
ĠÃ©tu die
ĠLar ousse
Ġv Åĵux
di g
ĠB ud
Ġentre p
ĠPro g
Ġchar ismatique
Ġenseign er
Ġmig ration
ĠÃ©l astique
pie d
ĠC av
at tent
and o
av enue
ĠprÃ©nom s
ator ze
S Ã©curitÃ©
Ġus Ã©es
opÃ© rations
Ġsusp endre
attend ais
ou tre
ĠT oy
Ġeff ray
ĠCom b
Ġta pe
Ġâ ĺ
ĠrÃ©glement aire
Ġn ois
ĠrÃ© veille
Ġac t
av ancement
att ribution
ĠtÃ©m oigner
ĠlÃ¢ che
ĠdÃ©roul Ã©e
ĠlaÃ¯ citÃ©
U G
Ġacc rue
Ġdessin Ã©es
Ġposi tives
issi mo
â ĺ
Ġb ist
Ġper le
Ġdom ic
F l
ult at
Ġsoup les
ĠbÃ©nÃ©fici ant
. (
Ġn Ã´tre
ra po
mÃ© tique
AN A
Ġcou dre
Ġind Ã©ni
ĠAd ministra
ĠPer formance
N et
ĠE tienne
omb ie
Ġgen er
Ġcroy ait
Ġannonc Ã©e
V ers
Ġle d
ĠB B
ĠÃ©vi dente
Ġinstant anÃ©ment
Ġpel ouse
Ġapport ant
Ġmodern isation
Ġrecher chent
Ġjou ir
Ġsau c
exp ansion
Ġfix Ã©s
Ġmunicip aux
Ġacous tique
Ġmul tif
U NE
en ver
Ġj ungle
ĠLa ura
Ġentre z
Ġconne xions
v ra
Ġp Ã´les
Ġe m
vi ol
Ġfin issent
Ġlit toral
ĠSalv ador
\ /
t d
en aires
ĠpiÃ¨ ges
ĠamÃ©li orations
ingÃ©n ieur
Ġinterlocu teur
ai le
os tÃ©
Ġinn oc
Ġbor nes
M IN
Ġf estiv
ĠL ight
ass aut
Ġx xx
Ġappli quÃ©es
Ġmar quÃ©s
Ġmod el
Ġty ran
ĠdÃ©rou lÃ©
ĠpÃ©riph Ã©riques
T ES
ti ges
ĠR av
Ġmain tient
ĠRob e
ĠCamp ing
Ġcolor Ã©s
Ġp aci
ĠrÃ© activitÃ©
chi pel
Ġhy giÃ¨ne
Ġtransform ations
ĠEmp ire
ĠConne xion
intro duire
ĠdÃ© tenus
ĠM anger
est yle
Ġg asp
ĠdÃ© ception
Ġpl atine
Ġch ag
00 1
Ġme zz
Ġ19 69
Ġphotograph ique
Ġoign ons
ĠprÃ© venu
ĠrÃ©d acteur
ĠJack son
ĠEch app
Pr enez
Ġaveug le
ĠRw anda
v aisselle
ĠCrÃ© ez
ĠpÃ©n al
Ġanth rop
S ign
Ġb accalaurÃ©at
des c
Ġbord el
ĠContac ts
ĠOb jectif
heim er
ingÃ©n ierie
I rak
Ġt oiles
Ġapp ellent
ris onnement
Ġbou gie
ĠMal aisie
Ġign ore
C oup
ĠA rabie
Ġinter viennent
Ġpass ager
Ġcur ieuse
ĠrÃ©habil itation
an Ã§
mb our
Ġcli ps
Ġlib Ã©ral
Ġcer ner
ĠPoit ou
P ublic
bre u
ĠÃ©lÃ©ment aires
Ok En
ĠGaz a
N ouve
Ġlib ert
ĠCas tel
ĠTourn oi
S y
t ence
ĠC lo
ĠD up
pi rer
ĠÃ©g yp
ĠdÃ©b lo
UB L
Ġdict ature
ĠdÃ©cal age
Ġelect rique
Ġredout able
ĠPhilipp ines
ĠF ern
Ã¯ t
ĠMe illeurs
Ġaccue illent
Ġpos ture
Ġcol line
Ġcas es
ĠintÃ© ressent
Ġdies el
que ment
Ġdro gues
ĠHist orique
Ġc ursus
ri ol
ĠJ ones
Ġar d
Ġad or
til lerie
Ġpince au
ĠMÃ©m oire
P rom
ĠG irl
Ġme mb
Ġbien venus
Ġw ifi
Ġrele vage
ĠParc ours
Cal Ã©donie
Ġprote ctions
ĠrÃ©trogra dation
g ets
Ġfin anc
Ġvis Ã©
Ġrep ortez
ĠcÃ©lÃ©b ration
authenti citÃ©
A O
ern ard
ĠRe port
Ch ap
Ġaim ant
h on
ĠB onn
ran ch
ĠT X
Ġpeu pl
dic al
ĠmÃ©di oc
Ġali as
initi ation
Ġqu ai
ĠR ot
Ġan ge
ic ots
13 8
Mon sieur
ĠSlo vaquie
ĠtragÃ© die
Ġ ombre
ĠS IM
ĠE ST
Ġth at
Ġaband onner
B ig
ĠP erm
enn y
ĠdÃ©t resse
Ġseni or
ĠcÃ©lÃ©br itÃ©
M ode
ĠB ras
ĠBo ite
Ġmath Ã©matique
Ġic Ã´nes
Ġs ien
Ġparti tion
oup i
Ġsous crites
ĠCor dialement
Ġcop ies
L ocation
c oute
Ġch Ã´me
Ġimp rob
Ġcl Ã´t
ĠDe vis
mo tif
ĠCar aÃ¯
ĠCor n
cel ets
Ġcra yons
Ġincroy ables
ĠdÃ©cenn ie
u et
ouv Ã©es
ĠG el
ĠConc ernant
Cal ais
Ġsin istre
rapo vic
ĠE aux
adi a
Ġrom aine
ex trÃ©
Ġrom ain
ĠCons erv
Ġcrain dre
Ġgam mes
Ġî ĺ¨
P ap
Ġrecommand ation
Ġsuc cÃ©d
Ġintellectu els
ĠF ri
ĠRe ine
ĠAnn ie
hab iller
ĠdÃ©cor ations
Ġv all
ong o
Ġconne ct
Y ork
Ġun ion
ĠR AM
ĠintÃ©g rant
ĠVis ites
Ġaffich age
ĠCin q
Ġgigantes que
ĩ Ĵ
Ġcar ottes
Ġt onne
ĠP ublique
ĠSolid aritÃ©
Ġtatou age
Ġliv rÃ©e
Ġdess ine
Ġet e
ĠP rÃªt
ĠCom position
Ġconfir mÃ©s
ty pe
ĠinÃ©d it
ĠmÃ¨ nent
Ã©lÃ©g ance
L Ãł
Ġfi ers
Ġall aient
ĠMont age
Ġnoeu ds
h ai
as tiques
ĠD aily
og ie
Ġra ch
Ġinform atisÃ©
Ġsitu ent
Ġ50 1
Ġsouff rent
ĠconÃ§ ues
ĠB AC
par ti
ob us
ĠRel ais
Ġc Åĵurs
er on
ĠS at
Ġapp uyer
Ġentre pris
app uyant
ĠrÃ©g lÃ©
ĠhÃ´ pital
Ġconvi ennent
Ġfrom ages
ĠBes oin
Ġso ja
alis ant
Ġvis ent
ĠrÃ©s umer
Ãī v
11 3
12 8
ĠAm sterdam
ĠSorti es
encad rement
Ġin appropri
ĠG S
Ġpoin tes
excell ent
A p
M ad
R T
ro v
ve use
ĠJ en
ras h
imm ense
Ġcertifi Ã©s
Ġproph Ã¨te
Ġb ross
ĠCh inois
Ġpri e
ĠRe v
ĠrÃ©c urr
Ġpens ant
ĠB ande
ER E
Ġautom atisÃ©
Ġmass es
Ġl or
Ġs ms
ra di
ĠP el
ĠS auv
ter res
mis tes
Ġpi res
Ġviol et
Con f
ĠHer vÃ©
Ġasc ension
ĠrÃ©no vÃ©
ĠlinÃ© aire
Ġlenti lles
Ġp Ã¨se
Ġg yn
Ġrep ouss
ĠfÃ© con
ĠT roph
ok er
inc onnu
ĠI er
ĠdÃ©c our
Ġtro c
quÃ© reur
ĠDire ct
Ġcompas sion
d isc
Ġs tr
ri elle
ser tion
Ġvis itant
ind ustri
Ġrenouvel able
Ġprovin ces
Ġlesb iennes
" |
p ays
Ġs Ã¨ches
ĠR ugby
Ġcul inaires
Ġpra g
aper Ã§
Ġin verse
ĠPro jets
ĠdÃ©velopp ements
Ġstagi aires
ne aux
Ġch aines
ĠrÃ© confort
ĠT s
ĠPro ph
be ille
own load
ĠalÃ© atoire
Ġmajoritaire ment
os a
Ġutilis ations
ĠW itte
Ġgroupe ment
Ġru ines
Go ogle
ĠPro b
Ġsouhait s
Ġcommen Ã§ant
accomp agne
Ġaigu illes
u ment
Ġv il
Ġjus tesse
ĠinÃ©d ites
H S
as k
Ġal la
com pte
ak o
Ġessay e
b il
ĠD Ã©g
10 4
aff ection
Ġidenti fiÃ©s
Ġextra ordinaires
ĠdÃ©ta illÃ©s
Ġpav illon
ĠL ouvre
ĠR J
Ġpermet tait
13 5
ĠdÃ©di Ã©es
Ġillus trer
ĠEsc ort
== ==
Ġgra ins
Ġbar be
emb ar
Ġdiffus Ã©es
I e
Ġper vers
Ġdis po
Ġgard ant
ĠVal Ã©rie
Ġautor itaire
y ss
ag istes
Ġdu es
Ġva ches
orti er
Ġdiscip les
d ocu
r iste
Ġt amb
ĠP y
Ġdans es
Ġco alition
ĠViv re
ec tif
all a
anc ourt
Ġexp resse
ĠÃ©p aule
ĠmÃ©t amorph
ĠDÃ©m ar
ĠV o
Ġphilosoph ique
ĠSeu ls
Ġjur ispr
qu ence
Ġe v
Ġjus tifie
Ġmari Ã©s
ĠsÃ©par Ã©ment
Ġconfront ation
Ġsing le
Ġgramm aire
Ġsurmont er
t rÃ©e
Ġ12 1
Ġ--- -
Ã© veil
Ġma ille
imp ossibilitÃ©
Ġstim uler
Ġdi oc
Ġtra ding
az ar
ĠMal te
ĠdÃ©liv rÃ©
ar isme
Ġvol um
ousse au
Ġreven dications
ĠDocu ment
Pi Ã¨ce
e aux
Ġtrans mise
Ġquelque fois
Ġdistribu Ã©
Ġbienfais ance
D ES
ay ette
Ãī N
Ġbris er
in ten
ĠC ouleurs
ver sible
Ġcons omme
ĠMar g
ore illes
11 4
Ġanc Ãªtres
ĠProfessionn el
t ta
Ġfon dement
Ġp anc
il Ã©e
Ġ2 60
ĠDi x
ĠgÃ© ants
ĠTech ni
Ã© puis
ĠV II
Ġscol aritÃ©
ĠdÃ©rou ler
ĠFort une
ĠR ive
ĠV il
20 3
ĠFor Ãªt
Ġ* *
ĠDÃ©s ormais
hos pit
ĠSoud an
Ġun ies
Ġ2 70
vi deo
ER N
Ġretrouv Ã©s
Ġvisu alisation
t ain
Ġa cides
in auguration
ans on
ĠE tude
ath er
ĠrÃª vÃ©
ĠPr endre
Ã©qui page
g ons
ĠAm Ã©nagement
Ġgri ppe
Ġcolon ies
jus qu
ad j
Ġdou zaine
rie re
Ġaid ant
ologique ment
Ag riculture
Ġfili Ã¨res
Ġaler tÃ©
inqui Ã¨te
ĠM au
ĠM OT
ric orne
env oie
ĠÃ©chantill on
F emme
Ã© min
âĢ ĳ
ĠP atrice
ĠrÃ© invent
Ġpo tes
ĠW ade
ĠUn ited
Ġ16 2
Ġrel ance
ĠÃ©vent uel
Ġball ons
Ã©n avant
ph on
erb aÃ¯d
Ġa xe
Ġphot ovol
Ġsp itz
Ġrend s
Ġaffec tÃ©
Ġleaders hip
Ġn ick
Ġj etÃ©
Ġsy l
Ġsorti ra
ĠpÃªche urs
ĠSyl vie
ĠSorti e
S ciences
ak ers
ĠMont agne
oud ou
B T
B elle
Ġin tes
ĠAf ghanistan
u de
Ġcour antes
Ġade ptes
ĠBrig itte
Ġv igner
ĠS V
Ġmin istÃ©ri
Åĵ ud
cel aine
Ġdiver tir
Ġoccident al
R U
y les
Ġlum ineuses
ĠvÃ©gÃ©t ation
Ġvoil ier
ĠTÃ©m oign
Ġcelib ataire
Ġc rier
Ġat tÃ©n
Ġcol onie
Ġca ill
Ġdeme urent
Ġsor cier
Ġpollu antes
Ġasi atiques
Ġcocktail s
Ġj o
ĠT aureau
Ãī p
ock age
Ġpot ager
ctionn el
A ix
is tible
Ġb ib
id ou
ĠDi ctionnaires
Ġresse mbler
Ġamen Ã©s
ois eau
Ġra ll
ĠcrÃ© ative
Ġautoris ations
udg et
ĠsÃ»re tÃ©
ou Ã©e
Ġinter commun
gn ac
ĠJac ob
ĠlÃ©giti mitÃ©
c ellent
ĠL ing
ĠT ax
ĠdÃ©ci d
Actu alitÃ©
ĠmÃ©thod ologie
Ġobserv ation
qu ot
Ġ: ...
ĠprÃ© cieuses
ĠvÃ©ri fiez
Ġindividu ellement
ĠM ercedes
ĠW ood
Ġprogressi ve
Ġcar rosserie
ĠdÃ©partement ale
Ġfre iner
Ġrelax ation
Ġcontro vers
d ers
in dÃ©
ĠS G
ĠH Ã©ber
Ġper Ã§u
Ġres tez
Ġta che
ĠApp ar
Ġtrib une
aa aa
âĢŃ ,
ĠindÃ© termin
erbaÃ¯d jan
A X
T ags
Ġappr entis
ite m
ard er
Ġsoci ologie
ĠdÃ© form
ont Ã©
ĠT y
Ġfavoris ant
tens iles
ĠamÃ©nage ments
H ong
n ait
ĠdÃ© lit
Ġjus tes
Ġ15 2
Ġrep Ã¨res
Ġag gra
ĠSal omon
ĠPer pignan
h ar
ĠdÃ©velopp ent
gr Ã¼n
l ots
ti ments
Ġn aÃ®t
Ġ19 67
occ urrence
Ġliqu ides
ĠhiÃ©rarch ie
Ġpos ez
ĠCh imie
Ġsent ait
Ġmanipul er
ILL Y
ĠLe v
im mer
ĠPar ole
Ġsupp rime
ĠSa Ã´ne
ĠÅĵu v
Ġciv iles
Ġmens onges
Ġsatisfait s
Pre mier
Ġen chant
Ġmondi ales
Ġstock Ã©s
Ġsuc rÃ©
Ġpertin ent
ĠREN CON
z on
Ġh ot
vi endra
ate m
Ã©ri culture
ta x
ĠZ en
Ġsau te
Ġrense igne
import ant
Ġdeven ues
Ġcar refour
ru g
ĠCÃ© cile
ĠPharm acie
r estaur
Ren dez
ne ptun
Ġch lor
ĠG Ã©n
ĠIn grÃ©dients
ĠbÃ©nÃ©fici Ã©
ĠActu ellement
Ġrespi rer
es a
ĠPar am
Ġob ti
Ġcompar Ã©
ĠÃ©lÃ©g ance
Ġconcl ut
Ġt an
Ġch risti
Ġaut onom
Ġactiv es
Ġpris onnier
ĠPÃ© kin
Ġlub ri
Ġgram mes
B at
Ġn us
ĠrÃ©f Ã©rer
Ġcal mer
ĠAk rapovic
D Ã©m
Ġg age
ĠT ouch
ver ti
Ġconte x
Ġpsych ique
Ġbrev ets
un animitÃ©
ĠL argeur
Ġco cher
st ar
Ġab domin
ĠgÃ© oloc
ĠProfessionn els
E tienne
us cules
lÃ© si
ss Ã©e
Ġat titudes
Ġent rent
Ġplu vi
Ġhy d
Ġ26 2
**** ****
Ġd resse
ment e
tel la
Ġassi ette
ĠSieg grÃ¼n
neptun ienne
R apport
f oli
Ġc end
ti Ã©s
ti co
ĠH eb
Ġinvent Ã©
ĠPle ase
O cÃ©
c os
an as
qu ateur
ĠA yant
ĠT ib
oph ilie
oo oo
ĠnuclÃ© aires
associ er
u ch
Ġn uire
Ġloup s
Ġdemois elle
Ġb ond
ĠT ony
ĠR Ã©n
la di
Ġpublique ment
Ġsymbol ise
J ardin
ĠG L
Ġra ter
Ã©g ro
Ġenvironnement aux
LE T
f ils
ra ct
ĠR on
ĠH it
Ġper f
Ã©ra ult
Ġcar riÃ¨res
Ġvis Ã©e
ĠprÃ©v enti
Ġcommen Ã§a
imag inaire
ĠToul on
ĠbrÃ©sil ien
m onde
11 7
Ġinv iter
Ġradi os
L igue
g ouv
ĠdÃ©p ense
Ġcop ines
ĠCab inet
Ġdescrip tif
Syn opsis
E lect
ĠG ross
Ã©t al
Ġinter f
ob st
ĠEt h
ĠSt at
ĠÃ©cr ites
ĠstÃ© ril
Ġloy ers
J E
ĠP uy
ĠS ir
ĠN obel
orm es
Ġcomp lot
Ġman quait
Ġro t
rim ante
az e
ĠM ate
Ġinter rup
13 1
Ġcommuni quÃ©s
ĠJav a
Ġurb aines
Ġimp rovis
ĠÃ©d iter
Ã³ n
E sc
g estion
l ette
Ġhabitu elle
aw a
arrÃª tÃ©
cin q
Ġcon ner
ic ain
Ġ19 39
Ġcompr ises
11 8
Ġfili ales
Ġcanadi ens
Ġuni forme
ĠDist ribution
al an
ĠH il
Ġes qu
Ġes car
Ġcont ours
Ġbi Ã¨res
Ġsac rÃ©e
Ġtri angle
Ġoccup ants
B es
j pg
Ġinter active
Ġbon bons
UR L
16 6
Ġgen ou
ĠentraÃ® nÃ©
ĠDes cendant
ĠUS D
Ġsovi Ã©tique
Ġ ours
Ġpour rai
gr oupe
Ġhi pp
Ġestiv ale
Ġdonn a
Ġmet al
ĠAg enda
ĠChris ti
Ġbulle tins
ĠTch ad
Ġplut ot
200 3
Ġfant Ã´me
ĠSociÃ©tÃ© s
U V
ĠT ah
ĠN F
Ġal phab
ĠconsidÃ© rÃ©es
bl ock
Ġfant ais
ĠBer ger
Ġ omb
im mat
Ġmondi alement
Ġaffili Ã©s
C Ã´te
ĠC CI
ĠM assage
ĠX P
Ġbient ot
Ann uaire
Ġoccup Ã©e
Ġcarb urants
Ġcord on
Ġb erce
ĠT D
Ġbou chon
ting s
ĠMine craft
g ents
pÃ©ri tif
anci ens
ĠDÃ©p annage
Ġob sol
imp rimer
OpÃ© ra
ĠStratÃ© gie
Ġpar aly
ĠRe gardez
11 9
b ir
b ordeaux
Ã©n a
Ġsi rop
i tive
Ã©r ents
Ġrest Ã©s
ĠSt age
ĠmÃ©r itent
ĠgÃ©nÃ© reuse
Ġcous in
num Ã©risation
N ombre
es tement
Ġcomp enser
Ġcas h
Ġmal in
net s
Ġmorte l
Hall oween
ou pÃ©
ati c
ĠÃ©p anou
Ġvra isembl
ĠTechn ologie
Ġprior itaire
ĠcomÃ©di en
ĠLion el
Ġfaill ite
Ġh andic
Ġbas cule
ĠCon fort
Ġsc rap
Ġtourn ent
Ġchamp ionnats
Ġcontent er
Ġpromen er
ĠreflÃ¨ tent
ĠS I
ĠPok er
ĠapprÃ©h ender
p ter
ch ang
Ġso dium
Ġat mosph
Ġbrut alement
fil m
Ã©n ith
Ġconc er
b ac
ĠL ady
ap titude
Ġ4 000
Ġsimpli fiÃ©e
RÃ©ponsesSujetV ues
Ù Ħ
Ġpe ople
14 5
Ġinten ses
L ux
Ġall ure
Ġcontempor aines
ĠU RL
22 4
Ġcontinu Ã©
ĠTi mes
ĠGU Y
Ġinterlocu teurs
entraine ment
Ġpatri mon
Ġrecue ille
Ġflex ibilitÃ©
ĠpÃ©riph Ã©rique
Ġgr illes
Ġpoli ciÃ¨re
Ġfont aine
ĠMan che
excell ents
Ã© mi
Ġs pectre
Ġin hÃ©r
Ġan om
Ġmari ages
autom atisation
Ġanc est
ĠS L
ĠT ime
Ġsa viez
ad ine
Ã©t rique
ĠÃ©v al
Ġreven dique
Ġgarantis sent
Disc ussions
M eu
Ġh ockey
ĠN a
Ġimp Ã´t
illet s
Ġend orm
Ġhom ogÃ¨ne
Ġmang as
ĠWord Press
ĠmÃ©tab ol
f our
u alitÃ©s
ĠT am
Ġ! ),
Ã©ra ture
10 9
si ca
Ġbl ab
Ġconnec tÃ©e
ĠbÃ©nÃ©ficie rez
Ġhydra ulique
S ud
Ġg osse
Ġreconn aissez
UN ESCO
Ġentour Ã©e
Ġacqu ise
ĠM ettre
ob serv
Ġrapp ortÃ©
Qu Ã©bec
Ġpost ales
ĠSA V
Ġserrure rie
attra ction
ĠI G
Ġco chant
Ġab e
Ġven ger
ĠCor an
ĠPr ise
Ġattend ait
Ġexceptionn els
ĠMÃ©di as
Ġculp abilitÃ©
d ote
Ġcon ducteurs
ĠRÃ© seaux
Ġir rÃ©g
t at
Ġinv itent
ĠPrÃ© paration
Ġemb el
Ãīt ats
ĠHD MI
Ġfinance ments
Hen ri
ch im
ĠS ITE
Ġi phone
Ġretra ites
ĠPic ardie
ou Ã©s
ĠS in
ĠdÃ©b ord
oph y
ig ence
aÃ¯ sme
Mar di
Ġchoc ol
ĠcompÃ©t ents
aval ier
ĠFi ches
c ours
Ġd rain
ab i
ĠB I
ĠF IN
Ġvol ati
V ILLE
ĠW ater
Ġca usÃ©
Ġti rÃ©s
Ġinc ert
af e
Ġemb allages
Ġom ni
ĠÃĥÂª tre
ĠF ull
ĠsÃ© minaires
Ġcour riels
ast ro
Ġattend ue
ĠV Ã©rifiez
Ġaut rich
Ġatten tif
ĠdÃ©liv rer
ag ing
ig a
Ġfran che
Ġense ignes
Ġcouv rant
Ġcell ulaire
ti cienne
ĠB a
Ġpap illon
Ġaim ait
sidenti elles
ĠLis bonne
S aison
ĠS itu
Ġser ie
ĠrÃ©cupÃ© rÃ©
eu d
ĠM AC
Ġcommand Ã©s
Ġcaf Ã©s
Ġsaur ont
Ġtox iques
Ġpri er
Ġgra isses
ĠEx positions
Ġaqu atique
ĠSyl vain
ĠvulnÃ©ra bles
s w
er ge
li f
Ġh Ã©licopt
Ġmilli mÃ¨tres
13 4
AS SE
ik o
Ġlait on
ĠEuropÃ© ennes
obÃ© issance
un ier
ĠV intage
Ġtr onc
Ġren fer
ivers aires
Ġmic ros
V ille
ĠT O
ale ine
Ġrec ourir
Ġcont our
Ġple ines
12 7
os te
Ġ9 78
Ġcap t
18 8
Ġatta quer
ĠConsul ter
is ph
lig ht
13 6
Ġaider ont
Ġcompt ait
ĠCal endrier
Char les
Ġpour rions
ĠB ack
ĠLa h
od rome
19 8
Com merce
ĠCo ok
inf ir
Ġcourt ois
Ġaffec ter
Ġhoriz ons
Ġnob les
Ġle vÃ©
onn iÃ¨res
ĠI M
ence inte
Ġ3 80
ĠConse iller
Ġplant er
est Ã©ro
Ġex ceptions
Ġsou tiennent
Ġ14 2
ĠdÃ©s ordre
ĠdÃ©g agÃ©
ĠdÃ©mar chage
Ġfro ides
Ġbis cuits
Dim anche
C oupe
Ġm aitre
ĠG Ã©nie
ex am
la ve
Ġpol onais
ĠSu jet
ĠmÃ©diÃ©v ale
A H
c elle
Ġs iens
Ġser pent
ĠCh am
ĠSh ang
OM E
Ġpat rons
ĠSc ott
Ġmotiv Ã©
Ġregroupe ment
O uti
Ġl ignÃ©e
Ġtou ch
UR S
ĠpÃ¢ le
ĠpÃ© til
ĠrÃ©fÃ©r endum
Ġcyl indres
Ġcenti mÃ¨tres
ab ond
Ġtravers Ã©
ĠrÃ©v Ã¨lent
ĠCap acitÃ©
IF A
orient er
v Ã©r
Ġcon gÃ©s
Ġrep roche
Ġtri co
Ġenregistre ments
ĠPol ynÃ©sie
F iche
â ĩĴ
Ġh auteurs
AM E
ĠDocu ments
ĠTerrit oire
Ġd vd
Ġsi ff
Ġdiff er
ĠsÃ©cur itaire
Ġimpli quÃ©s
ĠEng lish
interro ge
m ur
al uminium
ch ard
Ġsa oudite
Ġvol Ã©
ĠPRO F
al ade
ĠC Ã©sar
Ġin cident
Ġdi d
Ġ19 71
Ġbl ond
ern et
ĠCan did
Ġcapit aux
oxy gÃ¨ne
ĠPay pal
Ġaff aib
In d
18 4
Ġcou chÃ©
S ystÃ¨me
en h
ponib ilitÃ©
ĠÃ©conom iser
att an
Ġord inaires
Ġimag ine
we at
ĠMeu bles
H or
ĠH avre
av Ã©rer
Ġpo ing
op olitique
ral tar
Ġbro derie
Ġesclav es
A tt
Ġ use
ra ft
pe re
Ġenvironnement al
OUR N
m ode
Ġpar aissent
ĠN ar
Ã©n ique
ĠÃ©t endu
ailler ie
ĠIn donÃ©sie
ĠSer bie
Ġdiam ants
Ġtempor airement
Ġdans eurs
ĠD auph
IC I
pir ent
Ġpira tes
en cl
in fini
Ġt ag
Ġf res
oy enne
Ġmor ph
ĠBlog s
ĠÃ©ti ez
Ob servatoire
Ġcens Ã©
Ġsusc ite
Ġt ons
Ġretra ce
I d
on iste
qu ine
Ġf osse
Ġtou chent
Ġpers Ã©v
ĠCon cept
Ġmondi aux
ĠVal entin
ĠRob in
Ġray ures
Ġdange reuses
ĠâĢĺ âĢĻ
inv itation
ĠG O
Ġpass a
Ġdou Ã©
ren contres
ĠGran des
ĠcÃ©rÃ© mon
Ġtut oriel
V iv
Ġconf us
Ġbar rage
Ġemb au
EL S
Ġcre v
ĠprÃ©par Ã©s
Ġguer rier
ĠTrib une
ĠVos ges
guer ite
Ġgre ffe
Ġplur idis
Ġindirec tement
ĠC FA
Ã©r one
Ġmin eure
âĤ¬ )
Ġprogram mÃ©
ĠCommun ity
ĠBen ch
ĠpÃ© tition
Ġaccueil lis
ĠpÃ©r enn
ĠSpÃ©ci al
Ġeth nique
Ġcann abis
Ġvamp ires
Ġseg ment
g Ã¨nes
y cle
Ġs ienne
ĠVal ence
ĠHad Ã¨s
hait ez
6 00
Ġn ues
Ġprof ess
Ġins iste
Ġcap ill
Ġchirurg ien
prof essionn
L ettre
op tions
app areils
aur ont
ĠocÃ© ans
Oli vier
est omac
Ġpi tiÃ©
Ġsub til
IF I
ĠLux e
Ġgagne z
Sui vez
Ġb it
ĠrÃ© per
ĠG rec
ord onnance
ĠParis ien
Ã« n
Ġnett oy
Ġoccup Ã©s
ĠexpÃ©riment al
Ġappli quÃ©s
Ġvel ours
ĠcrÃ©di bilitÃ©
ĠtÃ©lÃ©phon iques
it as
Ġv ignes
om ix
Ġre ins
Ġser as
Ġcont am
Ġg au
se x
ĠH andicap
Ġcontre partie
AM P
Aut o
Ġorient Ã©
ale z
ĠN ON
ĠâĢ ŀ
Ġclair s
Ġmul tination
Ġdr Ã´les
ut h
Ġconsult ants
Ġru de
V oy
s ax
fi ables
Ġavant ageux
ĠMont rouge
Ġprati quÃ©
Ġroul ants
ench on
orb onne
Ġc ors
ig o
Ġvi vez
Ġbar oque
ĠGr oupes
ĠCap ricorne
Ġmens uelle
t rop
z Ã©g
Ã º
Ġcou liss
Ã©qu ilib
Ġprivil Ã¨ge
Ġrattra per
Ġs m
ĠT RAN
Ġmat rim
Ġcontin ents
Ġrais onnement
ĠVi ctoria
Ã© ter
che v
Ġson de
Ġorient er
ĠDisc ussion
ĠFlori de
. ]
Ġmo ines
pos ez
ĠÃ©v itant
uit ton
Ġatta quÃ©
lÃ¨ve ments
Ã©tudi ants
ĠprÃ© d
Ġdis cer
Ġaccep table
inter view
m asters
t ot
ĠMar iti
12 4
ĠmodÃ© lisation
Ġchasse ur
ĠrÃ©initi aliser
ĠB oy
ing o
ĠconsidÃ© rons
Ġcru ci
Ã©le ver
Ġm Ãĥ
Ġcl ois
ĠG rÃ©g
ĠW W
ĠVi a
Ġvend ue
ĠC la
ag onie
ĠT ai
end ettement
Ġan tic
Ġw ork
aur aient
ic aux
Ġres titution
Ġaff in
ĠBan k
Ãİ les
l onge
âĢ ¨
ĠprÃ© limin
Ġad mettre
ĠV a
ĠQ UE
ĠsÃ©lection nÃ©es
Ġcra quer
Â ¢
ĠT omm
ens Ã©s
Ar m
Ġinc ite
Ġbe ige
arc tique
ĠBay onne
ĠillÃ©g ale
ĠF av
Ġsitu er
Ch ris
Ġpu ces
ĠcompÃ©t entes
Ġfaibles ses
P ost
Ġpay Ã©e
Ġsty lo
Ġpeint res
g ou
l ass
et z
Ġen tiers
ĠS ond
ĠV OUS
Ã©r ons
ĠU P
app robation
Ġval ise
Cal culÃ©e
Ġconsens us
C ent
ĠÃ© lar
Ġre mÃ©di
Ġaur ais
ĠÃ©duc atifs
ĠhÃ©s itÃ©
ĠRap ide
u des
Ġv om
Ġg ays
ĠD ordogne
ĠT G
Ġfin ancÃ©
Ã©v ille
Ġmal veill
Ġval ent
ĠMos elle
Ġdiplom atique
Ġm s
Ġn id
av ancer
amb a
Ġref roi
ĠrÃ©solu ment
ĠC ateg
ĠM D
am ie
tr ons
Ġth Ã©s
Ġassoci er
Ġposition ner
Ġexam iner
extra ction
Ġloint ain
Ġsulf ate
Ġnostal gie
ĠD O
ĠE gypte
Ġpsych ologiques
ĠImp rimer
ĠrÃ©fÃ©r enc
Ã©ni ents
ur as
ĠT HE
ul ateurs
Ġren de
gra d
ĠIs ra
Ġpertin ente
Ġbul les
Ġtic ket
ou in
Ġv ap
Ġn Åĵud
Ġentre prendre
Ġcour bes
ĠVi de
ĠPra gue
ĠamÃ©n agÃ©
Ġph ares
arm a
ĠLuc as
P eu
ab at
ĠT an
Ġo ptez
ĠJ ura
ĠPl omb
ĠEsp agnol
ĠEs prit
ĠLo gement
Ġlob by
Ġr hin
ĠH av
ĠCh rÃ©
ĠÃ©volu ent
Ġappor tÃ©es
P rin
n ouvelle
Ġb ourses
Ġsur vol
ĠT IC
ĠIn tel
Ġmin oritÃ©
Cont act
ĠUtilis ateur
ĠRi viÃ¨re
ĠLif e
ĠM atin
Ġrespec tif
ĠÃ©ti quette
Ġstagi aire
qu aient
Ġpos ts
Ġconf ondre
Ġsoi gnÃ©
Ġappar ait
isser ie
Ġhabitu els
Ã©si um
ĠSpe ed
S ituÃ©e
Ġo ver
' m
L eur
Ġfac es
Ġrig oureux
tig ation
l antÃ©
te il
ĠA ct
ĠA voir
Ġaj uster
Ġhor log
F ab
au mes
Ġcon quÃ©rir
ĠJ uri
-- -
Ġsuper marchÃ©
Ġprofond s
ĠCC M
in vention
Ã¨ cle
ĠrÃ© sidentiel
ĠB it
che f
imp osition
Ġfou et
Ġmatern elles
ĠBur undi
Ġregroup er
ĠVirgin ie
an Ã©es
ĠS ki
ĠN orth
16 8
Ġperform ants
ĠCrÃ© dits
Ġappropri Ã©es
Ġparois se
ĠirrÃ©pro chable
N or
V u
Ch anger
13 3
ĠprÃ©cau tion
Ġolymp ique
an tisme
ĠM AT
G ermain
g ences
Ġp ige
Ġm aires
ig es
cep tÃ©
ĠrÃ©f rigÃ©
Ġouv rier
Ass urance
Ġtom ate
ĠDeux iÃ¨me
Mal heureusement
instru ment
ĠPro v
R hin
V IS
os que
ĠB y
Ġsy ste
Ġremp liss
cop ie
p id
oi d
Ã©m en
Ġpi ment
amb assade
ĠthÃ© oriques
ĠÃ©mo tionnel
ĠSah ara
ĠM C
Ġmat er
Ġquoi que
Ġ45 2
Ġsyndic ale
E ur
ou a
Ġdes criptions
ĠA re
Ġser rÃ©
ano Ã¯
ĠR oc
Ġ19 61
ĠMar ion
Ġbas culer
ĠPrÃ©sent ations
Ġb ebe
ch ten
Ãª tÃ©
Ġdi ap
ĠK at
Ġdiman ches
Ġrepos ant
accomp agn
Ġzo om
ĠÃ©chantill ons
z one
z heimer
ar istes
Ġh Ã©p
ĠI X
ĠFor me
Ġfre inage
e acute
en dez
ĠDe vant
Ġinst alle
ĠP alestin
ĠdÃ© formation
Ġch an
ill o
Ġmar athon
ros pective
AN N
Ġinf lam
ĠreprÃ©sent Ã©e
Re joignez
ĠfrÃ©qu ences
Ġre lier
ang oisse
Â© .
amme d
RA M
Ã©nÃ©ra tion
Ġillus tration
Ġcoul oirs
ĠÃ©t al
Ġsoci alistes
16 2
ĠÃ©goÃ¯ ste
l ux
Ġl ola
ĠB TP
Ġtra me
ĠdÃ©ta chÃ©e
or Ã©es
ĠM Ã©n
vi de
oxy de
Ġcirconst ance
Ġconvers ations
% ),
Ġm ord
ĠR iv
Ã©n Ã©gro
Ġpre t
Ã¯ se
ĠSa o
Ġrempl it
Ġrevi vre
K it
ar di
Ġisol Ã©e
cien nes
ĠVe gas
ti ch
Ġh ack
Ġ! ...
Ġno ci
En v
Ġsouff rant
Ġconver tisseur
No Ã«l
ĠconsÃ©cuti ve
Ġphotovol taÃ¯
Ġ \
Ġb uis
ĠB aud
ĠB uff
Ã©t anchÃ©itÃ©
tin ct
Ġdemand ait
Ġfl anc
IMM OBILIER
p ages
Ġl iterie
Ġm ette
ol os
Ġh Ã©rÃ©
Ġw indows
ĠamÃ©li orÃ©
an iques
ch ine
ĠS outh
Ġcomp ortent
Ġform alitÃ©s
oph ile
Ġrecru ter
P ra
Ġb alises
ine ma
Ġtro tt
Ġvend ues
Ġpit tor
Ġmatrim oni
I dÃ©
ti quettes
ĠF all
ĠF ashion
ili a
aiss ances
Ġatt ribuer
Ġreb elle
Ġestim ations
n ing
Ġd am
Ġb ordeaux
ĠF lÃ¨che
ĠTous saint
Ġgal ax
autor ise
m ot
Ġp ains
ou z
ĠP och
Ġinter actives
ĠW ork
Ġchois ies
amp li
Ġtrouv ais
imb ab
ĠPartic uli
C el
Ġs ommaire
Ġb Ã»
ont ologie
Ġregard a
Ġhabitu Ã©
Ġparl ons
Ġliqu idation
Ġimper mÃ©
M aster
Ġcont estation
EN E
Ġlu ciditÃ©
su per
Ġpseu d
ĠInvent aires
Ġslog an
ĠL oup
ĠA grÃ©
jec teurs
Ġinv itÃ©e
ĠMe d
Ġ45 00
Ġrent able
Ġpy ra
Ġconjoin tement
I Z
Ġdi alog
co de
Ġcommun ion
Ġsec rÃ©tariat
Ġprivil Ã¨ges
Ġesti ment
ĠesthÃ© tiques
t ur
Ġinter diction
cÃ© mie
ĠrÃ©s iliation
asse oir
ĠY oga
Ġpom piers
Ã©conom ique
ĠcomÃ©di ens
I niti
ĠS uis
ob server
ĠrÃ©alis ant
Ġcompli ce
R CS
ra ser
ac a
dÃ© mie
ocra te
Ġmorte ls
ĠdÃ©clen cher
Ġd auph
si a
ĠG A
Ġret ards
ĠS eb
Ġson ne
lo od
19 2
ap Ã©s
En g
emp les
Ġapprofon die
b oy
Ġh Ã©
ograph es
ast Ã¨re
Ġcre dit
Ġsinc Ã¨rement
Di pl
Ġrapproche ment
estim ation
A ri
j onc
Ġs ati
ĠC oton
Ġst op
oph obie
Ġus er
OL OG
ĠE mail
ĠT abl
ĠÃ©t roit
Ġentre tenu
mar Ã¨s
22 5
ĠPe ople
ĠBo Ã®te
ĠPou tine
ĠIngÃ©n ieur
M aur
f u
ĠS eni
ĠM ir
Ã©v Ãªque
Ġmaj est
Ġfoul Ã©e
Ġcalc aire
N um
P TE
Ġde p
ol le
ĠX ML
if t
Ġconform er
P G
re mp
is p
in timitÃ©
me ur
ĠJ im
Ġex otiques
um Ã©e
Ġmar seille
Ġoblig Ã©s
Ġroul ettes
ss ss
Ġad h
Ġinter romp
ĠDe ad
gn ation
Ġcommence z
Ġmass ages
ĠSER V
Ġfor ger
Ġsc rup
13 2
ĠTÃ©lÃ© vision
Ġemploi e
ĠdÃ©tent eur
ĠG aleries
ill um
Ġam ical
Ġservi ettes
16 9
Au vergne
ĠPr Ã¨s
Ġrecev ra
Ġpo Ã¨tes
oti ce
ĠLaur ence
} }
fi ante
Ġsous crit
Ġfourn issons
igh ts
Ġcac ao
G U
Ġv igne
ĠH ay
ign ants
Ġven ues
Ġref lÃ©
exp lication
Ġsouff ert
Ġrenfor cÃ©e
Ġglob e
ĠSui vi
Ense mble
Â ¦
ain si
ĠF ON
Ġinter min
Ġchauff Ã©e
z abeth
Ġp acifique
re ments
ph ant
Ġmal ad
TI QUES
Ġtex tiles
OR S
ĠdÃ©par ts
Ġagressi f
atem ala
Ñ ı
ar bit
ĠÃ© pon
ach ette
l uer
ar ritz
Ġre Ã§ois
ĠT OUT
Ġpe urs
rop rier
yl and
Ġconserv ateur
Ġlanc ent
ĠcÃ©rÃ©b rale
g il
Ġinf ections
Ġcondam nation
Ġchante urs
expÃ©ri mentation
ĠÃ© lan
Ġflam mes
adolesc ence
Ġg ib
ĠV ins
ĠmÃ©di co
ĠdÃ©pl oyer
Ġchem inement
Ġmun i
Ġimpos Ã©e
Ġconj onc
d ale
Ġcommence ment
Ġital iens
Ġb a
ai ment
th i
16 5
ĠVi ce
Ġir rit
ĠGh ana
u itÃ©
ĠT Ã©
Ġcol oration
Ġas tuce
Ġmodi fie
Ġfl ott
Ġfit ness
M D
ĠV ich
Ġar rÃªts
ĠcrÃ© atives
Ġconc rets
Pre miÃ¨re
ĠrÃ©public ain
MatÃ©ri el
ĠathlÃ¨ tes
Ġc uite
rÃ© f
Ġapp orts
ĠdÃ©ci da
Ġdiplom atie
ĠdÃ© charge
ĠM ouss
Ã©s itÃ©
emp risonnement
Ġent rant
Ġintellig ents
Ġcrimin els
ais ir
ĠDe v
Ġsymp as
u di
ĠC elles
ab onnÃ©
ĠV inc
Ġ19 65
Ġbanc s
Ġcircul er
ĠprivilÃ©gi Ã©e
Ac tivitÃ©s
roy eur
Ġmultip lier
Vide o
os h
ĠP ent
di fier
ĠgÃ©n Ã¨re
are lle
Ġvari Ã©
invent aire
ĠDiv ision
ĠFabric ation
Ġcommod itÃ©s
H e
ĠEn ergie
ĠrÃ©p Ã¨te
Ġchristi anisme
o ing
Ġp acte
ĠE tudes
pr int
Ġaut och
ĠAnti lles
ĠProm o
Ġparcour u
c tÃ©e
m ing
p ation
Ġla cs
Ġr dv
eure tte
mar ine
Ġnat ation
Ġmanne quin
Ġsplendi de
i ches
Ġm ay
ĠTr ou
Ġcontinu ation
ĠdÃ©li cieuse
ĠdÃ©fectu eux
z an
an ormal
ĠPar tout
Ġconsomm ations
ĠGÃ© orgie
ĠdÃ©roul ent
ĠEchapp ements
n ologie
Ġf Ã¢
il at
ign or
Ġor al
ĠDe co
Ġ17 2
Ġcap uche
ach ar
Ġaugment ent
Ġinflu ences
Ġexpli quant
Ġincar ne
Ġrestri ction
B ois
Ġre tient
ĠN AS
Ġ19 58
orti e
Ġhabitu Ã©s
ĠdÃ©bat tre
bi han
ĠRap haÃ«l
ĠMar ti
ret our
Ġesc aliers
Ġvacc in
â Ķ
Ġmal aise
Ġconnec tez
Ġ.. ...
Ġforfait s
Â İ
Ġg ad
Ã©t ablissements
ĠrÃ©s umÃ©s
Ġval idÃ©e
Ġjal oux
enrich ir
Ġcomplais ance
ĠP RIX
Ġent oure
Ġlieu tenant
OM A
ĠÃ©qu iv
ĠmÃ©l ang
ĠLe clerc
Ġ4 76
Ã©c lat
ĠdÃ©p our
Ġsus pect
ĠPort rait
Ġcla use
Ġamovi ble
r n
ĠB AS
ens Ã©e
Ġrec r
otidi en
Conc ours
ĠDÃ©t ails
Ġqu il
Ġcon venir
Ġan od
Â° ,
ĠreprÃ©sent Ã©s
Ġpres crit
ĠOb jet
ĠrÃ©vÃ© lations
ĠtÃ©n Ã¨bres
Ġdu el
ĠS age
ĠG agn
Ġman utention
Ġinform atif
ĠDi agnostic
Ġlib Ã©rÃ©
Ġessay ant
ĠOb jectifs
ĠlatÃ©ra les
Ġa ctionnaires
Ã´ pital
Ġ19 42
Ġlim it
Comm uni
Ġcasser ole
ĠBulle tin
chten stein
D ieu
ins cri
Ġri viÃ¨res
15 6
14 1
ĠAU X
Ġl os
Ġch aire
Ġar ros
Ġri ver
Ġfou dre
ĠJohn son
Ġressorti ss
immat ric
B er
es e
ali Ã¨res
Ġrect o
Ð ¹
ĠH otels
ĠÃ©t ablit
ĠQu ad
Ġref lets
Ġrass ure
ĠillÃ©g al
voy ance
ĠAmÃ© li
Ġjalous ie
Ġsa chet
Ġsuff ira
cha mps
ĠadÃ©qu ate
intern aute
ĠPIC AW
Ġpesti cides
as ions
ĠB ilan
Ġcas ques
Ġrep li
ĠCar refour
Ġfl at
ĠÃ©mo tionnelle
Ġpatient er
tta wa
ĠBench mark
ĠV R
ĠG aill
Ġappar ent
ĠmÃ¢ les
B run
ĠLe on
Ġpou les
ĠMÃ©di a
D avid
Ġch en
ĠA CC
Ġdur abilitÃ©
dro it
v Ã©g
Ġch and
pr in
Ġorganis ent
rom Ã©nager
ĠAss istant
Ġpsych ologue
Ġaccompagn Ã©es
ĠbrÃ» ler
ĠrÃ©clam er
hist oires
V incent
Ġm onnaies
Ġbas Ã©s
Ġpuiss antes
Actu ellement
ĠMAG AZ
explos ion
ĠT OUS
aÃ¯ s
arn ais
ĠDocu mentation
fre d
Ġparticul aritÃ©s
p eut
â Ŀ
ch ain
ĠT ay
Ġper dent
ass Ã©s
Ġassoci e
ĠdÃ©ci dez
ÃĪ RE
Emp loi
Ġintemp Ã©ries
Ġal lÃ©g
Ġsou tiens
acc orde
Ã©p al
Sau f
ĠCer tifiÃ©
affir mer
is ent
ch el
Ġcalcul Ã©e
ĠTECH N
C Ã´tÃ©
i rait
Ġrec ont
Ġanti cip
Ġcitoyen netÃ©
Ġcog nac
B ah
ĠC rist
Ġdist rict
Entre tien
ĠPan ama
ĠStu dios
Ġcompli quÃ©e
Ġserv iteur
ar ies
Ġgra du
ats u
Ġes pi
Ġsol enn
Ġanne xes
tiss ant
Ã©vac uation
ĠH Ã©
ĠCh allenge
par able
Ġcas tor
Ġchar itÃ©
Ã©tu dier
ev ents
Ġt t
ouv rent
ouv rages
ign Ã©es
14 3
ray age
Ġblan ch
Ġm uti
Ġsau rez
hÃ´ te
ji had
Bra vo
S tation
h Ã©roÃ¯
Ġv eau
or ien
ĠU R
Ġgestion naires
Ġs Ãĥ
Ġb in
de au
Ã©t endue
Ġri res
agog ie
fli x
zÃ©g ovine
Ġ tick
Ġo h
Ġ19 54
ĠAl lah
Ġatt rib
33 5
ĠSec k
ĠE mma
Ġcl er
Ġmen ant
Ġach Ã¨te
entiss ages
ĠEnse ignement
ĠArch ite
elli on
ĠrelÃ¨ vent
p orter
ĠP ure
Ġin tim
di ves
ac nÃ©
ĠgÃ©n oci
Ġbas il
ĠnÃ©cess iter
ani el
Ġnour ris
ĠIm mo
ĠprÃ©sid ents
ĠÃ©cou tÃ©
Ġs ill
Ġmultip lient
Ġsch Ã©mas
Ġsing ulier
Ġboi tier
an tique
ĠC AF
Ġven aient
ĠAd ap
Ġpros pects
ĠrÃ©flÃ© chi
c d
Ġ19 64
Ġpor tion
ĠMan chester
rom pre
ĠBes anÃ§on
Ġp ag
end y
ĠR oss
Ġco Ã¯n
Ġdom ine
Ġop ter
Ġprom os
15 2
ĠdÃ©licate ment
Ġfuse au
Ġblab la
A th
m ax
Ġrec yc
acc us
12 6
Ġamb igu
ĠRac ing
ĠNant erre
Ġv on
ĠM ail
ĠB erne
Ġsp ot
Ġcolor Ã©es
ocalyp se
ĠCaraÃ¯ bes
s ch
Ġc ue
Ġc ost
ai gu
Ġ7 91
ĠNo el
Ġconsac rÃ©s
ĠhÃ©ber ge
ĠLond on
ĠspÃ©cific itÃ©
ĠCog nac
f ont
Ġs atin
Ġvais seaux
Ġprog ress
ĠTer rasse
ĠBos ton
bio tiques
ĠF ais
oc tro
[...]
